{"<PAD>":0,"<UNK>":1,"<START>":2,"<END>":3,"!":4,"\"":5,"#":6,"$":7,"%":8,"&":9,"'":10,"(":11,")":12,"*":13,"+":14,",":15,"-":16,".":17,"/":18,"0":19,"1":20,"2":21,"3":22,"4":23,"5":24,"6":25,"7":26,"8":27,"9":28,":":29,";":30,"<":31,"=":32,">":33,"?":34,"@":35,"A":36,"B":37,"C":38,"D":39,"E":40,"F":41,"G":42,"H":43,"I":44,"J":45,"K":46,"L":47,"M":48,"N":49,"O":50,"P":51,"Q":52,"R":53,"S":54,"T":55,"U":56,"V":57,"W":58,"X":59,"Y":60,"Z":61,"[":62,"\\":63,"]":64,"^":65,"_":66,"`":67,"a":68,"b":69,"c":70,"d":71,"e":72,"f":73,"g":74,"h":75,"i":76,"j":77,"k":78,"l":79,"m":80,"n":81,"o":82,"p":83,"q":84,"r":85,"s":86,"t":87,"u":88,"v":89,"w":90,"x":91,"y":92,"z":93,"{":94,"|":95,"}":96,"~":97,"¡":98,"¢":99,"£":100,"¤":101,"¥":102,"¦":103,"§":104,"¨":105,"©":106,"ª":107,"«":108,"¬":109,"®":110,"¯":111,"°":112,"±":113,"²":114,"³":115,"´":116,"µ":117,"¶":118,"·":119,"¸":120,"¹":121,"º":122,"»":123,"¼":124,"½":125,"¾":126,"¿":127,"À":128,"Á":129,"Â":130,"Ã":131,"Ä":132,"Å":133,"Æ":134,"Ç":135,"È":136,"É":137,"Ê":138,"Ë":139,"Ì":140,"Í":141,"Î":142,"Ï":143,"Ð":144,"Ñ":145,"Ò":146,"Ó":147,"Ô":148,"Õ":149,"Ö":150,"×":151,"Ø":152,"Ù":153,"Ú":154,"Û":155,"Ü":156,"Ý":157,"Þ":158,"ß":159,"à":160,"á":161,"â":162,"ã":163,"ä":164,"å":165,"æ":166,"ç":167,"è":168,"é":169,"ê":170,"ë":171,"ì":172,"í":173,"î":174,"ï":175,"ð":176,"ñ":177,"ò":178,"ó":179,"ô":180,"õ":181,"ö":182,"÷":183,"ø":184,"ù":185,"ú":186,"û":187,"ü":188,"ý":189,"þ":190,"ÿ":191,"Ā":192,"ā":193,"Ă":194,"ă":195,"Ą":196,"ą":197,"Ć":198,"ć":199,"Ĉ":200,"ĉ":201,"Ċ":202,"ċ":203,"Č":204,"č":205,"Ď":206,"ď":207,"Đ":208,"đ":209,"Ē":210,"ē":211,"Ĕ":212,"ĕ":213,"Ė":214,"ė":215,"Ę":216,"ę":217,"Ě":218,"ě":219,"Ĝ":220,"ĝ":221,"Ğ":222,"ğ":223,"Ġ":224,"ġ":225,"Ģ":226,"ģ":227,"Ĥ":228,"ĥ":229,"Ħ":230,"ħ":231,"Ĩ":232,"ĩ":233,"Ī":234,"ī":235,"Ĭ":236,"ĭ":237,"Į":238,"į":239,"İ":240,"ı":241,"Ĳ":242,"ĳ":243,"Ĵ":244,"ĵ":245,"Ķ":246,"ķ":247,"ĸ":248,"Ĺ":249,"ĺ":250,"Ļ":251,"ļ":252,"Ľ":253,"ľ":254,"Ŀ":255,"ŀ":256,"Ł":257,"ł":258,"Ń":259,"Ġt":260,"in":261,"er":262,"on":263,"Ġa":264,"re":265,"he":266,"at":267,"Ġs":268,"or":269,"en":270,"is":271,"Ġc":272,"es":273,"Ġthe":274,"it":275,"Ġf":276,"an":277,"al":278,"ar":279,"le":280,"Ġp":281,"Ġw":282,"ion":283,"Ġ=":284,"as":285,"Ġo":286,"ic":287,"ed":288,"ing":289,"Ġd":290,"Ġb":291,"et":292,"Ġm":293,"--":294,"ou":295,"el":296,"Ġre":297,"Ġin":298,"nd":299,"ct":300,"ro":301,"Ġth":302,"Ġi":303,"st":304,"Ġn":305,"Ġh":306,"ent":307,"Ġof":308,"Ġto":309,"**":310,"il":311,"ut":312,"am":313,"Ġ{":314,"Ġ*":315,"Ġ}":316,"Ġ/":317,"ur":318,"Ġ<":319,"se":320,"Ġand":321,"Ġl":322,"ĠT":323,"ri":324,"om":325,"ad":326,"ot":327,"Ġe":328,"Ġ#":329,"ĠS":330,"id":331,"ce":332,"od":333,"Ġis":334,"Ġg":335,"Ġ\"":336,"ĠI":337,"ag":338,"ĠA":339,"Ġv":340,"ĠC":341,"----":342,"ol":343,"mp":344,"Ġu":345,"Ġst":346,"=\"":347,"ch":348,"ort":349,"ass":350,"ation":351,"ul":352,"ef":353,"iv":354,"ate":355,"ay":356,"Ġif":357,"Ġfor":358,"==":359,"est":360,"urn":361,"ck":362,"ig":363,"ĠL":364,"pe":365,"Ġ'":366,"ow":367,"pt":368,"Ġit":369,"ist":370,"ly":371,"turn":372,"im":373,"av":374,"Ġthat":375,"##":376,"ers":377,"ub":378,"ĠP":379,"Ġcon":380,"qu":381,"th":382,"ith":383,"****":384,"Ġ//":385,"Ġon":386,"ab":387,"un":388,"Ġreturn":389,"><":390,"ex":391,"ap":392,"age":393,"ĠM":394,"lass":395,"ver":396,"ter":397,"Ġbe":398,"ame":399,"elf":400,"end":401,"Ġas":402,"um":403,"ue":404,"Ġ.":405,"ht":406,"Ġimp":407,"op":408,"em":409,"Ġthis":410,"ew":411,"Ġ,":412,"Ġ$":413,"ir":414,"lo":415,"lic":416,"ĠR":417,"Ġself":418,"if":419,"ĠB":420,"ĠF":421,"tr":422,"ction":423,"Ġwith":424,"ĠThe":425,"rom":426,"ess":427,"Ġ1":428,"ĠD":429,"Ġex":430,"ĠH":431,"Ġclass":432,"us":433,"li":434,"Ġwh":435,"ĠG":436,"Ġimport":437,"Ġ@":438,"Ġan":439,"ĠN":440,"ert":441,"Ġy":442,"--------":443,"Ġdef":444,"br":445,"ĠW":446,"and":447,"ang":448,"ke":449,"ain":450,"Ġor":451,"Ġal":452,"get":453,"ect":454,"res":455,"ile":456,"ĠO":457,"Ġmo":458,"ment":459,"Ġr":460,"ublic":461,");":462,"ack":463,"\">":464,"Ġpro":465,"Ġ-":466,"00":467,"nt":468,"Ġnot":469,"de":470,"..":471,"Ġfrom":472,"Ġtr":473,"Ġwas":474,"Ġcom":475,"====":476,"ine":477,"ĠE":478,"Ġ2":479,"ere":480,"ld":481,"'s":482,"</":483,"Ġse":484,"//":485,"able":486,"ext":487,"art":488,"our":489,"->":490,"Ġ0":491,"ult":492,"Ġpublic":493,"ype":494,"int":495,"con":496,"ode":497,"Ġ</":498,"Ġby":499,"sp":500,"out":501,"ac":502,"iz":503,"oc":504,"Ġat":505,"********":506,"Ġ*/":507,"####":508,"__":509,"ill":510,"Ġhe":511,"pp":512,"Ġch":513,"are":514,"all":515,"og":516,"os":517,"ption":518,"Ġsh":519,"vi":520,"lu":521,"ind":522,"Ġj":523,"act":524,"ata":525,"ave":526,"cri":527,"orm":528,"ire":529,"ase":530,"Ġde":531,"ity":532,"ore":533,"Ġint":534,"Ġare":535,"Ġ:":536,"ĠJ":537,"ant":538,"ial":539,"ĠU":540,"set":541,"\"\"":542,"one":543,"ip":544,"ath":545,"Ġnew":546,"Ġyou":547,"ure":548,"ace":549,"::":550,"Ġget":551,"ject":552,"Ġfil":553,"str":554,"ould":555,"ense":556,"div":557,"Ġus":558,"rou":559,"../":560,"ve":561,"ff":562,"ail":563,"ime":564,"></":565,"ive":566,"dd":567,"ies":568,"ĠTh":569,"ak":570,"ord":571,"ast":572,"ER":573,"Ġfun":574,"oo":575,"Ġel":576,"rit":577,"aram":578,"ON":579,"ust":580,"sh":581,"Ġstr":582,"Ġbut":583,"but":584,"Ġ+":585,"oid":586,"up":587,"ard":588,"alue":589,"rr":590,"com":591,"ory":592,"Ġk":593,"ght":594,"ref":595,"ong":596,"put":597,"ont":598,"AR":599,"ml":600,"ice":601,"Ġ/>":602,"icense":603,"Ġhave":604,"pl":605,"ary":606,"Ġcont":607,"ight":608,"clu":609,"Ġdo":610,"angu":611,"In":612,"ft":613,"ell":614,"----------------":615,"anguage":616,"ated":617,"Ġle":618,"':":619,"Ġ_":620,"IT":621,"app":622,"ener":623,"te":624,"IN":625,"Ġpl":626,"Ġall":627,"Ġ)":628,"Ġvoid":629,"cript":630,"ance":631,"form":632,"ost":633,"Ġso":634,"Ġres":635,"ĠV":636,"ĠLicense":637,"ribut":638,"ict":639,"Ġ/><":640,"ally":641,"Ġset":642,"Ġfilm":643,"Ġmovi":644,"ĠIn":645,"Ġgo":646,"Ġab":647,"Ġhis":648,"Ġout":649,"ork":650,"ll":651,"ild":652,"Ġend":653,"Ġne":654,"Ġ\"\"\"":655,"ans":656,"'t":657,"Ġelse":658,"ize":659,"err":660,"Ġun":661,"ink":662,"yp":663,"ise":664,"ree":665,"right":666,"========":667,"Ġcan":668,"Ġtest":669,"row":670,"Ġwe":671,"Ġ/*":672,"nder":673,"cc":674,"St":675,"tring":676,"Ġhas":677,"ome":678,"opy":679,"atic":680,"atch":681,"Ġfunction":682,"Ġvar":683,"ĠK":684,"Ġsc":685,"ign":686,"ition":687,"../../":688,"ES":689,"ser":690,"ĠLanguage":691,"ens":692,"OR":693,"Ġ/**":694,"add":695,"ress":696,"Ġsu":697,"bject":698,"ich":699,"ec":700,"hen":701,"01":702,"////":703,"ble":704,"Ġmovie":705,"ery":706,"clude":707,"ersion":708,"riv":709,"Ġli":710,"Ġone":711,"name":712,"Ġtrue":713,"sert":714,"aw":715,"fig":716,"qual":717,"ber":718,"ake":719,"gh":720,"ound":721,"Ġmod":722,"########":723,"Ġcomp":724,"to":725,"Ġname":726,"Ġrel":727,"ous":728,"iel":729,"ep":730,"def":731,"ull":732,"NT":733,"Ex":734,".<":735,"rint":736,"Ġhref":737,"so":738,"pro":739,"erm":740,"Ġ==":741,"****************":742,"vent":743,"Ġup":744,"Ġen":745,"ield":746,"uct":747,"param":748,"ĠThis":749,"Ġ&":750,"Ġ;":751,"ther":752,"own":753,"html":754,"Ġwill":755,"eth":756,"ach":757,"ide":758,"lement":759,"au":760,"Ġfile":761,"ount":762,"ite":763,"ĠY":764,"inal":765,"Ġar":766,"ava":767,"ence":768,"assert":769,"Ġuse":770,"ge":771,"hed":772,"erv":773,"ear":774,"ings":775,"Ġwho":776,"ook":777,"ule":778,"ors":779,"Ġstatic":780,"Ġunder":781,"pec":782,"',":783,"Ġrequ":784,"rem":785,"rivate":786,"reate":787,"Ġ\\":788,"Ġ--":789,"hes":790,"ool":791,"irst":792,"\",":793,"yst":794,"Ġ3":795,"ception":796,"Ġthey":797,"ys":798,"include":799,"Ġchar":800,"ource":801,"ark":802,"alse":803,"Ġmore":804,"._":805,"Ġwhich":806,"Ġany":807,"fo":808,"ia":809,"per":810,"Ġent":811,"eg":812,"Ġtype":813,"Ġconst":814,"ry":815,"ix":816,"ĠIt":817,"Ġman":818,"ames":819,"Ġdis":820,"AS":821,"Ġact":822,"ware":823,"Pro":824,"pect":825,"Ġ__":826,"ĠSt":827,"her":828,"AT":829,"itle":830,"ault":831,"Ġprivate":832,"this":833,"span":834,"ument":835,"ations":836,"low":837,"Ġ`":838,"ph":839,"ud":840,"Ġno":841,"istribut":842,"ie":843,"Ġme":844,"ove":845,"tt":846,"Ġ|":847,"Ġtime":848,"iven":849,"Ġassert":850,"Ġwere":851,"les":852,"heck":853,"td":854,"ator":855,"Ġte":856,"AL":857,"cont":858,"Ġqu":859,"ystem":860,"ĠCh":861,"Con":862,"rray":863,"Ġits":864,"Ġher":865,"Ġapp":866,"ven":867,"lock":868,"uild":869,"SE":870,"led":871,"read":872,"port":873,"Ġdata":874,"Ġover":875,"ss":876,"ax":877,"Ġag":878,"ne":879,"UT":880,"old":881,"val":882,"oint":883,"tern":884,"Ġid":885,"Ġwhen":886,"ftware":887,"gin":888,"ions":889,"amp":890,"gr":891,"RE":892,"Ġorg":893,"Ġadd":894,"ely":895,"List":896,"Ġdes":897,"key":898,"roup":899,"Ġabout":900,"util":901,"Ġsome":902,"code":903,"ob":904,"iss":905,"Cont":906,"pon":907,"lect":908,"Equal":909,"ache":910,"Ġ%":911,"ader":912,"mod":913,"Ġro":914,"ish":915,"Ġpre":916,"ange":917,"Ġpart":918,"Ġcol":919,"fter":920,"Ġper":921,"cess":922,"Ġvalue":923,"ship":924,"ual":925,"Ġtheir":926,"Ġlike":927,"RA":928,"Ġhad":929,"reat":930,"ug":931,"uth":932,"Ġsp":933,"io":934,"LE":935,"Re":936,"Ġ!":937,"cept":938,"ock":939,"Type":940,"irect":941,"ethod":942,"Ġ///":943,"we":944,"Ġresult":945,"rror":946,"date":947,"define":948,"Ġfirst":949,"opyright":950,"Ġerr":951,"son":952,"iew":953,"The":954,"script":955,"Ġother":956,"Res":957,"ces":958,"ick":959,"Ġ19":960,"urre":961,"ĠSe":962,"Com":963,"vel":964,"wo":965,"ĠAN":966,"ical":967,"Ġoff":968,"rite":969,"pert":970,"Name":971,"ater":972,"Ġprint":973,"Ġmay":974,"IC":975,"Ġjust":976,"text":977,"sc":978,"ade":979,"ng":980,"ific":981,"Ġ?":982,"url":983,"test":984,"type":985,"ning":986,"HE":987,"\"><":988,"Ġwould":989,"ĠString":990,"Ġ201":991,"Ġshould":992,"Ġonly":993,"Ġrelation":994,"file":995,"String":996,"ays":997,"data":998,"ra":999,"Ġsee":1000,"Ġx":1001,"Ġversion":1002,"ian":1003,"\":":1004,"ox":1005,"ST":1006,"Ġrelationship":1007,"Ġlist":1008,"essage":1009,"Ġmy":1010,"Error":1011,"Ġ200":1012,"Ġtry":1013,"Ġval":1014,"mpl":1015,"Ġinst":1016,"du":1017,"ash":1018,"Ġsub":1019,"lient":1020,"ates":1021,"px":1022,"col":1023,"ody":1024,"Ġwork":1025,"mand":1026,"Ġstring":1027,"ask":1028,"Ġspec":1029,"Ġbeen":1030,"Ġ4":1031,"Ġthere":1032,"Ġinto":1033,"Ġform":1034,"round":1035,"\";":1036,"Ġusing":1037,"gs":1038,"ues":1039,"ton":1040,"Ġwhat":1041,"ful":1042,"Ġ>":1043,"iction":1044,"ID":1045,"Ġthem":1046,"Ġ=>":1047,"Ġkn":1048,"Id":1049,"--------------------------------":1050,"ĠQ":1051,"rc":1052,"Ġfinal":1053,"ĠRel":1054,"ackage":1055,"ents":1056,"Ġrequire":1057,"Ġthan":1058,"UL":1059,"ĠGener":1060,"Ġinter":1061,"Ġdistribut":1062,"line":1063,"remise":1064,"////////":1065,"othes":1066,"sum":1067,"Ġcase":1068,"ĠNone":1069,"Test":1070,"ok":1071,"return":1072,"ger":1073,"ĠUn":1074,"umber":1075,"Ġback":1076,"Ch":1077,"urrent":1078,"ĠHyp":1079,"Given":1080,"ĠRelation":1081,"yle":1082,"CT":1083,"arch":1084,"abel":1085,"othesis":1086,"pen":1087,"path":1088,"================":1089,"red":1090,"ream":1091,"Ġ5":1092,"ĠHypothesis":1093,"Premise":1094,"ĠIf":1095,"Ġlog":1096,"AB":1097,"Th":1098,"Ġrem":1099,"Ġob":1100,"ib":1101,"';":1102,"ĠTr":1103,"init":1104,"ey":1105,"der":1106,"ann":1107,"Ġever":1108,"ause":1109,"Ġ};":1110,"Ġalso":1111,"class":1112,"ify":1113,"ride":1114,"Ġeven":1115,"NU":1116,"ME":1117,"Exception":1118,"\"></":1119,"rap":1120,"ages":1121,"Ġfalse":1122,"nc":1123,"ough":1124,"ose":1125,"mer":1126,"day":1127,"imp":1128,"Ġshe":1129,"Set":1130,"Ġpe":1131,"fer":1132,"load":1133,"ION":1134,"Ġafter":1135,"uff":1136,"list":1137,"ccess":1138,"Ġser":1139,"Ġexp":1140,"log":1141,"ible":1142,"Ġbet":1143,"Ġrec":1144,"atus":1145,"IL":1146,"Ġgood":1147,"Ġshow":1148,"Ġcharact":1149,"ocument":1150,"IS":1151,"Ġjava":1152,"################":1153,"over":1154,"reak":1155,"Ġad":1156,"ĠYou":1157,"ptions":1158,"mary":1159,"Ġhim":1160,"ĠOF":1161,"Ġbec":1162,"Ġdid":1163,"EN":1164,"ov":1165,"ifi":1166,"Ġ});":1167,"back":1168,"ĠSo":1169,"Tr":1170,"Ġtwo":1171,"Ġyear":1172,"par":1173,"Ġdoes":1174,"Data":1175,"quest":1176,"Ġfe":1177,"itt":1178,"Ġnull":1179,"work":1180,"idth":1181,"let":1182,"arr":1183,"Ġcontr":1184,"ĠGeneral":1185,"assertEqual":1186,"ĠEx":1187,"view":1188,"vid":1189,"Ġim":1190,"ĠPublic":1191,"Ġ},":1192,"Ġmake":1193,".,":1194,"!--":1195,"ĠCopyright":1196,"php":1197,"Ġreg":1198,"append":1199,"its":1200,"Ġarray":1201,"Ġthen":1202,"cl":1203,"be":1204,"Col":1205,"arget":1206,"ĠGNU":1207,"ople":1208,"Ġdistributed":1209,"Ġrun":1210,"play":1211,"Ġstart":1212,"ics":1213,"Ġmost":1214,"Ġext":1215,"ED":1216,"mpt":1217,"Ġcl":1218,"Ġused":1219,"To":1220,"yth":1221,"efore":1222,"mon":1223,"eng":1224,"ĠOR":1225,"Ġexcept":1226,"Ġvery":1227,"ma":1228,"pace":1229,"ervice":1230,"perty":1231,"Ġ@-":1232,"min":1233,"lean":1234,".?":1235,"lete":1236,"rame":1237,"ING":1238,"lection":1239,"Ġ@-@":1240,"UR":1241,"Ġwrit":1242,"ĠIN":1243,"ends":1244,"igh":1245,"oin":1246,"Ġexpect":1247,"Ġyour":1248,"Ġwhile":1249,"Mod":1250,"ager":1251,"gram":1252,"Ġobject":1253,"ral":1254,"ĠRe":1255,"ĠANY":1256,"Ġnames":1257,"ner":1258,"ollow":1259,"ope":1260,"32":1261,"Ġcopy":1262,"Value":1263,"pre":1264,"string":1265,"ĠHe":1266,"Ġthrow":1267,"Ġdirect":1268,"Ġos":1269,"Ġpos":1270,"pport":1271,"ars":1272,"ĠCon":1273,"Ġloc":1274,"els":1275,"Ġplay":1276,"ank":1277,"cription":1278,"ines":1279,"Ġ+=":1280,"Ġwithout":1281,"att":1282,"link":1283,"Ġcould":1284,"OT":1285,"...":1286,"Ġpass":1287,"ices":1288,"Ġline":1289,"indow":1290,"ler":1291,"cond":1292,"Ġwor":1293,"pr":1294,"Ġbreak":1295,"ither":1296,"enc":1297,"ĠCom":1298,"ms":1299,"Ġpeople":1300,"fil":1301,"time":1302,"eta":1303,"ML":1304,"HO":1305,"nav":1306,"oot":1307,"********************************":1308,"Ġwell":1309,"Ġstruct":1310,"Over":1311,"ns":1312,"uch":1313,"Ġcontrad":1314,"ale":1315,"Ġright":1316,"Ġhow":1317,"Ġtitle":1318,"à¤":1319,"rough":1320,"Ġsoftware":1321,"Ġatt":1322,"))":1323,"Ġcontradiction":1324,"ĠWAR":1325,"ased":1326,"ĠSee":1327,"Ġ!=":1328,"Ġdefault":1329,"js":1330,"Ġlook":1331,"bar":1332,"vice":1333,"Ġbecause":1334,"head":1335,"ished":1336,"ected":1337,"Ġwhere":1338,"ĠCON":1339,"ĠPro":1340,"oy":1341,"mb":1342,"ĠJava":1343,"less":1344,"It":1345,"value":1346,"ush":1347,"CH":1348,"DE":1349,"und":1350,"ute":1351,"Ġfollow":1352,"File":1353,"Ġ<!--":1354,"loc":1355,"Ġknow":1356,"arent":1357,"Ġsa":1358,"reg":1359,"user":1360,"RANT":1361,"ĠSystem":1362,"roll":1363,"Ġlong":1364,"not":1365,"ife":1366,"RO":1367,"39":1368,"ason":1369,"Ġdet":1370,"info":1371,"ĠWARRANT":1372,"Ġsrc":1373,"comp":1374,"ister":1375,"Ġmin":1376,"Class":1377,"ating":1378,"create":1379,"Ġuser":1380,"uthor":1381,"ample":1382,"man":1383,"Ġstory":1384,"Ġhand":1385,"10":1386,"Ġgr":1387,"lose":1388,"Ġentail":1389,"clud":1390,"mplate":1391,"Ġentailment":1392,"Ġra":1393,"ems":1394,"uper":1395,"eturn":1396,"face":1397,"ward":1398,"Ġmade":1399,"Ġread":1400,"Ġpar":1401,"Ġprot":1402,"cho":1403,"Ġcode":1404,"ative":1405,"ĠTHE":1406,"Ġind":1407,"ails":1408,"Object":1409,"size":1410,"ä¸":1411,"ET":1412,"ious":1413,"Ġmodule":1414,"Ġ&&":1415,"Ġkey":1416,"Ġconfig":1417,"Ġreally":1418,"Ġthrough":1419,"rol":1420,"nb":1421,"ession":1422,"AN":1423,"Ġprogram":1424,"PE":1425,"ĠAs":1426,"IG":1427,"title":1428,"anc":1429,"pos":1430,"Ġneed":1431,"Ġstate":1432,"lp":1433,"Ġresp":1434,"config":1435,"ĠWh":1436,"Get":1437,"Ġdon":1438,"action":1439,"Ġfl":1440,"Ġ6":1441,"ĠWIT":1442,"Ġmuch":1443,"order":1444,"oth":1445,"Ġ->":1446,"index":1447,"Ġeither":1448,"ĠSoftware":1449,"Ġap":1450,"cre":1451,"Ġcall":1452,"rid":1453,"summary":1454,"âĢ":1455,"Text":1456,"++":1457,"Ġdr":1458,"Ġam":1459,"air":1460,"Ġgreat":1461,"Ġmany":1462,"Ġgener":1463,"ular":1464,"Ġac":1465,"Ġmain":1466,"ily":1467,"ower":1468,"ESS":1469,"body":1470,"ets":1471,"stance":1472,"='":1473,"Ġ-->":1474,"Ġneut":1475,"Ġevent":1476,"=\"../../":1477,"lied":1478,"imit":1479,"Ġ10":1480,"ĠAl":1481,"Ġcheck":1482,"OL":1483,"Ġwatch":1484,"word":1485,"Ġwant":1486,"oad":1487,"ython":1488,"arn":1489,"aramet":1490,"000":1491,"MP":1492,"nbsp":1493,"Ġpackage":1494,"Ġfind":1495,"ature":1496,"Ġfield":1497,"ived":1498,"Ġtext":1499,"Ġrequest":1500,"ï¼":1501,"erson":1502,"Ġscen":1503,"ĠX":1504,"table":1505,"top":1506,"Man":1507,"by":1508,"Override":1509,"Ġneutral":1510,"ures":1511,"Ġbefore":1512,"ITY":1513,"12":1514,"ott":1515,"Ġagain":1516,"Ġhere":1517,"ote":1518,"akes":1519,"Wh":1520,"uffer":1521,"Ġreal":1522,"ait":1523,"Ġpath":1524,"wn":1525,"Ġcontent":1526,"ubl":1527,"other":1528,"ĠSh":1529,"md":1530,"Ġway":1531,"lib":1532,"Ġthink":1533,"Ġnumber":1534,"uration":1535,"Ġgu":1536,"ĠAnd":1537,"Ġpr":1538,"View":1539,"ince":1540,"ments":1541,"ually":1542,"me":1543,"Ġbool":1544,"\"\"\"":1545,"ists":1546,"eb":1547,"db":1548,"Ġbeing":1549,"dt":1550,"apt":1551,"Ġ8":1552,"alled":1553,"Ġterm":1554,"ength":1555,"que":1556,"lob":1557,"map":1558,"Ġret":1559,"ĠTrue":1560,"Ġcreate":1561,"Ġmethod":1562,"sub":1563,"Ġacc":1564,"Ġcurrent":1565,"cent":1566,"ren":1567,"PO":1568,"unction":1569,"write":1570,"ector":1571,"ern":1572,"Se":1573,"Sc":1574,"Ġlast":1575,"als":1576,"ponse":1577,"ities":1578,"Ġpoint":1579,"uring":1580,"ĠNew":1581,"Ġsuper":1582,"css":1583,"Ġdocument":1584,"ypes":1585,"ined":1586,"Ġinclud":1587,"Ġopen":1588,"Ġbuild":1589,"Ġperm":1590,"mit":1591,"Config":1592,"rop":1593,"Ġrespon":1594,"Ġnamespace":1595,"ision":1596,"En":1597,"Ġfound":1598,"print":1599,"ized":1600,"Ġ);":1601,"ather":1602,"Ġ<<":1603,"By":1604,"Ġmust":1605,"Add":1606,"error":1607,"AG":1608,"raph":1609,"irt":1610,"Ġview":1611,"),":1612,"ĠAr":1613,"way":1614,"Ġtrans":1615,"Ġdif":1616,"ains":1617,"AD":1618,"ouble":1619,"urs":1620,"ween":1621,"Ġsuch":1622,"any":1623,"resent":1624,"ĠAll":1625,"Field":1626,"PI":1627,"Ġmem":1628,"ags":1629,"of":1630,"Ġbad":1631,"gument":1632,"Ġsom":1633,"Element":1634,"oun":1635,"Ġsource":1636,"Ġperform":1637,"ART":1638,"ILITY":1639,"ainer":1640,"struct":1641,"HOUT":1642,"az":1643,"Ġsaid":1644,"ĠWITHOUT":1645,"Ġsize":1646,"Ġbr":1647,"ĠIS":1648,"tings":1649,"Ġz":1650,"actory":1651,"ting":1652,"Ġgover":1653,"Ġinit":1654,"16":1655,"land":1656,"Ġinv":1657,"oolean":1658,"Ġurl":1659,"Ġ**":1660,"Ġrece":1661,"Ġpol":1662,"ĠGet":1663,"Ġ<?":1664,"lear":1665,"ground":1666,"sign":1667,"Ġtarget":1668,"Ġlater":1669,"ek":1670,"TML":1671,"Ġstd":1672,"nection":1673,"ps":1674,"ility":1675,"try":1676,"Ġold":1677,"ified":1678,"olog":1679,"ared":1680,"Event":1681,"for":1682,"Ġthese":1683,"ribute":1684,"Ã©":1685,"Sh":1686,"dis":1687,"Ġtoo":1688,"enu":1689,"object":1690,"Log":1691,"ah":1692,"Ġ7":1693,"new":1694,"Ġprotected":1695,"ĠTest":1696,"formation":1697,".\"":1698,"64":1699,"Ġdown":1700,"Ġraise":1701,"ĠAn":1702,"Ġecho":1703,"ĠDe":1704,"valid":1705,"ĠFor":1706,"Ġaut":1707,"Ġbase":1708,"Ġ:=":1709,"Key":1710,"start":1711,"ient":1712,"Ġerror":1713,"loat":1714,"ĠFOR":1715,"Ġbel":1716,"Ġdec":1717,"OP":1718,"ts":1719,"Ġgroup":1720,"Ġimplied":1721,"Ġco":1722,"alk":1723,"Ġsame":1724,"ape":1725,"``":1726,"api":1727,"Ġnow":1728,"Ġaction":1729,"down":1730,"FF":1731,"Ġbetween":1732,"Map":1733,"Ġtri":1734,"Ġmar":1735,"field":1736,"AC":1737,"ric":1738,"imes":1739,"11":1740,"run":1741,"Form":1742,"utils":1743,"State":1744,"ever":1745,"Ġ{}":1746,"Ġcharacter":1747,"Ġfollowing":1748,"Ġeff":1749,"oundation":1750,"Ġph":1751,"__:":1752,"Ġrequired":1753,"ABILITY":1754,"reen":1755,"ĠRes":1756,"Ġfree":1757,"CL":1758,"Time":1759,"ru":1760,"Ġke":1761,"ĠZ":1762,"ouse":1763,"ited":1764,"label":1765,"Ġed":1766,"Ġorig":1767,"lease":1768,"lay":1769,"Ġoutput":1770,"meric":1771,"ten":1772,"ved":1773,"Ġyears":1774,"endif":1775,"lugin":1776,"ood":1777,").":1778,"Ġsm":1779,"itions":1780,"Ġbl":1781,"Up":1782,"Ġevery":1783,"orth":1784,"Ġfin":1785,"search":1786,"Ġ''":1787,"ĠUS":1788,"ĠBut":1789,"ational":1790,"Ġworld":1791,"ync":1792,"Ġcent":1793,"ĠSc":1794,"aj":1795,"ĠThere":1796,"Ġbu":1797,"ats":1798,"TR":1799,"place":1800,"////////////////":1801,"yn":1802,"icon":1803,"Ġeach":1804,"Un":1805,"input":1806,"TD":1807,"Ġlet":1808,"lick":1809,"Info":1810,"Ġav":1811,"Ġelement":1812,"Ġprovid":1813,"Ġsay":1814,"Manager":1815,"Ġdep":1816,"Ġsupport":1817,"group":1818,"DO":1819,"ittle":1820,"idd":1821,"Ġcontin":1822,"Path":1823,"aut":1824,"0000":1825,"Service":1826,"Ġsecond":1827,"Item":1828,"ives":1829,"ired":1830,"Ġport":1831,"Ġnever":1832,"ename":1833,"duct":1834,"dir":1835,"Script":1836,"IES":1837,"ENT":1838,"umn":1839,"Ind":1840,"ttp":1841,"Ġrep":1842,"ĠFoundation":1843,"TH":1844,"Ġalong":1845,"Ġchild":1846,"ember":1847,"fe":1848,"Ġoper":1849,"itch":1850,"lication":1851,"As":1852,"py":1853,"itor":1854,"base":1855,"ateg":1856,"fl":1857,"ĠSet":1858,"aining":1859,"andler":1860,"Ġlen":1861,"ane":1862,"check":1863,"count":1864,"Ġdel":1865,"Int":1866,"LO":1867,"ternal":1868,"use":1869,"su":1870,"vert":1871,"aking":1872,"Qu":1873,"Ġsur":1874,"ĠAmeric":1875,"velop":1876,"Ġbest":1877,"Ġlimit":1878,"ission":1879,"ĠFalse":1880,"Ġ?>":1881,"Ġnext":1882,"Ġpubl":1883,"Ġspecific":1884,"ql":1885,"He":1886,"Ġmus":1887,"Ġstyle":1888,"Ġinput":1889,"Ġ||":1890,"Not":1891,"Ġgiven":1892,"Ġown":1893,"Request":1894,"Ġ$.":1895,"Ġsw":1896,"Result":1897,"lt":1898,"core":1899,"Ġprodu":1900,"Ġcharacters":1901,"ari":1902,"Ġtop":1903,"oh":1904,"Ġred":1905,"block":1906,"Ġprocess":1907,"ustom":1908,"Ġhigh":1909,"Ġlife":1910,"ution":1911,"Ġear":1912,"201":1913,"Ġ9":1914,"bin":1915,"raw":1916,"=\"../../../../":1917,"ï¼Į":1918,"Ġstill":1919,"ants":1920,"item":1921,"ĠWe":1922,"arg":1923,"Ġcommand":1924,"my":1925,"with":1926,"til":1927,"ident":1928,"inter":1929,"Ġsign":1930,"Model":1931,"ASS":1932,"self":1933,"Ġperson":1934,"Ġ###":1935,"des":1936,"Ġterms":1937,"ULL":1938,"20":1939,"Ġmon":1940,"roller":1941,"Ġcor":1942,"De":1943,"Ġmessage":1944,"umb":1945,"Ġwon":1946,"ron":1947,"equal":1948,"Build":1949,"Ġsys":1950,"Ġcons":1951,"Ġlocal":1952,"dict":1953,"ĠOn":1954,"Array":1955,"Ġmet":1956,"Ġ18":1957,"mpty":1958,"Ġsystem":1959,"çļ":1960,"Ġexpress":1961,"ingle":1962,"Def":1963,"erved":1964,"Ġtyp":1965,"Ġresponse":1966,"Ġhelp":1967,"Ġseen":1968,"Ġlittle":1969,"meta":1970,"This":1971,"çļĦ":1972,"Ġfiles":1973,"Node":1974,"content":1975,"ANT":1976,"ĠFree":1977,"ui":1978,"Ġlaw":1979,"Ġextends":1980,"lin":1981,"Ġplot":1982,"\".":1983,"ging":1984,"Ġhead":1985,"ĠInc":1986,"Ġdat":1987,"model":1988,"client":1989,"icens":1990,"args":1991,"ules":1992,"version":1993,"=\"#":1994,"Ġrecord":1995,"Ġboth":1996,"ump":1997,"ĠAp":1998,"atc":1999,"All":2000,"attr":2001,"Ġthree":2002,"ĠHTML":2003,"Ġdiffer":2004,"no":2005,".__":2006,"ĠReturn":2007,"ization":2008,"ãģ":2009,"ier":2010,"ĠList":2011,"On":2012,"Ġvalues":2013,"ider":2014,"ĠWARRANTIES":2015,"Ġfam":2016,"ced":2017,"Ġelif":2018,"Ġinformation":2019,"ny":2020,"med":2021,"yles":2022,"from":2023,"Fil":2024,"side":2025,"Ġnode":2026,"aster":2027,"Ġlanguage":2028,"reed":2029,"Ġleft":2030,"Ar":2031,"ken":2032,"IM":2033,"ONT":2034,"default":2035,"},":2036,"Ġdetails":2037,"find":2038,"box":2039,"ĠÐ":2040,"Ġmark":2041,"Ġcontext":2042,"Context":2043,"ponent":2044,"));":2045,"Ġthose":2046,"ialog":2047,"rec":2048,"ought":2049,"tain":2050,"Ġvis":2051,"iter":2052,"Ġwidth":2053,"etwork":2054,"sl":2055,"avas":2056,"ething":2057,"Ser":2058,"bug":2059,"Ġblock":2060,"Ġcolor":2061,"ĠCL":2062,"lobal":2063,"Ġfunc":2064,"trans":2065,"open":2066,"Ġcour":2067,"ism":2068,"Ġcond":2069,"sol":2070,"oci":2071,"avascript":2072,"Ġes":2073,"bo":2074,"Ġmax":2075,"vious":2076,"Ġmovies":2077,"wh":2078,"ĠTe":2079,"Nav":2080,"width":2081,"sm":2082,"method":2083,"the":2084,"50":2085,"Ġbetter":2086,"Ġreceived":2087,"Message":2088,"sible":2089,"json":2090,"Bar":2091,"Ġcount":2092,"mage":2093,"Ġallow":2094,"ways":2095,"main":2096,"Ġsl":2097,"================================":2098,"state":2099,"imple":2100,"Ġappe":2101,"SS":2102,"update":2103,"Ġinclude":2104,"idget":2105,"Ġfore":2106,"HP":2107,"Ġgot":2108,"Ġhum":2109,"Ġpage":2110,"apache":2111,"oding":2112,"Ġduring":2113,"parse":2114,"User":2115,"Ġpri":2116,"off":2117,"Ġmed":2118,"ĠCol":2119,"ience":2120,"Factory":2121,"Ġexec":2122,"reated":2123,"AM":2124,"Ġoptions":2125,"Ġsol":2126,"Ġreport":2127,"ling":2128,"ond":2129,"Ġop":2130,"Ġmodel":2131,"irtual":2132,"App":2133,"Ġass":2134,"ĠNOT":2135,"unc":2136,"ster":2137,"Index":2138,"Ġnil":2139,"Ġconf":2140,"DI":2141,"odes":2142,"ogle":2143,"style":2144,"Size":2145,"30":2146,"ãĢ":2147,"'re":2148,"~~":2149,"Ġinstance":2150,"Ġtake":2151,">;":2152,"ideo":2153,"FT":2154,"los":2155,"ĠInd":2156,"ango":2157,"Ġput":2158,"page":2159,"ĠPART":2160,"header":2161,"Ġanother":2162,"ottom":2163,"iled":2164,"Ġmodify":2165,"ances":2166,"andom":2167,"Ġref":2168,"result":2169,"ĠVersion":2170,"Ġimplement":2171,"Val":2172,"anged":2173,"brary":2174,"ves":2175,"With":2176,"Ġorder":2177,"Ġboolean":2178,"ĠAdd":2179,"VER":2180,"format":2181,"Ġ20":2182,"YPE":2183,"aces":2184,"Ġbackground":2185,"Ġitem":2186,"NESS":2187,"Att":2188,"ĠMER":2189,"Ġdoesn":2190,"ension":2191,"UN":2192,"For":2193,"Code":2194,"Ġwriting":2195,"ĠFr":2196,"Ġ]":2197,"Ġnp":2198,"Ġ##":2199,"nect":2200,"ops":2201,"Ġaround":2202,"issions":2203,"Ġstud":2204,"ĠFIT":2205,"Ġart":2206,"Ġinterest":2207,"gt":2208,"query":2209,"POSE":2210,"lex":2211,"Ġscript":2212,"ULAR":2213,"Ġfilms":2214,"Ġproject":2215,"CHANT":2216,"ABLE":2217,"Util":2218,"ird":2219,"Des":2220,"ĠFITNESS":2221,".\"\"\"":2222,"ĠShe":2223,"ĠPUR":2224,"ĠPARTIC":2225,"ĠMERCHANT":2226,"ik":2227,"ĠâĢ":2228,"javascript":2229,"aving":2230,"ĠPURPOSE":2231,"color":2232,"ĠPARTICULAR":2233,"ources":2234,"Ġsomething":2235,"ĠNULL":2236,"Ġlove":2237,"US":2238,"Ġpop":2239,"ĠMERCHANTABILITY":2240,"Ġpublished":2241,"ux":2242,"Ġlead":2243,"tml":2244,"ĠThey":2245,"AP":2246,"leg":2247,".</":2248,"CO":2249,"Ġrange":2250,"ĠLe":2251,"Ġhor":2252,"Ġlink":2253,"ness":2254,"True":2255,"EE":2256,"################################":2257,"IP":2258,"Ġhapp":2259,"'ve":2260,"Out":2261,"ĠNot":2262,"CE":2263,"ins":2264,"ross":2265,"join":2266,"Ġindex":2267,"Ġdouble":2268,"build":2269,"Ġplace":2270,"sw":2271,"ender":2272,"ably":2273,"Ġsince":2274,"Ġmatch":2275,"eger":2276,"Ġcalled":2277,"ATE":2278,"author":2279,"heet":2280,"ences":2281,"Ġdone":2282,"Ġfact":2283,"ailable":2284,"perties":2285,"Ġwrite":2286,"point":2287,"Ġhope":2288,"module":2289,"TER":2290,"Inter":2291,"25":2292,"Ġdist":2293,"older":2294,"abled":2295,"Ġoriginal":2296,"Ġour":2297,"Ġdevelop":2298,"Ġwom":2299,"roid":2300,"ĠAND":2301,"itional":2302,"instance":2303,"Ġload":2304,"button":2305,"Ġsk":2306,"Ġsuccess":2307,"ately":2308,"Ġturn":2309,"arams":2310,"atri":2311,"dl":2312,"ero":2313,"Ġbecom":2314,"sole":2315,"irl":2316,"Response":2317,"doc":2318,"vir":2319,"Ġrole":2320,"Ġthrows":2321,"Ġfont":2322,"Ġtable":2323,"ĠTO":2324,"Ġinitial":2325,"chn":2326,"What":2327,"Client":2328,"adding":2329,"apper":2330,"tx":2331,"import":2332,"Ġacting":2333,"Al":2334,"Ġem":2335,"Ġvari":2336,"array":2337,";</":2338,"Ġimage":2339,"ĠHow":2340,"ises":2341,"sg":2342,"tes":2343,"IND":2344,"Ġmusic":2345,"Ġshort":2346,"Ġlot":2347,"illion":2348,"jango":2349,"ables":2350,"ĠApache":2351,"Ġcr":2352,"outh":2353,"Ġ```":2354,"IO":2355,"abase":2356,"CK":2357,"close":2358,"Ġeffect":2359,"call":2360,"aps":2361,"post":2362,"go":2363,"ĠApp":2364,"Ġcatch":2365,"Ġcar":2366,"ĠAt":2367,"ĠCont":2368,"hing":2369,"ĠEX":2370,"Ġstand":2371,"earch":2372,"urity":2373,"Ġparent":2374,"atter":2375,"Ġday":2376,"arameters":2377,"ead":2378,"Ġborder":2379,"Ġclient":2380,"Ġfew":2381,"Ġdescri":2382,"'m":2383,"WAR":2384,"Ġvalid":2385,"Stream":2386,"Ġupdate":2387,"Ġpost":2388,"Action":2389,"Ġdifferent":2390,"ĠĠ":2391,"common":2392,"Ð°":2393,"EST":2394,"IONS":2395,"ied":2396,"Ġfloat":2397,"aim":2398,"Ġdisplay":2399,"Ġrights":2400,"Ġbig":2401,"Command":2402,"bl":2403,"Builder":2404,"Handler":2405,"lected":2406,"uture":2407,"ĠTo":2408,"host":2409,"Ġwar":2410,"Ġaw":2411,"EL":2412,"Ð¾":2413,"ORT":2414,"viron":2415,"Par":2416,"image":2417,"af":2418,"Ġbegin":2419,"styles":2420,"chool":2421,"icensed":2422,"Ġnon":2423,"Ġdescription":2424,"Ġseason":2425,"sk":2426,"Ġgoing":2427,"std":2428,"Ġhost":2429,"/>":2430,"filter":2431,"ically":2432,"ials":2433,"tract":2434,"ĠWARRANTY":2435,"co":2436,"ĠNo":2437,"ĠSO":2438,"Ġ12":2439,"Ġfr":2440,"Reg":2441,"Ġfri":2442,"ification":2443,"But":2444,"Ġscene":2445,"cket":2446,"FONT":2447,"lit":2448,"signed":2449,"var":2450,"Ġbit":2451,"Query":2452,"ĠIs":2453,"ifier":2454,"request":2455,"ored":2456,"Be":2457,"arameter":2458,"Ġincluding":2459,"Ġagainst":2460,"ised":2461,"amed":2462,"Property":2463,"ready":2464,"Ġcast":2465,"An":2466,"REF":2467,"uss":2468,"org":2469,"most":2470,"Ġuseful":2471,"Ġtemplate":2472,"Ġexpected":2473,"Ġalways":2474,"atrix":2475,"Ġenc":2476,"ries":2477,"HT":2478,"Ġbro":2479,"img":2480,"remove":2481,"used":2482,"status":2483,"Ġep":2484,"ories":2485,"cast":2486,"LI":2487,"Ġgame":2488,"Ġthing":2489,"liance":2490,"Ġhome":2491,"ĠRed":2492,"uc":2493,"orn":2494,"Ġfa":2495,"ina":2496,"Ġexport":2497,"Ġest":2498,"tn":2499,"Ġpo":2500,"Ġobtain":2501,"event":2502,"Table":2503,"iver":2504,"ohn":2505,"Ġseries":2506,"ALL":2507,"Ġjob":2508,"Ġ%}":2509,"Ġobj":2510,"Ġpy":2511,"process":2512,"Line":2513,"gener":2514,"ĠKIND":2515,"Ġfour":2516,"annel":2517,"ift":2518,"dat":2519,"met":2520,"Ġrest":2521,"EX":2522,"Ġ100":2523,"Run":2524,"Ġargs":2525,"ĠException":2526,"ony":2527,"ĠDE":2528,"')":2529,"ases":2530,"Ġapplic":2531,"ertain":2532,"current":2533,"ression":2534,"bu":2535,"ä»":2536,"Content":2537,"Or":2538,"Ġword":2539,"Ġmakes":2540,"stract":2541,"Ġaccess":2542,"Ġtemp":2543,"ĠPHP":2544,"ĠAmerican":2545,"Ġtot":2546,"server":2547,"utf":2548,"----------------------------------------------------------------":2549,"ayout":2550,"Return":2551,"99":2552,"Hel":2553,"riter":2554,"15":2555,"ilt":2556,"Ġgovern":2557,"Loc":2558,"Te":2559,"ially":2560,"navbar":2561,"ended":2562,"ĠJavaScript":2563,"Ġthings":2564,"ury":2565,"function":2566,"Ġcoun":2567,"Group":2568,"orage":2569,"left":2570,"Ġmargin":2571,"era":2572,"ĠOpen":2573,"ormal":2574,"ensor":2575,"option":2576,"ributes":2577,"*-":2578,"Of":2579,"Ġdidn":2580,"ramework":2581,"Color":2582,"ency":2583,"augh":2584,"Ġjson":2585,"Box":2586,"Ġlicense":2587,"Ġweek":2588,"ivers":2589,"section":2590,"Ġcontinue":2591,"Ġfeel":2592,"Ġstatus":2593,"Comp":2594,"Ġsy":2595,"Ġagreed":2596,"Ġmap":2597,"icro":2598,"net":2599,"åı":2600,"ique":2601,"Ġbook":2602,"web":2603,"Dis":2604,"loy":2605,"Ðµ":2606,"gn":2607,"anel":2608,"Ġhist":2609,"max":2610,"params":2611,"Ġproble":2612,"package":2613,"Ġthought":2614,"ights":2615,"ids":2616,"Ġaud":2617,"rig":2618,"requ":2619,"13":2620,"mark":2621,"property":2622,"Ġsong":2623,"Ġdisc":2624,"alf":2625,"split":2626,"ology":2627,"orld":2628,"ĠSp":2629,"river":2630,"DIT":2631,"Ġcare":2632,"Ġbelie":2633,"attern":2634,"Ġserver":2635,"ĠLI":2636,"Ġann":2637,"AME":2638,"Ġabove":2639,"Ġhard":2640,"Ġthough":2641,"ĠCl":2642,"ĠLicensed":2643,"Ġ-*-":2644,"ending":2645,"ndef":2646,"From":2647,"Ġtimes":2648,"Ġsmall":2649,"inary":2650,"18":2651,"Ġvirtual":2652,"Ġfull":2653,"mun":2654,"Ġgen":2655,"ĠMark":2656,"Ġexc":2657,"Ġscenes":2658,"Base":2659,"SC":2660,"stylesheet":2661,"Ġwarr":2662,"*/":2663,"tra":2664,"Ġ'''":2665,"show":2666,"Ġbody":2667,"tty":2668,"Ġcity":2669,"Ġunt":2670,"Ġpartic":2671,"Rep":2672,"ĠReturns":2673,"ume":2674,"Ġwin":2675,"Ġcopyright":2676,"oss":2677,"Ġwarrant":2678,"Ġnothing":2679,"ots":2680,"ĠJohn":2681,"push":2682,"Ġfar":2683,"Ġkill":2684,"Ġkind":2685,"ajor":2686,"ration":2687,"atform":2688,"dom":2689,"Ġuint":2690,"Ġleast":2691,"ĠInt":2692,"Ġrele":2693,"Image":2694,"Ġpermissions":2695,"ĠCLASS":2696,"Ġq":2697,"vol":2698,"Ġ...":2699,"ĠFile":2700,"Input":2701,"Ġhtml":2702,"Ġwindow":2703,"Ġsingle":2704,"Date":2705,"pi":2706,"serv":2707,"ĠYork":2708,"Ġsure":2709,"Gener":2710,"flow":2711,"message":2712,"ital":2713,"Ġexist":2714,"inc":2715,"ĠBAS":2716,"iness":2717,"Ġkeep":2718,"40":2719,"quot":2720,"Count":2721,"options":2722,"Ġredistribut":2723,"Ġreason":2724,"PR":2725,"Ġinstall":2726,"andle":2727,"Ġscreen":2728,"resh":2729,"ĠEng":2730,"Ġchange":2731,"Page":2732,"pc":2733,"ĠPl":2734,"Pos":2735,"And":2736,"oud":2737,"spec":2738,"Trans":2739,"PL":2740,"Ġsearch":2741,"adata":2742,"Ġ16":2743,"Ġexample":2744,"refix":2745,"length":2746,"Ġmight":2747,"rip":2748,"char":2749,"umer":2750,"ĠEn":2751,"alc":2752,"Ġservice":2753,"Ġheight":2754,"Ref":2755,"Ġyoung":2756,"anges":2757,"WARE":2758,"ãĤ":2759,"Ġwr":2760,"Ġactually":2761,"ultip":2762,"Ġtw":2763,"unk":2764,"Ġsupp":2765,"Ġcontrol":2766,"Ġpower":2767,"ĠOr":2768,"gg":2769,"Ġlevel":2770,"Ġresults":2771,"33":2772,"rew":2773,"bottom":2774,"Ġavailable":2775,"Link":2776,"Instance":2777,"ĠPython":2778,"oute":2779,"Ġdb":2780,"Ad":2781,"ons":2782,"Ġ15":2783,"ural":2784,"Ġgive":2785,"Ġwarranty":2786,"ĠMar":2787,"'.":2788,"=\"\">":2789,"Is":2790,"xml":2791,"New":2792,"refer":2793,"rl":2794,"Component":2795,"iving":2796,"ured":2797,"Ġquery":2798,"Ġcompliance":2799,"Ġbased":2800,"Ġtask":2801,"exec":2802,"Ġsever":2803,"ai":2804,"'d":2805,"joy":2806,"Ġsequ":2807,"Ġredistribute":2808,"Ġless":2809,"Ġlimitations":2810,"rows":2811,"sy":2812,"Ġdjango":2813,"ained":2814,"tp":2815,"vider":2816,"Ġrefer":2817,"ampl":2818,"bers":2819,"{{":2820,"Ġnotice":2821,"Ġargument":2822,"Ġprovided":2823,"Ġbeh":2824,"ĠAd":2825,"ium":2826,"ĠDef":2827,"Ed":2828,"Ġgirl":2829,"Ġformat":2830,"mo":2831,"Ġgoverning":2832,"ĠSOFT":2833,"elt":2834,"Ġopt":2835,"next":2836,"vision":2837,"Ġdest":2838,"stall":2839,"rad":2840,"Ġ{'":2841,"Ġcome":2842,"do":2843,"Ġdem":2844,"mar":2845,"Ġmean":2846,"Ġapplicable":2847,">>":2848,"ĠObject":2849,"FA":2850,"aint":2851,"ĠLog":2852,"14":2853,"asic":2854,"Ġnear":2855,"'ll":2856,"opt":2857,"Ġconditions":2858,"utes":2859,"rect":2860,"Window":2861,"Ġteam":2862,"ĠSOFTWARE":2863,"hema":2864,"output":2865,"has":2866,"ĠMan":2867,"Ġenough":2868,"Ġlabel":2869,"Ġweb":2870,"200":2871,"context":2872,"ley":2873,"ention":2874,"ĠUnless":2875,"ĠPar":2876,"Ġ199":2877,"ĠCONDIT":2878,"Ġpres":2879,"tot":2880,"ĠWhen":2881,"oney":2882,"ĠBe":2883,"Ġuntil":2884,"Ġschool":2885,"ĠBASIS":2886,"Button":2887,"Ġposition":2888,"ĠCONDITIONS":2889,"Rec":2890,">&":2891,"node":2892,"though":2893,"QU":2894,"Ġsum":2895,"Ġocc":2896,"Status":2897,"env":2898,"80":2899,"command":2900,"Ġsort":2901,"Ġfamily":2902,"stream":2903,"Ġide":2904,"Ġseem":2905,"stand":2906,"oken":2907,"debug":2908,"tempt":2909,"Ġenjoy":2910,"Ð¸":2911,"bed":2912,"OM":2913,"rist":2914,"Su":2915,"ols":2916,"Method":2917,"THER":2918,"TP":2919,"illi":2920,"Ġche":2921,"At":2922,"Ġwhy":2923,"ãĢĤ":2924,"izer":2925,"ination":2926,"Ġdate":2927,"Ent":2928,"pack":2929,"ged":2930,"board":2931,"ivity":2932,"Ġperformance":2933,"}}":2934,"Ġspe":2935,"Ġexception":2936,"ãĥ":2937,"icy":2938,"IB":2939,"=\"../":2940,"SON":2941,"Ġdefined":2942,"Cell":2943,"tab":2944,"Ġalready":2945,"Ġtell":2946,"Ġinf":2947,"Ġcomplet":2948,"Ġrender":2949,"aged":2950,"soft":2951,"ĠClass":2952,"aml":2953,"ixed":2954,"icle":2955,"Ġoption":2956,"apping":2957,"ÑĤ":2958,"Sub":2959,"Ġonce":2960,"Ġunsigned":2961,"oice":2962,"ording":2963,"ement":2964,"Ġwatching":2965,"uro":2966,"igation":2967,"Filter":2968,"unit":2969,"Ġdiv":2970,"Ġoverride":2971,"Ġconsider":2972,"oop":2973,"Collection":2974,"ior":2975,"Ġuh":2976,"dev":2977,"part":2978,"Ġcourse":2979,"Null":2980,"active":2981,"MA":2982,"ret":2983,"äº":2984,"ategory":2985,"ror":2986,"orp":2987,"Ġla":2988,"Ġmillion":2989,"irc":2990,"pass":2991,"Ġgl":2992,"etime":2993,"Ġarg":2994,"Act":2995,"****************************************************************":2996,"Ġfilter":2997,"ĠCan":2998,"cs":2999,"ached":3000,"24":3001,"Ġ\"\"":3002,"xy":3003,"Ġfields":3004,"Create":3005,"Check":3006,"ee":3007,"Ġprob":3008,"last":3009,"replace":3010,"ĠUnited":3011,"Ġvol":3012,"alt":3013,"itu":3014,"ĠTH":3015,"Version":3016,"fs":3017,"Ġaway":3018,"ĠMod":3019,"Ġparser":3020,"Ġaddress":3021,"istic":3022,"Ġlik":3023,"Ġclose":3024,"Ġmajor":3025,"Ġ{%":3026,"NO":3027,"atures":3028,"Ġcell":3029,"æľ":3030,"Ġactors":3031,"ĠType":3032,"Ġoffic":3033,"source":3034,"ansp":3035,"Call":3036,"ĠCreate":3037,"Ġdesign":3038,"vironment":3039,"Ġclear":3040,"light":3041,"ĠMy":3042,"Ġinc":3043,"MS":3044,"ĠWest":3045,"gether":3046,"Ġreserved":3047,"ograph":3048,"Ġpretty":3049,"Ġremove":3050,"iod":3051,"ales":3052,"Ġcreated":3053,"Ġpresent":3054,"Ġmer":3055,"lip":3056,"font":3057,"roy":3058,"bum":3059,"Buffer":3060,"Ġmom":3061,"Ġprom":3062,"TRA":3063,"ĠHREF":3064,"ĠGr":3065,"hether":3066,"raft":3067,"ĠBy":3068,"mem":3069,"Ġeas":3070,"ole":3071,"åĪ":3072,"ĠMon":3073,"exp":3074,"files":3075,"Ġauthor":3076,"Ġpay":3077,"21":3078,"Ġearly":3079,"uck":3080,"ialize":3081,"ĠThat":3082,"Ġleg":3083,"Ġ}}":3084,"ERT":3085,"send":3086,"strong":3087,"Ġfail":3088,"thing":3089,"Ġnav":3090,"gle":3091,"AV":3092,"Ġ),":3093,"Ġroot":3094,"Ġseems":3095,"irection":3096,"Ġbus":3097,"Ġdirector":3098,"Ġdict":3099,"ered":3100,"Controller":3101,"mt":3102,"istry":3103,"Ġmaking":3104,"NavBar":3105,"Str":3106,"wards":3107,"sec":3108,"essages":3109,"No":3110,"arge":3111,"ilar":3112,"Ġswitch":3113,"Ġmodels":3114,"NS":3115,"rib":3116,"Ġisn":3117,"ene":3118,"Ġ})":3119,"oll":3120,"Ġseveral":3121,"arm":3122,"Attribute":3123,"Ġgets":3124,"rel":3125,"Ġsound":3126,"gress":3127,"Ġà¤":3128,"imer":3129,"Ġinstead":3130,"Ġident":3131,"à¥":3132,"Ġpadding":3133,"select":3134,"Default":3135,"Ġcomed":3136,"unch":3137,"Ġnight":3138,"Ġconnection":3139,"AGE":3140,"Ġdirectory":3141,"Ġwhole":3142,"Ġsaw":3143,"Ġsubject":3144,"Listener":3145,"amb":3146,"ators":3147,"Ġcap":3148,"ively":3149,"Ġspecial":3150,"DB":3151,"Ġlines":3152,"Ġproperty":3153,"Ġdev":3154,"Ġattempt":3155,"Source":3156,"Ġlibrary":3157,"Ġknown":3158,"ipp":3159,"etch":3160,"ĠPh":3161,"ison":3162,"Ġmil":3163,"Ġquite":3164,"ĠBrit":3165,"amples":3166,"COL":3167,"expect":3168,"iler":3169,"Ġalmost":3170,"Ġepis":3171,"cer":3172,"Ġins":3173,"thers":3174,"vis":3175,"Ġinterface":3176,"ĠST":3177,"comm":3178,"Ġmen":3179,"Ġanything":3180,"aph":3181,"edef":3182,"Ġnone":3183,"Ġfunny":3184,"bit":3185,"Ġ####":3186,"Ġwritten":3187,"Ġdom":3188,"cache":3189,"structor":3190,"ama":3191,"Ġglobal":3192,"End":3193,"Ġver":3194,"Ġaff":3195,"mm":3196,"register":3197,"patch":3198,"=\"\"":3199,"lish":3200,"osed":3201,"Server":3202,"Ġhour":3203,"oved":3204,"_;":3205,"Ġsim":3206,"Ġlow":3207,"22":3208,"Ġbo":3209,"Ġwait":3210,"ĠMay":3211,"Ġreview":3212,"ĠUR":3213,"idden":3214,"Ġfall":3215,"first":3216,"IZ":3217,"ĠArray":3218,"Ġandroid":3219,"FI":3220,"\");":3221,"Ġinfo":3222,"Ġreleased":3223,"IGHT":3224,"Equals":3225,"description":3226,"Ġmock":3227,"Ġserv":3228,"Ġproduct":3229,"ĠAb":3230,"ĠGo":3231,"Ġdelete":3232,"DER":3233,"Ġunit":3234,"Ġabsol":3235,"ĠDes":3236,"aff":3237,"omb":3238,"Ġyet":3239,"ĠUp":3240,"Ġstream":3241,"ius":3242,"Ġparams":3243,"Block":3244,"annot":3245,"Ġauto":3246,"Ġexpl":3247,"Ġsession":3248,"da":3249,";&":3250,"Ġcred":3251,"Ġreturns":3252,"ĠID":3253,"lang":3254,"src":3255,"ouch":3256,"atched":3257,"Ġprevious":3258,"Ġvideo":3259,"\")":3260,"Ġresource":3261,"Ġparse":3262,"CC":3263,"Ġtotal":3264,"Ġhttp":3265,"Label":3266,"ĠâĢĵ":3267,"eter":3268,"ĠQu":3269,"Ġcop":3270,"element":3271,"Ġtechn":3272,"delete":3273,"rep":3274,"ards":3275,"Ġet":3276,"Ġsettings":3277,"CON":3278,"iddle":3279,"container":3280,"ĠDis":3281,"ĠÂ":3282,"ĠSer":3283,"Ġmiss":3284,"alth":3285,"ving":3286,"Ġtalk":3287,"gy":3288,"Ġstop":3289,"ring":3290,"Ġ'.":3291,"Ġanim":3292,"Ġhalf":3293,"ĠCar":3294,"pu":3295,"Ġsn":3296,"ĠLO":3297,"ĠDo":3298,"ĠOne":3299,"rowser":3300,"acing":3301,"entry":3302,"Ġtypedef":3303,"Output":3304,"stant":3305,"Ġgovernment":3306,"Ġwithin":3307,"ently":3308,"Ġ'\\":3309,"Ġdeath":3310,"Ġmsg":3311,"Ġchildren":3312,"Ð½":3313,"Ġcrit":3314,"Ġ::":3315,"names":3316,"device":3317,"ifndef":3318,"Ġentry":3319,"png":3320,"display":3321,"ĠAPI":3322,"ĠCheck":3323,"Task":3324,"ides":3325,"http":3326,"ĠUser":3327,"CTION":3328,"true":3329,"response":3330,"types":3331,"len":3332,"aced":3333,"60":3334,"Resource":3335,"ĠHowever":3336,"ocus":3337,"Ġheader":3338,"Ġjavax":3339,"help":3340,"iff":3341,"SP":3342,"otion":3343,"Ġeng":3344,"Ġforeach":3345,"MO":3346,"template":3347,"render":3348,"Ġcou":3349,"leep":3350,"tag":3351,"ĠImp":3352,"save":3353,"Ġcreat":3354,"Ġlength":3355,"ĠData":3356,"gan":3357,"Ġhaving":3358,"Ġrepresent":3359,"19":3360,"hel":3361,"Ġsex":3362,"Ġexper":3363,"Ġ30":3364,"rest":3365,"Ġsent":3366,"ĠBl":3367,"ising":3368,"Ġrather":3369,"Ġcomput":3370,"MM":3371,"ks":3372,"ptr":3373,"Ġcomment":3374,"100":3375,"INT":3376,"Ġcustom":3377,"ĠWith":3378,"gen":3379,"undle":3380,"ayer":3381,"Ġlogging":3382,"Ġsave":3383,"Ġcompany":3384,"EY":3385,"Point":3386,"---":3387,"Ġreturned":3388,"Ġminutes":3389,"Ġdraw":3390,"Ġconsole":3391,"ocol":3392,"Ġlogger":3393,"Ġincre":3394,"OPY":3395,"Ġinline":3396,"Exp":3397,"ites":3398,"ĠReg":3399,"Utils":3400,"fect":3401,"Ġquest":3402,"Ġisinstance":3403,"Ġcountry":3404,"pend":3405,"wise":3406,"ĠRep":3407,"ICEN":3408,"Ġsec":3409,"Ġlight":3410,"Ġassoci":3411,"Ġside":3412,"foot":3413,"Read":3414,"items":3415,"uby":3416,"Ġdeal":3417,"\"/>":3418,"Ġmoney":3419,"Entity":3420,"urch":3421,"ĠChrist":3422,"ones":3423,"ibility":3424,"è¿":3425,"Case":3426,"Ġhandle":3427,"If":3428,"ney":3429,"Ġmater":3430,"uly":3431,"avor":3432,"ĠEN":3433,"Ġcur":3434,"Valid":3435,"Ġspecified":3436,"ires":3437,"Ġmonth":3438,"oke":3439,"Ġcame":3440,"ability":3441,"Ġbecome":3442,"ulation":3443,"acy":3444,"ĠGe":3445,"ĠAfter":3446,"UB":3447,"UP":3448,"Start":3449,"atches":3450,"<?":3451,"agement":3452,"Ġsix":3453,"ULT":3454,"66":3455,"Select":3456,"Ġnum":3457,"Ġaccount":3458,"itory":3459,"Provider":3460,"88":3461,"Function":3462,"amera":3463,"ering":3464,"plugin":3465,"ÑĢ":3466,"Ġbuffer":3467,"Ġhuman":3468,"Ġdevice":3469,"ursor":3470,"task":3471,"uction":3472,"ything":3473,"Options":3474,"session":3475,"Ġdocumentation":3476,"icrosoft":3477,"ges":3478,"Ġter":3479,"rief":3480,"Ġprobably":3481,"unt":3482,"Ġincluded":3483,"Ġcost":3484,"Ġhappen":3485,"ICENSE":3486,"Ġcommon":3487,"):":3488,"Ġarch":3489,"Ġwonder":3490,"height":3491,"vers":3492,"Module":3493,"Sp":3494,"Pl":3495,"Ġinvol":3496,"ĠWhat":3497,"reet":3498,"rypt":3499,"ä½":3500,"ĠAssert":3501,"Ġbecame":3502,"UI":3503,"Ġproduction":3504,"inem":3505,"Ġ17":3506,"Frame":3507,"mail":3508,"Init":3509,"mbol":3510,"Ġhash":3511,"Ġparticular":3512,"Ġmag":3513,"itted":3514,"Ġcompon":3515,"=\"/":3516,"ĠRem":3517,"Ġbyte":3518,"ĠEV":3519,"Ġpack":3520,"ball":3521,"ĠEuro":3522,"Ġevents":3523,"na":3524,"Ġrow":3525,"Ġant":3526,"ĠComp":3527,"ĠMA":3528,"Search":3529,"Ġbeaut":3530,"åħ":3531,"ports":3532,"Update":3533,"86":3534,"ze":3535,"control":3536,"Ġdialog":3537,"Process":3538,"service":3539,"ĠNO":3540,"Ġhouse":3541,"omet":3542,"////////////////////////////////":3543,"Ġinteresting":3544,"fr":3545,"17":3546,"hent":3547,"ĠAct":3548,"Ġwhether":3549,"ĠRun":3550,"Ġcertain":3551,"Ġdefine":3552,"ulate":3553,"Ġcmd":3554,"Tree":3555,"Ġalbum":3556,"Ġtogether":3557,"åĲ":3558,"ointer":3559,"Ġplayed":3560,"URL":3561,"Dec":3562,"bind":3563,"Ġfive":3564,"=\"../../../../../":3565,"QL":3566,"Ġtakes":3567,"iful":3568,"Logger":3569,"ĠMarkdown":3570,"Ġfeature":3571,"Ġemp":3572,"Ġplan":3573,"Ġnet":3574,"Ġtrack":3575,"apter":3576,"Ġqual":3577,"Ġland":3578,"Ġpossible":3579,"TYPE":3580,"å®":3581,"Ġrelease":3582,"imum":3583,"Ġextern":3584,"Ġworth":3585,"Write":3586,"msg":3587,"æĸ":3588,"using":3589,"ĠEd":3590,"iting":3591,"wood":3592,"%%":3593,"menu":3594,"Ġarea":3595,"ĠWorld":3596,"parent":3597,"usr":3598,"match":3599,"æĺ":3600,"Ġhold":3601,"ĠStates":3602,"itive":3603,"ln":3604,"Ġelements":3605,"Ġwoman":3606,"hentic":3607,"34":3608,"Ġtag":3609,"iol":3610,"ĠRE":3611,"fic":3612,"Ġappear":3613,"05":3614,"OS":3615,"Ġtests":3616,"iece":3617,"ĠGu":3618,"ĠTV":3619,"ĠPort":3620,"should":3621,"BU":3622,"Ġshows":3623,"Ġsend":3624,"obj":3625,"change":3626,"mock":3627,"Ġfoot":3628,"Ġentire":3629,"child":3630,"layer":3631,"tree":3632,"Le":3633,"site":3634,"exit":3635,"connect":3636,"clear":3637,"Ġca":3638,"oring":3639,"ĠRob":3640,"Ġappro":3641,"ERR":3642,"Font":3643,"oost":3644,"level":3645,"ĠHol":3646,"ĠValue":3647,"det":3648,"only":3649,"Number":3650,"COLOR":3651,"Us":3652,"auth":3653,"Ġcover":3654,"Ġthread":3655,"Token":3656,"System":3657,"UD":3658,"Ġcut":3659,"Ġquot":3660,"çĶ":3661,"aken":3662,"'>":3663,"Interface":3664,"book":3665,"Ġnamed":3666,"ĠEurope":3667,"ĠWar":3668,"Ġhistory":3669,"Url":3670,"áĥ":3671,"Ġ14":3672,"assertEquals":3673,"Ġregister":3674,"Ġprof":3675,"Ġworks":3676,"IZE":3677,"Ġdays":3678,"see":3679,"PC":3680,"++;":3681,"Column":3682,"ians":3683,"Parser":3684,"False":3685,"Ġbar":3686,"anch":3687,"Configuration":3688,"SD":3689,"Ġcontribut":3690,"UE":3691,"df":3692,"Ġlaugh":3693,"Ġ11":3694,"Ġprov":3695,"Ġfriend":3696,"Ġcache":3697,"Ġdecl":3698,"pop":3699,"Ġpoor":3700,"conf":3701,"Ġ\"\\":3702,"MENT":3703,"Oper":3704,"ana":3705,"Ġmove":3706,"Ġoften":3707,".'":3708,"icode":3709,"Ġhimself":3710,"Ð¾Ð":3711,"Ġspace":3712,"num":3713,"Ġface":3714,"ĠMin":3715,"ĠassertEquals":3716,"Ġtrying":3717,"Ġyield":3718,"Ġ25":3719,"Ġcomes":3720,"Ġmedia":3721,"project":3722,"aker":3723,"Ġair":3724,"ential":3725,"assertTrue":3726,"Ġesc":3727,"Fl":3728,"************************************************************************":3729,"Ġblack":3730,"ĠLi":3731,"Ġlate":3732,"Connection":3733,"Ġbox":3734,"center":3735,"ounc":3736,"python":3737,"Ġproblem":3738,"Ġtook":3739,"ĠCOPY":3740,"Ġì":3741,"rim":3742,"ORM":3743,"Ġfinally":3744,"eder":3745,"ĠIMP":3746,"ety":3747,"Ġtrad":3748,"Ġ2013":3749,"02":3750,"Ġlarge":3751,"04":3752,"Char":3753,"Ġrunning":3754,"ĠAR":3755,"ĠAL":3756,"lymp":3757,"ple":3758,"inition":3759,"IGN":3760,"Ġ2015":3761,"illed":3762,"Ġconfiguration":3763,"Ab":3764,"Web":3765,"ĠSome":3766,"ORS":3767,"onc":3768,"Ġsite":3769,"ĠPer":3770,"35":3771,"Ġtypes":3772,"Ġrandom":3773,"objects":3774,"Ñģ":3775,"Format":3776,"Ġiss":3777,"fail":3778,"å¤":3779,"omic":3780,"IME":3781,"------------":3782,"Ġthird":3783,"Ġexecut":3784,"war":3785,"ĠIO":3786,"Ġstep":3787,"une":3788,"Ġattack":3789,"ĠSte":3790,"Ġalign":3791,"Child":3792,"Ġtoken":3793,"Ġrule":3794,"Ġclos":3795,"atal":3796,"Ġstar":3797,"ĠUs":3798,"ĠConfig":3799,"Ġcontains":3800,"copy":3801,"TO":3802,"Imp":3803,"Ġaccept":3804,"Menu":3805,"Ġsimple":3806,"Cache":3807,"Ġgrow":3808,"ĠIntern":3809,"linux":3810,"Ġempty":3811,"ĠLess":3812,"%;":3813,"Ġtoday":3814,"like":3815,"local":3816,"oration":3817,"Ġconn":3818,"Ġtele":3819,"IAL":3820,"scope":3821,"Ġ2014":3822,"~~~~":3823,"Ġhorror":3824,"Ġdue":3825,"Ġpython":3826,"Ġ'/":3827,"target":3828,"Header":3829,"Ġcomedy":3830,"Ġalt":3831,"AY":3832,"Ġfig":3833,"Ġadded":3834,"mode":3835,"Ġcamp":3836,"aly":3837,"Ġorgan":3838,"stop":3839,"Ġev":3840,"make":3841,"Ġmind":3842,"Core":3843,"Vis":3844,"Ġcollection":3845,"Ġparameters":3846,"ĠCity":3847,"printf":3848,"rupt":3849,"ĠÃ":3850,"Ġfather":3851,"ĠBG":3852,"Layout":3853,"else":3854,"skip":3855,"root":3856,"rapper":3857,"Dep":3858,"ued":3859,"ram":3860,"Ġcapt":3861,"Ġperiod":3862,"rench":3863,"ĠURL":3864,"late":3865,"Ġstrong":3866,"Ġbinary":3867,"Ġothers":3868,"Ġbelieve":3869,"Ġgoes":3870,"Ġxml":3871,"iversity":3872,"irm":3873,"ĠThese":3874,"Ġsus":3875,"ĠSy":3876,"Part":3877,"Ġpoints":3878,"ĠAP":3879,"Entry":3880,"enn":3881,"ensions":3882,"Ġitself":3883,"Ġmode":3884,"Ġrecomm":3885,"fa":3886,"Ġutf":3887,"Ġbuilt":3888,"arnings":3889,"Ġwomen":3890,"ĠBu":3891,"graph":3892,"ĠAcc":3893,"ĠPRO":3894,"ĠLICENSE":3895,"Ġ'<":3896,"models":3897,"ĠBase":3898,"ĠHis":3899,"encies":3900,"NAME":3901,"Ġnetwork":3902,"settings":3903,"Ġpast":3904,"Ġplayer":3905,"ultiple":3906,"nown":3907,"sets":3908,"Ġlooking":3909,"è¯":3910,"Ġcinem":3911,"struction":3912,"ĠCo":3913,"ĠWeb":3914,"ty":3915,"FIG":3916,"ĠUse":3917,"ĠPol":3918,"Ġpolit":3919,"ca":3920,"space":3921,"hip":3922,"Ġdescribe":3923,"OO":3924,"aves":3925,"Rem":3926,"Ġbutton":3927,"åŃ":3928,"Ġexit":3929,"LIED":3930,"number":3931,"Ext":3932,"uary":3933,"ĠOlymp":3934,"Ġque":3935,"=\"../../../../../../":3936,"API":3937,"ĠBE":3938,"hash":3939,"Ġstore":3940,"Ġ13":3941,"values":3942,"footer":3943,"ray":3944,"sa":3945,"ĠNe":3946,"Ġable":3947,"Helper":3948,"ĠDAM":3949,"Ġinvest":3950,"rible":3951,"ĠName":3952,"pol":3953,"ĠSu":3954,"=\"_":3955,"ĠBey":3956,"ĠIMPLIED":3957,"luster":3958,"fully":3959,"Ġunderstand":3960,"Ġey":3961,"func":3962,"dated":3963,"INE":3964,"VAL":3965,"fort":3966,"txt":3967,"rie":3968,"Met":3969,"keys":3970,"Types":3971,"framework":3972,"ided":3973,"google":3974,"exception":3975,"Ġselect":3976,"Ġ50":3977,"Ġcommun":3978,"irectory":3979,"ĠFl":3980,"ĠChar":3981,"ATION":3982,"Thread":3983,"Ġguy":3984,"now":3985,"Session":3986,"Ġiter":3987,"kit":3988,"static":3989,"ĠGerm":3990,"Json":3991,"RIGHT":3992,"Ġcentury":3993,"Aut":3994,"ulti":3995,"ools":3996,"____":3997,"Ġparts":3998,"Ġsuff":3999,"apan":4000,"Ġ2012":4001,"address":4002,"udget":4003,"click":4004,"Ġnormal":4005,"ĠInit":4006,"Ġserial":4007,"Ġfight":4008,"Ġbas":4009,"70":4010,"Ġobjects":4011,"Mode":4012,"Ġcenter":4013,"VD":4014,"Ġsimp":4015,"Ġlive":4016,"ung":4017,"Ġidea":4018,"Ġapplication":4019,"ĠBritish":4020,"ATA":4021,"ictionary":4022,"ĠBGCOLOR":4023,"insert":4024,"75":4025,"location":4026,"Ġdoc":4027,"verse":4028,"Row":4029,"oader":4030,"free":4031,"thread":4032,"Ġ2008":4033,"ĠSH":4034,"Ġeverything":4035,"ĠTrans":4036,"prec":4037,"Ġwent":4038,"Ġ2011":4039,"CR":4040,"Ġsense":4041,"Hash":4042,"esh":4043,"36":4044,"Tag":4045,"ounds":4046,"Ġ$_":4047,"Widget":4048,"Ġsection":4049,"Ġimplements":4050,"Fr":4051,"Ob":4052,"Ġprintf":4053,"Record":4054,"Ġlib":4055,"sequ":4056,"Ġadv":4057,"Ġdead":4058,"Ġcult":4059,"Ġlooks":4060,"Ġadditional":4061,"Ġlost":4062,"Ġbusiness":4063,"Control":4064,"Container":4065,"Ġ~":4066,"imal":4067,"Ġhowever":4068,"Ġinternal":4069,"system":4070,"Ġwasn":4071,"Ġ---":4072,"Ġlocation":4073,"ĠAug":4074,"Ġsurpr":4075,"ĠCorp":4076,"eah":4077,"''":4078,"ĠPr":4079,"Ġcoding":4080,"ifdef":4081,"pecially":4082,"Ġsat":4083,"Ġchanges":4084,"Ġviol":4085,"Ġign":4086,"Ġepisode":4087,"Ġ``":4088,"oncÃ©":4089,"maz":4090,"sql":4091,"null":4092,"Ġimportant":4093,"oto":4094,"ceed":4095,"totype":4096,"Ġdog":4097,"Position":4098,"Ġmethods":4099,"ĠLesser":4100,"Ġhig":4101,"Next":4102,"Ġcorrect":4103,"boot":4104,"Ġsays":4105,"Ġchanged":4106,"apped":4107,"ustr":4108,"Ġcomplete":4109,"Pre":4110,"ĠMo":4111,"Ġregion":4112,"enter":4113,"Exec":4114,"Ġ2010":4115,"xx":4116,"pri":4117,"Ġitems":4118,"Ġworst":4119,"ĠTHIS":4120,"Off":4121,"ĠTODO":4122,"Ġeffects":4123,"Spec":4124,"pite":4125,"Ġpick":4126,"Style":4127,"Dat":4128,"achine":4129,"IR":4130,"classes":4131,"impl":4132,"uid":4133,"aring":4134,"oder":4135,"duce":4136,"position":4137,"IX":4138,"ming":4139,"CP":4140,"ĠDate":4141,"wargs":4142,"ansport":4143,"Ġsetup":4144,"Classes":4145,"ariable":4146,"aven":4147,"Ġheart":4148,"Ġclaim":4149,"ĠMap":4150,"First":4151,"dr":4152,"Ġwife":4153,"Ġax":4154,"Render":4155,"Ġattr":4156,"dec":4157,"Ġassociated":4158,"ROM":4159,"\\\"":4160,"ds":4161,"Ġrad":4162,"btn":4163,"pose":4164,"pper":4165,"token":4166,"æķ":4167,"Load":4168,"Ġder":4169,"entity":4170,"Ġspl":4171,"align":4172,"alloc":4173,"oded":4174,"ĠVal":4175,"Ġactual":4176,"ĠLIABILITY":4177,"ael":4178,"returns":4179,"NE":4180,"Ġask":4181,"Ġbeautiful":4182,"ried":4183,"ocial":4184,"Parameter":4185,"ĠMc":4186,"Ġespecially":4187,"Ġsil":4188,"lier":4189,"Mock":4190,"TE":4191,"Ġvict":4192,"ĠOTHER":4193,"ĠMicrosoft":4194,"Ġplugin":4195,"vector":4196,"ters":4197,"asure":4198,"Ġgenerated":4199,"Ġcannot":4200,"ĠAtt":4201,"Document":4202,"Ġ>=":4203,"ography":4204,"Ġwhite":4205,"Ġamong":4206,"Address":4207,"support":4208,"!/":4209,"Pol":4210,"Http":4211,"Ġmembers":4212,"cr":4213,"Ġanyone":4214,"sel":4215,"{}":4216,"uple":4217,"AND":4218,"widget":4219,"Ġbegan":4220,"Ġending":4221,"Ġwrong":4222,"iment":4223,"44":4224,"ae":4225,"tests":4226,"Ġwriter":4227,"iet":4228,"Ġlack":4229,"small":4230,"Ġslow":4231,"medi":4232,"ĠAD":4233,"${":4234,"nes":4235,"adow":4236,"PORT":4237,"Ġindic":4238,"Back":4239,"Ġclean":4240,"ĠBro":4241,"umns":4242,"Description":4243,"Ġ..":4244,"ressed":4245,"ief":4246,"stack":4247,"ACK":4248,"execute":4249,"ĠRedistribut":4250,"Ġgraph":4251,"valu":4252,"Ġsing":4253,"Ġfuture":4254,"ĠState":4255,"Ġpassed":4256,"Ġconc":4257,"Ġecon":4258,"ĠINT":4259,",\"":4260,"bt":4261,"pth":4262,"Ġcallback":4263,"tk":4264,"æĪ":4265,"imest":4266,"Ġneeded":4267,"ĠDav":4268,"Ġmilit":4269,"Dialog":4270,"ĠJSON":4271,"ĠDon":4272,"Acc":4273,"raq":4274,"egin":4275,"ĠId":4276,"Ġwater":4277,"Ġhit":4278,"à¸":4279,"Ġattribute":4280,"Ġoffset":4281,"Template":4282,"Names":4283,"Ġsimply":4284,"ĠMich":4285,"ĠLOG":4286,"Ġstarted":4287,"Ġactor":4288,"once":4289,"aises":4290,"ä¸Ģ":4291,"Meta":4292,"Ġfur":4293,"aging":4294,"buffer":4295,"fields":4296,"ixt":4297,"gor":4298,"yc":4299,"Ġpercent":4300,"inese":4301,"oose":4302,"Ġ<!":4303,"ada":4304,"ynam":4305,"Ġparameter":4306,"uthors":4307,"Ġalthough":4308,"ATH":4309,"Down":4310,"SION":4311,"Ġdirection":4312,"ĠJapan":4313,"Fe":4314,"ores":4315,"aul":4316,"ĠMe":4317,"SED":4318,"document":4319,"ĠTime":4320,"abs":4321,"Ġfunctions":4322,"RECT":4323,"Ġsomeone":4324,"Ġframe":4325,"ĠFrench":4326,"gl":4327,"aries":4328,"Ġng":4329,"Ġneeds":4330,"Ġprior":4331,"Ġforce":4332,"Ġregard":4333,"Ġawait":4334,"Ġlock":4335,"Ġdepend":4336,"Ġpur":4337,"ARY":4338,"Ġtown":4339,"scale":4340,"77":4341,"ĠAf":4342,"ĠOut":4343,"strap":4344,"ĠDefault":4345,"ying":4346,"Ġresol":4347,"rs":4348,"access":4349,"Ġdoing":4350,"æĺ¯":4351,"89":4352,"ĠChina":4353,"Change":4354,"eline":4355,"ponents":4356,"Option":4357,"ague":4358,"ament":4359,"Ġacross":4360,"ci":4361,"lood":4362,"ĠVAL":4363,"install":4364,"izes":4365,"println":4366,"queue":4367,"Open":4368,"Ġdatabase":4369,"ili":4370,"Ġconvert":4371,"Ġaudience":4372,"ĠCOPYRIGHT":4373,"Ġyeah":4374,"FAULT":4375,"sort":4376,"Ġlarg":4377,"oper":4378,"Ġio":4379,"cd":4380,"Ġ2009":4381,"29":4382,"here":4383,"åľ":4384,"Store":4385,"Ġtree":4386,"oom":4387,"Ġshot":4388,"lice":4389,"criptor":4390,"Ġsimilar":4391,"Ġerrors":4392,"ĠFe":4393,"Ġgave":4394,"quiv":4395,":\"":4396,"cel":4397,"strip":4398,"amily":4399,"alent":4400,"come":4401,"Ġsepar":4402,"ĠUSA":4403,"Ġwatched":4404,"inate":4405,"Ġmur":4406,"Ġge":4407,"Stack":4408,"ById":4409,"Ġsell":4410,"ĠGoogle":4411,"Pass":4412,"edia":4413,"Ġï":4414,"Ã¡":4415,"Per":4416,"55":4417,"ĠForm":4418,"ĠBeyoncÃ©":4419,"Bundle":4420,"Target":4421,"ICE":4422,"Ġkilled":4423,"Ġ))":4424,"prototype":4425,"STR":4426,"semb":4427,"lap":4428,"imate":4429,"Ġfilename":4430,"ection":4431,"};":4432,"23":4433,"ester":4434,"Unit":4435,"ADD":4436,"plot":4437,"Ġmeet":4438,"Settings":4439,"admin":4440,"Ġsolid":4441,"ĠKey":4442,"Ġpermission":4443,"Ġplays":4444,"idual":4445,"aper":4446,"Ġsequence":4447,"then":4448,"depend":4449,"INF":4450,"Ġperfect":4451,"buf":4452,"ä¹":4453,"Ġmaster":4454,"ĠEnd":4455,"Ġamount":4456,"ĠFri":4457,"ese":4458,"Ġcharset":4459,"Reader":4460,"future":4461,"Ġfavor":4462,"ĠInter":4463,"Ġarguments":4464,"astic":4465,"ernel":4466,"HTML":4467,"CTYPE":4468,"ĠBar":4469,"Ġcopies":4470,"II":4471,"ersist":4472,"lywood":4473,"ĠJan":4474,"Ġten":4475,"Ġavoid":4476,"cmd":4477,"Ġicon":4478,"Ġfailed":4479,"03":4480,"band":4481,"Ġfeatures":4482,"MB":4483,"MD":4484,"ĠWindow":4485,"Max":4486,"======":4487,"Ġpat":4488,"Ġcolumn":4489,"ĠAS":4490,"icture":4491,"ha":4492,"mission":4493,"Ġok":4494,"alys":4495,"ounter":4496,"handle":4497,"ĠDVD":4498,"tocol":4499,"window":4500,"NavBarCell":4501,"hedule":4502,"Ġjoin":4503,"ĠUSE":4504,"Ġeffort":4505,"Range":4506,"Ġapi":4507,"»¿":4508,"ellent":4509,"Ġdatetime":4510,"Serial":4511,"gorith":4512,"DOCTYPE":4513,"One":4514,"can":4515,"Ġsugg":4516,"ĠRuss":4517,"attle":4518,"offset":4519,"XX":4520,"Ġabsolute":4521,"Title":4522,"VID":4523,"Ġcompletely":4524,"ustral":4525,".$":4526,"Argument":4527,"Ġreference":4528,"Ġsuggest":4529,"draw":4530,"ĠIraq":4531,"HECK":4532,"where":4533,"Writer":4534,"ords":4535,"Ġdevelopment":4536,"Ph":4537,"Ġ{{":4538,"track":4539,";}":4540,"aud":4541,"28":4542,"si":4543,"Ġwalk":4544,"ogn":4545,"Ġcontainer":4546,"ermission":4547,"Ġpassword":4548,"IPT":4549,"iag":4550,"Ġestab":4551,"Ġfriends":4552,"Ġdam":4553,"Ġ----------------------------------------------------------------":4554,".*":4555,"Last":4556,">,":4557,"Serv":4558,"Ġï»¿":4559,"WE":4560,"åĬ":4561,"ĠText":4562,"Ġshall":4563,"ality":4564,"ĠChinese":4565,"Ġthroughout":4566,"FL":4567,"uk":4568,"ourse":4569,"Ġworking":4570,"Ġallowed":4571,"IV":4572,"ĠPe":4573,"ĠPres":4574,"cp":4575,"Ġenvironment":4576,"Ġ>>>":4577,"Ġreq":4578,"Ġsample":4579,"ontal":4580,"Ġenv":4581,"Ġmeans":4582,"ĠFil":4583,"erence":4584,"CLUD":4585,"Ġ\\$":4586,"cret":4587,"hpp":4588,"Ġlinks":4589,"ingly":4590,"Ġuses":4591,"Ġdistribution":4592,"Ġmarket":4593,"imestamp":4594,"`.":4595,"sys":4596,"ĠKe":4597,"ĠAff":4598,"PEC":4599,"Ġoperator":4600,"Ġgetting":4601,"zy":4602,"Properties":4603,"è®":4604,"Click":4605,"ĠSw":4606,"Ġ2004":4607,"claim":4608,"Ġserious":4609,"Ġfire":4610,"Ġ{\"":4611,"ĠBuild":4612,"ĠOUT":4613,"Ġroom":4614,"Ġmother":4615,"ba":4616,"Ġscope":4617,"27":4618,"vas":4619,"ĠSk":4620,"setup":4621,"Ġtmp":4622,"Ġpattern":4623,"Ġur":4624,"Ġmis":4625,"Ġequal":4626,"ĠCode":4627,"ĠDr":4628,"rate":4629,"Ġmor":4630,"stit":4631,"Ġvisit":4632,"ĠAT":4633,"Ġsold":4634,"agment":4635,"Ġconv":4636,"Ġremember":4637,"Ġens":4638,"-->":4639,"That":4640,"Changed":4641,"Det":4642,"GET":4643,"Ġbytes":4644,"expected":4645,"Ġnice":4646,"aur":4647,"licit":4648,"rics":4649,"ĠWed":4650,"Ġadmin":4651,"win":4652,"ĠSub":4653,"Ġcamera":4654,"ĠKing":4655,"Ġson":4656,"ourn":4657,"ocket":4658,"Ġmemory":4659,"08":4660,"Access":4661,"erry":4662,"Ġgrant":4663,"IMIT":4664,"clus":4665,"Ġintro":4666,"ĠSch":4667,"ĠSouth":4668,"ris":4669,"sv":4670,"Ġconnect":4671,"dest":4672,"Ġheld":4673,"Cl":4674,"Package":4675,"loor":4676,"password":4677,"respon":4678,"ebug":4679,"aved":4680,"grad":4681,"annotation":4682,"Dir":4683,"weight":4684,"izontal":4685,"toString":4686,"oston":4687,"region":4688,"Ġfelt":4689,"resource":4690,"OK":4691,"req":4692,"->_":4693,"Ġguess":4694,"Ġeveryone":4695,"istance":4696,"verage":4697,"ueue":4698,"arks":4699,"Length":4700,"ench":4701,"Ġdig":4702,"ills":4703,"Ġ2006":4704,"gu":4705,"Ġvariable":4706,"Ġcomponent":4707,"ements":4708,"ETTER":4709,"alysis":4710,"Ġotherwise":4711,"Ġ\",":4712,"Ġmanager":4713,"BC":4714,"Ġ2007":4715,"ĠFROM":4716,"manager":4717,"actions":4718,"ĠProject":4719,"umbers":4720,"Ġwanted":4721,"ino":4722,"Ġimpro":4723,"Ġboy":4724,"Ġdebug":4725,"Ġforms":4726,"anger":4727,"ĠRec":4728,"actor":4729,"Ġcouple":4730,"oman":4731,"Tests":4732,"assertR":4733,"Ġplaying":4734,"edit":4735,"Ġeq":4736,"ĠEnglish":4737,"Ġ\"<":4738,"Ġprovide":4739,"Ġpain":4740,"ĠAns":4741,"KEY":4742,"writ":4743,"Ġbank":4744,"Ġgives":4745,"addr":4746,"oe":4747,"exists":4748,"BO":4749,"ĠCal":4750,"Draw":4751,"Ġbehind":4752,"ĠLETTER":4753,"Params":4754,"ĠSept":4755,"09":4756,"argument":4757,"56":4758,"SH":4759,"arter":4760,"Ġbeginning":4761,"store":4762,"ips":4763,"ula":4764,"Ġfan":4765,"AGES":4766,"UID":4767,"iny":4768,"Match":4769,"END":4770,"EW":4771,"range":4772,"appoint":4773,"Ġhop":4774,"Ġenum":4775,"ĠRuby":4776,"Ġtor":4777,"urt":4778,"fn":4779,"Ġintern":4780,"Ġlang":4781,"logger":4782,"Ġstandard":4783,"Ġconsidered":4784,"Ġ===":4785,"ORY":4786,"opin":4787,"shot":4788,"ĠAustral":4789,"Ġperformances":4790,"IF":4791,"Ġsets":4792,"ĠBoston":4793,"ĠNorth":4794,"ands":4795,"Ġ\"/":4796,"ĠJust":4797,"Ġfurther":4798,"Port":4799,"ĠHT":4800,"images":4801,"ĠDep":4802,"Ġgenerate":4803,"oon":4804,"email":4805,"lying":4806,"Ġtaken":4807,"ĠSU":4808,"ams":4809,"year":4810,"Ġali":4811,"del":4812,"ĠOver":4813,"ecurity":4814,"Impl":4815,"ww":4816,"ares":4817,"uesday":4818,"Ġsecurity":4819,"Ġemb":4820,"ĠRef":4821,"rive":4822,"Ġkeys":4823,"hor":4824,"lines":4825,"Ġpot":4826,"aset":4827,"ched":4828,"rt":4829,"We":4830,"oggle":4831,"çĶ¨":4832,"ao":4833,"asm":4834,"ĠHttp":4835,"PT":4836,"utable":4837,"ĠFrank":4838,"Ð»":4839,"Ġbtn":4840,"ĠWITH":4841,"Work":4842,"Project":4843,"MPL":4844,"ĠEvent":4845,"Ġhours":4846,"Plugin":4847,"fg":4848,"Ġdir":4849,"assertRaises":4850,"ios":4851,"Order":4852,"Sk":4853,"ĠThen":4854,"ometry":4855,"=$":4856,"ches":4857,"junit":4858,"ERROR":4859,"ĠNational":4860,"Ġattributes":4861,"Ġorigin":4862,"Ġvill":4863,"\\\\":4864,"Ġunique":4865,"Ġwords":4866,"Mem":4867,"antic":4868,"Ġrespect":4869,"Ġcls":4870,"Current":4871,"Iter":4872,"drop":4873,"ĠMichael":4874,"oph":4875,"Ġjud":4876,"ĠJack":4877,"Level":4878,"known":4879,"Ġmys":4880,"Ġshown":4881,"Ġseeing":4882,"ĠWhite":4883,"ws":4884,"Ġformer":4885,"Ġposs":4886,"ĠRead":4887,"Ġbuilding":4888,"26":4889,"ica":4890,"Ġpopular":4891,"zen":4892,"Ġengine":4893,"frame":4894,"Ġtheme":4895,"Min":4896,"cut":4897,"Ġvia":4898,"interface":4899,"Ġproblems":4900,";<":4901,"brief":4902,"Ġfem":4903,"Ġbudget":4904,"Ġwhose":4905,"DIR":4906,"Ġobvious":4907,"Xml":4908,"Ġund":4909,"Ġvarious":4910,"****************************************************************************":4911,"Ġage":4912,"Parameters":4913,"none":4914,"connection":4915,"nesday":4916,"Ġ2016":4917,"Width":4918,"reset":4919,"scri":4920,"Ġselected":4921,"artment":4922,"Ġ++":4923,"ĠTuesday":4924,"Ġ#################################":4925,"success":4926,"Ġste":4927,"wait":4928,"Ġraw":4929,"ding":4930,"peat":4931,"Ġextra":4932,"Vector":4933,"Ġutil":4934,"Ġcompet":4935,"login":4936,"SET":4937,"Ġsupposed":4938,"Ġrid":4939,"ĠON":4940,"Ġhon":4941,"256":4942,"Ġabstract":4943,"Location":4944,"Ġquestion":4945,"EM":4946,"Ġ24":4947,"const":4948,"Ġdeep":4949,"ertific":4950,"encode":4951,"Ġnecess":4952,"Ġmoment":4953,"acity":4954,"real":4955,"Ġvert":4956,"Icon":4957,"Sy":4958,"aid":4959,"ĠHollywood":4960,"Ġrecommend":4961,"ĠPy":4962,"ĠGroup":4963,"ç»":4964,"Api":4965,"Ġagre":4966,"Ġ>>":4967,"inner":4968,"Ġleave":4969,"Height":4970,"Values":4971,"ĠHel":4972,"ls":4973,"Ġdie":4974,"SY":4975,"Ġmiddle":4976,"Ġ\"-":4977,"Ġasync":4978,"Ġsetting":4979,"ORK":4980,"umpy":4981,"rote":4982,"handler":4983,"Ġsoon":4984,"37":4985,"How":4986,"Ġchannel":4987,"Application":4988,"reference":4989,"ĠHer":4990,"Ġexact":4991,"engine":4992,"Ġflag":4993,"ĠPart":4994,"Graph":4995,"Ġfund":4996,"Ġpair":4997,"itter":4998,"Ġopp":4999,"ĠBr":5000,"itting":5001,"orge":5002,"ĠWHE":5003,"Ġtf":5004,"Callback":5005,"het":5006,";/":5007,"Ġsou":5008,"Ġpiece":5009,":</":5010,"vm":5011,"Ġreported":5012,"ali":5013,"Ġdim":5014,"Ġstay":5015,"conn":5016,"Ġhandler":5017,"ĠWednesday":5018,"Ġgeneral":5019,"æĹ":5020,"Ġindiv":5021,"Ġdisappoint":5022,"navList":5023,"Ġquick":5024,"ta":5025,"Ġ@,":5026,"Ġrate":5027,"Ġgroups":5028,"Empty":5029,"Ġhot":5030,"Ġimplementation":5031,"atest":5032,"Ġstuff":5033,"Ġimag":5034,"Ġ@,@":5035,"38":5036,"PRO":5037,"hr":5038,"lation":5039,"empty":5040,"ĠError":5041,"Ġemail":5042,"acter":5043,"haps":5044,"Ġ2005":5045,"');":5046,"zz":5047,";\">":5048,"CS":5049,"}\"":5050,"Ġwest":5051,"Ġbelow":5052,"Ġcalc":5053,"ĠMonday":5054,"ico":5055,"comment":5056,"ĠStreet":5057,"ibly":5058,"ĠINCLUD":5059,"){":5060,"Ġrestr":5061,"UTH":5062,"ĠMus":5063,"ynch":5064,"ĠAugust":5065,"atur":5066,"ä¸ª":5067,"])":5068,"Ġusers":5069,"Ġpract":5070,"flags":5071,"When":5072,"ĠVector":5073,"Ġabs":5074,"pg":5075,"_.":5076,"Ġmultiple":5077,"Ġscore":5078,"Ġmass":5079,"Each":5080,"holder":5081,"VERSION":5082,"Ġsitu":5083,"ĠNote":5084,"selves":5085,"sn":5086,"ua":5087,"Assert":5088,"Ġwhom":5089,"rown":5090,"ĠUniversity":5091,"ĠEVENT":5092,"Ġstrict":5093,"Ġnovel":5094,"just":5095,"ĠSE":5096,"account":5097,"å°":5098,"Ġgold":5099,"'\\":5100,"Ġupon":5101,"Ġcontain":5102,"ike":5103,"Ġkids":5104,"aws":5105,"Ġtransform":5106,"ĠImport":5107,"Ġneg":5108,"pute":5109,"ĠDO":5110,"ĠHar":5111,"yl":5112,"Ġprefix":5113,"lipse":5114,"ĠNow":5115,"ĠValueError":5116,"Ġdeterm":5117,"Ġhom":5118,"ĠAng":5119,"ĠWhile":5120,"Ġmurder":5121,"Ġ.=":5122,"ASE":5123,"ĠBudd":5124,"Close":5125,"Ġcouldn":5126,"uf":5127,"ĠBUT":5128,"full":5129,"SL":5130,"izing":5131,"Ġgrad":5132,"equals":5133,"Ġquality":5134,"ĠPresident":5135,"Ġactive":5136,"gorithm":5137,"ilities":5138,"Ġlower":5139,"Ġinteger":5140,"48":5141,"sd":5142,"Ġstructure":5143,"After":5144,"Ġ\"\";":5145,"ka":5146,"grid":5147,"OLDER":5148,"Ġdiscover":5149,"IBUT":5150,"=\"<?":5151,"Ġround":5152,"Ġmodern":5153,"lem":5154,"Ġplatform":5155,"pool":5156,"parser":5157,"Files":5158,"Ġstars":5159,"Ġpolice":5160,"Ġexcellent":5161,"Ġmat":5162,"column":5163,"ĠAnsible":5164,"Ġfast":5165,"ership":5166,"Ġled":5167,"Ġcareer":5168,"Integer":5169,"Enc":5170,"ĠAut":5171,"Tool":5172,"ĠHTTP":5173,"Use":5174,"look":5175,"platform":5176,"Ġendif":5177,"Ġthemselves":5178,"cb":5179,"Ġstack":5180,"TEST":5181,"æķ°":5182,"aught":5183,"ĠPROVID":5184,"ĠAmerica":5185,"PRESS":5186,"Ġtouch":5187,"ounced":5188,"pm":5189,"ĠSm":5190,"ĠLIMIT":5191,"================================================================":5192,"float":5193,"anced":5194,"domain":5195,"ĠOlympic":5196,"lies":5197,"ĠCommand":5198,"ĠChopin":5199,"Ġaccording":5200,"Ġul":5201,"ĠPO":5202,"Ġsongs":5203,"59":5204,"Sign":5205,"ĠOff":5206,"ĠEver":5207,"Ġinside":5208,"Ġextrem":5209,"ĠAss":5210,"Ġ'';":5211,"istration":5212,"Ġdestroy":5213,"rime":5214,"ĠPaul":5215,"transform":5216,"ĠMO":5217,"acts":5218,"ĠINCLUDING":5219,"ĠDAMAGES":5220,"contrib":5221,"lapse":5222,"Ġthr":5223,"Ġoperation":5224,"upid":5225,"Ġdescribed":5226,"Ġtold":5227,"WS":5228,"Ġbuilder":5229,"Ġexisting":5230,"itude":5231,"RES":5232,"ĠStr":5233,"ĠUpdate":5234,"ixture":5235,"Ġdark":5236,"Ġproperties":5237,"ancial":5238,"Ġmaterial":5239,"Are":5240,"ANG":5241,"Ġstri":5242,"Local":5243,"Device":5244,"wner":5245,"asc":5246,"Err":5247,"Ġmention":5248,"FILE":5249,"leted":5250,"Ġindividual":5251,"ĠIF":5252,"Ġtags":5253,"Ġwrote":5254,"ĠFirst":5255,"ĠWell":5256,"ookie":5257,"ĠAffero":5258,"Ġdrop":5259,"Ġstrings":5260,"Ġbring":5261,"Ġmenu":5262,"eft":5263,"Ġinflu":5264,"TRACT":5265,"Ġgun":5266,"Ġentity":5267,"={":5268,"Ġsb":5269,"Ġ<=":5270,"acro":5271,"alle":5272,"ĠOption":5273,"Ġbuf":5274,"SIZE":5275,"fin":5276,"ully":5277,"Ġoutside":5278,"Ġang":5279,"ĠEl":5280,"Ġago":5281,"duced":5282,"Eng":5283,"=\"../../../":5284,"ĠMath":5285,"ository":5286,"BUG":5287,"ĠAg":5288,"Matrix":5289,"Ġcause":5290,"ursday":5291,"ĠEND":5292,"DU":5293,"ĠTom":5294,"Ġrelative":5295,"Ġpredict":5296,"sumer":5297,"TRIBUT":5298,"áŀ":5299,"Ġmatter":5300,"udio":5301,"Collections":5302,"card":5303,"ĠService":5304,"abor":5305,"Panel":5306,"Ġ=========":5307,"Ġexists":5308,"è¡":5309,"pha":5310,"ĠGod":5311,"ĠOther":5312,"gest":5313,"panel":5314,"avior":5315,"Ġreplace":5316,"Ġflags":5317,"random":5318,"Ġtool":5319,"Ã³":5320,"Ġce":5321,"ĠAc":5322,"application":5323,"Ġplease":5324,"asy":5325,"ĠNov":5326,"ĠWindows":5327,"ĠPROVIDED":5328,"Ġcontaining":5329,"duction":5330,"oves":5331,"ISING":5332,"EXT":5333,"ĠSHALL":5334,"Ġlives":5335,"ĠLoc":5336,"Ġfront":5337,"claimer":5338,"atural":5339,"=\"\"></":5340,"Ġkwargs":5341,"Ġ_,":5342,"ĠAlso":5343,"49":5344,"Ġfn":5345,"avy":5346,"Ġtelevision":5347,"Rule":5348,"ĠWilli":5349,"short":5350,"ĠEXPRESS":5351,"Ġstarts":5352,"Loader":5353,"aled":5354,"rought":5355,"Ġservices":5356,"Host":5357,"erve":5358,"Ġplt":5359,"Ġfocus":5360,"Ġlayout":5361,"iller":5362,"Ġvariables":5363,"ĠSource":5364,"Ġautom":5365,"Ġcirc":5366,"ĠImage":5367,"ĠFrom":5368,"Ġmessages":5369,"aughter":5370,"ĠARISING":5371,"ynamic":5372,"Ġcomments":5373,"Ġusually":5374,"45":5375,"internal":5376,"Ġtrav":5377,"layout":5378,"ĠDavid":5379,"Ġinsert":5380,"dump":5381,"ĠLIABLE":5382,"uge":5383,"Ġtensor":5384,"enced":5385,"Ġcomb":5386,"Ġmember":5387,"icks":5388,"There":5389,"istory":5390,"custom":5391,"ala":5392,"initely":5393,"Top":5394,"ĠIr":5395,"ithub":5396,"Ġfell":5397,"getElement":5398,"ena":5399,"Ġseg":5400,"ĠMr":5401,"Ġunittest":5402,"47":5403,"Storage":5404,"Ġimages":5405,"ĠMock":5406,"ĠRich":5407,"Ġpolitical":5408,"Ġclasses":5409,"Ġctx":5410,"Ġgit":5411,"Ġapply":5412,"Ġcoq":5413,"che":5414,"Ġloss":5415,"ĠThursday":5416,"ĠJames":5417,"Ġ40":5418,"merc":5419,"ipe":5420,"Ġelect":5421,"ĠArrayList":5422,"Ġhero":5423,"ĠWHETHER":5424,"cell":5425,"ensive":5426,"anner":5427,"ĠCONTRACT":5428,"foo":5429,"false":5430,"Ġsql":5431,"itect":5432,"pped":5433,"Ġmaybe":5434,"åº":5435,"Ġwants":5436,"Ġopening":5437,"Ġsupported":5438,"Ġ],":5439,"step":5440,"ĠTORT":5441,"ĠAir":5442,"ĠLAT":5443,"components":5444,"hentication":5445,"ube":5446,"socket":5447,"Ġdisclaimer":5448,"each":5449,"Ġstat":5450,"spring":5451,"tools":5452,"ĠQt":5453,"Ġtaking":5454,"ederal":5455,"Ġmilitary":5456,"AU":5457,">'":5458,"game":5459,"Ġlargest":5460,"Ġrelig":5461,"Ġclassic":5462,"acle":5463,"Ġshape":5464,"case":5465,"Ġrout":5466,"ighb":5467,"Ġinvolved":5468,"Do":5469,"uel":5470,"Ġrom":5471,"Ġportray":5472,"Ġsem":5473,"family":5474,"Ġrc":5475,"Ġleading":5476,"Ġaverage":5477,"ĠSeptember":5478,"&#":5479,"Ġcalls":5480,"Ġconstant":5481,"home":5482,"Ġrules":5483,"sembly":5484,"ĠLIMITED":5485,"Ġansw":5486,"Ġ\".":5487,"Ġsocket":5488,"Dom":5489,"Ġtab":5490,"ĠAfric":5491,"AA":5492,"Param":5493,"cat":5494,"bootstrap":5495,"allow":5496,"Ġetc":5497,"Ġcross":5498,"Ġvector":5499,"ald":5500,"ĠEven":5501,"temp":5502,"ĠAccording":5503,"ĠLATIN":5504,"ĠPortug":5505,"Ġë":5506,"Ġtreat":5507,"Queue":5508,"Ġparam":5509,"Ġnor":5510,"Ġ'%":5511,"shape":5512,"Schema":5513,"agma":5514,"Ġimmedi":5515,"quare":5516,"ĠIOException":5517,"My":5518,"Ġ\"%":5519,"åĽ":5520,"=-":5521,"Ġ(":5522,"enty":5523,"Ġbecomes":5524,"Post":5525,"ĠAm":5526,"angle":5527,"ĠStatus":5528,"Ġsuccessful":5529,"06":5530,"å¼":5531,"ĠCONFIG":5532,"kg":5533,"Ġstage":5534,"Help":5535,"ĠEngland":5536,"Operation":5537,"ij":5538,"akers":5539,"Ġut":5540,"Ġexperience":5541,"Lock":5542,"Ġstupid":5543,"TABLE":5544,"ĠApr":5545,"Ġforward":5546,"Ġfac":5547,"uses":5548,"la":5549,"Ġdiffic":5550,"ifth":5551,"Ġlearn":5552,"Ġcomplex":5553,"Ġer":5554,"Ġnational":5555,"ĠCH":5556,"ridge":5557,"Ġconstructor":5558,"ĠIndex":5559,"ĠRobert":5560,"stats":5561,"Ġactiv":5562,"emp":5563,"ibet":5564,"EEEE":5565,"DS":5566,"pag":5567,"rees":5568,"ĠTask":5569,"energy":5570,"Ġprovides":5571,"Ġ\";":5572,"results":5573,"ĠFriday":5574,"math":5575,"ham":5576,">.":5577,"isk":5578,"product":5579,"Ġdifficult":5580,"None":5581,"va":5582,"Print":5583,"herit":5584,"Ġsaying":5585,"Ġmissing":5586,"ĠOct":5587,"validate":5588,"arp":5589,"Ġ=======":5590,"Ġoil":5591,"extend":5592,"loader":5593,"WN":5594,"inder":5595,"ĠView":5596,"Ġphys":5597,"VI":5598,"Ġequ":5599,"ìĿ":5600,"Ġ@.":5601,"Ge":5602,"Ġannounced":5603,"clean":5604,"Ġmid":5605,"chie":5606,"tool":5607,"ÃŃ":5608,"Rel":5609,"Ġ80":5610,"ously":5611,"Ġresearch":5612,"awn":5613,"Ġtx":5614,"Ġisland":5615,"istan":5616,"07":5617,"report":5618,"Ġfans":5619,"ĠRights":5620,"Ġscale":5621,"begin":5622,"65":5623,"ii":5624,"Ġsouth":5625,"Ġcursor":5626,"Ġgoto":5627,"Ġ@.@":5628,"ĠJanuary":5629,"31":5630,"Ġboring":5631,"eless":5632,"ĠIP":5633,"Edit":5634,"Ġ\"$":5635,"Ġ'__":5636,"aching":5637,"],":5638,"Ġnote":5639,"Ġsignific":5640,"etimes":5641,"Ġip":5642,"fortun":5643,"quired":5644,"ĠReserved":5645,"precated":5646,"java":5647,"Ġ21":5648,"area":5649,"compile":5650,"Ġmusical":5651,"padding":5652,"å¯":5653,"Ġamaz":5654,"ĠHash":5655,"ĠUN":5656,"Ġcoll":5657,"igr":5658,"Ġones":5659,"DL":5660,"Ġum":5661,"Enabled":5662,"illa":5663,"inding":5664,"EEEEFF":5665,"ological":5666,"zer":5667,"second":5668,"ĠTw":5669,"ĠHOLDER":5670,"Ġprep":5671,"Ġinteg":5672,"BAR":5673,"category":5674,"Ġnumpy":5675,"ixel":5676,"Ġincludes":5677,"bb":5678,"lege":5679,"ĠVer":5680,"Ġfine":5681,"Ġstorage":5682,"ĠLa":5683,"ĠBY":5684,"NavBarFont":5685,"emon":5686,"Ġtruly":5687,"Ġmoments":5688,"ĠPR":5689,"GL":5690,"ĠBOO":5691,"controller":5692,"Ġpress":5693,"entials":5694,"Ġrank":5695,"esc":5696,"Ġpush":5697,"ĠSPEC":5698,"ĠPal":5699,"modules":5700,"words":5701,"public":5702,"orary":5703,"aling":5704,"ria":5705,"Red":5706,"ĠEar":5707,"ĠRedistributions":5708,"PATH":5709,"Ġfair":5710,"Parse":5711,"copyright":5712,"inated":5713,"Ġmut":5714,"ĠGame":5715,"Ġkid":5716,"bs":5717,"tags":5718,"æī":5719,"prefix":5720,"Ġgames":5721,"ntax":5722,"Ġ60":5723,"Ġtorch":5724,"Generic":5725,"isc":5726,"SCR":5727,"ILE":5728,"SO":5729,"Ġmerge":5730,"long":5731,"lers":5732,"Ġple":5733,"Ġdeveloped":5734,"job":5735,"ĠSim":5736,"ĠExp":5737,"ropri":5738,"Ġsomew":5739,"ondon":5740,"network":5741,"Ġvoice":5742,"assign":5743,"esterday":5744,"}.":5745,"***":5746,"mplates":5747,"Ġbroad":5748,"ambda":5749,"construct":5750,"resol":5751,"bose":5752,"move":5753,"tmp":5754,"Ġdriv":5755,"Ġrecogn":5756,"Auth":5757,"osp":5758,"Ġ--------------------------------":5759,"rome":5760,"aign":5761,"Ġbi":5762,"Ġground":5763,"Rect":5764,"ĠSol":5765,"istr":5766,"orig":5767,"aa":5768,"ä¸į":5769,"Ġtour":5770,"ĠApril":5771,"åį":5772,"Ġbasic":5773,"ĠLink":5774,"Ġsometimes":5775,"Ġnearly":5776,"85":5777,"Sl":5778,"ĠSund":5779,"ĠOf":5780,"ĠJuly":5781,"Ð°Ð":5782,"ĠNode":5783,"ĠRequest":5784,"Ġ2000":5785,"force":5786,"Ġsad":5787,"Repository":5788,"hand":5789,"mitted":5790,"typ":5791,"Ġsusp":5792,"Ġlicens":5793,"ses":5794,"TestCase":5795,"compiler":5796,"Ġmonths":5797,"ĠGerman":5798,"fetch":5799,"Ġir":5800,"Ġbrought":5801,"ĠFunction":5802,"Ġoperations":5803,"Expression":5804,"Ġui":5805,"Delete":5806,"Ġtalent":5807,"alar":5808,"ĠLondon":5809,"Ġcoming":5810,"hem":5811,"imation":5812,"ĠDec":5813,"equiv":5814,"Ġmoved":5815,"atible":5816,"ĠCO":5817,"Ġ#################################################################":5818,"bot":5819,"Ġcommit":5820,"ĠEuropean":5821,"ĠPost":5822,"Ġnavigation":5823,"Net":5824,"Ġpicture":5825,"ĠNS":5826,"decode":5827,"Ġcard":5828,"PAR":5829,"Ġsocial":5830,"Ġcourt":5831,"attributes":5832,"Ptr":5833,"Ġeight":5834,"ĠBig":5835,"Ġpull":5836,"ĠStart":5837,"Ġemploy":5838,"after":5839,"irth":5840,"Ġweak":5841,"bel":5842,"hidden":5843,"isf":5844,"Ġinn":5845,"omy":5846,"ĠMost":5847,"Ġturned":5848,"inv":5849,"screen":5850,"ĠsetUp":5851,"ĠInteger":5852,"åľ¨":5853,"wrap":5854,"Ġden":5855,"Ġheaders":5856,".*;":5857,"Ġroute":5858,"REG":5859,"Byte":5860,"Found":5861,"ĠCall":5862,"ims":5863,"Ñĥ":5864,"Ġshoot":5865,"Pod":5866,"FORM":5867,"cover":5868,"Handle":5869,"atically":5870,"Ġaddition":5871,"Ġroles":5872,"Ġinstalled":5873,"ashing":5874,"Ġprogress":5875,"ocks":5876,"since":5877,"usband":5878,"Ġearth":5879,"mf":5880,"vement":5881,"utely":5882,"LIC":5883,"ffff":5884,"Ġdespite":5885,"Ġdrug":5886,"Ġhumor":5887,"ested":5888,"cloud":5889,"Ġissue":5890,"#!/":5891,"à¤¾":5892,"Ġgranted":5893,"Ġpsy":5894,"ĠPark":5895,"ĠMIT":5896,"ĠFin":5897,"Ġunless":5898,"Ġ32":5899,"apply":5900,"elling":5901,"Ġhigher":5902,"Ġve":5903,"Ġrelated":5904,"Ġqueue":5905,"Ġresources":5906,"ĠDI":5907,"Ġyesterday":5908,"ĠCONTRIBUT":5909,"incip":5910,"Layer":5911,"white":5912,"Ġpresident":5913,"fri":5914,"fill":5915,"license":5916,"STAT":5917,"Ġreceive":5918,"Ġterrible":5919,"Offset":5920,"Ġcore":5921,"Ġfi":5922,"Ġactions":5923,"Ġhistor":5924,"Ġremote":5925,"Body":5926,"Mapping":5927,"ĠSTR":5928,"Ġmask":5929,"Ġlonger":5930,"Ġstudy":5931,"Ġappend":5932,"Async":5933,"Ġreve":5934,"uler":5935,"ĠDB":5936,"Ġdirectly":5937,"éĢ":5938,"Ġstates":5939,"Ġsecret":5940,"Ġeasy":5941,"Ġproducts":5942,"Ġsplit":5943,"bing":5944,"ĠJune":5945,"legal":5946,"LS":5947,"Ġri":5948,"horizontal":5949,"ĠCONTRIBUTORS":5950,"Ġpars":5951,"ĠAction":5952,"ipeline":5953,"ening":5954,"Ġheard":5955,"Ġedit":5956,"Ġbuy":5957,"legate":5958,"Ġawful":5959,"Ġcounter":5960,"PS":5961,"echo":5962,"Ġbound":5963,"LOG":5964,"Ġpersonal":5965,"pository":5966,"NotNull":5967,"Adapter":5968,"HER":5969,"Mon":5970,"UES":5971,"osition":5972,"Ġsurv":5973,"æľī":5974,"Vert":5975,"Ġflow":5976,"elta":5977,"Ġ'./":5978,"ado":5979,"Ġopts":5980,"Ġseemed":5981,"ĠEm":5982,"Ġpolicy":5983,"Ġbrowser":5984,"Ġliving":5985,"webkit":5986,"Ġnumbers":5987,"dates":5988,"ĠSQL":5989,"Ġactress":5990,"aints":5991,"starts":5992,"hi":5993,"toggle":5994,"Ġwish":5995,"Head":5996,"void":5997,"ady":5998,"Ġexecute":5999,"Database":6000,"media":6001,"Display":6002,"rb":6003,"Ġcritic":6004,"border":6005,"gent":6006,"lg":6007,"Ġ/*!":6008,"Channel":6009,"Ġdecided":6010,"Ġdialogue":6011,"Debug":6012,"Editor":6013,"aked":6014,"headers":6015,"Ġwonderful":6016,"ĠBill":6017,"ORE":6018,"Ident":6019,"azy":6020,"Ġpopulation":6021,"Ġsymbol":6022,"Ġassum":6023,"ynchron":6024,"69":6025,"Ġdownload":6026,"ĠLong":6027,"ĠPre":6028,"Ġchance":6029,"\"><!--":6030,"Ġmetadata":6031,"ELL":6032,"Report":6033,"Ġnecessary":6034,"Ġinsp":6035,"ivil":6036,"Ġwaste":6037,"79":6038,"Ġdisable":6039,"Engine":6040,"craft":6041,"Ġliter":6042,"Ġlooked":6043,"iam":6044,"Ġswe":6045,"asing":6046,"Ġrock":6047,"Ġeyes":6048,"Tab":6049,"Ġentertain":6050,"ĠDIS":6051,"okes":6052,"Ġsit":6053,"inds":6054,"Metadata":6055,"elli":6056,"ampion":6057,"auto":6058,"ĠAuthor":6059,"ĠCount":6060,"Ġparticularly":6061,"SCRIPT":6062,"Ġliked":6063,"Ġ${":6064,"Ġencoding":6065,"ĠModel":6066,"Ġnodes":6067,"ĠDet":6068,"ertificate":6069,"dig":6070,"Ġmatrix":6071,"Ġhusband":6072,"Ġtries":6073,"Ġpublish":6074,"Ġensure":6075,"Ġloop":6076,"Ġmob":6077,"anies":6078,"ulated":6079,"ummy":6080,"Show":6081,"Ġfinancial":6082,"Ġstre":6083,"Mark":6084,"ancel":6085,"Ġindepend":6086,"igration":6087,"urric":6088,"ĠBen":6089,"profile":6090,"Ġcommands":6091,">\"":6092,"heme":6093,"Ġpool":6094,"ĠMethod":6095,"properties":6096,"Root":6097,"Ġstudents":6098,"Activity":6099,"Ġtechnology":6100,"Ġblood":6101,"Ġrent":6102,"ĠMake":6103,"Player":6104,"room":6105,"Ġdesc":6106,"attribute":6107,"Ġearlier":6108,"wd":6109,"ategy":6110,"hat":6111,"Ġprices":6112,"Ġmaterials":6113,"Ġflick":6114,"ference":6115,"Ġdomain":6116,"Ġtax":6117,"outer":6118,"Ġnorth":6119,"apshot":6120,"CHECK":6121,"fit":6122,"Ġenergy":6123,"Ġrepl":6124,"driver":6125,"inux":6126,"Ġlo":6127,"Ġcharge":6128,"creen":6129,"Ġcapital":6130,"ĠSunday":6131,"ĠSpec":6132,"ĠCreat":6133,"anned":6134,"springframework":6135,"eds":6136,"Ġmount":6137,"ades":6138,"Ġcre":6139,"DD":6140,"ĠGets":6141,"Ġsleep":6142,"Ġmyst":6143,"ulator":6144,"ncy":6145,"Ver":6146,"Ġreset":6147,"Ġfmt":6148,"ĠMac":6149,"Ġdefinitely":6150,"Ġcontroller":6151,"mercial":6152,"JSON":6153,"ĠTibet":6154,"desc":6155,"Long":6156,"Ġfant":6157,"Ġroad":6158,"Ġversions":6159,"Ġ{};":6160,"Ġphot":6161,"ĠInternational":6162,"Ġcases":6163,"imately":6164,"ĠNAV":6165,"plus":6166,"So":6167,"term":6168,"ĠBo":6169,"ĠField":6170,"faces":6171,"Ġachie":6172,"Ġrequests":6173,"Ġvolume":6174,"ĠII":6175,"ĠXML":6176,"Timeout":6177,"ĠallClasses":6178,"Ġseven":6179,"Ġmanagement":6180,"ĠallClassesLink":6181,"Main":6182,"icate":6183,"anging":6184,"hood":6185,"Ġemotion":6186,"ĠBOOST":6187,"jection":6188,"Ġtim":6189,"emy":6190,"ĠAlthough":6191,"tbody":6192,"Ġpointer":6193,"utor":6194,"ellig":6195,"atalog":6196,"ĠMag":6197,"Ġentert":6198,"Ġcertainly":6199,"metadata":6200,"ĠAbstract":6201,"dden":6202,"aterial":6203,"Ġworse":6204,"Num":6205,"OUT":6206,"hens":6207,"Ġmatches":6208,"helper":6209,">::":6210,"Has":6211,"Ġfemale":6212,"Ġsignificant":6213,"dist":6214,"arb":6215,"ĠCreated":6216,"Ġusage":6217,"generated":6218,"boost":6219,"quote":6220,"CODE":6221,"Ġdaughter":6222,"issing":6223,"ournal":6224,"lished":6225,"Ġord":6226,"Ġfinished":6227,"ĠGeorge":6228,"Pr":6229,"hold":6230,"DATA":6231,"how":6232,"zone":6233,"Ġhealth":6234,"Account":6235,"Ġexactly":6236,"Ġfavorite":6237,"ival":6238,"SR":6239,"hook":6240,"}/":6241,"Directory":6242,"Ġband":6243,"Ġ\"\",":6244,"ĠPoint":6245,"safe":6246,"Ġmot":6247,"ONE":6248,"riginal":6249,"%%%%":6250,"Ġshare":6251,"ä¸Ń":6252,"Ġfigure":6253,"Ġdriver":6254,"Ġenable":6255,"Who":6256,"hover":6257,"ĠMet":6258,"aight":6259,"hell":6260,"ara":6261,"Bytes":6262,"radius":6263,"Ġregarding":6264,"mask":6265,"atory":6266,"ĠHOLDERS":6267,"Ġstatement":6268,"ACE":6269,"Ġvisual":6270,"Ġrecent":6271,"Ġdirected":6272,"resources":6273,"Obj":6274,"quire":6275,"Ġbrother":6276,"SQL":6277,"ano":6278,"cpp":6279,"vention":6280,"Results":6281,"{%":6282,"ĠCong":6283,"Transform":6284,"rey":6285,"callback":6286,"ober":6287,"erc":6288,"ded":6289,"example":6290,"############":6291,"Ġ-=":6292,"Ġ22":6293,"Ġremoved":6294,"volution":6295,"Ġchart":6296,"alls":6297,"enable":6298,"overs":6299,"bytes":6300,"Ġarr":6301,"points":6302,"Ġabsolutely":6303,"Ġsens":6304,"Ġseconds":6305,"ĠColor":6306,"Ġproduced":6307,"Ġtypename":6308,"SERT":6309,"Ġindu":6310,"ĠAUTH":6311,"isted":6312,"DF":6313,"Ġforces":6314,"istics":6315,"Trace":6316,"Ġissues":6317,"Ġpages":6318,"Ġben":6319,"Ġ2017":6320,"language":6321,"å¾":6322,"42":6323,"rd":6324,"tw":6325,"Ġfill":6326,"Ġstories":6327,"ĠAuthors":6328,"Ġextract":6329,"illiant":6330,"acc":6331,"inst":6332,"fortunately":6333,"ĠNAVBAR":6334,"46":6335,"\\-":6336,"Ġreading":6337,"Ġstarting":6338,"ĠMarch":6339,"Pack":6340,"Var":6341,"ĠDEFAULT":6342,"vie":6343,"stry":6344,"Common":6345,"total":6346,"!<":6347,"Bl":6348,"Ste":6349,"ĠSM":6350,"ĠSimple":6351,"ĠCSS":6352,"EG":6353,"rf":6354,"ini":6355,"Ġbottom":6356,"Ġeditor":6357,"ĠNEW":6358,"Ġmoving":6359,"Ġlikely":6360,"hest":6361,"Ġmixed":6362,"ĠPC":6363,"Left":6364,"PU":6365,"Ġpub":6366,"Ġupdated":6367,"__':":6368,"Ġcontents":6369,"security":6370,"ĠInternet":6371,"Ġstraight":6372,"record":6373,"ifies":6374,"Go":6375,"æĿ":6376,"ĠVALUES":6377,"76":6378,"PER":6379,"Ġsales":6380,"Network":6381,"Dict":6382,"Parent":6383,"eries":6384,"Ġthreat":6385,"Ġhighly":6386,"Ġfrequ":6387,"ĠMessage":6388,"ĠWhy":6389,"Ġaccomp":6390,"ping":6391,"ened":6392,"ĠHouse":6393,"izable":6394,"Ġdemon":6395,"Co":6396,"stat":6397,"Ġgiving":6398,"obile":6399,"160":6400,"Ġturns":6401,"ĠValid":6402,"oices":6403,"ĠNAME":6404,"ĠâĢĶ":6405,"Ke":6406,"ario":6407,"lug":6408,"filename":6409,"submit":6410,"Ġhel":6411,"Ġ?></":6412,"ycle":6413,"high":6414,"Ġtesting":6415,"Support":6416,"Ġcru":6417,"Ġsett":6418,"ears":6419,"Ġtimeout":6420,"UM":6421,"fd":6422,"Ġruns":6423,"uan":6424,"æł":6425,"Ġdou":6426,"vey":6427,"Ġpaths":6428,"UBLIC":6429,"TC":6430,"URE":6431,"ĠAC":6432,"ĠDat":6433,"ĠApple":6434,"ĠParis":6435,"ateway":6436,"Ġparents":6437,"'}":6438,"ĠCent":6439,"errors":6440,"Ġlegal":6441,"Ġcomputer":6442,"ĠRemove":6443,"`,":6444,"Ġinvalid":6445,"ette":6446,"eclipse":6447,"Ġhidden":6448,"throws":6449,"mk":6450,"rot":6451,"ĠMont":6452,"UTF":6453,"Ġviewer":6454,"Ġaf":6455,"Ġfailure":6456,"pay":6457,"arning":6458,"PUT":6459,"wide":6460,"Ġoffice":6461,"Ġenjoyed":6462,"Ġmyself":6463,"Args":6464,"Ġfix":6465,"Ġareas":6466,"Ġnews":6467,"Ġregular":6468,"Ġfs":6469,"Resol":6470,"Ġextension":6471,"Active":6472,"private":6473,"Ġdoll":6474,"LOCK":6475,"Ġallows":6476,"writer":6477,"Ġdream":6478,"Ġbal":6479,"ĠOnly":6480,"margin":6481,"ĠINTO":6482,"component":6483,"ITE":6484,"Ġimg":6485,"Ġconstruct":6486,"Ġofficial":6487,"Ġentertaining":6488,"Ġindustry":6489,"perm":6490,"Ġattention":6491,"Before":6492,"Ġdeg":6493,"adian":6494,"grade":6495,"GE":6496,"ĠBSD":6497,"activ":6498,"required":6499,"ĠOctober":6500,"basic":6501,"Ġlos":6502,"ĠLoad":6503,"ĠWrite":6504,"rigger":6505,"spe":6506,"READ":6507,"views":6508,"Ġdrama":6509,"wrapper":6510,"Ġvalidate":6511,"Reference":6512,"Implement":6513,"inger":6514,"Ġends":6515,"Ġeduc":6516,"Ġdiscuss":6517,"ulous":6518,"assets":6519,"ĠassertThat":6520,"Ġlocated":6521,"Ġkept":6522,"Ġcorrespon":6523,"Bean":6524,"Policy":6525,"78":6526,"Ġmath":6527,",,":6528,"ORD":6529,"based":6530,"Ġdied":6531,"Ġfort":6532,"Ġtraining":6533,"Ġviolence":6534,"cing":6535,"ARD":6536,"Ġ2003":6537,"Pool":6538,"andid":6539,"contents":6540,"Ġestablished":6541,">';":6542,"Ġaspect":6543,"Ġoffer":6544,"BR":6545,"Wrapper":6546,"bus":6547,"limit":6548,"ĠPlease":6549,"ĠHO":6550,"assertFalse":6551,"Ġquarter":6552,"ĠBlack":6553,"verter":6554,"ifest":6555,"Custom":6556,"ä¼":6557,"ĠSan":6558,"ĠDan":6559,"ĠArt":6560,"ategories":6561,"Admin":6562,"esome":6563,"ĠNumber":6564,"ĠExt":6565,"NOT":6566,"Ġcurrently":6567,"lim":6568,"nodes":6569,"Ġapparent":6570,"Ġspir":6571,"Ġexpression":6572,"Ġimmediately":6573,"Ġil":6574,"ocr":6575,"ĠTemp":6576,"iant":6577,"Ġfactory":6578,"Ġhol":6579,"ille":6580,"Ġbattle":6581,"Ġprevent":6582,"Ġmeaning":6583,"Msg":6584,"iot":6585,"Ġcat":6586,"lower":6587,"pragma":6588,"plugins":6589,"ðŁ":6590,"Ġparty":6591,"%\"":6592,"startswith":6593,"urricane":6594,"Grid":6595,"ctor":6596,"Ġthinking":6597,"Ġ000":6598,"Ġutils":6599,"ĠPath":6600,"ĠAny":6601,"Remove":6602,"Ġfake":6603,"Ġevid":6604,"Ġperformed":6605,"ĠTechn":6606,"warning":6607,"Op":6608,"Ġways":6609,"Right":6610,"Ġloved":6611,"romise":6612,"Ġpropos":6613,"rael":6614,"modal":6615,"ĠProcess":6616,"orse":6617,"arrow":6618,"course":6619,"ĠTwo":6620,"ĠBack":6621,"ĠWork":6622,"Invalid":6623,"Items":6624,"ropriate":6625,"icket":6626,"Ġhands":6627,"53":6628,"OF":6629,"à®":6630,"Ġshift":6631,"iate":6632,"ĠSET":6633,"\">&":6634,"Ġended":6635,"IST":6636,"Job":6637,"global":6638,"Ġusername":6639,"ĠLee":6640,"Socket":6641,"ĠShow":6642,"Ġpi":6643,"notation":6644,"Ġcoord":6645,"orrect":6646,"Ġopin":6647,"Ġcredit":6648,"=\"{{":6649,"Ġalone":6650,"Ġ23":6651,"ĠQString":6652,"Windows":6653,"uri":6654,"Ġprec":6655,"HTTP":6656,"MAX":6657,"Ġbenef":6658,"loyment":6659,"~~~~~~~~":6660,"Ġlayer":6661,"unique":6662,"Ġfollowed":6663,"ĠNovember":6664,"video":6665,"Ġnature":6666,"Register":6667,"Ġ'',":6668,"Ġshared":6669,"MET":6670,"Ġcinema":6671,"ida":6672,"ĠMem":6673,"ĠEmp":6674,"aches":6675,"Ġtotally":6676,"Java":6677,"Simple":6678,"éĩ":6679,"Ġbrilliant":6680,"friend":6681,"Ġarriv":6682,"ledge":6683,"å¹":6684,"Ġcluster":6685,"Ġprofile":6686,"Install":6687,"thern":6688,"ãĢģ":6689,"storage":6690,"ĠDocument":6691,"ĠHigh":6692,"Ġsoci":6693,"Ġconcept":6694,"!\"":6695,"'},":6696,"Ġunicode":6697,"=-=-":6698,"normal":6699,"Ġclick":6700,"Ġbug":6701,"Ġofficials":6702,"ĠBuddh":6703,"Boolean":6704,"INGS":6705,"000000":6706,"background":6707,"Ġreadonly":6708,"Im":6709,"rial":6710,"Ġcollect":6711,"Password":6712,"cpu":6713,"eters":6714,"Ġperhaps":6715,"urrency":6716,"Ġsafe":6717,"Ġzero":6718,"Ġescape":6719,"Ġprovider":6720,"aturday":6721,"Bit":6722,"Ġdictionary":6723,"ECT":6724,"jo":6725,"rier":6726,"ĠRichard":6727,"Ġcontact":6728,"Ġmostly":6729,"Ġappears":6730,"Ġwarning":6731,"more":6732,"ĠINC":6733,"Ġskip":6734,"olf":6735,"Variable":6736,"Ġexpand":6737,"åĩ":6738,"iform":6739,"yg":6740,"Ġoverall":6741,"Ġworked":6742,"ä»¥":6743,"Ġhappened":6744,"Ġauth":6745,"Ġarchitect":6746,"Timer":6747,"XML":6748,"sleep":6749,"ĠExec":6750,"Ġ',":6751,"Ġbehavior":6752,"getLogger":6753,"ĠUI":6754,"Ġscient":6755,"âĢĶ":6756,"ĠIndian":6757,"tip":6758,"shall":6759,"Ġgenerally":6760,"Float":6761,"ĠBest":6762,"ĠINSERT":6763,"Fields":6764,"IE":6765,"ev":6766,"fc":6767,"ato":6768,"Ġhappens":6769,"Ġspecies":6770,"Statement":6771,"groups":6772,"wer":6773,"Ġhyp":6774,"Ġhook":6775,"Ġtried":6776,"theme":6777,"men":6778,"ĠMart":6779,"Ġboard":6780,"You":6781,"rian":6782,"ĠMore":6783,"othing":6784,"Ġderived":6785,"bad":6786,"ĠInput":6787,"Ġprice":6788,"Struct":6789,"ĠTEST":6790,"Ġchall":6791,"messages":6792,"Ġgetattr":6793,"irty":6794,"Ġoptional":6795,"ĠAnt":6796,"shared":6797,"Ġknew":6798,"ĠRepublic":6799,"Abstract":6800,"Ass":6801,"Mar":6802,"Ġbits":6803,"Ġmist":6804,"Ġlatest":6805,"lyph":6806,"ĠGL":6807,"Ġproper":6808,"ï¼ļ":6809,"Iterator":6810,"Ġcategory":6811,"children":6812,"ĠMain":6813,"Runtime":6814,"Ġtrain":6815,"strument":6816,"Ġfeeling":6817,"Ġgenre":6818,"break":6819,"route":6820,"lie":6821,"ker":6822,"asion":6823,"iles":6824,"Ġforced":6825,"ĠBer":6826,"Ġ51":6827,"Ġredirect":6828,"Ġ|=":6829,"Can":6830,"factory":6831,"matrix":6832,"Ġplans":6833,"Ġeventually":6834,"Ġguys":6835,"Ġdeliver":6836,"DIRECT":6837,"Ġestim":6838,"Ø§":6839,"Ġjump":6840,"Generator":6841,"bes":6842,"unn":6843,"Skip":6844,"Ġhuge":6845,"straint":6846,"Ġpositive":6847,"otal":6848,"Ġking":6849,"Ġgrid":6850,"Ġtrace":6851,"Ġcool":6852,"Ġadapt":6853,"PIO":6854,"Ġmess":6855,"ĠGreat":6856,"Ġrg":6857,"username":6858,"PECT":6859,"âĢĵ":6860,"POST":6861,"pattern":6862,"Äģ":6863,"blank":6864,"Non":6865,"ja":6866,"ĠHam":6867,"annels":6868,"Ġsizeof":6869,"ped":6870,"bal":6871,"upp":6872,"chan":6873,"Ġbey":6874,"andard":6875,"Ġaren":6876,"ancy":6877,"Ġslight":6878,"ĠChe":6879,"ĠFrance":6880,"Ġannoy":6881,"rieve":6882,"mut":6883,"lections":6884,"flag":6885,"========================================================================":6886,"Ġowner":6887,"Ġspan":6888,"FLAG":6889,"Ġhous":6890,"ĠTable":6891,"Ġready":6892,"ĠLogger":6893,"Ġevil":6894,"browser":6895,"ads":6896,"Ġwouldn":6897,"iterator":6898,"Ġspeak":6899,"ĠJapanese":6900,"Ġâ":6901,"Ġnative":6902,"Ġ1000":6903,"INTER":6904,"DEF":6905,"68":6906,"SA":6907,"Ġplayers":6908,"Ġfinish":6909,"æĸĩ":6910,"58":6911,"commit":6912,"Proxy":6913,"Ġexports":6914,"itation":6915,"ĠGO":6916,"ĠInst":6917,"Ġphone":6918,"lint":6919,"ĠRoman":6920,"Ġcontinued":6921,"Ġcommunity":6922,"Ġlicenses":6923,"Ġ.<":6924,"emo":6925,"greg":6926,"ĠSaturday":6927,"Ġbeyond":6928,"cceed":6929,"Ġmeta":6930,"Ġtensorflow":6931,"èĢ":6932,"umes":6933,"undred":6934,"Ġcentral":6935,"?>":6936,"Now":6937,"deprecated":6938,"eces":6939,"ÐµÐ":6940,"Ġamazing":6941,"ĠBel":6942,"setText":6943,"Ġschema":6944,"Ġteach":6945,"Enum":6946,"Ġeasily":6947,"TS":6948,"trace":6949,"Visible":6950,"article":6951,"Ġwarnings":6952,"GB":6953,"Ġnom":6954,"Extension":6955,"vin":6956,"æŀ":6957,"Ġwx":6958,"Ġpotential":6959,"Profile":6960,"ĠApplication":6961,"Ġcampaign":6962,"Ġmachine":6963,"exports":6964,"åĨ":6965,"inct":6966,"ĠDevelop":6967,"Ġextremely":6968,"rule":6969,"reshold":6970,"Ġchoice":6971,"hs":6972,"under":6973,"Ġdefinition":6974,"Ġdepth":6975,"Ġneighb":6976,"Ġignore":6977,"Game":6978,"kens":6979,"ĠiPod":6980,"Ġhear":6981,"Ġansible":6982,"Ġcommercial":6983,"ICT":6984,"Ġfinds":6985,"events":6986,"inx":6987,"Ġwild":6988,"ĠIts":6989,"Ġimm":6990,"Ġgirls":6991,"Ġfails":6992,"Registry":6993,"Ġweeks":6994,"ĠÂĸ":6995,"Ġstorm":6996,"Ġinternational":6997,"Ġ90":6998,"Ġcondition":6999,"KE":7000,"iers":7001,"iqu":7002,"Ġreader":7003,"ĠCustom":7004,"ĠOb":7005,"Ġsatisf":7006,"Ġverify":7007,"Sum":7008,"mber":7009,"æ³":7010,"Ġfolder":7011,"Ġbur":7012,"Ġnumer":7013,"Ġ$/":7014,"----------":7015,"mn":7016,"ito":7017,"Ġdependencies":7018,"getElementById":7019,"vari":7020,"Ġstrug":7021,"Ġ2001":7022,"ailed":7023,"utions":7024,"agon":7025,"AST":7026,"Ġshowing":7027,":`":7028,"ĠSam":7029,"Ġassign":7030,"ĠGold":7031,"Ġcompare":7032,"Ġship":7033,"ĠPage":7034,"straints":7035,"Ġtuple":7036,"Rece":7037,"timeout":7038,"ĠHere":7039,"ĠOper":7040,"ventory":7041,"Flow":7042,"ients":7043,"ĠCELL":7044,"Copy":7045,"=\"-":7046,"ĠPermission":7047,"spacing":7048,"mosp":7049,"ĠResource":7050,"Definition":7051,"Ġanimation":7052,"ASH":7053,"CD":7054,"Ġfprintf":7055,"Ġtowards":7056,"ĠLine":7057,"Ġdram":7058,"Ġdistance":7059,"icles":7060,"Pri":7061,"------":7062,"allclasses":7063,"collapse":7064,"Track":7065,"++++":7066,"generate":7067,"Ġcreating":7068,"-$":7069,"android":7070,"Ġexplo":7071,"Descriptor":7072,"Ġtalking":7073,"Ġprofession":7074,"Ġenabled":7075,"Ġquickly":7076,"vars":7077,"çĽ":7078,"Ġchurch":7079,"Ġdebut":7080,"typename":7081,"ech":7082,"git":7083,"Ġinitialize":7084,"ĠCanadian":7085,"72":7086,"bound":7087,"fb":7088,"Ñı":7089,"Ġsources":7090,"Ġlambda":7091,"lym":7092,"Memory":7093,"Ġriv":7094,"Ġstation":7095,":#":7096,"Ġ//----------------------------------------------------------------":7097,"><!--":7098,"Ġ26":7099,"Ġcompar":7100,"Ġyourself":7101,"Ġreached":7102,"ĠPUBLIC":7103,"ipher":7104,"90":7105,"had":7106,"ted":7107,"Ġfeed":7108,"âĢĻ":7109,"require":7110,"ĠVis":7111,"Ġspecify":7112,"lebr":7113,"Ġvot":7114,"aby":7115,"classmethod":7116,"Ġess":7117,"Ġboost":7118,"Ġsystems":7119,"Runner":7120,"Ġdesigned":7121,"mas":7122,"Ġalloc":7123,"Ġintellig":7124,"Ġentries":7125,"ĠGenerated":7126,"Ġfamous":7127,"Ġcomponents":7128,"ky":7129,"member":7130,"sync":7131,"Ġevalu":7132,"Ġfood":7133,"Ġrev":7134,"ĠGood":7135,"Ġhappy":7136,"PRE":7137,"ĠTex":7138,"ĠPhil":7139,"vable":7140,"Ġwidget":7141,"Ġnatural":7142,"channel":7143,"airs":7144,"Scope":7145,"ä»¶":7146,"ĠMusic":7147,"users":7148,"ĠElement":7149,"cons":7150,"ĠServer":7151,"Ġvictory":7152,"hetic":7153,"irq":7154,"ĠOS":7155,"FS":7156,"dp":7157,"Ġgrand":7158,"Ġmaximum":7159,"iring":7160,"Ġspeed":7161,"ĠClient":7162,"ĠYORK":7163,"memory":7164,"Services":7165,"43":7166,"Doc":7167,"tc":7168,"Ġkiller":7169,"ĠChristian":7170,"ĠCalif":7171,"ĠSets":7172,"ĠMax":7173,"Ġclub":7174,"Ã¤":7175,"selected":7176,"ĠPeter":7177,"Ġtruth":7178,"Ġclosed":7179,"ĠGree":7180,"Ġteen":7181,"CLA":7182,"iences":7183,"Ġsaved":7184,"Identifier":7185,"å½":7186,"apes":7187,"endar":7188,"destroy":7189,"DA":7190,"Media":7191,"warn":7192,"Ġ28":7193,"toBe":7194,"++)":7195,"release":7196,"editor":7197,"resents":7198,"Ġrecords":7199,"Attributes":7200,"references":7201,"Ġsorted":7202,"ĠOK":7203,"ĠKEY":7204,"Ġmeant":7205,"Ġsubstant":7206,"Rest":7207,"Ġfit":7208,"aped":7209,"ASK":7210,"Ġdistribute":7211,"Ġprimary":7212,"TY":7213,"datetime":7214,"ining":7215,"Ġpatch":7216,"Ġrare":7217,"Ġopened":7218,"ĠFranklin":7219,"Br":7220,"<<":7221,"Ġwarn":7222,"Ġoc":7223,"eff":7224,"Ġlaunch":7225,"ĠDescription":7226,"ĠItal":7227,"æĹ¶":7228,"Ġanswer":7229,"BIT":7230,"cember":7231,"Ġexplicit":7232,"nother":7233,"Ġsituation":7234,"Av":7235,"rine":7236,"Ġbillion":7237,"ĠSearch":7238,"Ġ70":7239,"æĶ":7240,"ĠReut":7241,"Ġridic":7242,"Ġconflic":7243,"57":7244,"Ġoh":7245,"Ġrepro":7246,"Ġele":7247,"ĠAlex":7248,"ĠBank":7249,"Ġchunk":7250,"expand":7251,"Pattern":7252,"Ġdefer":7253,"ĠOriginal":7254,"ifications":7255,"Ġfourth":7256,"ĠLibrary":7257,"Ġbeat":7258,"Ġvalign":7259,"overn":7260,"Me":7261,"OB":7262,"PH":7263,"Role":7264,"convert":7265,"Ġreviews":7266,"Ġpure":7267,"Func":7268,"Ġcle":7269,"ENTIAL":7270,"uint":7271,"Ġbomb":7272,"Ġlogin":7273,"ĠThread":7274,"ALSE":7275,"Ġspent":7276,"Ġpurpose":7277,"Ġopinion":7278,"aver":7279,"Ġsubprocess":7280,"Route":7281,"æį":7282,"Ġfixed":7283,"Selected":7284,"ĠContent":7285,"proto":7286,"loads":7287,"2014":7288,"ĠReuters":7289,"Ġmail":7290,"ĠCr":7291,"ĠDel":7292,"Const":7293,"Ġolder":7294,"LINE":7295,"well":7296,"Ġenumer":7297,"ours":7298,"Ġrequires":7299,"ĠArgs":7300,"ĠCorporation":7301,"cap":7302,"Ġpanel":7303,"Ġatmosp":7304,"Ġcompanies":7305,"icker":7306,"Ġownership":7307,"2015":7308,"spect":7309,"exist":7310,"LECT":7311,"Selection":7312,"Ġaward":7313,"roke":7314,"ĠCAP":7315,"allel":7316,"\"},":7317,"Ġroll":7318,"AI":7319,"Single":7320,"hide":7321,"ologies":7322,"ĠNetwork":7323,"Ġ2002":7324,"INFO":7325,"house":7326,"è¦":7327,"sidebar":7328,"ĠLeague":7329,"important":7330,"________":7331,"FP":7332,"inn":7333,"Ġremains":7334,"Import":7335,"repeat":7336,"ĠSum":7337,"Inv":7338,"Ġ64":7339,"VE":7340,"ĠDuring":7341,"Ġreality":7342,"ä¿":7343,"Ġ'\"":7344,"Ġweight":7345,"Ġ<!-->":7346,"éĹ":7347,"ority":7348,"Ġrot":7349,"logo":7350,"ĠExample":7351,"DEV":7352,"ĠIsrael":7353,"67":7354,"Ġepisodes":7355,"ĠKore":7356,"Ġsupporting":7357,"Sw":7358,"cur":7359,"ĠSC":7360,"HEAD":7361,"Ġpeace":7362,"ĠDecember":7363,"Ġtrig":7364,"Only":7365,"=\\\"":7366,"Ġwit":7367,"quence":7368,"Ġretain":7369,"Ġconsist":7370,"Ġstats":7371,"Ġdecent":7372,"Ġedge":7373,"CONFIG":7374,"cm":7375,"hib":7376,"wp":7377,"Ġment":7378,"Ġchoose":7379,"Ġjs":7380,"ornia":7381,"Ġpsych":7382,"WI":7383,"atively":7384,"EMPL":7385,"ĠMiss":7386,"ellij":7387,"Ġterror":7388,"Ġcart":7389,"Gui":7390,"Ġheavy":7391,"Ġkilling":7392,"xFF":7393,"Ġrm":7394,"ĠJul":7395,"Ġsucceed":7396,"umbn":7397,"PD":7398,"Ġball":7399,"ä¸º":7400,"ĠScott":7401,"detail":7402,"jquery":7403,"ĠHen":7404,"Ġmodification":7405,"Ġnavbar":7406,"?\"":7407,"ĠConfiguration":7408,"Fail":7409,"Ġult":7410,"intellij":7411,"uplic":7412,"ecret":7413,"81":7414,"Play":7415,"ago":7416,"loop":7417,"icted":7418,"Ġpermitted":7419,"Ġreasons":7420,"ĠRegister":7421,"isters":7422,"ĠWill":7423,"Ġflash":7424,"Ġbegins":7425,"aste":7426,"Ġmodules":7427,"SER":7428,"Ġshock":7429,"achment":7430,"Ġeconomic":7431,"NET":7432,"zip":7433,"Ġfetch":7434,"Ġrace":7435,"Ġreven":7436,"Ġaltern":7437,"hern":7438,"Ġdelay":7439,"Ġcompleted":7440,"Ġ\"#":7441,"Ġshowed":7442,"Ġprison":7443,"Ġdecision":7444,"stdout":7445,"ĠTR":7446,"Ġcompl":7447,"lan":7448,"ĠBlock":7449,"RAM":7450,"Ġadult":7451,"ĠImportError":7452,"54":7453,"itles":7454,"Ġdogs":7455,"ĠPeople":7456,"stitute":7457,"Ġdump":7458,"Ġchain":7459,"Ġquestions":7460,"ĠDISCLA":7461,"Ġhar":7462,"Ġ500":7463,"flush":7464,"done":7465,"æİ":7466,"async":7467,"ĠLeg":7468,"Ġcolumns":7469,"Ġcontract":7470,"ancing":7471,"MODE":7472,"github":7473,"ĠPlym":7474,"ĠJon":7475,"ĠFranc":7476,"Returns":7477,"Transaction":7478,"Ġincred":7479,"íķ":7480,"ĠSun":7481,"Ġcontributors":7482,"ĠACTION":7483,"Ġ'</":7484,"->{":7485,"Qt":7486,"å·":7487,"Ġforget":7488,"Ġoccurre":7489,"uit":7490,"Ġpen":7491,"ublished":7492,"Ġsummary":7493,"Ġcaused":7494,"Framework":7495,"Ġgreatest":7496,"Ġcountries":7497,"Ġcarry":7498,"Flags":7499,"Ġsun":7500,"Ġsignal":7501,"Ġautomatically":7502,"ĠMary":7503,"oreign":7504,"Rev":7505,"Ġinstit":7506,"CHAR":7507,"Ġdemonstr":7508,"ĥ½":7509,"ĠTim":7510,"...<":7511,"IDENT":7512,"IA":7513,"Ġhers":7514,"Ġtrail":7515,"ircle":7516,"Ġdu":7517,"Ġschedule":7518,"phone":7519,"Ġappeared":7520,"Domain":7521,"omp":7522,"Ġstored":7523,"functions":7524,"Sol":7525,"ĠRoy":7526,"Ġenter":7527,"gui":7528,"erefore":7529,"atin":7530,"ĠNOTICE":7531,"Ġtrigger":7532,"bert":7533,"Ġhundred":7534,"ffect":7535,"Ġremain":7536,"Events":7537,"rent":7538,"ĠSince":7539,"ĠMor":7540,"Ġtransport":7541,"dim":7542,"merge":7543,"Ġvisible":7544,"Ġtells":7545,"Ġsexual":7546,"<>;":7547,"export":7548,"recated":7549,"cy":7550,"upt":7551,"Ġmd":7552,"ĠARE":7553,"Ġdefe":7554,"Ġdisabled":7555,"SEQU":7556,"82":7557,"Conn":7558,"Ġstudent":7559,"84":7560,"Ġtro":7561,"ĠRiver":7562,"Ġwrapper":7563,"Ġasked":7564,"Opt":7565,"before":7566,"ĠItem":7567,"DEBUG":7568,"ĠArgument":7569,"special":7570,"Ġdro":7571,"Ġnation":7572,"://":7573,"boolean":7574,"cpy":7575,"eq":7576,"Ġcivil":7577,"Ġshut":7578,"Ġcalling":7579,"ĠIndia":7580,"Ġhorrible":7581,"Ġhighest":7582,"Feature":7583,"ĠSMALL":7584,"role":7585,"Ġactivity":7586,"Ġtransfer":7587,"ĠIsland":7588,"Ġstock":7589,"mfony":7590,"called":7591,"ĠPri":7592,"ĠDom":7593,"getInstance":7594,"Ġsha":7595,"ĠInitial":7596,"DTD":7597,"ND":7598,"Ġbiggest":7599,"Renderer":7600,"Ġ#############################################################################":7601,"mat":7602,"isis":7603,"Ġreach":7604,"forEach":7605,"Ġrepresentation":7606,"}{":7607,"ulk":7608,"Ġresc":7609,"while":7610,"è§":7611,"Ġthous":7612,"Ġselection":7613,"raises":7614,"atives":7615,"Ġreject":7616,"cks":7617,"Ġanc":7618,"Ġrecently":7619,"useum":7620,"Sn":7621,"Ġhasattr":7622,"enabled":7623,"Ġrelay":7624,"Ġdiff":7625,"taining":7626,"Ġast":7627,"Ġbelong":7628,"HERE":7629,"orthern":7630,"ecause":7631,"åı¯":7632,"tabs":7633,"clusion":7634,"ees":7635,"ĠRet":7636,"Ġtrouble":7637,"Ġunits":7638,"Ġflat":7639,"ĠEvery":7640,"Ġtravel":7641,"Ġamb":7642,"protocol":7643,"Ġarm":7644,"Ġappropriate":7645,"redirect":7646,"player":7647,"ĠCOM":7648,"ĠQT":7649,"oving":7650,"ĠReport":7651,"rend":7652,"ĠOutput":7653,"kind":7654,"sect":7655,"Global":7656,"simple":7657,"Ġpersons":7658,"ford":7659,"Ġwood":7660,"ĠCor":7661,"ĠEach":7662,"heduler":7663,"Ġbranch":7664,"Ġincrease":7665,"van":7666,"enge":7667,"Ġhaven":7668,"Ġ021":7669,"ĠJew":7670,"NotFound":7671,"Selector":7672,"SU":7673,"double":7674,"Ġrows":7675,"Ġ//#":7676,"Ġ27":7677,"REE":7678,"Ġknows":7679,"Scale":7680,"Ġradio":7681,"ĠEarth":7682,"Ġfully":7683,"Ġpriv":7684,"Ġgone":7685,"Ġminute":7686,"ĠRuntime":7687,"liter":7688,"Ġcrim":7689,"Ġinj":7690,"Ġpartial":7691,"lor":7692,"environ":7693,"Ġill":7694,"Ġprotest":7695,"Ġusual":7696,"Ġparticip":7697,"äºĨ":7698,"MIN":7699,"ĠTABLE":7700,"Ġrisk":7701,"TRANS":7702,"Ġcal":7703,"Ġbin":7704,"Ġpowerful":7705,"FC":7706,"ç½":7707,"Ġintended":7708,"Ð¸Ð":7709,"AVE":7710,"Ġsomewhat":7711,"WIN":7712,"é¡":7713,"Ġcam":7714,"shadow":7715,"Ġprev":7716,"Ġraised":7717,"Ġpayload":7718,"Ġcheap":7719,"Ġagreements":7720,"ĠDIRECT":7721,"Save":7722,"atio":7723,"Ġpal":7724,"osen":7725,"Ġforeign":7726,"iding":7727,"ĠNON":7728,"Ġtransaction":7729,"switch":7730,"car":7731,"vc":7732,"ĠðŁ":7733,"ĠRock":7734,"Ġgoal":7735,"ashington":7736,"ĠItalian":7737,"anguages":7738,"prev":7739,"azz":7740,"Ġcelebr":7741,"ierarch":7742,"Ġanti":7743,"Send":7744,"timer":7745,"anish":7746,"ĠALIGN":7747,"52":7748,"aming":7749,"Ġability":7750,"Ġvm":7751,"braries":7752,"parameters":7753,"bd":7754,"Ġpreviously":7755,"Validator":7756,"Ġ****************************************************************************":7757,"ĠSecurity":7758,"ĠModule":7759,"ĠRussian":7760,"Ġ\"-//":7761,"41":7762,"ashes":7763,"ĠDirect":7764,"Ġcontest":7765,"LL":7766,"Ġlimited":7767,"Ġcrime":7768,"ĠRad":7769,"=====":7770,"initial":7771,"ctx":7772,"Ġ//////////////////////////////////":7773,"ĠEnt":7774,"added":7775,"ĠSTART":7776,"ĠAustralia":7777,"GPL":7778,"Conf":7779,"Ġviewers":7780,"ĠArch":7781,"fire":7782,"ication":7783,"ĠDay":7784,"razy":7785,"namespace":7786,"ĠAngel":7787,"Ġbirth":7788,"Ġreli":7789,"olic":7790,"Ġgrowth":7791,"Ġculture":7792,"Double":7793,"Ġwer":7794,"ĠSto":7795,"ĠSIZE":7796,"ĠCup":7797,"ĠLet":7798,"ĠMad":7799,"Ġplain":7800,"Ġplaces":7801,"ĠIdol":7802,"fix":7803,"Ã£":7804,"Ġodd":7805,"Ġnorm":7806,"ashion":7807,"pportun":7808,"à¤°":7809,"Ġreports":7810,"lik":7811,"Ġattract":7812,"à¥ĩ":7813,"Caml":7814,"RR":7815,"Vari":7816,"fx":7817,"Ġgod":7818,"final":7819,"Ġsig":7820,"ĠBush":7821,"owers":7822,"ĠFILE":7823,"ander":7824,"Ġrating":7825,"ITAL":7826,"Ġurllib":7827,"NG":7828,"_,":7829,"bool":7830,"Ġmk":7831,"ANCE":7832,"ĠPlace":7833,"Ġeye":7834,"Ġentertainment":7835,"Dest":7836,"mine":7837,"Ġnarr":7838,"ĠLook":7839,"Ġaudio":7840,"Ġlabels":7841,"Sync":7842,"nos":7843,"tod":7844,"¦Ĥ":7845,"oms":7846,"Ġunf":7847,"ersistence":7848,"Ġbrief":7849,"overview":7850,"ĠEXPECT":7851,"Ġdoubt":7852,"87":7853,"inator":7854,"Ġundef":7855,"Ġstated":7856,"avi":7857,"uman":7858,"ĠFifth":7859,"Ġagent":7860,"Ġcinemat":7861,"El":7862,"aration":7863,"Ġalert":7864,"Ġworkers":7865,"ĠMAX":7866,"changed":7867,"Ġcompared":7868,"Ġseparate":7869,"EQ":7870,"za":7871,"Ġsoft":7872,"ountry":7873,"Ġconcert":7874,"åĢ":7875,"Ġsuit":7876,"logging":7877,"ĠCalifornia":7878,"Ġsubstantial":7879,"dk":7880,"Ġbooks":7881,"Db":7882,"Ġclim":7883,"DateTime":7884,"Space":7885,"ĠNet":7886,"ĠUnion":7887,"Supp":7888,"Ġpromote":7889,"Ġyes":7890,"Ġputs":7891,"onym":7892,"Lin":7893,"Language":7894,"Ñĭ":7895,"Ġsister":7896,"ictor":7897,"services":7898,"NECTION":7899,"Ġherself":7900,"Ret":7901,"Ġcompos":7902,"ĠStar":7903,"Ġdetect":7904,"uing":7905,"ĠCR":7906,"database":7907,"FUN":7908,"Ġauthors":7909,"Ġleader":7910,"Ġevidence":7911,"\"`":7912,"Ġfoo":7913,"abit":7914,"dep":7915,"Product":7916,"oxy":7917,"collect":7918,"Ġreligious":7919,"Duration":7920,"Ġpil":7921,"ĠPower":7922,"ĠPlymouth":7923,"bc":7924,"sample":7925,"CONT":7926,"RING":7927,"Ġdivision":7928,"è¿Ļ":7929,"Ġsal":7930,"Ġupper":7931,"atever":7932,"prep":7933,"Ġattempts":7934,"ospital":7935,"Should":7936,"Ġexecution":7937,"Ġsequences":7938,"ĠSPECIAL":7939,"eval":7940,"rand":7941,"Ã§":7942,"inline":7943,"ĠMat":7944,"Ġapprec":7945,"Ġshell":7946,"Ġsolar":7947,"Ġstudio":7948,"ĠAUTHORS":7949,"Ne":7950,"pages":7951,"primary":7952,"æŃ":7953,"Ġprem":7954,"Ġagree":7955,"ASSERT":7956,"Ġloaded":7957,"Ġfalls":7958,"bi":7959,"defined":7960,"CEPT":7961,"builder":7962,"PA":7963,"SV":7964,"Ġ31":7965,"Ġviews":7966,"ounce":7967,"moz":7968,"Prefix":7969,"Security":7970,"when":7971,"ĠWashington":7972,"Ġmodified":7973,"Ġtasks":7974,"throp":7975,"Ġprop":7976,"ĠAtl":7977,"Ġpan":7978,"Ġgreater":7979,"Ġindependent":7980,"Ġfurn":7981,"Ġcompiler":7982,"Ġletter":7983,"63":7984,"Del":7985,"FO":7986,"Html":7987,"scroll":7988,"uous":7989,"Ġcs":7990,"Ġpul":7991,"ros":7992,"coming":7993,"Ġsigned":7994,"provider":7995,"Ġdemand":7996,"Ġapproach":7997,"sters":7998,"Ġstaff":7999,"undef":8000,"LOW":8001,"ĠBuffer":8002,"Ġartist":8003,"Ġwestern":8004,"SEQUENTIAL":8005,">\";":8006,"Ġboot":8007,"ura":8008,"Ġinstances":8009,"blockList":8010,"lab":8011,"Ġmale":8012,"Ġanalysis":8013,"ĠJim":8014,"Ġeth":8015,"ĠDar":8016,"ĠResult":8017,"Ġeffective":8018,"Li":8019,"ĠServ":8020,"ĠUK":8021,"ONG":8022,"Ġstrange":8023,"Ġprotocol":8024,"ĠDev":8025,"00000000":8026,"ĠWilliam":8027,"Ġwid":8028,"Ġdoor":8029,"Ġmarker":8030,"Ġfighting":8031,"Ġreplaced":8032,"æĢ":8033,"ĠFloor":8034,"Ġsubt":8035,"Ġdefaults":8036,"byte":8037,"ĠAnn":8038,"Append":8039,"Ġappearance":8040,"west":8041,"Ġfav":8042,"ĠLove":8043,"Vertex":8044,"Ġahead":8045,"Ġpra":8046,"Ġdrive":8047,"ĠReact":8048,"disable":8049,"volume":8050,"Decl":8051,"ĠBO":8052,"ĠResponse":8053,"Ġcosts":8054,"ADDR":8055,"åĮ":8056,"unicode":8057,"Screen":8058,"Ġexamples":8059,"Ġleaving":8060,"Step":8061,"EC":8062,"bas":8063,"batch":8064,"Ġbatch":8065,"illing":8066,"ĠKh":8067,"HOD":8068,"ArrayList":8069,"ĠCAPITAL":8070,"/*":8071,"Ġfederal":8072,"Ġhilar":8073,"><?":8074,"bruary":8075,"Ġtransp":8076,"assertIs":8077,"ĠCONSEQUENTIAL":8078,"processor":8079,"è¦ģ":8080,"fall":8081,"enum":8082,"Ġmix":8083,"aily":8084,"upload":8085,"iano":8086,"Frames":8087,"Ġintroduced":8088,"Ġoriginally":8089,"Ã¶":8090,"orough":8091,"Ġtheat":8092,"ĠMex":8093,"ĠOld":8094,"ĠEast":8095,"Ġleads":8096,"Author":8097,"JECT":8098,"Ġcrew":8099,"ĠIm":8100,"serial":8101,"Ġfollows":8102,"ĠĠĠĠ":8103,"Ġcontributor":8104,"direct":8105,"present":8106,"inates":8107,"erial":8108,"Ġ#!/":8109,"Ġonline":8110,"unlock":8111,"ĠMany":8112,"ĠINDIRECT":8113,"mes":8114,"ni":8115,"Ġimpact":8116,"Ġprincip":8117,"Ġrecorded":8118,"Ġsummer":8119,"exceptions":8120,"ĠAttribute":8121,"supported":8122,"Ġobviously":8123,"igrations":8124,"RINGE":8125,"Mapper":8126,"Ġpaint":8127,"ĠRUN":8128,"Ġmanaged":8129,"Ġplaceholder":8130,"Ġnegative":8131,"Implemented":8132,"Ġ02110":8133,"non":8134,"Ġpaper":8135,"Ġ//!":8136,"Where":8137,"Ġmatching":8138,"1301":8139,"details":8140,"RINGEMENT":8141,"diff":8142,"idence":8143,"ĠCOL":8144,"Ġ//-->":8145,"ĠBus":8146,"ĠWal":8147,"Ġru":8148,"Ġwp":8149,"Ġopportun":8150,"Ġthus":8151,"Ġsymp":8152,"EV":8153,"ĠPrint":8154,"ĠWAY":8155,"Ġinterpre":8156,"iliar":8157,"aui":8158,"IBILITY":8159,"Ġpossibly":8160,"dialog":8161,"Ġclic":8162,"ĠTop":8163,"scar":8164,"ToString":8165,"128":8166,"Scroll":8167,"organ":8168,"ĠCoq":8169,"BM":8170,"Ġinterested":8171,"Ġresolve":8172,"ĠGreen":8173,"ĠAmericans":8174,"SM":8175,"king":8176,"isher":8177,"Ġshots":8178,"DT":8179,"Pair":8180,"focus":8181,"riage":8182,"Ġassembly":8183,"erman":8184,"master":8185,"atar":8186,"Ġ'_":8187,"Ġlookup":8188,"ĠParse":8189,"Depend":8190,"IVE":8191,"cred":8192,"Ġcrap":8193,"Ġthou":8194,"sem":8195,"ĠIl":8196,"ĠDown":8197,"Ġtranslate":8198,"ĠQuery":8199,"Sort":8200,"runtime":8201,"Ġproducer":8202,"Ġcorp":8203,"Ġdevices":8204,"ACT":8205,"WR":8206,"ashed":8207,"Ġsurround":8208,"identifier":8209,"agent":8210,"Ġtrade":8211,"ourt":8212,"collection":8213,"Navigation":8214,"Ġsoundtrack":8215,"Dr":8216,"nce":8217,"ĠOh":8218,"ĠYour":8219,"InputStream":8220,"Pay":8221,"nost":8222,"invalid":8223,"Ġexternal":8224,"anks":8225,"ĠTemplate":8226,"Ġschools":8227,"ĠFebruary":8228,"è¡Į":8229,"Vol":8230,"den":8231,"ĠCG":8232,"ĠEVEN":8233,"ĠSUCH":8234,"ĠPass":8235,"ossible":8236,"Internal":8237,"Ġ?>\"":8238,"Ġoptim":8239,"DES":8240,"dc":8241,"note":8242,"Ġsignature":8243,"Ġminor":8244,"Ġpresence":8245,"LIN":8246,"Ġfresh":8247,"Ġleaves":8248,"registry":8249,"FFFF":8250,"Processor":8251,"Auto":8252,"Pe":8253,"UNT":8254,"orrow":8255,"ãģ®":8256,"Ġcompute":8257,"oned":8258,"ĠJer":8259,"generator":8260,"delay":8261,"ho":8262,"Ġcurl":8263,"Ġspirit":8264,"NN":8265,"heel":8266,"Ġnuc":8267,"Ġunknown":8268,"cluded":8269,"hadoop":8270,"ĠDu":8271,"usion":8272,"ĠÐ¿":8273,"related":8274,"Ġannoying":8275,"big":8276,"Ġfol":8277,"ublish":8278,"ĠMal":8279,"ĠMil":8280,"\"><?":8281,"\":\"":8282,"Ġlisten":8283,"mc":8284,"ĠOl":8285,"umbnail":8286,"74":8287,"mbols":8288,"configuration":8289,"à¥į":8290,"JS":8291,"ëĭ":8292,"ita":8293,"agger":8294,"Ġconstruction":8295,"ĠDelete":8296,"Ġphil":8297,"commands":8298,"Ġhonest":8299,"TON":8300,"World":8301,"ĠSl":8302,"Ġtypical":8303,"Ġxmlns":8304,"ĠLocal":8305,"PP":8306,"Sql":8307,"rules":8308,"single":8309,"å¸":8310,"ĠDem":8311,"ARG":8312,"Ġdetail":8313,"mount":8314,"inherit":8315,"Ġforg":8316,"keyword":8317,"Ġhelped":8318,"Ġcritics":8319,"Ġocaml":8320,"Folder":8321,"inf":8322,"Ġfirm":8323,"Ġhide":8324,"ä¸Ĭ":8325,"INFRINGEMENT":8326,"ĠAssoci":8327,"pio":8328,"ĠSand":8329,"ĠDiv":8330,"ĠJson":8331,"Ġprime":8332,"Ġwinning":8333,"helpers":8334,"CharField":8335,"})":8336,"Ġrepe":8337,"ĠCore":8338,"ĠGermany":8339,"ĠINCIDENT":8340,"Ġcref":8341,"Texture":8342,"Many":8343,"Second":8344,"_->":8345,"ç§":8346,"icip":8347,"istant":8348,"Ġdocumentary":8349,"2013":8350,"ĠTeam":8351,"Ġfootball":8352,"ban":8353,"ĠLou":8354,"ĠFort":8355,"berg":8356,"TF":8357,"Ġtimer":8358,"Ġcombin":8359,"Ġreproduce":8360,"Category":8361,"å¦Ĥ":8362,"Ġconcer":8363,"trl":8364,"ĠGPL":8365,"istribution":8366,"testing":8367,"apsed":8368,"caption":8369,"ĠPOSS":8370,"51":8371,"oul":8372,"Ġrich":8373,"Ġclearly":8374,"ĠWhitehead":8375,"Ġupload":8376,"Resources":8377,"Ġsubs":8378,"ĠQgs":8379,"ĠCommon":8380,"Ġaxis":8381,"Ġphysical":8382,"Ġsociety":8383,"Ġprograms":8384,"riteria":8385,"Ġconcern":8386,"ĠCreates":8387,"ĠInvalid":8388,"Ġcollege":8389,"ronic":8390,"ç¨":8391,"efile":8392,"shift":8393,"Protocol":8394,"Section":8395,"ĠZend":8396,"Temp":8397,"ĠINCIDENTAL":8398,"Driver":8399,"Ġsup":8400,"Ġlay":8401,"ĠLinux":8402,"pected":8403,"ĠFlor":8404,"scribe":8405,"Keys":8406,"Random":8407,"ĠPat":8408,"ensity":8409,"ĠInitialize":8410,"Ġcp":8411,"Ġprefer":8412,"Ġpurch":8413,"Ġbre":8414,"DULE":8415,"Ġveh":8416,"GER":8417,"NING":8418,"mi":8419,"Ã¥":8420,"Ġdi":8421,"ĠSD":8422,"Ġstyles":8423,"ĠGrand":8424,"ĠAustralian":8425,"Member":8426,"Ġadm":8427,"Ġwide":8428,"asty":8429,"contains":8430,"ĠCONNECTION":8431,"Ġlevels":8432,"Ġstreng":8433,"+\"":8434,"sf":8435,"Ġinner":8436,"Ġ\"\">":8437,"extract":8438,"arts":8439,"Ġblocks":8440,"VISED":8441,"Ġda":8442,"ĠDest":8443,"ĠJo":8444,"forms":8445,"Ġcancel":8446,"Ġpermit":8447,"CLK":8448,"policy":8449,"Ġsegment":8450,"escape":8451,"Ġridiculous":8452,"Ġrepository":8453,"ĠLife":8454,"COMP":8455,"agers":8456,"Ġ'-":8457,"ĠDATA":8458,"pping":8459,"Ġcolors":8460,"viewport":8461,"Ġdepends":8462,"ĠADVISED":8463,"Ġhilarious":8464,"ĠPOSSIBILITY":8465,"Ġmoves":8466,"many":8467,"Ġideas":8468,"sequence":8469,"AF":8470,"hd":8471,"Ġmacro":8472,"Ġwaiting":8473,"Ġcreation":8474,"ĠDatabase":8475,"Move":8476,"Ġwrap":8477,"ushed":8478,"Ġprote":8479,"Ġprompt":8480,"indent":8481,"links":8482,"Ġportions":8483,"Ġjobs":8484,"ĠOrder":8485,"jpg":8486,"ĠMaybe":8487,"Ġ29":8488,"ORDER":8489,"Ġpartner":8490,"ĠEnter":8491,"-------------":8492,"ĠDAMAGE":8493,"Ġignored":8494,"Ġdisappointed":8495,"cfg":8496,"pair":8497,"road":8498,"ĠSelect":8499,"iki":8500,"Success":8501,"Ġconnected":8502,"Ġatmosphere":8503,"Ġê":8504,"Ġmill":8505,"Ġmapping":8506,"ĠCap":8507,"ĠReal":8508,"compat":8509,"ĠSTRICT":8510,"arger":8511,"ota":8512,"columns":8513,"Ġobserv":8514,"clone":8515,"ĠMinister":8516,"IMED":8517,"ĠTransitional":8518,"AUSED":8519,"Ġsync":8520,"Ġemer":8521,"Ġgiant":8522,"ĠBoolean":8523,":'":8524,"===":8525,"izations":8526,"erves":8527,"ĠNotImplemented":8528,"ipped":8529,"initions":8530,"Ġserved":8531,"orable":8532,"sey":8533,"ĠAli":8534,"ĠOptions":8535,"accept":8536,"WEVER":8537,"iation":8538,"ÑĮ":8539,"-------":8540,"endor":8541,"Stop":8542,"Ġsprint":8543,"Ġproduce":8544,"ĠTexas":8545,"cert":8546,"icient":8547,"ivery":8548,"Ġfilmm":8549,"Ġcloud":8550,"Ġhereby":8551,"download":8552,"smart":8553,"Ġpackages":8554,"Email":8555,"cal":8556,"po":8557,"Ġ^":8558,"Ġplaced":8559,"Ġfactor":8560,"Ġencoded":8561,"Ġbroadcast":8562,"ĠTemple":8563,"Ġeast":8564,"Ġcomic":8565,"ĠSymfony":8566,"bits":8567,"Ġts":8568,"Fragment":8569,"FORMAT":8570,"Ġpieces":8571,"Ġfear":8572,"Ġwall":8573,"Ġcomm":8574,"ä¸Ģä¸ª":8575,"ĠHOWEVER":8576,"ki":8577,"orry":8578,"etic":8579,"ĠAre":8580,"fff":8581,"Cond":8582,"Ġwriters":8583,"VM":8584,"Î±":8585,"rif":8586,"Ġincreased":8587,"ĠPortugal":8588,"CM":8589,"rpc":8590,"Ġsess":8591,"**/":8592,"Ġ./":8593,"IOException":8594,"Sample":8595,"variable":8596,"axis":8597,"Ġcoast":8598,"ĠChurch":8599,"ÐµÐ½":8600,"Ġsurprised":8601,"operator":8602,"ĠOptional":8603,"Ġeducation":8604,"97":8605,"directory":8606,"seg":8607,"Ġglob":8608,"ĠBit":8609,"orest":8610,"Ġadds":8611,"Ġrecover":8612,"Ġblue":8613,"Ġattacks":8614,"Ġeconomy":8615,"Ġefforts":8616,"Ġera":8617,"orate":8618,"Ġfru":8619,"ĠBad":8620,"ĠWHERE":8621,"ERS":8622,"Ġresponsible":8623,"Deprecated":8624,";\"":8625,"rece":8626,"Ġcv":8627,"allery":8628,"Ġscience":8629,"Ġ300":8630,"Ġclone":8631,"ĠCommun":8632,"otten":8633,"Ġmarried":8634,"Ġmobile":8635,"Ġ/****************************************************************************":8636,"Ġcreates":8637,"iated":8638,"Ġsick":8639,"Ġdanger":8640,"ett":8641,"ĠMed":8642,"Ġspend":8643,"ierarchy":8644,"ĠGovern":8645,"ĠTHEORY":8646,"--------------":8647,"ners":8648,"Ġpers":8649,"Ġburn":8650,"IDTH":8651,"stderr":8652,"Ġromantic":8653,"Ġslightly":8654,"clos":8655,"tim":8656,"reader":8657,"scape":8658,"Ġadvert":8659,"ĠWho":8660,"ĠLike":8661,"Ġcapture":8662,"ĠAuto":8663,"Linq":8664,"Home":8665,"ĠCAUSED":8666,"Ġsudden":8667,"created":8668,"Ġzomb":8669,"Shape":8670,"enchmark":8671,"Ġgeneration":8672,"mitive":8673,"LOC":8674,"Ġrestriction":8675,"Rad":8676,"Ġseriously":8677,"power":8678,"arily":8679,"ĠSong":8680,"ĠIter":8681,"getName":8682,"ĠVirtual":8683,"Ġmaintain":8684,"Ġaccur":8685,"Ġbuildings":8686,"Ġcrisis":8687,"Ġidentifier":8688,"Term":8689,"calc":8690,"tar":8691,"Ġmulti":8692,"Ġ\"__":8693,"Ġrap":8694,"Console":8695,"Ġgoverned":8696,"Ġexecuted":8697,"Ġweap":8698,"owner":8699,"letion":8700,"ĠRedistribution":8701,"ĠDISCLAIMED":8702,"repr":8703,"Ġadding":8704,"Ġspot":8705,"Ġserve":8706,"gnore":8707,"Seg":8708,"Ġ02":8709,"Ġrepo":8710,"DIS":8711,"Fin":8712,"gar":8713,"qrt":8714,"tf":8715,"Ġ\"'":8716,"refs":8717,"prot":8718,"ashboard":8719,"Ġremaining":8720,"Ġobtaining":8721,"ĠConsole":8722,"Serializer":8723,"Area":8724,"æį®":8725,"fast":8726,"Ġsed":8727,"Ġbg":8728,"ĠFind":8729,"Ġchief":8730,"Ġzip":8731,"\\+":8732,"bur":8733,"isco":8734,"Ġcandid":8735,"chain":8736,"Export":8737,"SSL":8738,"Ġcinematography":8739,"MAP":8740,"-----":8741,"Stats":8742,"OTT":8743,"Ġprocessing":8744,"Ġoccasion":8745,"mac":8746,"Ġimpress":8747,"Ġproxy":8748,"URI":8749,"filters":8750,"UND":8751,"miss":8752,"Ġcree":8753,"0001":8754,"Ġjokes":8755,"swing":8756,"Ġbecoming":8757,"83":8758,"ĠTests":8759,"Ġtemper":8760,"LY":8761,"abilities":8762,"apture":8763,"ĠEXEMPL":8764,"Ġtwice":8765,"å¯¹":8766,"ĠEXEMPLARY":8767,"Pointer":8768,"éĿ":8769,"iced":8770,"ĠSign":8771,"Ġfilled":8772,"Ġidx":8773,"ä¸ĭ":8774,"Ġchem":8775,"mouse":8776,"Ġbed":8777,"Ġmel":8778,"verify":8779,"navigation":8780,"ÑģÑĤ":8781,"eal":8782,"Ġdance":8783,"endl":8784,"keep":8785,"Ġproto":8786,"Ġarrest":8787,"ĠSuper":8788,"Ġlimitation":8789,"Ġstandards":8790,"Ġexceptions":8791,"Ġantib":8792,"Ġreverse":8793,"Ġearn":8794,"Ġgore":8795,"ĠPack":8796,"dropdown":8797,"Ġoccurred":8798,"Ġsch":8799,"Ġspect":8800,"Ġhell":8801,"schema":8802,"Ġ59":8803,"Ġdrink":8804,"CLASS":8805,"Ġborn":8806,"ĠPlay":8807,"appy":8808,"REQU":8809,"Sequence":8810,"Ġtalks":8811,"Prev":8812,"ĠYes":8813,")))":8814,"Ġdataset":8815,"æĮ":8816,"Ġbunch":8817,"uts":8818,"omas":8819,"Ġ'#":8820,"Ġsubsequ":8821,"Ġtopic":8822,"Ġcellpadding":8823,"ĠParameters":8824,"Ġnotes":8825,"Ġprotect":8826,"Ġdocuments":8827,"afe":8828,"Ã¨":8829,"ĠCLA":8830,"Ġcellspacing":8831,"ĠCompany":8832,"Ġsqu":8833,"Ġhate":8834,"Ġwebsite":8835,"åĪ°":8836,"Ġestablish":8837,"Ġcorresponding":8838,"Ġtools":8839,"ĠMedia":8840,"URCE":8841,"Ġdifference":8842,"Ġarticle":8843,"Cluster":8844,"ĠSchool":8845,"ĠjQuery":8846,"ĠBra":8847,"Ġendorse":8848,"proxy":8849,"MEM":8850,"130":8851,"Bound":8852,"Ġchampion":8853,"Ġenumerate":8854,"ya":8855,"icies":8856,"seq":8857,"Ġviewing":8858,"ĠEngine":8859,"mazon":8860,"Ġphilos":8861,">\\":8862,"ĠWall":8863,"Ġnoted":8864,"ĠConvert":8865,"Ac":8866,"Pane":8867,"Ġscroll":8868,"ĠQue":8869,"Full":8870,"Ġtimestamp":8871,"Ġaria":8872,"quis":8873,"prop":8874,"Desc":8875,"Ġtoward":8876,"Ġapparently":8877,"NA":8878,"glob":8879,"èĩ":8880,"Ġaim":8881,"Ġpaid":8882,"ĠSpace":8883,"acks":8884,"ĠCanada":8885,"Ġcli":8886,"Ġcrow":8887,"otic":8888,"ĠBond":8889,"Stat":8890,"ĠChild":8891,"ooth":8892,"rase":8893,"ä¾":8894,"çİ":8895,"isation":8896,"','":8897,"asket":8898,"uese":8899,"Ġrequested":8900,"Ġediting":8901,"ĠWestern":8902,"ktop":8903,"pa":8904,"Ã¼":8905,"Ġbare":8906,"ĠBecause":8907,"ĠWay":8908,"ĠContext":8909,"éĻ":8910,"Ġtear":8911,"ongo":8912,"Ġrequirements":8913,"Ġfamiliar":8914,"ufact":8915,"sim":8916,"Ġfiction":8917,"progress":8918,"Ġfeels":8919,"iverse":8920,"73":8921,"Ġmeasure":8922,"Ġentirely":8923,"TX":8924,"fly":8925,"Ġmultip":8926,"Ġnine":8927,"Attr":8928,"Cred":8929,"Ġstreet":8930,"compute":8931,"ĠKar":8932,"inals":8933,"Comment":8934,"Ġmiles":8935,"Ġtraditional":8936,"Direct":8937,"fp":8938,"çĲ":8939,"ĠGraph":8940,"getValue":8941,"egger":8942,"encoding":8943,"feed":8944,"Ġsequel":8945,"VALUE":8946,"CU":8947,"teen":8948,"azine":8949,"ĠHenry":8950,"Cap":8951,"watch":8952,"yr":8953,"ste":8954,"Ġlived":8955,"ĠIT":8956,"quake":8957,"Ġshop":8958,"Ġpret":8959,"Suite":8960,"alert":8961,"utive":8962,"Ġsmaller":8963,"Ġmajority":8964,"Grad":8965,"world":8966,"roc":8967,"transition":8968,"ĠDisney":8969,"Gr":8970,"Spl":8971,"ingu":8972,"Ġmult":8973,"Ġlarger":8974,"ĠStringBuilder":8975,"standing":8976,"warzen":8977,"Ġsyn":8978,"ĠTor":8979,"ĠRO":8980,"Ġplus":8981,"mmutable":8982,"WORD":8983,"nof":8984,"hex":8985,"amma":8986,"ĠPL":8987,"Ġkeeps":8988,"rated":8989,"Ġrain":8990,"Constants":8991,"Ġ//////////////////////////////////////////////////////////////////":8992,"=/":8993,"kt":8994,"vant":8995,"è¾":8996,"Ġ!==":8997,"Ġprojects":8998,"ĠAfrican":8999,"ĠCLAIM":9000,"ean":9001,"ga":9002,"arant":9003,"amel":9004,"complete":9005,"æĸ¹":9006,"Ðº":9007,"àº":9008,"cha":9009,"Ġintent":9010,"Ġpred":9011,"Enumer":9012,"111":9013,"Ġvoc":9014,"ulp":9015,"Ġconduct":9016,"strict":9017,"plan":9018,"Ġthemes":9019,"built":9020,"ĠCounty":9021,"BS":9022,"CRE":9023,"DR":9024,"ĠHE":9025,"ĠGPIO":9026,"warzenegger":9027,"Mask":9028,"SI":9029,"gz":9030,"ĠtoString":9031,"ĠWil":9032,"ĠJane":9033,"ĠInv":9034,"å®ļ":9035,"Ġss":9036,"ading":9037,"ĠOCaml":9038,"Ġjournal":9039,"ora":9040,"Ġcpu":9041,"ĠSil":9042,"tee":9043,"Ġsuccessfully":9044,"ĠDEAL":9045,"rypto":9046,"61":9047,"BASE":9048,"Ġ<-":9049,"ubs":9050,"anta":9051,"ARE":9052,"Login":9053,"Uses":9054,"Ġsilly":9055,"Ġprofessional":9056,"WISE":9057,"95":9058,":\\":9059,"BL":9060,"Wait":9061,"çī":9062,"Ġsan":9063,"LETE":9064,"Ġ400":9065,"Ġgenerator":9066,"Ġtransition":9067,"Ġrepresents":9068,"Endpoint":9069,"Ġverbose":9070,"Ġmorning":9071,"ĠInstead":9072,"Pop":9073,"appe":9074,"Ġindent":9075,"ĠEntity":9076,"NON":9077,"ston":9078,"ĠBur":9079,"Ġelseif":9080,"Progress":9081,"ĠArmy":9082,"Art":9083,"Ġparsed":9084,"Ġcaught":9085,"ĠTOP":9086,"ĠGames":9087,"Ġchoices":9088,"Ġscary":9089,"Ġstoryline":9090,"packages":9091,"Ġpacket":9092,"Ġsuspense":9093,"idents":9094,"effect":9095,"Ġdeb":9096,"Ġcritical":9097,"ĠOTHERWISE":9098,"Ġcompetition":9099,"Ġmentioned":9100,"Ġfashion":9101,"ellow":9102,"Ġzone":9103,"USE":9104,"dot":9105,"kernel":9106,"itar":9107,"igate":9108,"Ġonto":9109,"ĠStream":9110,"Ġapplied":9111,"Ġtrip":9112,"Ġidentity":9113,"Ġmagic":9114,"Ġsteps":9115,"Ġdamage":9116,"åĴ":9117,"Ġmouse":9118,"ĠVideo":9119,"ĠStep":9120,"OFF":9121,"zure":9122,"Ġded":9123,"Ġdull":9124,"Ġlatter":9125,"Ids":9126,"åŃĺ":9127,"Ġclaims":9128,"ĠDepartment":9129,"piece":9130,"sur":9131,"Ġha":9132,"ĠASS":9133,"Ġgoogle":9134,"ĠProgram":9135,"Ġknowledge":9136,"ĠAdmin":9137,"Ġfurnished":9138,"zero":9139,"Ġbird":9140,"entially":9141,"Ġquiet":9142,"Ġmeeting":9143,"ĠASF":9144,"Ġsin":9145,"cluster":9146,"solute":9147,"ĠBritain":9148,"Gu":9149,"Look":9150,"Îµ":9151,"astr":9152,"Ġtrust":9153,"ĠUnder":9154,"Ġconfigure":9155,"2016":9156,"Ġlaunc":9157,"awt":9158,"Ġinstant":9159,"ĠUnit":9160,"Ġwrites":9161,"annotations":9162,"VALID":9163,"Gen":9164,"night":9165,"Ġcold":9166,"elly":9167,"ĠInstall":9168,"Short":9169,"Ġcb":9170,"itiz":9171,"Overview":9172,"Flag":9173,"æĪĲ":9174,"Ġ------------------------------------------------":9175,"Find":9176,"Limit":9177,"ien":9178,"ĠIre":9179,"estic":9180,"score":9181,"Ġfeet":9182,"Ġjudge":9183,"flu":9184,"ĠPerson":9185,"deep":9186,"Ġresulting":9187,"Ġaccom":9188,"ĠNews":9189,"ajax":9190,"Ġsupports":9191,"ĠSuite":9192,"nn":9193,"Ġcfg":9194,"ĠMatrix":9195,"ENER":9196,"Ġdrag":9197,"Ġreferences":9198,"ĠTypeError":9199,"odies":9200,"ĠLaw":9201,"ĠHall":9202,"ĠERR":9203,"ĠKong":9204,"Ġoffers":9205,"Objects":9206,"crement":9207,"Ġlots":9208,"Ġ}}</":9209,"Ġaffect":9210,"STATUS":9211,"ĠNONINFRINGEMENT":9212,"ĠDEALINGS":9213,"/\"":9214,"arse":9215,"ĠLL":9216,"ĠMeta":9217,"Ġalgorithm":9218,"Ġadvent":9219,"ropical":9220,"Ġframework":9221,"Ġconsum":9222,"ĠWood":9223,"Initial":9224,"Ġgrowing":9225,"Ġ00":9226,"Ġ=========================================================================":9227,"Ġrect":9228,"oles":9229,"ĠPackage":9230,"cludes":9231,"repo":9232,"bon":9233,"pid":9234,"Ġhair":9235,"ĠIM":9236,"ĠWars":9237,"Ġfilmed":9238,"validation":9239,"patcher":9240,"Ġbasis":9241,"iagnost":9242,"}</":9243,"eno":9244,"ĠSend":9245,"ĠLast":9246,"abe":9247,"comments":9248,"DECL":9249,"Ġenjoyable":9250,"ä¹ĭ":9251,"Servlet":9252,"resolve":9253,"ç¨ĭ":9254,"62":9255,"np":9256,"Ġflu":9257,"Ġbuff":9258,"Ġ35":9259,"Ġapart":9260,"Ġdimension":9261,"ĠAfrica":9262,"ĠCongress":9263,"fi":9264,"Ġinstrument":9265,"Ġthy":9266,"ĠAnother":9267,"quick":9268,"pars":9269,"Ġpredictable":9270,"Ġaccompany":9271,"LATE":9272,"Ġtheater":9273,"ĠCard":9274,"Ġmechan":9275,"Ġdramatic":9276,"Hub":9277,"timestamp":9278,"Ġtokens":9279,"Ġemit":9280,"Ġgang":9281,"peed":9282,"Ġpresented":9283,"Ġexperiment":9284,"TIME":9285,"Ġ----------------":9286,"bra":9287,"ĠOP":9288,"parator":9289,"forward":9290,"Ġreflect":9291,"xs":9292,"ĠPortuguese":9293,"CA":9294,"Light":9295,"ĠPo":9296,"extra":9297,"ĠVictor":9298,"Ġsolution":9299,"ĠReference":9300,"cers":9301,"Ġsamples":9302,"ĠCourt":9303,"ulations":9304,"about":9305,"ĠBob":9306,"sock":9307,"Ġspin":9308,"ĠCharles":9309,"æ¯":9310,"Ġfish":9311,"Ġpkg":9312,"Ġunset":9313,"Ġminimum":9314,"xc":9315,"Ġpip":9316,"ĠOp":9317,"sha":9318,"ixels":9319,"Ġsurface":9320,"Ġtroops":9321,"Ġmm":9322,"Ġeu":9323,"ĠCHECK":9324,"Ġseed":9325,"aret":9326,"Ġweird":9327,"Ġmanage":9328,"Hand":9329,"pan":9330,"Ġfle":9331,"Ġbatt":9332,"Ġ).":9333,"pytest":9334,"USER":9335,"ĠIrish":9336,"+'":9337,"ilies":9338,"ĠOscar":9339,"Ġcontained":9340,"Ġplane":9341,"ĠComput":9342,"notify":9343,"hÃ©":9344,"kwargs":9345,"Âµ":9346,"Ġtort":9347,"edge":9348,"Ġns":9349,"Ġextr":9350,"ĠHong":9351,"Ġsaf":9352,"Ġaccesskey":9353,"ĠSmith":9354,"Ġutter":9355,"High":9356,"SG":9357,"ella":9358,"Ġsoldiers":9359,"Ġdiscovered":9360,"integer":9361,"elements":9362,"Ġdetermine":9363,"Effect":9364,"RY":9365,"ç¬":9366,"itan":9367,"andy":9368,"Ġsock":9369,"OPT":9370,"ArgumentException":9371,"Details":9372,"writel":9373,"Kit":9374,"Ġtale":9375,"elcome":9376,"Ġgreen":9377,"ĠLu":9378,"Ġscan":9379,"ATED":9380,"Align":9381,"Methods":9382,"Span":9383,"Agent":9384,"vo":9385,"ĠBoth":9386,"Ġthrown":9387,"Ġundefined":9388,"åĴĮ":9389,"sr":9390,"idx":9391,"ĠAwards":9392,"ĠHot":9393,"ocker":9394,"ĠÐ²":9395,"translate":9396,"Ġrecommended":9397,"çĲĨ":9398,"Ġlett":9399,"Ġanyway":9400,"ĠRussia":9401,"Sm":9402,"atile":9403,"Ġmort":9404,"Ġextensions":9405,"Ġorganization":9406,"yes":9407,"Ġsublic":9408,"Ġmir":9409,"rovers":9410,"Ġlisted":9411,"Ġpytest":9412,"Ġbelieved":9413,"OTTOM":9414,"constant":9415,"Ġkick":9416,"Ġlogic":9417,"äºº":9418,"Ġsurprise":9419,"Ġsweet":9420,"Ã£o":9421,"Ġphilosoph":9422,"Bu":9423,"DATE":9424,"ç®":9425,"Ġclock":9426,"Ġbold":9427,"ĠGlobal":9428,"ĠVER":9429,"ĠChange":9430,"graphics":9431,"Ġsurprising":9432,"tensor":9433,"Ġsynchron":9434,"esy":9435,"ĠTry":9436,"IDE":9437,"Notification":9438,"Ġopener":9439,"Ġdeclare":9440,"Ġpurs":9441,"ereot":9442,"ĠCollection":9443,"Ġsublicense":9444,"RT":9445,"ishes":9446,"ctrine":9447,"Ġunion":9448,"Prop":9449,"runner":9450,"Ġfaith":9451,"ĠManagement":9452,"Ġexplan":9453,"shortcut":9454,"./":9455,"wild":9456,"icago":9457,"Ġbind":9458,"Ġlif":9459,"ĠBasic":9460,"Props":9461,"ĠTypeScript":9462,"Ġsounds":9463,"ĠChristmas":9464,"ĠHashMap":9465,"rank":9466,"Ġinde":9467,"Ġelection":9468,"ĠScript":9469,"Ġwhatever":9470,"__\":":9471,"Ġsuite":9472,"DEFAULT":9473,"ĠSpanish":9474,"ĠOracle":9475,"Ġsouthern":9476,"ĠFlorida":9477,"omen":9478,"ĠFire":9479,"ĠDraw":9480,"Real":9481,"Required":9482,"ĠSecond":9483,"ĠUsage":9484,"Ġbasically":9485,"æĪĳ":9486,"vs":9487,"commons":9488,"Ġrepresenting":9489,"counter":9490,"ruby":9491,"åī":9492,"regex":9493,"blue":9494,"Ġmissed":9495,"nam":9496,"uh":9497,"urd":9498,"library":9499,"Ġsees":9500,"âĢĿ":9501,"Ġapprox":9502,"Ġanthrop":9503,"ĠWatch":9504,"Ġhighlight":9505,"BA":9506,"Rate":9507,"Total":9508,"times":9509,"ils":9510,"ĠVol":9511,"createElement":9512,"pipe":9513,"Generated":9514,"Ġholds":9515,"ĠSupport":9516,"Ġthriller":9517,"person":9518,"Ġec":9519,"ĠSave":9520,"agic":9521,"Ġvote":9522,"Ġmanner":9523,"ĠStud":9524,"alyt":9525,"Controls":9526,"Multi":9527,"react":9528,"Ġcd":9529,"ĠLtd":9530,"Ġagreement":9531,"Ã³n":9532,"xt":9533,"Ġflo":9534,"iling":9535,"ĠSom":9536,"iration":9537,"Ġsea":9538,"setAttribute":9539,"Ġplant":9540,"raction":9541,"ova":9542,"Ġrgba":9543,"Ġhospital":9544,"rift":9545,"ĠSen":9546,"oped":9547,"ĠDouble":9548,"aug":9549,"assertIn":9550,"OutputStream":9551,"ä½¿":9552,"Ġprofit":9553,"audio":9554,",'":9555,"Ġgas":9556,"Ġran":9557,"Ġarmy":9558,"EventListener":9559,"Ġemotional":9560,"91":9561,"Ġcompat":9562,"Ġsuperb":9563,"Ġdistr":9564,"CF":9565,"Make":9566,"Ġbought":9567,"ĠIE":9568,"Ġtrial":9569,"ELD":9570,"coq":9571,"Ġearthquake":9572,"iro":9573,"slice":9574,"rait":9575,"ĠWhere":9576,"Ġpractice":9577,"cursor":9578,"ÙĦ":9579,"Ġseq":9580,"Ġoverflow":9581,"uffix":9582,"ĠShould":9583,"Ġdestination":9584,"Ġprepare":9585,"Book":9586,"Ġtd":9587,"addClass":9588,"checkbox":9589,"argv":9590,"Tasks":9591,"ĠIllegal":9592,"ĠASSERT":9593,"trigger":9594,"éģ":9595,"inet":9596,"ĠSY":9597,"estival":9598,"Ġgeneric":9599,"LIST":9600,"Ġcredits":9601,"ĠCath":9602,"Ġassigned":9603,"outing":9604,"ĠJoe":9605,"Converter":9606,"Ġinputs":9607,"CCESS":9608,"Basic":9609,"cor":9610,"Ġbid":9611,"Ġmad":9612,"Ġvel":9613,"available":9614,"ĠFALSE":9615,"ĠGET":9616,"aine":9617,"onymous":9618,"?<":9619,"ĠRy":9620,"akistan":9621,"oked":9622,"Ġtransl":9623,"Ġanimals":9624,"DY":9625,"TA":9626,"ĠCenter":9627,"Which":9628,"Ġcombined":9629,"Private":9630,"jax":9631,"owed":9632,"ĠUtil":9633,"Ġunable":9634,"Ġ1999":9635,"ifiers":9636,"configure":9637,"Environment":9638,"HashMap":9639,"ĠMartin":9640,"fav":9641,"pb":9642,"Ġinstruction":9643,"ĠSur":9644,"Exit":9645,"Ġinspired":9646,"Ġrescue":9647,"FIL":9648,"à¶":9649,"Ġmission":9650,"emit":9651,"urls":9652,"Formatter":9653,"Ġà¤ķ":9654,"tasks":9655,"original":9656,"=%":9657,"Free":9658,"PIN":9659,"Ãł":9660,"Ġclo":9661,"Ġdynamic":9662,"ĠCache":9663,"ĠHandle":9664,"ĠHurricane":9665,"Ġrv":9666,"conv":9667,"props":9668,"atters":9669,"Ġsmart":9670,"Ġcollections":9671,"Resolver":9672,"Ġwitness":9673,"ĠIR":9674,"console":9675,"à¤¿":9676,"specific":9677,"Ġexecutive":9678,"ĠclichÃ©":9679,"ders":9680,"history":9681,"sig":9682,"Ġmeets":9683,"Symbol":9684,"Card":9685,"Ġ'../":9686,"ĠTheir":9687,"ĠCommission":9688,"Ġpylint":9689,"MASK":9690,"Ġfault":9691,"Ġgain":9692,"month":9693,"signal":9694,"ĠShell":9695,"ĠCloud":9696,"Ġhelper":9697,"71":9698,"Binary":9699,"Uri":9700,"cancel":9701,"och":9702,"Ġduration":9703,"ĠPet":9704,"exc":9705,"ĠRandom":9706,"ictures":9707,"Errorf":9708,"Ġminister":9709,"ĠImplement":9710,"æ³ķ":9711,"98":9712,"HR":9713,"Ġfilters":9714,"ĠChicago":9715,"Ġinterview":9716,"ĠOnce":9717,"docs":9718,"Ġfeatured":9719,"Audio":9720,"Mouse":9721,"ĠTod":9722,"Ġrise":9723,"arring":9724,"FLAGS":9725,"\"}":9726,"Warning":9727,"pdf":9728,"arre":9729,"utch":9730,"ĠTimes":9731,"ĠHome":9732,"mption":9733,"Ġrealize":9734,"Ġaccident":9735,"Ġoccur":9736,"Ġvillage":9737,"94":9738,"ĠPrivate":9739,"unes":9740,"Ġalpha":9741,"ourney":9742,"Ġuniversity":9743,"Ġremained":9744,"åĪĨ":9745,"GIN":9746,"Ġcities":9747,"Ġfasc":9748,"ĠSus":9749,"ĠPublished":9750,"bled":9751,"Program":9752,"Ġ1970":9753,"Ġauthentic":9754,"2017":9755,"Arg":9756,"Ġdestroyed":9757,"/'":9758,"Don":9759,"{\"":9760,"Ġunc":9761,"Ġpoll":9762,"Ġordered":9763,"Ġtwenty":9764,"ĠOlympics":9765,"ĠIran":9766,"Ġrevealed":9767,"å¿":9768,"ĠCurrent":9769,"phinx":9770,"ĠSovi":9771,"Background":9772,"Errors":9773,"ira":9774,"ĠGit":9775,"Ġrac":9776,"ipment":9777,"Ġelim":9778,"scripts":9779,"ĠUnfortunately":9780,"rappe":9781,"Ġlawy":9782,"Ġpoorly":9783,"Ġtradition":9784,"Ġaccepted":9785,"åŃĹ":9786,"StackTrace":9787,"highlight":9788,"Ġds":9789,"UTO":9790,"iously":9791,"Region":9792,"MT":9793,"èĥ½":9794,"inating":9795,"stances":9796,"Ġvirt":9797,"irgin":9798,"Ġendl":9799,"Ġ'$":9800,"lets":9801,"heading":9802,"Ġrealistic":9803,"Ġcovered":9804,"STRING":9805,"æķ°æį®":9806,"noscript":9807,"NC":9808,"folder":9809,"Ġpun":9810,"Ġmesh":9811,"Ġconsumer":9812,"ĠMel":9813,"blem":9814,"Ġmedal":9815,"opsis":9816,"Ġdisplayed":9817,"Ġteams":9818,"ĠSteve":9819,"Ġinfluence":9820,"Headers":9821,"ĠIreland":9822,"Lib":9823,"Ġissu":9824,"ĠFederal":9825,"ATCH":9826,"Ġextended":9827,"Delegate":9828,"Ġindeed":9829,"Bus":9830,"rm":9831,"Ġfaces":9832,"expr":9833,"ĠMer":9834,"iffer":9835,"vec":9836,"Example":9837,"Setup":9838,"Ġdecide":9839,"Watch":9840,"Ġsen":9841,"arc":9842,"---------":9843,"Ġcontrovers":9844,"Ġlists":9845,"Ġfantastic":9846,"ĠSir":9847,"agraph":9848,"ĠLuc":9849,"Ġspread":9850,"transaction":9851,"Video":9852,"named":9853,"orer":9854,"Ġpag":9855,"Ġtemplates":9856,"Ġoccup":9857,"Feed":9858,"96":9859,"åİ":9860,"ĠVan":9861,"Ġbackend":9862,"Clear":9863,"å±":9864,"ç±":9865,"oted":9866,"ĠDame":9867,"Ġterrit":9868,"ĠRemarks":9869,"prepare":9870,"UST":9871,"coh":9872,"à·":9873,"Ġsquare":9874,"ĠDen":9875,"ITLE":9876,"Ġremark":9877,"uplicate":9878,"+=":9879,"Failed":9880,"Word":9881,"Ġtherefore":9882,"Ġagency":9883,"Ġaddr":9884,"scan":9885,"ifying":9886,"SPAN":9887,"staticmethod":9888,"Execute":9889,"Ġreduce":9890,"ĠLis":9891,"parameter":9892,"STATE":9893,"Ġbroken":9894,"Ġannual":9895,"ĠBlue":9896,"ĠSchwarzenegger":9897,"Ġhistorical":9898,"Dim":9899,"found":9900,"Ġreb":9901,"chor":9902,"ĠPop":9903,"ĠThomas":9904,"Ġneither":9905,"Ġ1990":9906,"Ġiterator":9907,"400":9908,"Warnings":9909,"ym":9910,"Ġpark":9911,"etc":9912,"ĠBBC":9913,"Ġguest":9914,"ippet":9915,"ĠNeither":9916,"Ġultimately":9917,"Ax":9918,"Bind":9919,"star":9920,"Ġalleg":9921,"Ġhex":9922,"share":9923,"Ġformed":9924,"ĠByte":9925,"Ġnuclear":9926,"Mo":9927,"Mesh":9928,"{$":9929,"ĠSup":9930,"Ġseasons":9931,"Library":9932,"Join":9933,"egration":9934,"Coord":9935,"Ġaccompanying":9936,"Ġcert":9937,"Ġchosen":9938,"Ġbrings":9939,"Edge":9940,"Some":9941,"iber":9942,"endregion":9943,"Ġdeleted":9944,"ĠJose":9945,"Ġadjust":9946,"Ġlinear":9947,"Ġartists":9948,"Ġdistur":9949,"ĠActive":9950,"'),":9951,"bat":9952,"ctrl":9953,"ĠDig":9954,"prise":9955,"gradient":9956,"Ġconflict":9957,"Ġpiano":9958,"Ġmicro":9959,"train":9960,"ocation":9961,"ograp":9962,"Ġweather":9963,"Ġfeat":9964,"ĠSettings":9965,"ĠBOTTOM":9966,"liament":9967,"decl":9968,"Ġkernel":9969,"Ġclaimed":9970,"ĠKingdom":9971,"Len":9972,"Ġ}).":9973,"ocused":9974,"ogram":9975,"DP":9976,"coin":9977,"Ġfp":9978,"Ġinterrupt":9979,"Ġdelta":9980,"symbol":9981,"Cursor":9982,"Ð´":9983,"edy":9984,"Ġkm":9985,"Ġholding":9986,"Ġpatterns":9987,"Ġfellow":9988,"AX":9989,"Cre":9990,"icial":9991,"Ġstick":9992,"ĠGen":9993,"-----------":9994,"Ġendpoint":9995,"atted":9996,"Ġmarriage":9997,"translation":9998,"ona":9999,"ĠMount":10000,"Ġscr":10001,"contact":10002,"Animation":10003,"Messages":10004,"freq":10005,"Ġmine":10006,"ĠCRE":10007,"Ġstores":10008,"ĠControl":10009,"ĠENV":10010,"uzz":10011,"é¢":10012,"Ġblo":10013,"Ġstrip":10014,"incing":10015,"NULL":10016,"Power":10017,"eror":10018,"extension":10019,"FAIL":10020,"acer":10021,"Insert":10022,"INIT":10023,"umeric":10024,"è¡¨":10025,"Ġ##############################################################################":10026,"UX":10027,"mult":10028,"Ñĩ":10029,"Ġpace":10030,"ĠRender":10031,"Ġokay":10032,"lookup":10033,"Same":10034,"duration":10035,"Ġcer":10036,"Ġna":10037,"ĠMur":10038,"formed":10039,"pred":10040,"Ġfloor":10041,"Ġbother":10042,"ĠHor":10043,"ĠNight":10044,"Ġshadow":10045,"Ġplanned":10046,"remote":10047,"ĠassertTrue":10048,"weet":10049,"signature":10050,"ĠFilter":10051,"ĠWilliams":10052,"ĠNotImplementedError":10053,"entries":10054,"cker":10055,"ĠPlugin":10056,"feature":10057,"Ġvariety":10058,"EXPORT":10059,"firstrow":10060,"Ġjoined":10061,"Ġdigital":10062,"Ġmystery":10063,"Ġconcerns":10064,"Ġboss":10065,"illy":10066,"strings":10067,"pring":10068,"Ġchecks":10069,"åĲİ":10070,"ĠAccount":10071,"ĠAust":10072,"ĠGl":10073,"Ġmeas":10074,"ROOT":10075,"solr":10076,"Ġsprintf":10077,"500":10078,"Ġpet":10079,"Ġgather":10080,"commun":10081,"override":10082,"rides":10083,"ĠCentral":10084,"Ġestimated":10085,"Nodes":10086,"jb":10087,"rific":10088,"Ġalter":10089,"osh":10090,"Ġacts":10091,"Ġworker":10092,"ĠGenerate":10093,"Ġbrain":10094,"noframe":10095,"fore":10096,"mapping":10097,"cribe":10098,"ĠComponent":10099,"Elements":10100,"Ġdeploy":10101,"Ġappeal":10102,"ĠÂ©":10103,"Ġstrugg":10104,"PREF":10105,"TV":10106,"ÃĬ":10107,"Ġmigrations":10108,"Ġ\"../":10109,"Ġrt":10110,"Ġrub":10111,"Ġsomehow":10112,"Ġbadly":10113,"ĠDespite":10114,"å¤§":10115,"ĠBroad":10116,"ĠSUMM":10117,"Ġvertex":10118,"%%%%%%%%":10119,"Ġnumerous":10120,"Ð²":10121,"Ġdot":10122,"Ġexam":10123,"rowse":10124,"ĠConstruct":10125,"ĠNOTE":10126,"Ġlegend":10127,"Ġdt":10128,"anda":10129,"Ġdirectors":10130,"ä½ľ":10131,"Ġsinging":10132,"Namespace":10133,"ĠJackson":10134,"cf":10135,"Ġps":10136,"Ġhits":10137,"ĠSP":10138,"ĠAccess":10139,"irmed":10140,"Ġupdates":10141,"Ġ330":10142,"Ġriver":10143,"ĠSession":10144,"ĠRest":10145,"ĠBay":10146,"Ġmovement":10147,"Shared":10148,"ACHE":10149,"Annotation":10150,"Ġproposed":10151,">);":10152,"Batch":10153,"Material":10154,"bg":10155,"hatt":10156,"Ġ=\"":10157,"ĠFre":10158,"updated":10159,"ĠViet":10160,"Usage":10161,"Ġattrs":10162,"Ġlaunched":10163,"fw":10164,"xa":10165,"inent":10166,"enger":10167,"ĠTur":10168,"ĠBook":10169,"antity":10170,"Ġcompatible":10171,"Ġtechnical":10172,"Ġfootage":10173,"Ð¾Ð²":10174,"Ġcultural":10175,"Ġperfectly":10176,"Dto":10177,"ĠNothing":10178,"Ġappoint":10179,"Ġspo":10180,"Ġlistener":10181,"è¿ĩ":10182,"ä¼ļ":10183,"ygon":10184,"ĠRoyal":10185,"wall":10186,"aton":10187,"ĠToken":10188,"Ġmainly":10189,"Ġapplications":10190,"ĠREG":10191,"Ġcorrectly":10192,"Ġinnoc":10193,"ĠDevelopment":10194,"Any":10195,"walk":10196,"\",\"":10197,"Ġconstants":10198,"Contents":10199,"Ġoffered":10200,"ollowing":10201,"iversal":10202,"Ġinvolving":10203,"touch":10204,"Ġ#{":10205,"Ġmov":10206,"Ġrh":10207,"ocaml":10208,"parts":10209,"Ġregistered":10210,"Ġcm":10211,"itors":10212,"Ġbul":10213,"rog":10214,"ĠTre":10215,"\">{{":10216,"ĠJones":10217,"Dev":10218,"Ġ];":10219,"NOOP":10220,"'''":10221,"Ġangular":10222,"åĩº":10223,"Binding":10224,"Cmd":10225,"Person":10226,"łģ":10227,"Ġtow":10228,"Ġimpl":10229,"Ġexpert":10230,"Ġencode":10231,"HENS":10232,"Ġtargets":10233,"ĠSerial":10234,"Ġmagn":10235,"Ġconverted":10236,"Ġsoul":10237,"Failure":10238,"Push":10239,"Ġlanguages":10240,"Ġimpossible":10241,"ĠHard":10242,"ĠWhether":10243,"URN":10244,"Ġlocations":10245,"Ġcaptured":10246,"=\"../../../../../../../":10247,"decoration":10248,"ĠHttpResponse":10249,"ĠOtherwise":10250,"TRANSLATE":10251,"ç±»":10252,"Ġcook":10253,"appendChild":10254,"Upload":10255,"ĠIntel":10256,"Ġfooter":10257,"ĠSoviet":10258,"/$":10259,"catch":10260,"ssl":10261,"Reset":10262,"Ġshouldn":10263,"generic":10264,"Ġdumb":10265,"elastic":10266,"Ġgrew":10267,"ĠChris":10268,"price":10269,"Ġguard":10270,"Ġstudies":10271,"Users":10272,"vet":10273,"Ġcrazy":10274,"Ġcolon":10275,"ILD":10276,"Ġdegree":10277,"Ġancient":10278,"EP":10279,"unning":10280,"Ġreturning":10281,"ĠJeff":10282,"ĠInformation":10283,"Ġinterval":10284,"Ġhumans":10285,"MBER":10286,"Distance":10287,"Public":10288,"good":10289,"qt":10290,"Ġinitially":10291,"Ġvillain":10292,"æŀľ":10293,"Note":10294,"isions":10295,"Ġcy":10296,"Ġwind":10297,"ilation":10298,"Ġgtk":10299,"Ġexplos":10300,"Ġcontrast":10301,"Ġimplemented":10302,"ouncil":10303,"oxygen":10304,"Div":10305,"bf":10306,"Ġtur":10307,"ĠRog":10308,"ectors":10309,"Ġproc":10310,"Ġhandling":10311,"Ġencour":10312,"Ġvertical":10313,"clock":10314,"question":10315,"ipping":10316,"ĠATHENS":10317,"ĠSUMMARY":10318,"Ok":10319,"æµ":10320,"Ġcas":10321,"Ġlady":10322,"Ġease":10323,"ĠNull":10324,"Ġ&#":10325,"NUM":10326,"ĠTRUE":10327,"Raw":10328,"Ġtough":10329,"Ġdst":10330,"Ġlame":10331,"ĠSecret":10332,"ĠCase":10333,"ĠJob":10334,"INST":10335,"Scene":10336,"Ð°Ð½":10337,"opts":10338,"Points":10339,"Ġfairly":10340,"Ġproperly":10341,"Ġpremise":10342,"ĠClear":10343,"resize":10344,"ĠStop":10345,"anna":10346,"Forms":10347,"Ġscripts":10348,"ç«":10349,"Ġangle":10350,"ĠNext":10351,"concurrent":10352,"Ġspaces":10353,"æĸ°":10354,"ĠAssociation":10355,"Mail":10356,"learn":10357,"icated":10358,"Ġeval":10359,"Ġproducers":10360,"Complete":10361,"Ġexplanation":10362,"Wrap":10363,"Ùħ":10364,"ĠÑģ":10365,"=\"'":10366,"Models":10367,"Ġtelling":10368,"Ġuri":10369,"Ġactivities":10370,"ctype":10371,"ĠTree":10372,"ĠDim":10373,"ĠHas":10374,"Ġnewsp":10375,"Ġ1980":10376,"Ġhandled":10377,"Ġtrim":10378,"Ġcarried":10379,"CRIPT":10380,"canvas":10381,"Ġstrength":10382,"icator":10383,"Convert":10384,"åĲį":10385,"minecraft":10386,"CENT":10387,"inity":10388,"iso":10389,"Ġpt":10390,"ĠCast":10391,"unting":10392,"ocity":10393,"refresh":10394,"ansion":10395,"ĠStan":10396,"Connect":10397,"ĠProperty":10398,"ĠCollege":10399,"ĠNotre":10400,"ç½®":10401,"favicon":10402,"Zone":10403,"ĠPromise":10404,"ĠHost":10405,"Ġliber":10406,"Ġmanufact":10407,"initialize":10408,"Ġdecor":10409,"features":10410,"Ġaffected":10411,"Ġcalculate":10412,"wr":10413,"Ġcategories":10414,"Ġfrappe":10415,"Ġrespons":10416,"Ġcoach":10417,"MSearch":10418,"Ġdomestic":10419,"=,":10420,"ĠJS":10421,"Ġ--></":10422,"crete":10423,"2012":10424,"Ġrecording":10425,"metric":10426,"Ġimagine":10427,"Google":10428,"super":10429,"æĽ":10430,"Ġwire":10431,"ĠTYPE":10432,"adium":10433,"ĠCalc":10434,"ĠMah":10435,"åıĸ":10436,"Ġbeauty":10437,"Big":10438,"oos":10439,"Ġblow":10440,"ifer":10441,"Ġshame":10442,"Ġentities":10443,"Ġids":10444,"Ġruntime":10445,"Ġchecked":10446,"ĠDead":10447,"Ġboys":10448,"Ġoppos":10449,"Perm":10450,"middle":10451,"æĬ":10452,"ĠAmazon":10453,"Ġconcent":10454,"Ġpassing":10455,"ĠJes":10456,"Ġmonitor":10457,"Nullable":10458,"Ġembed":10459,"Ġrelief":10460,"æı":10461,"Ġfd":10462,"ĠDOM":10463,"plays":10464,"Ġcasting":10465,"ĠTag":10466,"ĠRay":10467,"angular":10468,"ddy":10469,"ĠThree":10470,"ancer":10471,"lat":10472,"Ġlim":10473,"Ġplenty":10474,"ega":10475,"Validation":10476,"Py":10477,"linear":10478,"disabled":10479,"Ġhelps":10480,"Ġfragment":10481,"ĠURI":10482,"ĠDateTime":10483,"METHOD":10484,"Ġarchitecture":10485,"Ġopportunity":10486,"RC":10487,"persistence":10488,"tuple":10489,"ç¤":10490,"ĠCamp":10491,"ĠGal":10492,"Ġshutil":10493,"together":10494,"Identity":10495,"Ġconnections":10496,"Platform":10497,"Ġpriority":10498,"jet":10499,"ĠCouncil":10500,"Ġrob":10501,"bean":10502,"Ġattend":10503,"Ġmarked":10504,"SYS":10505,"LD":10506,"mys":10507,"condition":10508,"ĠColumn":10509,"Ġvalidation":10510,"ĠEnvironment":10511,"bitr":10512,"Ġalias":10513,"enames":10514,"upal":10515,"pons":10516,"ĠDEBUG":10517,"Ġaddresses":10518,"ersistent":10519,"Suppress":10520,"çĤ":10521,"uted":10522,"ateur":10523,"ĠMing":10524,"opher":10525,"Ġadmit":10526,"Geometry":10527,"#{":10528,"Tags":10529,"atial":10530,"Ġequiv":10531,"Ġvs":10532,"romium":10533,"Constructor":10534,"ĠPlan":10535,"Ġdrawn":10536,"unnel":10537,"Bounds":10538,"Focus":10539,"eded":10540,"stone":10541,"idi":10542,"ĠPac":10543,"Ġheav":10544,"Ġ_.":10545,"ATOR":10546,"Ġdesper":10547,"ENC":10548,"ä½¿çĶ¨":10549,"astern":10550,"Ġms":10551,"Ġmach":10552,"ĠLight":10553,"verts":10554,"ĠNor":10555,"Ġrose":10556,"æīĢ":10557,"fmt":10558,"xf":10559,"ĠClose":10560,"Ġ//$":10561,"izard":10562,"ĠConstructor":10563,"ĠForce":10564,"swarm":10565,"Ġspeech":10566,"Ġexplain":10567,"shaller":10568,"Ġsaving":10569,"ctl":10570,"ĠTool":10571,"ĠTRA":10572,"ĠSal":10573,"Ġ\"</":10574,"ows":10575,"proc":10576,"Consumer":10577,"Ġ45":10578,"ãĥ¼":10579,"Ġviolent":10580,"bash":10581,"Ġcash":10582,"Ġcraft":10583,"uries":10584,"seek":10585,"ĠTurn":10586,"akefile":10587,"Extra":10588,"Contains":10589,"Ġexpectations":10590,"Ġhorse":10591,"ĠContribut":10592,"Ġbelievable":10593,"Ġsuffix":10594,"300":10595,"Ang":10596,"ç¼":10597,"Ġmaker":10598,"Ġrede":10599,"ĠLos":10600,"Ġ';":10601,"Ġfinding":10602,"Day":10603,"ĠBORDER":10604,"Ġrates":10605,"ĠEv":10606,"Ġmanages":10607,"Ġacted":10608,"SELECT":10609,"anny":10610,"ï¼Ī":10611,"Env":10612,"ĠClint":10613,"Ġ1995":10614,"hattan":10615,">../":10616,"tables":10617,"abc":10618,"pective":10619,"gb":10620,"Ġcached":10621,"Ġvec":10622,"ĠDou":10623,"arden":10624,"ĠChannel":10625,"à¤¨":10626,"Ġopacity":10627,"Ġdistinct":10628,"Ġweekend":10629,"Counter":10630,"Microsoft":10631,"mu":10632,"Ġtre":10633,"avel":10634,"usage":10635,"ĠJay":10636,"Ġdoctor":10637,"Ġexpecting":10638,"ĠConnection":10639,"ROUP":10640,"COMM":10641,"Ġvictims":10642,"Ġaware":10643,"Ġbright":10644,"Constant":10645,"Ġdescriptor":10646,"Ġcoverage":10647,"Observer":10648,"1307":10649,".\\":10650,"eed":10651,"ĠCare":10652,"backend":10653,"Ġauthentication":10654,"front":10655,"ADDING":10656,"Ġdollars":10657,"Ġsites":10658,"Ġpipeline":10659,"Ġpowers":10660,"asant":10661,"=\"$":10662,"ĠFIX":10663,"Ġcontinues":10664,"ĠDemocr":10665,"Americ":10666,"pin":10667,"pkg":10668,"ĠØ":10669,"Ġsports":10670,"ĠSing":10671,"START":10672,"ï¼ī":10673,"Enable":10674,"ĠBrook":10675,"Ġtreatment":10676,"Ġpressure":10677,"ran":10678,"ican":10679,"Ġbored":10680,"Ġham":10681,"ĠMatt":10682,"irs":10683,"Exist":10684,"istributed":10685,"Ġsuggested":10686,"ĠBuddhism":10687,"Native":10688,"circle":10689,"gi":10690,"wt":10691,"èµ":10692,"Ġath":10693,"ĠPrime":10694,"Ġpositions":10695,"FileName":10696,"ursive":10697,"ĠSchema":10698,"Groups":10699,"à¥Ģ":10700,"alias":10701,"gers":10702,"Ġfreed":10703,"Ġprops":10704,"Ġrunner":10705,"printStackTrace":10706,"Interval":10707,"going":10708,"Ġrestore":10709,"marker":10710,"ĠClasses":10711,"Ġmagazine":10712,"Execution":10713,"Holder":10714,"hw":10715,"will":10716,"ĠMa":10717,"oof":10718,"Static":10719,"ĠStandard":10720,"ĠArab":10721,"Ġoperating":10722,"Ġadvance":10723,"digest":10724,"æĿ¥":10725,"Ġaspects":10726,"ĠKorea":10727,"Ġfavour":10728,":%":10729,"Ignore":10730,"beta":10731,"isl":10732,"Ġlose":10733,"ĠSou":10734,"ĠPen":10735,"serif":10736,"nsure":10737,"æĸĩä»¶":10738,"PM":10739,"yy":10740,"###":10741,"ĠWIDTH":10742,"************************":10743,"Ġyounger":10744,"ĠDisplay":10745,"mutex":10746,"ĠMexico":10747,"pad":10748,"ĠIBM":10749,"eful":10750,"Ġrat":10751,"awesome":10752,"paths":10753,"Ġmemorable":10754,"Ġstands":10755,"Optional":10756,"Packet":10757,"Ġrepeated":10758,"Rot":10759,"Ġcertificate":10760,"eler":10761,"Ġlicensed":10762,"ĠAward":10763,"::~":10764,"Ġunexpected":10765,"ucture":10766,"Ġauthority":10767,"Ġassume":10768,"ĠJewish":10769,"è½":10770,"depth":10771,"::$":10772,"Ġscheme":10773,"Ġ36":10774,"recv":10775,"APP":10776,"Ġthousands":10777,"Ġmkdir":10778,"/.":10779,"cli":10780,"mobile":10781,"Î¿":10782,"subNav":10783,"ographic":10784,"Ġcredentials":10785,"Authentication":10786,"Ġromance":10787,"Ġportrayed":10788,"Summary":10789,"dx":10790,"ias":10791,"utdown":10792,"ĠFL":10793,"Ġ600":10794,"interval":10795,"WriteLine":10796,"kin":10797,"rum":10798,"thead":10799,"Ġ****":10800,"Ġfifth":10801,"alpha":10802,"Ġsty":10803,"ĠInstitute":10804,"Ġqueries":10805,"Ġadopt":10806,"ĠHead":10807,"compare":10808,"Arch":10809,"Ġrendered":10810,"Strategy":10811,"Ġpicked":10812,"Ġcomparison":10813,"\"&":10814,"Ġapt":10815,"ĠRam":10816,"Ġchanging":10817,"Ġaband":10818,"Ġdisk":10819,"Ġregistry":10820,"etailed":10821,"ĠTele":10822,"gypt":10823,"Ġpairs":10824,"FE":10825,"some":10826,"selection":10827,"Ġimprove":10828,"Ġhouses":10829,"Tools":10830,"dm":10831,"åĻ":10832,"Ġhint":10833,"lover":10834,"ĠNames":10835,"Ġstdout":10836,"Ġconfirm":10837,"Ġpromise":10838,"Place":10839,"Ġsinger":10840,"Ġdetermined":10841,"Ġshooting":10842,"Ġchallenge":10843,"AK":10844,"bles":10845,"norm":10846,"rick":10847,"Ġatom":10848,"Ġshares":10849,"ighter":10850,"Ġneighbor":10851,"Ġrival":10852,"Ġcombination":10853,"Ġ02111":10854,"PREFIX":10855,"adem":10856,"Ġ$;":10857,"Ġcompile":10858,"phy":10859,"ĠProduct":10860,"svg":10861,"Ġclever":10862,"gun":10863,"Ġtail":10864,"aters":10865,"attach":10866,"ëĭ¤":10867,"ĠDivision":10868,"Dao":10869,"Mac":10870,"Ori":10871,"life":10872,"trim":10873,"Ġthee":10874,"Ġdub":10875,"udo":10876,"2011":10877,"ĠUsed":10878,"Ġtend":10879,"Ġgay":10880,"ĠBIT":10881,"ups":10882,"ignore":10883,"arrass":10884,"Ġextend":10885,"Ġallowing":10886,"Ġkills":10887,"Lower":10888,"SW":10889,"fur":10890,"jack":10891,"pointer":10892,"uuid":10893,"Ġloader":10894,"ĠNic":10895,"Ġphase":10896,"Ġlargely":10897,"ruct":10898,"Ġmotion":10899,"transport":10900,"Ġexerc":10901,"complex":10902,"Ġretrieve":10903,"dirname":10904,"Ġcontrols":10905,"Ġequals":10906,"clusive":10907,"Ġnorthern":10908,"adr":10909,"Ġelem":10910,"Ġghost":10911,"ĠMass":10912,"Ġring":10913,"Ġrough":10914,"Ġ/>\"":10915,"oking":10916,"Ġremoves":10917,"Ġscreenplay":10918,"Ġrepresented":10919,"ĠBillboard":10920,"writeln":10921,"åĻ¨":10922,"\"),":10923,"yd":10924,"ĠRT":10925,"Ġjoke":10926,"ĠThough":10927,"Ġlearning":10928,"Ġcanvas":10929,"Expr":10930,"Scalar":10931,"binary":10932,"hostname":10933,"'.$":10934,"äºİ":10935,"Ġreligion":10936,"ĠDaniel":10937,"Volume":10938,"Dry":10939,"ais":10940,"Ġcoin":10941,"Ġban":10942,"ĠLord":10943,"izers":10944,"setUp":10945,"ĠYear":10946,"Ġdirecting":10947,")),":10948,"Ġ**/":10949,"Ġreply":10950,"Ġopam":10951,"www":10952,"Ġrestrict":10953,"Ġguns":10954,"LINK":10955,"PADDING":10956,"sess":10957,"{\\":10958,"Ġcc":10959,"itz":10960,"Ġisset":10961,"Ġproceed":10962,"shal":10963,"Ġbucket":10964,"defaults":10965,"Ġ])":10966,"Ġlinked":10967,"fol":10968,"vanced":10969,"Ġbes":10970,"avad":10971,"ĠMic":10972,"ĠDjango":10973,"Transport":10974,"ĠOffice":10975,"Center":10976,"EO":10977,"Ġtitles":10978,"Ġfly":10979,"allet":10980,"Ġdraft":10981,"cean":10982,"estion":10983,"ĠPut":10984,"ĠBefore":10985,"ĠInsert":10986,"Ġdeclared":10987,"Cloud":10988,"NAM":10989,"onical":10990,"rev":10991,"ĠPakistan":10992,"ĠDebug":10993,"notations":10994,"Ġ}}\"":10995,"Ġfigures":10996,"ennis":10997,"èĩª":10998,"BY":10999,"samples":11000,"Ġtables":11001,"aten":11002,"ador":11003,"ĠDi":11004,"005":11005,"Drawing":11006,"Ġdrugs":11007,"brand":11008,"Ġpara":11009,"Operator":11010,"ĠRecord":11011,"aire":11012,"ÂĤ":11013,"Ġinher":11014,"ĠRow":11015,"ĠInternal":11016,"Standard":11017,"lector":11018,"week":11019,"=-=-=-=-":11020,"literals":11021,"EVENT":11022,"ji":11023,"poll":11024,"Ġdress":11025,"ĠIll":11026,"Ġconversion":11027,"ĠRome":11028,"LED":11029,"ĠProperties":11030,"Ġindices":11031,"ãģĻ":11032,"Ġindicate":11033,"arbage":11034,"elasticsearch":11035,">{{":11036,"Present":11037,"blog":11038,"Ġtou":11039,"Ġsport":11040,"Ġcry":11041,"Ġlov":11042,"Ġlabor":11043,"Ġvim":11044,"ĠRoad":11045,"ĠAthens":11046,"åħ¥":11047,"bird":11048,"Ãº":11049,"Ġnd":11050,"Ġfro":11051,"etween":11052,"ĠTarget":11053,"ĠFont":11054,"Ġ));":11055,"perform":11056,"ĠStew":11057,"2010":11058,"Ġloading":11059,"relation":11060,"Ġhomes":11061,"Bool":11062,"Ġwound":11063,"Ġtrash":11064,"pond":11065,"Ġcolspan":11066,"Ġhardly":11067,"Ġplanet":11068,"Ġsuspect":11069,"Creat":11070,"nic":11071,"ĠFred":11072,"Ġchecking":11073,"509":11074,"stdio":11075,"visible":11076,"Ġslowly":11077,"qa":11078,"Ġflex":11079,"amount":11080,"igen":11081,"verbose":11082,"Ġtypeof":11083,"classFrame":11084,"NOSCRIPT":11085,"Remote":11086,"Ġgeometry":11087,"Ġembarrass":11088,"Ġstrike":11089,"Ð¼":11090,"Ġaid":11091,"Ġpitch":11092,"Ġgem":11093,"Ġstereot":11094,"ixin":11095,"Ġrelationships":11096,"locale":11097,"ategor":11098,"Ġleaders":11099,"Ġwinner":11100,"Detail":11101,"Ġchalleng":11102,"\"/":11103,"UC":11104,"cmp":11105,"ications":11106,"ĠCPU":11107,"ĠWin":11108,"Ġtraff":11109,"Information":11110,"ĠVAR":11111,"Ġxrange":11112,"Ġargv":11113,"versation":11114,"HS":11115,"PHP":11116,"repository":11117,"Ġsd":11118,"Ġpit":11119,"ĠMiddle":11120,"setValue":11121,"ecess":11122,"letes":11123,"Ġwindows":11124,"Ġtwisted":11125,"ĠALL":11126,"belie":11127,"Copyright":11128,"UA":11129,"á»":11130,"Ġluck":11131,"aylor":11132,"Ġconclusion":11133,"uples":11134,"ACING":11135,"Ġtypically":11136,"Ġhotel":11137,"Other":11138,"Sur":11139,"nil":11140,"pn":11141,"sent":11142,"Ġcout":11143,"esting":11144,"ĠMajor":11145,"ARK":11146,"ftime":11147,"Ġparallel":11148,"poses":11149,"Car":11150,"CALL":11151,"Hook":11152,"ĠÎ":11153,"Ġbreed":11154,"owl":11155,"Ġalive":11156,"Ġdesired":11157,"Ġdecides":11158,"ĠÐ½":11159,"ĠSpain":11160,"ãĤĴ":11161,"ggreg":11162,"ĠManhattan":11163,"csv":11164,"æľ¬":11165,"Ġstopped":11166,"Ġlighting":11167,"ĠVALIGN":11168,"cached":11169,"ĠEr":11170,"Ġgoals":11171,"Ġworldwide":11172,"Ġexistence":11173,"visit":11174,"Ġclosing":11175,"å°±":11176,"ĠTechnology":11177,"ĠGovernment":11178,"bitrary":11179,"Ġmuseum":11180,"Ġrepeat":11181,"Ġvul":11182,"Ġmood":11183,"colLast":11184,"Ġhandles":11185,"Addr":11186,"Ġaffili":11187,"Condition":11188,"cookie":11189,"django":11190,"Ġow":11191,"Ġbaby":11192,"ĠSat":11193,"period":11194,"ducer":11195,"Ġ1024":11196,"Ġguilt":11197,"wildfly":11198,"neg":11199,"Ġsorry":11200,"oral":11201,"Ġpad":11202,"Ġmouth":11203,"Ġnu":11204,"ĠLib":11205,"Ġ):":11206,"Children":11207,"stitution":11208,"ĠTibetan":11209,"ĠLouis":11210,"Cast":11211,"Dig":11212,"MC":11213,"Two":11214,"Ġ/.":11215,"Ġlat":11216,"ousel":11217,"ĠYoung":11218,"OTO":11219,"ĠAddress":11220,"Ġencounter":11221,"ĠKeyError":11222,"Ġelectric":11223,"fixture":11224,"pk":11225,"ĠTony":11226,"Ġcontemp":11227,"ideos":11228,"rollers":11229,"ĠXml":11230,"checked":11231,"åĬł":11232,"Ġsac":11233,"ĠSN":11234,"Ġunn":11235,"Ġunus":11236,"Ġ1950":11237,"Ġguarant":11238,"ĠColumb":11239,"Ġskin":11240,"Ġauthorities":11241,"Ġlaughs":11242,"Ġcartoon":11243,"'\"":11244,"PY":11245,"ipient":11246,"Ġobser":11247,"facebook":11248,"While":11249,"Ġproviding":11250,"Compiler":11251,"Executor":11252,"hyp":11253,"icide":11254,"Ġnic":11255,"ĠBas":11256,"ĠHal":11257,"Ġdelight":11258,"Ġconsists":11259,"éĿ¢":11260,"Permission":11261,"SUB":11262,"udd":11263,"Ġdry":11264,"Accept":11265,"hard":11266,"=\"//":11267,"Setting":11268,"Ġwarm":11269,"LIB":11270,"payload":11271,"ĠCatholic":11272,"/%":11273,"Kind":11274,"Ø±":11275,"Ġsitting":11276,"utter":11277,"Ġlin":11278,"ĠCD":11279,"ĠPsi":11280,"iframe":11281,"Ġexchange":11282,"ĠJud":11283,"listen":11284,"Ġdirectories":11285,"Ġrefresh":11286,"Ġrestaur":11287,"BB":11288,"Missing":11289,"xff":11290,"çº":11291,"Ġfre":11292,"apers":11293,"ando":11294,"Ġrouter":11295,"Ġintel":11296,"ĠJean":11297,"ghan":11298,"Ġformats":11299,"Ġlocale":11300,"Metrics":11301,"AMP":11302,"Kernel":11303,"Rules":11304,"cout":11305,"è¨":11306,"Ġ*=":11307,"ĠBU":11308,"Ġrail":11309,"ĠEnc":11310,"Ġmanual":11311,"Combo":11312,"substring":11313,"Ġdecade":11314,"Ġsolo":11315,"Ġtwist":11316,"Ġglad":11317,"Ġfalling":11318,"å¼ı":11319,"Price":11320,"æİ¥":11321,"ĠCREATE":11322,"Preferences":11323,"Ġing":11324,"Ġssl":11325,"secret":11326,"ĠFox":11327,"ocide":11328,"Exists":11329,"colFirst":11330,"Ġconfigured":11331,"ĠBOOL":11332,"Foreign":11333,"sup":11334,"Ġpin":11335,"ĠIII":11336,"ĠBrown":11337,"ĠChampion":11338,"SPACING":11339,"Ġselling":11340,"ĠIraqi":11341,"ih":11342,"tility":11343,"Ġ=================================":11344,"Ġstret":11345,"ĠBrad":11346,"setting":11347,"Ġdeserves":11348,"schedule":11349,"servlet":11350,"Ġvolatile":11351,"Ġhopes":11352,"AreEqual":11353,"92":11354,"åĵ":11355,"Ġbiz":11356,"Ġonclick":11357,"Constraint":11358,"Theme":11359,"Ġtempfile":11360,"Signature":11361,"ĠGreek":11362,"Ġweren":11363,"SuppressWarnings":11364,"Tile":11365,"UCT":11366,"pic":11367,"ĠFull":11368,"getString":11369,"ĠOur":11370,"Ġstatements":11371,"Paths":11372,"ĠJohnson":11373,"Ġresolution":11374,"Ġtalented":11375,"BACK":11376,"Press":11377,"priv":11378,"wan":11379,"Ġ\"${":11380,"thur":11381,"ums":11382,"ĠEgypt":11383,"ĠStill":11384,"ĠÐ´":11385,"ĠMontana":11386,"History":11387,"Ġtar":11388,"Ġtheory":11389,"Ġrepr":11390,"ademy":11391,"ĠCopy":11392,"Ġwealth":11393,"Cons":11394,"endswith":11395,"LOAD":11396,"Direction":11397,"oes":11398,"uation":11399,"Ġpref":11400,"ĠDer":11401,"Ġsharp":11402,"athan":11403,"ĠHealth":11404,"marily":11405,"Ġ1997":11406,"Ġantibiot":11407,"Ġvan":11408,"LOB":11409,"slider":11410,"Ġarrived":11411,"ĠCELLPADDING":11412,"Ġimpressive":11413,"La":11414,"Loop":11415,"bear":11416,"Ġbatter":11417,"Ġnotification":11418,"Ġrelations":11419,"ĠStringIO":11420,"running":11421,"Ġanimal":11422,"ĠCELLSPACING":11423,"=>":11424,"days":11425,"ĠAv":11426,"Ġfilming":11427,"aze":11428,"Ġdelivery":11429,"Ġanimated":11430,"Marker":11431,"Ġsuddenly":11432,"GR":11433,"IRE":11434,"demo":11435,"shell":11436,"Ġnud":11437,"ĠSn":11438,"ĠHa":11439,"__.":11440,"------------------------------------------------":11441,"120":11442,"Ð°ÑĤ":11443,"Ġoccurs":11444,"Ġeastern":11445,"Ġbenefits":11446,"iques":11447,"Ġ//////////////////////////////////////////////////////////////////////////":11448,"Drop":11449,"country":11450,"Ñħ":11451,"Ġdise":11452,"ĠSize":11453,"ĠWalk":11454,"Ġships":11455,"Ġfamilies":11456,"MIT":11457,"iest":11458,"ye":11459,"Ġpictures":11460,"--+":11461,"ĠNon":11462,"ysics":11463,"DEX":11464,"ViewById":11465,"Ġdepart":11466,"Ġmetric":11467,"Ġgirlfriend":11468,"Ġthreads":11469,"Ġtiny":11470,"inject":11471,"etes":11472,"stage":11473,"chrome":11474,"ĠPan":11475,"ĠNav":11476,"Ġscream":11477,"Ġcells":11478,"Ġfantasy":11479,"Ġconcerned":11480,"Ġhack":11481,"ĠTaylor":11482,"Ġdecode":11483,"Ġseek":11484,"Ġsnapshot":11485,"Redirect":11486,"Ġbounds":11487,"Ġassets":11488,"extensions":11489,"Ġjourney":11490,"udan":11491,"DOM":11492,"Ġdropped":11493,"Mer":11494,"gency":11495,"native":11496,"__,":11497,"indices":11498,"ĠCONF":11499,"ko":11500,"incess":11501,"ĠLater":11502,"Ġasset":11503,"loss":11504,"spath":11505,"apple":11506,"loaded":11507,"DIV":11508,"ìĿ´":11509,"Ġincredibly":11510,"Ġsensor":11511,"ola":11512,"imator":11513,"ĠMike":11514,"concat":11515,"Stub":11516,"ĠKelly":11517,"Ġnullptr":11518,"Ġregex":11519,"slam":11520,"ircraft":11521,"ĠUsing":11522,"\\_":11523,"multip":11524,"ç´":11525,"Ġcos":11526,"Ġops":11527,"orted":11528,"ĠMid":11529,"ĠMulti":11530,"Ġhasn":11531,"Ġ2018":11532,"QUE":11533,"Ġconsidering":11534,"Ġfunds":11535,"Ġcreepy":11536,"Sep":11537,"paces":11538,"***/":11539,"Ġlua":11540,"ĠMen":11541,"Ġproof":11542,"Ġmanip":11543,"labels":11544,"attrs":11545,"Ġofficer":11546,"cii":11547,"Ġsomewhere":11548,"Verify":11549,"Ġweapons":11550,"Cancel":11551,"Normal":11552,"ez":11553,"ĠLittle":11554,"ĠPay":11555,"Ġconvention":11556,"Extract":11557,"Ġwilling":11558,"ĠYet":11559,"Ġjustice":11560,"Ġflight":11561,"Ġmemcpy":11562,"Ġsituations":11563,"Ġindividuals":11564,"Ġearned":11565,"çĤ¹":11566,"Diff":11567,"Ġloud":11568,"Ġuuid":11569,"ĠMenu":11570,"ĠDam":11571,"arters":11572,"Ġ42":11573,"Ġintelligence":11574,"avadoc":11575,"Ġtile":11576,"Ġtrees":11577,"ĠWrit":11578,"...\"":11579,"Ġlaws":11580,"Ġsupplied":11581,"Plan":11582,"Ġ========":11583,"Ġrecognized":11584,"Ġconstructed":11585,"Ġbarely":11586,"Bad":11587,"matches":11588,"Â·":11589,"Ġreduced":11590,"ĠTensor":11591,"ĠSar":11592,"ĠFeder":11593,"ailability":11594,"appings":11595,"ostream":11596,"Ġmanifest":11597,"COUNT":11598,"ĠPerform":11599,"Ġsuffered":11600,"Ġmasterpiece":11601,"93":11602,"ìĹ":11603,"Ġwins":11604,"Ġ\")":11605,"ĠRo":11606,"toEqual":11607,"Ġarc":11608,"ĠSection":11609,"Ġkeyword":11610,"Ġaccused":11611,"validator":11612,"methods":11613,"servable":11614,"Ġadvanced":11615,"ĠCHAR":11616,"Ġdiag":11617,"elist":11618,"iger":11619,"Ġchair":11620,"inks":11621,"modified":11622,"ĠAsian":11623,"Ġthinks":11624,"black":11625,"åĬ¨":11626,"activate":11627,"'></":11628,"VAR":11629,"åĳ":11630,"Ġstub":11631,"Ġpartition":11632,"worker":11633,"ĠCommit":11634,"ÐµÑĢ":11635,"ĠCarol":11636,"ĠFilm":11637,"CMD":11638,"Ġgenu":11639,"Ġglyph":11640,"veral":11641,"ulture":11642,"Ġpoly":11643,"Ġexciting":11644,"}}</":11645,"ĠAbout":11646,"REQUEST":11647,"nate":11648,"heast":11649,"Ġmac":11650,"ĠAst":11651,"ĠMP":11652,"Ġbear":11653,"ĠDictionary":11654,"Ġremake":11655,"atting":11656,"Ġcuts":11657,"operation":11658,"origin":11659,"tl":11660,"Ġpid":11661,"eman":11662,"ĠBru":11663,"ĠWH":11664,"ĠConf":11665,"ĠProp":11666,"ĠAndrew":11667,"mean":11668,"Ġkeeping":11669,"Ġadvant":11670,"Ġappreciate":11671,"ç¤º":11672,"ĠClinton":11673,"'><":11674,"making":11675,"rust":11676,"ÃĦ":11677,"Ġsle":11678,"Ġinvent":11679,"ĠTerm":11680,"ĠLock":11681,"Ġchannels":11682,"ILL":11683,"Ġmedical":11684,"Ġrejected":11685,"-+":11686,"à¯":11687,"Ġamp":11688,"Ġpod":11689,"Ġdies":11690,"Ġdancing":11691,"figure":11692,"Ġentered":11693,"Ġattached":11694,"stdlib":11695,"Analysis":11696,"Ġprepared":11697,"ĠDirector":11698,"Browser":11699,"must":11700,"pal":11701,"Ġvir":11702,"ĠLady":11703,"ĠButton":11704,"Ġcorner":11705,"requency":11706,"Ġincorp":11707,"è¿Ľ":11708,"Segment":11709,"asketball":11710,"AIL":11711,"à¹":11712,"imize":11713,"unny":11714,"Ġtranslation":11715,"Ġprocesses":11716,"Ġ1998":11717,"Ġstreets":11718,"ĠStewart":11719,"Vec":11720,"Ġsending":11721,"esis":11722,"Ġinherit":11723,"ĠLabel":11724,"ifact":11725,"Ġalcoh":11726,"ĠEC":11727,"Ġlie":11728,"Ġoffering":11729,"ĠGeneric":11730,"uffle":11731,"à¤Ĥ":11732,"Asset":11733,"Ġtemporary":11734,"Ġmerely":11735,"ĠRadio":11736,"Split":11737,"TK":11738,"missing":11739,"uling":11740,"serialize":11741,"Ġ\\\\":11742,"Ġconstit":11743,"ĠResearch":11744,"cedure":11745,"threads":11746,"written":11747,"Ġdollar":11748,"Wr":11749,"hh":11750,"yaml":11751,"isms":11752,"ĠFake":11753,"Ġ&=":11754,"Ġsubmit":11755,"DIO":11756,"åīį":11757,"Have":11758,"Ġ=================":11759,"amaz":11760,"urse":11761,"Ġgross":11762,"Ġ\"_":11763,"endo":11764,"ĠNY":11765,"Ġatomic":11766,"errno":11767,"Std":11768,"ĠKn":11769,"ĠOrgan":11770,"movie":11771,"cdn":11772,"Ġtraffic":11773,"pers":11774,"Ġsv":11775,"Ġsand":11776,"Ġvtk":11777,"ĠRES":11778,"Ġleague":11779,"Replace":11780,"merce":11781,"ĠWhich":11782,"general":11783,"ĠDefine":11784,"Ġcheesy":11785,"Ġbuttons":11786,"ixtures":11787,"Matcher":11788,"åĽŀ":11789,"ĠPalest":11790,"mers":11791,"uz":11792,"Ġdf":11793,"Ġtra":11794,"aza":11795,"Ġdepartment":11796,"Ġmonster":11797,"removeClass":11798,"Ġcapacity":11799,"ĠCOPYING":11800,"BLOCK":11801,"mx":11802,"rout":11803,"}'":11804,"Ġtick":11805,"onic":11806,"anke":11807,"ĠHit":11808,"ĠVirgin":11809,"Ġexpensive":11810,"alty":11811,"controls":11812,"Ġinvestment":11813,"Threading":11814,"Ġserialized":11815,"Available":11816,"DC":11817,"ville":11818,"Ãª":11819,"ÏĦ":11820,"çłģ":11821,"Ġsight":11822,"Ġdaily":11823,"Ġlord":11824,"Ġgent":11825,"ĠShort":11826,"MSG":11827,"Ġcopied":11828,"Ġaccounts":11829,"Ġvictim":11830,"ĠMemory":11831,"AIN":11832,"Ans":11833,"upper":11834,"Ġ*>":11835,"spir":11836,"Ġfunctionality":11837,"lands":11838,"Ġturning":11839,"Ġcrash":11840,"Ġarchive":11841,"Ġinvestig":11842,"Ġintelligent":11843,"ĠAtlantic":11844,";\\":11845,"?:":11846,"fake":11847,"ati":11848,"Ġbill":11849,"ĠCross":11850,"Ġ'*":11851,"ĠBol":11852,"viation":11853,"Ġscored":11854,"POS":11855,"PACK":11856,"tv":11857,"Ġclu":11858,"almost":11859,"Ġwww":11860,"aded":11861,"Ġ'&":11862,"Ġ'../../":11863,"Ġuniform":11864,"ĠItaly":11865,"RAY":11866,"ĠAndroid":11867,"Ġprimarily":11868,"Ġrevenge":11869,"Ġaccompl":11870,"æĥ":11871,"æĭ":11872,"Ł¥":11873,"Ġfocused":11874,"Ġstrategy":11875,"ENABLE":11876,"Decimal":11877,"Ġissued":11878,"Foundation":11879,"GUI":11880,"tail":11881,"Ġride":11882,"Ġbot":11883,"=\"./":11884,"ĠMos":11885,"ĠHill":11886,"ĠWait":11887,"angers":11888,"inded":11889,"Ġmetrics":11890,"Ġunderstanding":11891,"Ġplugins":11892,"Ġwalking":11893,"ylan":11894,"hematic":11895,"Ġfeaturing":11896,"Dictionary":11897,"kins":11898,"Ġsel":11899,"amer":11900,"Ġgarbage":11901,"ĠAFP":11902,"ĠPlayer":11903,"abstract":11904,"management":11905,"ESSAGE":11906,"ĠGram":11907,"ĠÃł":11908,"crumb":11909,"Encoding":11910,"ĠACCEPT":11911,"åı¯ä»¥":11912,"Tip":11913,"hist":11914,"href":11915,"lad":11916,"ðĳ":11917,"Ġtension":11918,"inja":11919,"ĠSSL":11920,"Ġgulp":11921,"unpack":11922,"Ġunlike":11923,"Ġunderlying":11924,"Chart":11925,"ĠConn":11926,"Been":11927,"dataset":11928,"Ġsyntax":11929,"Ġexplained":11930,"å®ŀ":11931,"Ġportrayal":11932,"Ġvehicle":11933,"ĠtearDown":11934,"AO":11935,"Tx":11936,"pd":11937,"uv":11938,"Ġ----------":11939,"Ġvers":11940,"ĠLin":11941,"Ġlets":11942,"Ġ\\\"":11943,"ĠSTAT":11944,"frames":11945,"LP":11946,"di":11947,"Â»":11948,"Ġack":11949,"ĠTown":11950,"ĠNative":11951,"ĠEli":11952,"ĠStore":11953,"Ġformula":11954,"Ġ{},":11955,"Ġhosts":11956,"Phone":11957,"ĠParty":11958,"Ġlearned":11959,"covery":11960,"BE":11961,"Mut":11962,"uate":11963,"Ġí":11964,"iser":11965,"external":11966,"ĠFall":11967,"ells":11968,"eller":11969,"assertAll":11970,"ĠXXX":11971,"Ġbrut":11972,"ĠScience":11973,"Ġlikes":11974,"latex":11975,"Ġhoping":11976,"Ġletters":11977,"Ġequivalent":11978,"mul":11979,"otions":11980,"ĠPORT":11981,"Ġdefines":11982,"Ġroy":11983,"Ġcler":11984,"ĠRevision":11985,"legend":11986,"Ġschol":11987,"||":11988,"æģ":11989,"onder":11990,"Ġsimpl":11991,"Ġcycle":11992,"Ġlies":11993,"apps":11994,"Ġanywhere":11995,"Release":11996,"Ġvisited":11997,"Algorithm":11998,"Ġ1996":11999,"aviour":12000,"Ġtransparent":12001,"--+--+":12002,"Uns":12003,"éĺ":12004,"Ġintrig":12005,"Ġendblock":12006,"backs":12007,"Shader":12008,"Ġprocessed":12009,"openapi":12010,"members":12011,"Ġattempted":12012,"rypted":12013,"ĠMovie":12014,"Ġradius":12015,"Ġindicates":12016,"ĠAgain":12017,"Ġlosing":12018,"Factor":12019,"Rob":12020,"zilla":12021,"ĠCA":12022,"Ġwasted":12023,"Ġspending":12024,"Ġpeak":12025,"blocks":12026,"åıĳ":12027,"Ġplanning":12028,"Ġcauses":12029,"ĠAfghan":12030,"Ġcircum":12031,"Ġbalance":12032,"Break":12033,"License":12034,"cos":12035,"æ¬":12036,"Ġwinds":12037,"Ġhurt":12038,"ĠImmutable":12039,"ĠFoot":12040,"ĠHat":12041,"ĠCompute":12042,"Ġindust":12043,"ĠDEF":12044,"åľ°":12045,"Bo":12046,"Ctrl":12047,"distance":12048,"pub":12049,"Ġ************************************************************************":12050,"onna":12051,"Ġva":12052,"Ġimpression":12053,"ĠBrian":12054,"Ġagencies":12055,"ĠTech":12056,"ĠAngeles":12057,"stein":12058,"Ġopenerp":12059,"Created":12060,"rich":12061,"å¥":12062,"--;":12063,"Ġintr":12064,"otes":12065,"ĠCourse":12066,"___":12067,"Ġnewly":12068,"Ġdesert":12069,"Ġstructures":12070,"Ġtexture":12071,"Ġinsur":12072,"å¤ļ":12073,"Ġconvincing":12074,"ĠSPECIES":12075,"å¾Ĺ":12076,"Lookup":12077,"Ġopposite":12078,".\",":12079,"çŃ":12080,"that":12081,"Ġrelatively":12082,"Ġerrno":12083,"Ġ48":12084,"Ġextent":12085,"metrics":12086,"charset":12087,"ĠHarry":12088,"ĠGreece":12089,"OBJECT":12090,"More":12091,"áŁ":12092,"åĿ":12093,"Ġcookie":12094,"Ġbridge":12095,"Ġven":12096,"ĠRod":12097,"Ġanal":12098,"Ġquote":12099,"tabstop":12100,"Ġequipment":12101,"ecessary":12102,"dy":12103,"Ġtropical":12104,"inos":12105,"Ġnarrow":12106,"ĠIMD":12107,"ĠFur":12108,"Ġlibraries":12109,"program":12110,"OnSearch":12111,"Ġrapid":12112,"fixed":12113,"scription":12114,"Ġtaste":12115,"ulates":12116,"owell":12117,"ĠRoute":12118,"ĠDark":12119,"Ġcomfort":12120,"ipy":12121,"Ġenh":12122,"structure":12123,"Ġeasier":12124,"ĠSimon":12125,"Ġtone":12126,"ĠCa":12127,"ĠNever":12128,"amps":12129,"Ġgrace":12130,"ĠAlbert":12131,"Ġaccent":12132,"Ġsymbols":12133,"partner":12134,"åŃĲ":12135,"Ġdocs":12136,"ĠSpecial":12137,"Ġbenefit":12138,"ĠFrancisco":12139,"Begin":12140,"Year":12141,"Ġdut":12142,"Ġreaction":12143,"Ġhat":12144,"ĠSon":12145,"chunk":12146,"ĠGrid":12147,"Ġproved":12148,"Ġcollapse":12149,"Ġspring":12150,"ĠCONT":12151,"ĠSetup":12152,"ski":12153,"9999":12154,"connected":12155,"Ġteacher":12156,"Ġapproximately":12157,"|&":12158,"Ġdtype":12159,"Ġmv":12160,"Ġvision":12161,"cher":12162,"ĠGi":12163,"reme":12164,"Ġprintk":12165,"ĠAlan":12166,"Alloc":12167,"ä»£":12168,"ĠEmpire":12169,"Ġwidely":12170,"Ġcandidate":12171,"Ġintellect":12172,"boy":12173,"ioc":12174,"tor":12175,"Ġble":12176,"Ġ\"{":12177,"ĠIslam":12178,"Ġ*/;":12179,"preview":12180,"Ġrefused":12181,"Actions":12182,".',":12183,"Cur":12184,"LICENSE":12185,"direction":12186,"een":12187,"Âĥ":12188,"Î¹":12189,"Ġug":12190,"ĠRose":12191,"ships":12192,"flat":12193,"Ġexpressed":12194,"ĠÐ¸":12195,"Ġcoordinates":12196,"++++++++":12197,"ÅĤ":12198,"aron":12199,"Ġconven":12200,"ĠWord":12201,"ĠVar":12202,"Ġforest":12203,"3333":12204,"çĶŁ":12205,"Ġadministration":12206,"twitter":12207,"Ġcriminal":12208,"ĠServices":12209,"MI":12210,"browse":12211,"pending":12212,"Ġawards":12213,"Ġpg":12214,"orders":12215,"coord":12216,"Assign":12217,"Ġfilmmakers":12218,"FOR":12219,"ront":12220,"xe":12221,"ĠTIM":12222,"Ġ#----------------------------------------------------------------":12223,"ulf":12224,"ĠBat":12225,"ĠApi":12226,"ORMAL":12227,"Ġmoral":12228,"Ġorders":12229,"Img":12230,"dup":12231,"ĠDES":12232,"Testing":12233,"ENCE":12234,"Ġbelief":12235,"Ġclients":12236,"Ġsupply":12237,"MODULE":12238,"SUCCESS":12239,"Gradient":12240,"Tw":12241,"gis":12242,"have":12243,"Ġbodies":12244,"Ġinh":12245,"Ġsevent":12246,"Ġnova":12247,"Ġamateur":12248,"slf":12249,"Ġdescribes":12250,"Ġcontrolled":12251,"Ġidentify":12252,"ä½ł":12253,"Ġpurposes":12254,"variant":12255,"ĠWarsaw":12256,"alytics":12257,":<":12258,"multi":12259,"sen":12260,"Ãĵ":12261,"Ġfixture":12262,"Ġles":12263,"Ġarbitrary":12264,"Chain":12265,"otted":12266,"maps":12267,"dirs":12268,"Ġbizarre":12269,"Sec":12270,"except":12271,"ĠHarr":12272,"Ġdefinitions":12273,"Ġprotests":12274,"Ġdisaster":12275,"tsd":12276,"Ġputting":12277,"Ġstanding":12278,"ĠMaria":12279,"Ġreferred":12280,"ĠEdward":12281,"precision":12282,"Ġjudges":12283,"ĠVerify":12284,"Ġmyster":12285,"å¹´":12286,"basename":12287,"ĠBusiness":12288,"ĠFIXME":12289,"ForeignKey":12290,"facts":12291,"kl":12292,"rst":12293,"Â´":12294,"Ġsides":12295,"Ġsizes":12296,"Ġpixel":12297,"Ġga":12298,"ĠDrop":12299,"Throw":12300,"CLI":12301,"Ġdegrees":12302,"ĠAttributeError":12303,"Ġinterpret":12304,";|&":12305,"Future":12306,"Mat":12307,"Named":12308,"rical":12309,"Ġcitiz":12310,"otor":12311,"Ġvent":12312,"Ġconsec":12313,"Ġ////":12314,"ĠNick":12315,"Ġunfortunately":12316,"ĠChromium":12317,"olds":12318,"Ġretail":12319,"radio":12320,"ĠInterface":12321,"Ġnormally":12322,"Fac":12323,"NEL":12324,"Then":12325,"éľ":12326,"ĠLE":12327,"ĠFix":12328,"ĠGar":12329,"Ġprove":12330,"Ġjoint":12331,"ĠVert":12332,"statement":12333,"Ġbroke":12334,"Ġgenius":12335,"ijing":12336,"RPC":12337,"Well":12338,"currency":12339,"tpl":12340,"Ð¿":12341,"Ġsav":12342,"Ġgrade":12343,"Score":12344,"Ġsuffering":12345,"Worker":12346,"Ġranked":12347,"SERVER":12348,"RAMES":12349,"TT":12350,"pat":12351,"ĠSL":12352,"ĠOil":12353,"Ġunbelie":12354,"123":12355,"Ġblank":12356,"icons":12357,"TERN":12358,"ĠIntent":12359,"party":12360,"Ġalternative":12361,"Axis":12362,"American":12363,"Called":12364,"Calc":12365,"even":12366,"Ġtreated":12367,"inations":12368,"ĠLatin":12369,"ĠRom":12370,"ĠFour":12371,"ysical":12372,"ĠUnicode":12373,"records":12374,"Ġsecure":12375,"Ġtrading":12376,"ĠDavis":12377,"BODY":12378,"amazon":12379,"xF":12380,"Ġsuicide":12381,"Ġdisappe":12382,"Ġhappening":12383,"Ġemphas":12384,"Ġorganizations":12385,"Ġstruggle":12386,"ĠVisual":12387,"ä¿¡":12388,"Ġadults":12389,"Ġinstitutions":12390,"Delay":12391,"Ġarrested":12392,"vetica":12393,"Gateway":12394,"Ġmaps":12395,"adies":12396,"Ġ1960":12397,"Ġminimal":12398,"Ġ***":12399,"Commands":12400,"invoke":12401,"~~~~~~~~~~~~~~~~":12402,"Ġincredible":12403,"Clos":12404,"tol":12405,"inite":12406,"erialize":12407,"ĠSR":12408,"iday":12409,"Ġintention":12410,"Enter":12411,"Ġpriest":12412,"Ġsklearn":12413,"ĠEnable":12414,"ãĤĭ":12415,"renderer":12416,"Ġemployees":12417,"ByteArray":12418,"ĠSouthern":12419,"Writ":12420,"gif":12421,"you":12422,"å»":12423,"Ġsans":12424,"examples":12425,"lications":12426,"essor":12427,"Ġrb":12428,"Ġshr":12429,"ARGET":12430,"ĠAsia":12431,"Ġflaw":12432,"Ġfounded":12433,"Ġfeelings":12434,"itespace":12435,"BI":12436,"TIM":12437,"æ¨":12438,"çľ":12439,"Ġaircraft":12440,"ĠEnsure":12441,"outs":12442,"Ġfinale":12443,"cls":12444,"Ġperman":12445,"ĠSeries":12446,"Ġlaughing":12447,"Ġinfluenced":12448,"ĠExpression":12449,"Ġpulled":12450,"anted":12451,"Ġthank":12452,"Ġaudiences":12453,"Ġgenocide":12454,"Ġcomposer":12455,"Cal":12456,"¿½":12457,"Ġcss":12458,"Ġfat":12459,"icious":12460,"Ġgc":12461,"ĠMong":12462,"Ġnotify":12463,"Ġyouth":12464,"scene":12465,"ĠWARNING":12466,"Ġeconom":12467,"å¼Ģ":12468,"Ġscheduled":12469,"Ġsubsequent":12470,"Evalu":12471,"dem":12472,"two":12473,"ĠMaster":12474,"Ġ/**<":12475,"Ġaggreg":12476,"Ġthanks":12477,"beat":12478,"identity":12479,"=\"#\"":12480,"ĠTOK":12481,"Regex":12482,"servers":12483,"ĠGeorg":12484,"Ġhousehold":12485,"seconds":12486,"TYP":12487,"Destroy":12488,"æ±":12489,"hester":12490,"Ġfired":12491,"ceived":12492,"ĠCub":12493,"units":12494,"ĠGer":12495,"lustr":12496,"ĠVari":12497,"geon":12498,"Ġevening":12499,"Ġapartment":12500,"Ġedu":12501,"ĠBuddha":12502,"Ġanthropology":12503,"Ġsenior":12504,"Ġic":12505,"Ġáĥ":12506,"Ġtp":12507,"enth":12508,"Ġaside":12509,"ĠHAVE":12510,"Ġchip":12511,"remarks":12512,"Ġregions":12513,"Ġincorrect":12514,"FIELD":12515,"Visual":12516,"mediate":12517,"Ġnarrative":12518,"ĠIMDb":12519,"Lang":12520,"Typ":12521,"Ġcab":12522,"Ġwave":12523,"states":12524,"Ġ'{":12525,"ubble":12526,"exe":12527,"ĠFace":12528,"ĠDylan":12529,"ocomp":12530,"assertNot":12531,"Ġmemset":12532,"devices":12533,"Ġkidn":12534,"Ġnudity":12535,"havior":12536,"Ġtm":12537,"reverse":12538,"heart":12539,"Ġcute":12540,"aser":12541,"Ġinject":12542,"Ġinform":12543,"htt":12544,"iry":12545,"ĠNaz":12546,"Ġretrie":12547,"ĠÐ¾":12548,"Ġawesome":12549,"404":12550,"Ġinvestors":12551,"Ġsilent":12552,"Ġalien":12553,"ĠLocation":12554,"Ġexpanded":12555,"Ġbelongs":12556,"Math":12557,"bold":12558,"Ġwinter":12559,"Ġmatched":12560,"Ġ/></":12561,"ĠTri":12562,"::::":12563,"Ġtested":12564,"Ġsuck":12565,"Ġcharges":12566,"readcrumb":12567,"Ġobl":12568,"indexOf":12569,"Ġautorest":12570,"ĠReset":12571,"Rows":12572,"Ġmistake":12573,"mysql":12574,"Mill":12575,"Ġporn":12576,"Ġbb":12577,"ĠBoy":12578,"Ġcomposed":12579,"locked":12580,"Ġcounts":12581,"QUAL":12582,"fluid":12583,"Ġheavily":12584,"bro":12585,"Ġthin":12586,"ĠSingle":12587,"ĠBL":12588,"ĠFramework":12589,"ĠVM":12590,"ether":12591,"viders":12592,"Ð¾Ð»":12593,"è®¾":12594,"zeros":12595,"Ġsettlement":12596,"speed":12597,"*>":12598,"Bits":12599,"zil":12600,"Ġdetailed":12601,"Ġrecon":12602,"Ġnested":12603,"urer":12604,"Ġeg":12605,"Ġarts":12606,"previous":12607,"encing":12608,"ĠDevice":12609,"Ġnearby":12610,"Ġrenderer":12611,"PROP":12612,"Ġreplacement":12613,"BRE":12614,"kes":12615,"yo":12616,"Ġcars":12617,"seed":12618,"oment":12619,"ĠAV":12620,"ante":12621,"ĠThose":12622,"Ġenviron":12623,"iana":12624,"Ġraises":12625,"UPPORT":12626,"\"'":12627,"Ġmp":12628,"Ġstarring":12629,"Ġwear":12630,"filer":12631,"Ġportion":12632,"Ġassess":12633,"ĠPolish":12634,"ĠKeep":12635,"Ġtxt":12636,"Ġcloser":12637,"Ġslice":12638,"Ġln":12639,"Ġ\">":12640,"ĠJO":12641,"Ġprepar":12642,"mond":12643,"ĠCons":12644,"Intent":12645,"ãģĹ":12646,"ĠÐº":12647,"åĪĹ":12648,"Ġdeclaration":12649,"Ġgraphics":12650,"Ġsemi":12651,"Ġconstantly":12652,"ĠJoseph":12653,"Tensor":12654,"tz":12655,"tile":12656,"yb":12657,"Ġsector":12658,"Ġmakers":12659,"ĠTour":12660,"ĠPAR":12661,"liest":12662,"Ġanymore":12663,"ĠStyle":12664,"mbed":12665,"Ġknowing":12666,"Ġflush":12667,"Ġpointless":12668,"ĠRespond":12669,"suite":12670,"Ġmarkets":12671,"Ġopens":12672,"Ġroutine":12673,"Dependency":12674,"Ġchemistry":12675,"-%":12676,"sin":12677,"Ġmi":12678,"Ġvamp":12679,"ĠOWN":12680,"periment":12681,"Ġ1930":12682,"ĠExamples":12683,"HOST":12684,"navBar":12685,"Ġdepending":12686,"Initialize":12687,"ĠCharlie":12688,"å½ĵ":12689,"Ġwarned":12690,"ĠACCEPTED":12691,"CI":12692,"Clean":12693,"Sim":12694,"Self":12695,"\\'":12696,"chen":12697,"gre":12698,"har":12699,"sBy":12700,"asher":12701,"Ġiron":12702,"ĠTyp":12703,"ĠRET":12704,"ARCH":12705,"Contact":12706,"Ġlisting":12707,"à¤¤":12708,"ĠAdam":12709,"Ġcompletion":12710,"Ġ'/'":12711,"CPU":12712,"Ġmysql":12713,"uppet":12714,"todo":12715,"Ġsynchronized":12716,";//":12717,"BEG":12718,"Pred":12719,"Zero":12720,"edList":12721,"ivation":12722,"Ġdeals":12723,"ĠgetName":12724,"Ġrespond":12725,"ĠTestCase":12726,"ĠPerhaps":12727,"ĠPrince":12728,"JavaScript":12729,"éĹ´":12730,"Fn":12731,"Fixed":12732,"MAC":12733,"lv":12734,"Ġbundle":12735,"ĠLew":12736,"Ġexceed":12737,"External":12738,"ĠStory":12739,"ĠHoward":12740,"Ġepic":12741,"DAO":12742,"Ġhundreds":12743,"-+-+":12744,"navBarCell":12745,"gres":12746,"suffix":12747,"Ġtight":12748,"revision":12749,"reduce":12750,"ĠSDL":12751,"ĠLabor":12752,"Ġexclude":12753,"Ġamusing":12754,"Ġ75":12755,"Ġheads":12756,"CKET":12757,"à¥ĭ":12758,"Ġservers":12759,"green":12760,"Ġsir":12761,"Ġws":12762,"ĠLive":12763,"Ġ){":12764,"Ġsole":12765,"Ġ33":12766,"ishing":12767,"Coll":12768,"Ġgrpc":12769,"ĠDoes":12770,"Monitor":12771,"ĠBuddhist":12772,"Ġdangerous":12773,"Ġcrowd":12774,"Git":12775,"worth":12776,"edly":12777,"ilight":12778,"ĠSaint":12779,"throw":12780,"ĠRa":12781,"ĠStack":12782,"à¤ķ":12783,"Ġhandlers":12784,"ĠAllen":12785,"ajaf":12786,"Ġskills":12787,"Running":12788,"Ġrespectively":12789,"Ġmountain":12790,"ĠComputer":12791,"mir":12792,"Ġtb":12793,"elled":12794,"ĠLand":12795,"ĠPress":12796,"ĠclassName":12797,"Ġjoy":12798,"Ġfilenames":12799,"Inject":12800,"Ġresidents":12801,"Ġcharming":12802,"Ġchecksum":12803,"IFY":12804,"Ġcontemporary":12805,"Based":12806,"IMP":12807,"cn":12808,"Ġbond":12809,"Ġrevision":12810,"ĠSphinx":12811,"ĠRight":12812,"putation":12813,"subscribe":12814,"Ġviewed":12815,"Ġsecondary":12816,"Ġfrag":12817,"Ġexperi":12818,"---------------":12819,"Ġmassive":12820,"Ġadventure":12821,"CUR":12822,"Camera":12823,"Cookie":12824,"WORK":12825,"permission":12826,"rity":12827,"Â£":12828,"stable":12829,"opam":12830,"ĠDid":12831,"ĠGiven":12832,"ĠEric":12833,"arded":12834,"UTE":12835,"ĠSystems":12836,"ĠAndy":12837,"CLO":12838,"TRUE":12839,"Ġhardware":12840,"Ġinsult":12841,"Ġachieve":12842,"ĠEmperor":12843,"Amount":12844,"Ġptr":12845,"Ġrevol":12846,"Ġrs":12847,"ĠJr":12848,"ĠThrough":12849,"Ġoutstanding":12850,"Ġcharm":12851,"Ġexpos":12852,"ĠController":12853,"Ġpayment":12854,"Ġcreative":12855,"3456":12856,"Graphics":12857,"Ġpractices":12858,"Ġfrequently":12859,"Ġcontestants":12860,"KING":12861,"Mult":12862,"hemy":12863,"orient":12864,"Ġcodes":12865,"Ġrestart":12866,"Ġcompre":12867,"loading":12868,"Ġexpr":12869,"anye":12870,"ä»¬":12871,"Ġcustomers":12872,"Ġcleanup":12873,"Ġdreams":12874,"èĢħ":12875,"Pixel":12876,"ione":12877,"ĠSem":12878,"ĠHand":12879,"Ġsubclass":12880,"Ġoldest":12881,"Ġdecades":12882,"Ġchildhood":12883,"Ġsignals":12884,"rigade":12885,"Ġrelevant":12886,"relative":12887,"Ġcommented":12888,"fragment":12889,"ĠRobin":12890,"Ġroutes":12891,"Ġtraceback":12892,"Ġbgcolor":12893,"Ġterritory":12894,"MR":12895,"press":12896,"sites":12897,"ëĬ":12898,"Ġfatal":12899,"Ġhall":12900,"gettext":12901,"':'":12902,"Ġadvice":12903,"ENV":12904,"Ġdepict":12905,"Checked":12906,"Ġserves":12907,"constants":12908,"Ġfrequency":12909,"Border":12910,"codes":12911,"hour":12912,"Ã±":12913,"Ġincome":12914,"\">'":12915,"ĠEst":12916,"Ġuns":12917,"Ġupgrade":12918,"archive":12919,"ribly":12920,"ĠADD":12921,"Ġequally":12922,"ĠDeterm":12923,"Connector":12924,"Ġfrustr":12925,"Dist":12926,"Fi":12927,"GA":12928,"iac":12929,"publish":12930,"è´":12931,"ĠSudan":12932,"ĠAWS":12933,"Ġstunning":12934,"phere":12935,"dispatch":12936,"ĠâĢľ":12937,"Decoder":12938,"Backend":12939,"Ġpercentage":12940,"allowed":12941,"ĠKhan":12942,";...":12943,"Shell":12944,"TITLE":12945,"VICE":12946,"dst":12947,"sun":12948,"Ġ}.":12949,"ĠIC":12950,"ĠParameter":12951,"ĠPosition":12952,"ĠMatch":12953,"ĠGreg":12954,"ERP":12955,"RAN":12956,"textarea":12957,"ĠXHTML":12958,"SHA":12959,"Encoder":12960,"dumps":12961,"Ġzombie":12962,"!=":12963,"?,":12964,"Ġhabit":12965,"Ġconstraints":12966,"Ġanaly":12967,"addEventListener":12968,"away":12969,"sumption":12970,"Ġofficers":12971,"ĠTechnologies":12972,"Ġadaptation":12973,"&&":12974,"eh":12975,"xb":12976,"hew":12977,"Ġsoc":12978,"icing":12979,"stub":12980,"Ġlab":12981,"Ġlift":12982,"ĠHaw":12983,"Ġheat":12984,"ĠStorage":12985,"lists":12986,"INGTON":12987,"ĠHeader":12988,"urses":12989,"Ġprocessor":12990,"Ġcapable":12991,"Ġinspect":12992,"Functions":12993,"JsonProperty":12994,"ĠIsraeli":12995,"Separ":12996,"cnt":12997,"iat":12998,"Ġmart":12999,"Ġconsequ":13000,"raid":13001,"beans":13002,"Locale":13003,"Ġannounce":13004,"Ġidentified":13005,"Canvas":13006,"amazonaws":13007,"Machine":13008,"sqrt":13009,"Ġflying":13010,"Ġmalloc":13011,"Ġthorough":13012,"Ġeat":13013,"ĠPM":13014,"ĠPY":13015,"constructor":13016,"asters":13017,"coll":13018,"ĠScot":13019,"Alert":13020,"expression":13021,"MOD":13022,"Ġimproved":13023,"Ġdiscovery":13024,"Site":13025,"áº":13026,"Ġtourn":13027,"ĠKill":13028,"Ġdisp":13029,"codec":13030,"ENS":13031,"ĠINST":13032,"ologist":13033,"ĠAdds":13034,"æľĢ":13035,"Ġachieved":13036,"Ip":13037,"flex":13038,"jac":13039,"wbr":13040,"Ġsink":13041,"Ġinfer":13042,"Ġld":13043,"ĠSox":13044,"ĠMrs":13045,"embed":13046,"ĠOs":13047,"Ġattach":13048,"ajik":13049,"fection":13050,"Ġindicating":13051,"ĠFiles":13052,"Ġurban":13053,"permissions":13054,"åĢ¼":13055,"Ġadvertising":13056,"\\.":13057,"ÙĨ":13058,"ĠIvan":13059,"Ġouter":13060,"ensure":13061,"EqualTo":13062,"ĠConnect":13063,"Ġpasses":13064,"Ġphoto":13065,"Ġsolve":13066,"Ġspeaking":13067,"rupted":13068,"Ġsections":13069,"Ġtemperature":13070,"ĠIllegalArgumentException":13071,"Ġadvantage":13072,"ici":13073,"ĠTake":13074,"Ġglass":13075,"Ġ\"--":13076,"lyn":13077,"ĠMD":13078,"ĠRon":13079,"ĠFT":13080,"Ġpassion":13081,"compatible":13082,"Ġforever":13083,"ĠContainer":13084,"ĠClub":13085,"Black":13086,"LOBAL":13087,"éľĢ":13088,"BEGIN":13089,";...&":13090,"creat":13091,"vy":13092,"Ġ><":13093,"ĠDal":13094,"Ġris":13095,"series":13096,"ESSION":13097,"bucket":13098,"untu":13099,"Ġbanks":13100,"Syntax":13101,"ĠAcademy":13102,"Ġprecision":13103,"çİ°":13104,"Ġunusual":13105,"800":13106,"bor":13107,"dater":13108,"Ġfaster":13109,"Ġdiam":13110,"Ġthreshold":13111,"ulating":13112,"ordan":13113,"asts":13114,"ESP":13115,"Ġdesire":13116,"Require":13117,"velope":13118,"raise":13119,"subject":13120,"ĠUSB":13121,"Ġcentre":13122,"TagName":13123,"Ġsuggests":13124,"Ġdelivered":13125,"æģ¯":13126,"CESS":13127,"rx":13128,"Ġpd":13129,"asingly":13130,"Ġ150":13131,"ĠNAS":13132,"Compos":13133,"Ġknock":13134,"compress":13135,"Ġkeyboard":13136,"DOWN":13137,"ussian":13138,"MAIN":13139,"Ġpossess":13140,"ĠSmart":13141,"Ġperspective":13142,"ĠVietnam":13143,":-":13144,"don":13145,"material":13146,"pet":13147,"tex":13148,"wm":13149,"Ïģ":13150,"ÙĪ":13151,"Ġlazy":13152,"okia":13153,"topic":13154,"White":13155,"FFER":13156,"flash":13157,"Ġincreasing":13158,"Ġpolitics":13159,"Ġdimensions":13160,"Ġtouching":13161,"Ġdefeat":13162,"$.":13163,"PAGE":13164,"WIT":13165,"å§":13166,"arian":13167,"Ġhip":13168,"ĠTer":13169,"channels":13170,"ĠBox":13171,"ĠDog":13172,"Ġseat":13173,"router":13174,"Ġbeta":13175,"Ġopera":13176,"ĠContact":13177,"windows":13178,"Payload":13179,"Face":13180,"Win":13181,"evalu":13182,"lazy":13183,"Ġdad":13184,"Ġstocks":13185,"opes":13186,"branch":13187,"spark":13188,"Ġabort":13189,"geometry":13190,"hedral":13191,"phan":13192,"Ġmaint":13193,"Ġedges":13194,"cleanup":13195,"ĠExecute":13196,"spector":13197,"Leg":13198,"RI":13199,"mess":13200,"tri":13201,"Ġtv":13202,"Ġdummy":13203,"ayers":13204,"ĠMove":13205,"Ġpropag":13206,"INVAL":13207,"contain":13208,"Colors":13209,"iteral":13210,"ĠBEGIN":13211,"STRUCT":13212,"Signal":13213,"Ġpraised":13214,"Ali":13215,"Fill":13216,"toc":13217,"Ãı":13218,"reports":13219,"lec":13220,"urable":13221,"imm":13222,"ĠBoot":13223,"Ġexcess":13224,"aux":13225,"LEN":13226,"Ġbaseball":13227,"ĠWeek":13228,"ĠPlatform":13229,"ĠEnum":13230,"ĠhashCode":13231,"Ġdisappointing":13232,"Ġliterally":13233,"ĠDocumentation":13234,"Ġalcohol":13235,"Ġconsecutive":13236,"Done":13237,"hou":13238,"Ġtired":13239,"Ġtuples":13240,"Ġblob":13241,"omer":13242,"ĠDick":13243,"ĠNum":13244,"ĠNajaf":13245,"acher":13246,"DEL":13247,"Ġdeployment":13248,"alchemy":13249,"ĠChristopher":13250,"Ġtracks":13251,"IRQ":13252,"sdk":13253,"åºĶ":13254,"éĢļ":13255,"Ġpilot":13256,"Owner":13257,"Qual":13258,"zed":13259,"ĠToo":13260,"ĠMET":13261,"licopt":13262,"activity":13263,"ritical":13264,"plane":13265,"ICK":13266,"Ġarrays":13267,"Ġreads":13268,"Ġpolicies":13269,"Hello":13270,"CONF":13271,"CONST":13272,"è¯·":13273,"Extensions":13274,"ĠSky":13275,"Ġscientific":13276,"Ġscientists":13277,"Ġelev":13278,"å¦Ĥæŀľ":13279,"Ġnewspaper":13280,">`":13281,"SN":13282,"cost":13283,"hum":13284,"xr":13285,"Ġsurre":13286,"ĠRh":13287,"ĠHAS":13288,"usted":13289,"udson":13290,"Ġbackup":13291,"ĠExpect":13292,"Filename":13293,"Switch":13294,"uj":13295,"Ġctypes":13296,"itable":13297,"Ġdyn":13298,"Ġtoler":13299,"ĠMicro":13300,"arest":13301,"Ġdispatch":13302,"Ġparties":13303,"LEMENT":13304,"Ġexposed":13305,"Ġcaller":13306,"ãģ«":13307,"é¡µ":13308,"NORMAL":13309,"Ġwalls":13310,"Ġnb":13311,"uminate":13312,"ĠNorm":13313,"ĠOri":13314,"RET":13315,"logic":13316,"Ð¾ÑĢ":13317,"Ġlegacy":13318,"ĠALTER":13319,"About":13320,"ĠQtGui":13321,"Ġprotection":13322,"Ġaccurate":13323,"foreach":13324,"NONE":13325,"Sheet":13326,"dating":13327,"machine":13328,"macro":13329,"tcp":13330,"Ġfab":13331,"Ġpp":13332,"Ġasks":13333,"andal":13334,"Ġwearing":13335,"Ġcompiled":13336,"Ġdisplays":13337,"Ġrobot":13338,"COM":13339,"ĠsearchBox":13340,"reply":13341,"________________":13342,"600":13343,"COPY":13344,"Speed":13345,"cle":13346,"slug":13347,"Ġpm":13348,"ĠSquare":13349,"Ġgro":13350,"Ġstroke":13351,"ĠPER":13352,"Ġarms":13353,"Ġspark":13354,"Ġclothes":13355,"ĠZeal":13356,"Ġwrapped":13357,"packet":13358,"Ġfunding":13359,"Ġattractive":13360,"Ġdisturbing":13361,"Ġmysterious":13362,">:":13363,"city":13364,"categories":13365,"rele":13366,"atom":13367,"Ġsale":13368,"entities":13369,"urations":13370,"ĠSpect":13371,"ĠMuseum":13372,"Ġbeach":13373,"ĠKen":13374,"Changes":13375,"HOME":13376,"Ġflask":13377,"Ġresponses":13378,"interfaces":13379,"Ġsky":13380,"ĠParser":13381,"VersionUID":13382,"failed":13383,"widgets":13384,"ĠSwed":13385,"ĠValidation":13386,"Ġmental":13387,"Python":13388,"edelta":13389,"Ġdates":13390,"roat":13391,"Ġhurricane":13392,"ĠLo":13393,"thumbnail":13394,"ĠMachine":13395,"ĠDutch":13396,"ĠNations":13397,"ĠKenn":13398,"Ġdismiss":13399,"Ġconfront":13400,"Checker":13401,"Ġincident":13402,"åĲĮ":13403,"ĠSwitch":13404,"Ġextreme":13405,"Ġparsing":13406,"RL":13407,"ea":13408,"tb":13409,"Ġ}));":13410,"Ġisol":13411,"Ġwithdraw":13412,"Ġorient":13413,"Columns":13414,"Ġoutputs":13415,"Ġpersonality":13416,"Ġreporting":13417,"Ġsuppose":13418,"Ġpromotion":13419,"ĠIOError":13420,"ĠMcC":13421,"OperationException":13422,"ĠDarfur":13423,"Ġinnocent":13424,"lett":13425,"elif":13426,"ĠSpring":13427,"ido":13428,"ĠCatalog":13429,"Ġ38":13430,"company":13431,"Ġprotagon":13432,"ĠSetting":13433,"Ġswim":13434,"Ġslot":13435,"Ġbigger":13436,"restore":13437,"TODO":13438,"ĠserialVersionUID":13439,"Structure":13440,"Ġsafety":13441,":/":13442,"CG":13443,"pixel":13444,"Ġrelying":13445,"Ġvi":13446,"Ġstone":13447,"Ġimpressed":13448,"Ġexhib":13449,"ĠGirl":13450,"Ġdefense":13451,"ĠEc":13452,"acion":13453,"ipl":13454,"Ġkil":13455,"ĠYanke":13456,"ĠRequired":13457,"Ġbreaks":13458,"ĠComment":13459,"Ġrealized":13460,"lastic":13461,"Ġ255":13462,"Ġsilver":13463,"handlers":13464,"spection":13465,"patterns":13466,"çĽ®":13467,"Ġratings":13468,"Like":13469,"Ã¸":13470,"Ġfold":13471,"Ġtogg":13472,"iders":13473,"Ġgsl":13474,"abspath":13475,"ĠFar":13476,"ĠHave":13477,"Ġchars":13478,"ĠStone":13479,"Ġnobody":13480,"Ġcolour":13481,"Unknown":13482,"Ġeffectively":13483,"Ġthreading":13484,"anchor":13485,"Ġlatex":13486,"Ġhousing":13487,"WM":13488,"dll":13489,"large":13490,"mq":13491,"pis":13492,"Ġforth":13493,"ascii":13494,"ĠLake":13495,"licated":13496,"acked":13497,"001":13498,"Ġdoct":13499,"enery":13500,"Ġunlik":13501,"Ġsci":13502,"ĠResDef":13503,"ĠScient":13504,"Ġargparse":13505,"Ġselector":13506,"Weight":13507,"ĠSolution":13508,"ĠBoard":13509,"Fixture":13510,"kan":13511,"ssh":13512,"Ġ****************************************************************":13513,"ulo":13514,"Ġchose":13515,"athy":13516,"anches":13517,"HPP":13518,"DEVICE":13519,"ĠLLC":13520,"ocomplete":13521,"$/":13522,"Ġsword":13523,"chart":13524,"Ġscenario":13525,"Ġstderr":13526,"interpre":13527,"ĠClark":13528,"Ġsentence":13529,"plotlib":13530,"Ġdamaged":13531,"Ġacknow":13532,"Ġintellectual":13533,"ĠOWNER":13534,"WA":13535,"cod":13536,"Ġwed":13537,"Ġmx":13538,"aggreg":13539,"Ġimportance":13540,"Ġkw":13541,"conditions":13542,"Why":13543,"Ġowned":13544,"Ġemotions":13545,"Ġdriving":13546,"Ġrevenue":13547,"rance":13548,"ti":13549,"Â¡":13550,"orated":13551,"Ġpixels":13552,"ima":13553,"union":13554,"ĠVery":13555,"Ġlogs":13556,"DataSource":13557,"vides":13558,"ublisher":13559,"Ġsuperior":13560,"Ġdevelopers":13561,"Ġcausing":13562,"Ġpleasure":13563,"ĠSummary":13564,"Ġutterly":13565,"bench":13566,"pick":13567,"ĠTitle":13568,"Ġcommitted":13569,"Ġdecre":13570,"ĠInstance":13571,"ĠKanye":13572,"versions":13573,"Ġconfirmed":13574,"Forward":13575,"Ġcreature":13576,"æĽ´":13577,"Sink":13578,"ĠÃ©":13579,"Ġsf":13580,"eting":13581,"ubern":13582,"ĠFord":13583,"acted":13584,"Ġdelegate":13585,"ensitive":13586,"ockey":13587,"apters":13588,"psi":13589,"Ġalbums":13590,"Relation":13591,"Bitmap":13592,"ASHINGTON":13593,"CB":13594,"Est":13595,"HAND":13596,"Ġpc":13597,"adel":13598,"Ġuid":13599,"ĠRule":13600,"usic":13601,"enses":13602,"Ġenemy":13603,"ĠChief":13604,"ampling":13605,"Ġdemo":13606,"Ġexecutable":13607,"=\"../../../../../../../../":13608,"ĠTommy":13609,"Ġtrailer":13610,"dog":13611,"fold":13612,"Ġbasketball":13613,"Ġretry":13614,"ĠEL":13615,"intro":13616,"vies":13617,"iveness":13618,"Ġ2019":13619,"Ġinstallation":13620,"Month":13621,"FUNCTION":13622,"XY":13623,"éħ":13624,"environment":13625,"acting":13626,"ailing":13627,")).":13628,"Ġdecline":13629,"ierce":13630,"Ġposted":13631,"Reflection":13632,"Ġlocked":13633,"Does":13634,"åĨħ":13635,"variables":13636,"Enumerable":13637,"ĠToday":13638,"ĠZealand":13639,"bre":13640,"Ġtip":13641,"ouri":13642,"Ġhang":13643,"ĠAri":13644,"ĠLANG":13645,"abbit":13646,"ĠMust":13647,"ĠGtk":13648,"roud":13649,"Ġforecast":13650,"ÐµÑĤ":13651,"ĠBeijing":13652,"Ġincreasingly":13653,"Ġseparated":13654,"ĠHelp":13655,"ĠOliv":13656,"ĠIterator":13657,"Ġdedicated":13658,"jackson":13659,"folio":13660,"faster":13661,"social":13662,"reload":13663,"ĠWASHINGTON":13664,")));":13665,"ByName":13666,"Ġnowhere":13667,"descriptor":13668,"USB":13669,"posts":13670,"hosts":13671,"Ġbrothers":13672,"Ġexcuse":13673,"reshape":13674,"sym":13675,"ĠFormat":13676,"åĬ¡":13677,"åº¦":13678,"Ġthousand":13679,"GENER":13680,"same":13681,"vendor":13682,"Ãĸ":13683,"è±":13684,"Ġton":13685,"changes":13686,"ĠRos":13687,"ĠDistributed":13688,"lessly":13689,"Ġaffair":13690,"Operations":13691,"pagination":13692,"Slot":13693,"Ġallocated":13694,"ĠJesus":13695,"å»º":13696,"LES":13697,"Lines":13698,"rtype":13699,"}\\":13700,"Ġsr":13701,"lee":13702,"otype":13703,"peg":13704,"Ġ-&":13705,"ntil":13706,"iph":13707,"ĠQU":13708,"mitter":13709,"disk":13710,"Ġeverybody":13711,"Metric":13712,"priority":13713,"åĽ¾":13714,"Ġwooden":13715,"Ġredeem":13716,"Touch":13717,"VC":13718,"ĠSA":13719,"very":13720,"ĠFestival":13721,"ĠNavy":13722,"Ġheap":13723,"erring":13724,"Ġscrap":13725,"ensus":13726,"ĠQueue":13727,"ClassName":13728,"LOAT":13729,"Username":13730,"Ġbelieves":13731,"Ġserving":13732,"ĠGeo":13733,"Ġillustr":13734,"WRITE":13735,"Ġcompatibility":13736,"ëĬĶ":13737,"RM":13738,"TEXT":13739,"`:":13740,"kill":13741,"xd":13742,"isor":13743,"alg":13744,"ĠTai":13745,"emony":13746,"enerated":13747,"Ġnose":13748,"ĠSeveral":13749,"ordered":13750,"Depth":13751,"Ġoptparse":13752,"Entries":13753,"hello":13754,"confirm":13755,"Ġdigest":13756,"Ġintegration":13757,"iagnostic":13758,"ĠPalestin":13759,"Delta":13760,"SB":13761,"Ġclip":13762,"Ġdw":13763,"irms":13764,"ĠOk":13765,"Ġtrait":13766,"ĠErr":13767,"spi":13768,"Ġdebt":13769,"templates":13770,"Ġattor":13771,"ãĥ³":13772,"NODE":13773,"Ø§Ø":13774,"dimension":13775,"Ġcable":13776,"alion":13777,"Ġpor":13778,"Ġpending":13779,"ĠBatt":13780,"ĠNorthern":13781,"uster":13782,"ĠInfo":13783,"Logging":13784,"=\"#\">":13785,"Ġhumour":13786,"Ġinitialized":13787,"Ġboat":13788,"Ready":13789,"RESULT":13790,"Ġcriticism":13791,"Ġassumed":13792,"Ġordinary":13793,"ĠQueen":13794,">#":13795,"Aggreg":13796,"Bal":13797,"Secret":13798,"gments":13799,"iÃ³n":13800,"mesh":13801,"æ²":13802,"Ġfuel":13803,"Ġredu":13804,"ilton":13805,"appers":13806,"ĠChanges":13807,"Ġgrab":13808,"azel":13809,"Ġexpressions":13810,"Ġmedium":13811,"Ġordering":13812,"Ġstrongly":13813,"Dataset":13814,"Ġresolved":13815,"arguments":13816,"scriber":13817,"Ui":13818,"Virtual":13819,"budget":13820,"rin":13821,"åŀ":13822,"Ġsi":13823,"isEmpty":13824,"Ġinfl":13825,"Ġvac":13826,"uls":13827,"Ġscenery":13828,"igned":13829,"fox":13830,"Ġinterfaces":13831,"ENO":13832,"Modules":13833,"Ġreceiving":13834,"ĠLeon":13835,"Ġframes":13836,"åħ¶":13837,"Ġdisappointment":13838,"Ġlosses":13839,"Variant":13840,"ĠCarey":13841,")\",":13842,"/\">":13843,"Pars":13844,"zo":13845,"Ġloves":13846,"ĠSoci":13847,"Ġ\"+":13848,"Ġdeprecated":13849,"Ġquant":13850,"Ġwhenever":13851,"Modal":13852,"news":13853,"Ġdecimal":13854,"Utilities":13855,"Ġdeaths":13856,"6666":13857,"åħ³":13858,"ĠMean":13859,"Ġangry":13860,"Ġphotography":13861,"Ġcrude":13862,"Ġsurrounding":13863,"ographer":13864,"700":13865,"Migration":13866,"Since":13867,"tax":13868,"Ãİ":13869,"Ġtc":13870,"asp":13871,"oting":13872,"aga":13873,"Ġvary":13874,"ĠHop":13875,"acular":13876,"ĠJac":13877,"Ġplants":13878,"Ġguid":13879,"Ġiniti":13880,"placeholder":13881,"Ġsurvey":13882,"glas":13883,"Ġaliases":13884,"Topic":13885,"Ġpresidential":13886,"Ġfascinating":13887,"Ġaffiliates":13888,"ComboBox":13889,"AUTH":13890,"bundle":13891,"ĠPattern":13892,"ĠRol":13893,"ĠDream":13894,"ĠJenn":13895,"Chunk":13896,"autiful":13897,"Ġmetal":13898,"ika":13899,"Ġfacts":13900,"Ġnormalize":13901,"Members":13902,"ĠAccept":13903,"ĠLegal":13904,"Ġsubtle":13905,"\"\\":13906,"atype":13907,"Ġsends":13908,"absolute":13909,"ĠBon":13910,"Ġtrick":13911,"Ġhelicopt":13912,"osity":13913,"ĠVariable":13914,"ensors":13915,"udes":13916,"Ġspy":13917,"ĠConstant":13918,"Ġperforming":13919,"Ġfactors":13920,"Visitor":13921,"Ġdependency":13922,"Ġinnov":13923,"Boot":13924,"During":13925,"IUS":13926,"Ġol":13927,"ĠCapt":13928,"ĠPrep":13929,"logs":13930,"ĠBag":13931,"ĠFactory":13932,"ĠDCHECK":13933,"andra":13934,"develop":13935,"shop":13936,"Ġcompelling":13937,"itty":13938,"Although":13939,"Ġtechnique":13940,"Ġsixth":13941,"Ġnetworks":13942,"å°Ĩ":13943,"HEADER":13944,"Ġinjured":13945,"Ġaimed":13946,"astructure":13947,"Ġexercise":13948,"Buf":13949,"camera":13950,"oir":13951,"Ġtears":13952,"Ġwake":13953,"Ġbinding":13954,"etter":13955,"Ġ{\\":13956,"ĠTajik":13957,"Ġrand":13958,"Ġtraged":13959,"stron":13960,"RAP":13961,"nergy":13962,"ĠAlf":13963,"iteritems":13964,"slide":13965,"ĠDECL":13966,"Ġrarely":13967,"Ġphilosophy":13968,"Pal":13969,"Ġtied":13970,"Ġcsv":13971,"ĠLar":13972,"avatar":13973,"ĠHistory":13974,"ĠElect":13975,"Ġ%%":13976,"Components":13977,"Ġgrat":13978,"rence":13979,"POINT":13980,"Shift":13981,"Ġcurr":13982,"Ġgrown":13983,"Arguments":13984,"Ġclimax":13985,"ç¬¬":13986,"Ġdistrict":13987,"Capture":13988,"jar":13989,"pull":13990,"ÑĨ":13991,"ÙĬ":13992,"à°":13993,"heets":13994,"Ġod":13995,"Ġboto":13996,"Ġrevolution":13997,"Ġearnings":13998,"ĠCur":13999,"ĠClean":14000,"olph":14001,"Ġyaml":14002,"acl":14003,"Ġ__,":14004,"Ġfee":14005,"Ġconfused":14006,"marks":14007,"Ġcostumes":14008,"popup":14009,"Character":14010,"Ġattacked":14011,"Ġpathetic":14012,"Accessor":14013,"mkdir":14014,"ĠSDK":14015,"Ġfrozen":14016,"Trigger":14017,"mid":14018,"Ġwelcome":14019,"ĠSite":14020,"igrate":14021,"ĠMC":14022,"ĠFle":14023,"Ġunderst":14024,"Unless":14025,"Ġcontinu":14026,"xxxx":14027,"Ġstayed":14028,"å¹¶":14029,"íķĺ":14030,"DN":14031,"mal":14032,"Ġmt":14033,"quo":14034,"enders":14035,"ĠRoss":14036,"Ġ120":14037,"nthes":14038,"Ġintense":14039,"Ġpeer":14040,"works":14041,"Modified":14042,"Ġamid":14043,"Ġbrand":14044,"Ġlacks":14045,"ĠBrazil":14046,"BT":14047,"Bey":14048,"May":14049,"PG":14050,"water":14051,"erred":14052,"alink":14053,"ĠCru":14054,"quarters":14055,"Ġimported":14056,"Ġhearing":14057,"Ġweights":14058,"Ġcharged":14059,"Ġadapter":14060,"Ġzoom":14061,"Ġslasher":14062,"calls":14063,"PLAY":14064,"äºĭ":14065,"failure":14066,"ĠPrincess":14067,"Ġvertices":14068,"FFFFFF":14069,"Fetch":14070,"MAN":14071,"dark":14072,"Â¶":14073,"eral":14074,"olas":14075,"Ġannotation":14076,"scal":14077,"Ġlogical":14078,"resentation":14079,"Ġcustomer":14080,"MBOL":14081,"Ġadministr":14082,"EGER":14083,"BIN":14084,"Side":14085,"blob":14086,"doxygen":14087,"Ġice":14088,"ami":14089,"ĠSure":14090,"ĠWas":14091,"Ġrated":14092,"plain":14093,"ĠKnow":14094,"ryption":14095,"ĠAsync":14096,"authentic":14097,"Ġdeveloping":14098,"Ġskill":14099,"Ġinitialization":14100,"Disk":14101,"ĠOperation":14102,"Ġpreferred":14103,"BAD":14104,"GO":14105,"NLS":14106,"Pages":14107,"Timestamp":14108,"zab":14109,"reck":14110,"health":14111,"Ġoct":14112,"Ġ/****************************************************************":14113,"Ġly":14114,"ĠTok":14115,"assistant":14116,"Ġconserv":14117,"ĠMs":14118,"ĠHuman":14119,"Ġimports":14120,"ogy":14121,"OND":14122,"akespe":14123,"Ġassault":14124,"Ġ128":14125,"Ġdivided":14126,"thenReturn":14127,"innerHTML":14128,"Ġbringing":14129,"Ġpleasant":14130,"ĠCOMP":14131,"Ġbreath":14132,"UUID":14133,"bish":14134,"bidden":14135,"gc":14136,"gage":14137,"hit":14138,"Ġsalt":14139,"Ġthick":14140,"ĠCre":14141,"imated":14142,"Ġstruck":14143,"Ġsetattr":14144,"ibus":14145,"layers":14146,"Ġmetaph":14147,"standard":14148,"getElementsBy":14149,"holders":14150,"Ġexplicitly":14151,"ĠKorean":14152,"Credentials":14153,"Ġlawyer":14154,"\".<":14155,"Cert":14156,"asi":14157,"Ġnaked":14158,"Ġ\");":14159,"Ġvast":14160,"ĠLSC":14161,"ĠJam":14162,"Ġregul":14163,"prevent":14164,"ĠArthur":14165,"Ġescaped":14166,"Ġinvestigation":14167,"Serializable":14168,"Ġmotor":14169,"è±¡":14170,"Tim":14171,"Ġmu":14172,"Ġlon":14173,"ĠSound":14174,"Ġgithub":14175,"Ġgpio":14176,"ĠCC":14177,"ĠThrow":14178,"aka":14179,"ichuan":14180,"Ġshel":14181,"EDIT":14182,"ĠAnderson":14183,"Ġinvoke":14184,"afka":14185,"Ġutility":14186,"Ġnegot":14187,"ĠAnsibleModule":14188,"Ġpurchase":14189,"Ġabandoned":14190,"ubernetes":14191,"Fat":14192,"camel":14193,"Ã¬":14194,"lev":14195,"Ġou":14196,"ĠTalk":14197,"ĠSi":14198,"ĠBron":14199,"erra":14200,"ICH":14201,"Chat":14202,"Ġcodecs":14203,"hashCode":14204,"Ġopposition":14205,"jobs":14206,"Ġboundary":14207,"ĠAlexander":14208,"Ġconducted":14209,"AWS":14210,"ycl":14211,"ĠSin":14212,"ĠRaw":14213,"Ġyards":14214,"..\">":14215,"setdefault":14216,"leting":14217,"Ġmini":14218,"Ġrape":14219,"ĠReserve":14220,"Ġcombat":14221,"Ġsurvive":14222,"Ġresponsibility":14223,"ãģĹãģ":14224,"Cor":14225,"Old":14226,"PK":14227,"rating":14228,"Ġbacter":14229,"effic":14230,"Ġtruck":14231,"tection":14232,"techn":14233,"INPUT":14234,"ĠKr":14235,"Ġscores":14236,"ibilities":14237,"posed":14238,"Ġflaws":14239,"Ġcallable":14240,"substr":14241,"Ġartistic":14242,"Ġposts":14243,"Ġbeautifully":14244,"ĠBuilder":14245,"Ġpainful":14246,"Ġdeeply":14247,",,,,":14248,"Ġawarded":14249,"Ġsurprisingly":14250,"RGB":14251,"ned":14252,"sources":14253,"ìĦ":14254,"onal":14255,"isEqualTo":14256,"algorithm":14257,"Ġll":14258,"ĠLow":14259,"ĠPur":14260,"ternoon":14261,"Ġserialize":14262,"Ġterminal":14263,"ologists":14264,"inputs":14265,"Ġhelping":14266,"Ġsexy":14267,"Ġdealing":14268,"Ġlanding":14269,"finish":14270,"Peer":14271,">/":14272,"GT":14273,"_)":14274,"cop":14275,"diag":14276,"Ġfo":14277,"Ġpb":14278,"ĠAud":14279,"unter":14280,"ĠMir":14281,"ĠDirectory":14282,"ĠNE":14283,"Ġnotable":14284,"oco":14285,"Ġjavadoc":14286,"ordova":14287,"team":14288,"ĠKim":14289,"Ġ34":14290,"notification":14291,"2018":14292,"ĠAdditional":14293,"Ġtempor":14294,"General":14295,"Ġcinematic":14296,"CPP":14297,"Loading":14298,"Ġunnecessary":14299,"ĠCommittee":14300,"aus":14301,"gpio":14302,"Ġbon":14303,"stocks":14304,"Ġgift":14305,"igan":14306,"Ġ44":14307,"implement":14308,"Ġmerged":14309,"ä½į":14310,"Ġfriendly":14311,"According":14312,"Ġabsurd":14313,"Ġholes":14314,"NGTH":14315,"ĠPacific":14316,"GUID":14317,"empl":14318,"éĶ":14319,"ï¿½":14320,"Ġ/************************************************************************":14321,"Ġgar":14322,"ĠCalled":14323,"olor":14324,"Ġstuck":14325,"ĠHero":14326,"getId":14327,"Ġratio":14328,"plorer":14329,"Compatible":14330,"Ġtenant":14331,"åįķ":14332,"ĠAnton":14333,"uptools":14334,"Ġguilty":14335,"?'":14336,"Tri":14337,"tle":14338,"åģ":14339,"Ġspons":14340,"Ġfacing":14341,"amber":14342,"ĠAk":14343,"ĠMi":14344,"endpoint":14345,"ĠJason":14346,"Ġhomepage":14347,"requires":14348,"ĠSkip":14349,"fullquote":14350,"Ġrotation":14351,"OFFSET":14352,"quickinfo":14353,"ĠDouglas":14354,"Ġdisease":14355,"https":14356,"Yes":14357,"bian":14358,"uce":14359,"Ġcriteria":14360,"Ġfright":14361,"Ġpse":14362,"than":14363,"ĠFollowing":14364,"ĠDocker":14365,"colors":14366,"vertical":14367,"Ġlowest":14368,"projects":14369,"Soft":14370,"ademic":14371,"Toggle":14372,"ipt":14373,"som":14374,"reason":14375,"eda":14376,"Ġhired":14377,"Ġ#####":14378,"ĠSocial":14379,"ĠCamb":14380,"ĠUTF":14381,"comput":14382,"Ġdocker":14383,"Ġarmed":14384,"Ġnoise":14385,"Ġoffensive":14386,"ĠGenerator":14387,"clk":14388,"libs":14389,"ĠAndre":14390,"999":14391,"Special":14392,"Ġmatplotlib":14393,"Ġnominated":14394,"Origin":14395,"Ġugly":14396,"cas":14397,"lights":14398,"ÃĶ":14399,"Ñį":14400,"regs":14401,"Ġ/****":14402,"ĠSW":14403,"ĠSpl":14404,"Ġ\":":14405,"Ġrx":14406,"ĠEmail":14407,"ĠJordan":14408,"shutdown":14409,"Ġrecall":14410,"ĠCond":14411,"ruction":14412,"Without":14413,"Ġterrific":14414,"ĠRecords":14415,"ĠHelper":14416,"SYMBOL":14417,"Ġlimits":14418,"Angle":14419,"banner":14420,"mach":14421,"vide":14422,"});":14423,"Ġrend":14424,"Ġreward":14425,"ĠAM":14426,"ĠHart":14427,"Ġunivers":14428,"keywords":14429,"LENGTH":14430,"ĠExtract":14431,"à¤¯":14432,"Encode":14433,"Ġalongside":14434,"Ġdifferences":14435,"Ġassass":14436,"Ġdistingu":14437,"optional":14438,"Ġexplode":14439,"Ġcoup":14440,"ĠSELECT":14441,"ĠRuntimeException":14442,"builtin":14443,"Certificate":14444,"Safe":14445,"xA":14446,"ÃĲ":14447,"Î½":14448,"Ġtrend":14449,"eras":14450,"Ġcards":14451,"Ġft":14452,"asets":14453,"Ġmand":14454,"ĠSanta":14455,"ĠAUTO":14456,"Ġvo":14457,"tokens":14458,"eps":14459,"Ġpreview":14460,"Ġspecifies":14461,"Ġformatted":14462,"ordering":14463,"2009":14464,"ĠWithout":14465,"Ġsidebar":14466,"ĠEditor":14467,"Ġruled":14468,"ä¹Ł":14469,"VIEW":14470,"Ġillegal":14471,"ĠRepublican":14472,"Variables":14473,"1000":14474,"Der":14475,"Master":14476,"warnings":14477,"adapter":14478,"Ġelected":14479,"efully":14480,"achel":14481,"See":14482,"Ã©e":14483,"Decode":14484,"MenuItem":14485,"Ġsegments":14486,"tooltip":14487,"Received":14488,"Ġlovely":14489,"Ġunbelievable":14490,"akespeare":14491,"Ã½":14492,"icates":14493,"Ġmatters":14494,"rott":14495,"Ġconference":14496,"ddie":14497,"ĠVen":14498,"Ġ39":14499,"Ġcollected":14500,"Ġamet":14501,"what":14502,"Ġquotes":14503,"Visibility":14504,"Ġsoldier":14505,"åºı":14506,"ĠTwilight":14507,"PARAM":14508,"ĠFinally":14509,"incipal":14510,"ĠâĶ":14511,"Dump":14512,"EMP":14513,"Final":14514,"mgr":14515,"vest":14516,"è·":14517,"éĥ":14518,"Ġaux":14519,"orious":14520,"Ġdying":14521,"Ġlover":14522,"ĠPrem":14523,"uma":14524,"Ġvars":14525,"ĠYO":14526,"Ġpreced":14527,"Ġlistening":14528,"Ġ56":14529,"choice":14530,"imiter":14531,"Schedule":14532,"Ġsigns":14533,"sky":14534,"Ġwebpage":14535,"Ġapproved":14536,"Ġfriendship":14537,"ĠPOST":14538,"Ġcarrying":14539,"GC":14540,"Here":14541,"Mixin":14542,"mega":14543,"nl":14544,"around":14545,"Ġdd":14546,"ilst":14547,"ĠWales":14548,"astore":14549,"ellite":14550,"utility":14551,"ugs":14552,"Ġbreaking":14553,"buttons":14554,"metic":14555,"Ġtwists":14556,"unknown":14557,"Partition":14558,"Ġpickle":14559,"Ġabsent":14560,"snapshot":14561,"Ġzombies":14562,"ĠUtils":14563,"Ġappointed":14564,"Hor":14565,"xE":14566,"Ġfif":14567,"icit":14568,"ĠSql":14569,"Ġvit":14570,"Ġdelivers":14571,"ronics":14572,"Ġlaid":14573,"visions":14574,"ĠDesign":14575,"Ġsentiment":14576,"ifferent":14577,"Ġadopted":14578,"ĠBruce":14579,"åŀĭ":14580,"Sys":14581,"TL":14582,"TAG":14583,"YY":14584,"glyph":14585,"Ġ======":14586,"omial":14587,"Ġ$$":14588,"ĠHtml":14589,"Ġcommission":14590,"åıĤ":14591,"PROTO":14592,"=\"../..\">":14593,"Subject":14594,"ĠKevin":14595,"Ġimagination":14596,"CUMENT":14597,"ĠStephen":14598,"Ġinstructions":14599,"ĠRoger":14600,"ðĳ£":14601,"ESPACE":14602,"Hint":14603,"bp":14604,"iner":14605,"Ġfut":14606,"ĠMIN":14607,"ĠMade":14608,"Ġchase":14609,"Ġregistration":14610,"PEG":14611,"2019":14612,"Ġconfusing":14613,"ĠÂ°":14614,"Ġincrement":14615,"Ġtradem":14616,"Ġsingles":14617,"Priority":14618,"Ġdefeated":14619,"Ġgentle":14620,"Ġcomprehens":14621,"éħį":14622,"FACE":14623,"VEL":14624,"YLE":14625,"lon":14626,"yarn":14627,"Ġtill":14628,"Ġtmpl":14629,"Ġau":14630,"orial":14631,"Ġmild":14632,"ĠCWE":14633,"chat":14634,"Ġ':":14635,"Ġranges":14636,"ookies":14637,"Constraints":14638,"monitor":14639,"Unique":14640,"Ġcomedies":14641,"Ġshallow":14642,"Ġrotate":14643,"strictEqual":14644,"é¢ĺ":14645,"Ġdynam":14646,"Ġbt":14647,"stud":14648,"seen":14649,"ĠAuth":14650,"Ġstood":14651,"irk":14652,"ĠDave":14653,"Listen":14654,"Ġmyth":14655,"ĠDeath":14656,"Ġofficially":14657,"Ġoccasionally":14658,"whel":14659,"Ġsnd":14660,"Ġdx":14661,"Ġ\"../../":14662,"Ġunw":14663,"Ġapps":14664,"transl":14665,"Ġconfidence":14666,"ContentType":14667,"ĠValley":14668,"Ġasking":14669,"SOURCE":14670,"Ġafraid":14671,"undefined":14672,"ĠDestiny":14673,"ĠRyan":14674,"fasterxml":14675,"789":14676,"Ap":14677,
[...]
