{"<PAD>":0,"<UNK>":1,"<START>":2,"<END>":3,"!":4,"\"":5,"#":6,"$":7,"%":8,"&":9,"'":10,"(":11,")":12,"*":13,"+":14,",":15,"-":16,".":17,"/":18,"0":19,"1":20,"2":21,"3":22,"4":23,"5":24,"6":25,"7":26,"8":27,"9":28,":":29,";":30,"<":31,"=":32,">":33,"?":34,"@":35,"A":36,"B":37,"C":38,"D":39,"E":40,"F":41,"G":42,"H":43,"I":44,"J":45,"K":46,"L":47,"M":48,"N":49,"O":50,"P":51,"Q":52,"R":53,"S":54,"T":55,"U":56,"V":57,"W":58,"X":59,"Y":60,"Z":61,"[":62,"\\":63,"]":64,"^":65,"_":66,"`":67,"a":68,"b":69,"c":70,"d":71,"e":72,"f":73,"g":74,"h":75,"i":76,"j":77,"k":78,"l":79,"m":80,"n":81,"o":82,"p":83,"q":84,"r":85,"s":86,"t":87,"u":88,"v":89,"w":90,"x":91,"y":92,"z":93,"{":94,"|":95,"}":96,"~":97,"¡":98,"¢":99,"£":100,"¤":101,"¥":102,"¦":103,"§":104,"¨":105,"©":106,"ª":107,"«":108,"¬":109,"®":110,"¯":111,"°":112,"±":113,"²":114,"³":115,"´":116,"µ":117,"¶":118,"·":119,"¸":120,"¹":121,"º":122,"»":123,"¼":124,"½":125,"¾":126,"¿":127,"À":128,"Á":129,"Â":130,"Ã":131,"Ä":132,"Å":133,"Æ":134,"Ç":135,"È":136,"É":137,"Ê":138,"Ë":139,"Ì":140,"Í":141,"Î":142,"Ï":143,"Ð":144,"Ñ":145,"Ò":146,"Ó":147,"Ô":148,"Õ":149,"Ö":150,"×":151,"Ø":152,"Ù":153,"Ú":154,"Û":155,"Ü":156,"Ý":157,"Þ":158,"ß":159,"à":160,"á":161,"â":162,"ã":163,"ä":164,"å":165,"æ":166,"ç":167,"è":168,"é":169,"ê":170,"ë":171,"ì":172,"í":173,"î":174,"ï":175,"ð":176,"ñ":177,"ò":178,"ó":179,"ô":180,"õ":181,"ö":182,"÷":183,"ø":184,"ù":185,"ú":186,"û":187,"ü":188,"ý":189,"þ":190,"ÿ":191,"Ā":192,"ā":193,"Ă":194,"ă":195,"Ą":196,"ą":197,"Ć":198,"ć":199,"Ĉ":200,"ĉ":201,"Ċ":202,"ċ":203,"Č":204,"č":205,"Ď":206,"ď":207,"Đ":208,"đ":209,"Ē":210,"ē":211,"Ĕ":212,"ĕ":213,"Ė":214,"ė":215,"Ę":216,"ę":217,"Ě":218,"ě":219,"Ĝ":220,"ĝ":221,"Ğ":222,"ğ":223,"Ġ":224,"ġ":225,"Ģ":226,"ģ":227,"Ĥ":228,"ĥ":229,"Ħ":230,"ħ":231,"Ĩ":232,"ĩ":233,"Ī":234,"ī":235,"Ĭ":236,"ĭ":237,"Į":238,"į":239,"İ":240,"ı":241,"Ĳ":242,"ĳ":243,"Ĵ":244,"ĵ":245,"Ķ":246,"ķ":247,"ĸ":248,"Ĺ":249,"ĺ":250,"Ļ":251,"ļ":252,"Ľ":253,"ľ":254,"Ŀ":255,"ŀ":256,"Ł":257,"ł":258,"Ń":259,"Ġt":260,"Ġa":261,"in":262,"he":263,"er":264,"on":265,"re":266,"Ġthe":267,"Ġs":268,"or":269,"at":270,"Ġw":271,"en":272,"is":273,"Ġc":274,"it":275,"es":276,"an":277,"Ġf":278,"Ġo":279,"ed":280,"Ġb":281,"ing":282,"al":283,"Ġm":284,"Ġp":285,"ar":286,"Ġan":287,"ou":288,"Ġin":289,"Ġto":290,"Ġof":291,"Ġd":292,"as":293,"ic":294,"le":295,"Ġand":296,"Ġh":297,"ion":298,"om":299,"Ġth":300,"il":301,"ct":302,"st":303,"Ġl":304,"el":305,"Ġn":306,"Ġre":307,"ĠT":308,"ent":309,"ro":310,"ĠI":311,"et":312,"ĠS":313,"ay":314,"ut":315,"Ġg":316,"Ġe":317,"ly":318,"ĠA":319,"ad":320,"Ġis":321,"id":322,"ot":323,"am":324,"ĠC":325,"im":326,"Ġon":327,"ol":328,"ve":329,"Ġfor":330,"ver":331,"ur":332,"ch":333,"ig":334,"us":335,"ow":336,"un":337,"Ġit":338,"Ġst":339,"ter":340,"ce":341,"Ġbe":342,"ĠM":343,"ĠB":344,"Ġthat":345,"ir":346,"Ġ/":347,"Ġmo":348,"ith":349,"ra":350,"Ġy":351,"Ġas":352,"ĠP":353,"Ġwith":354,"ation":355,"Ġhe":356,"ul":357,"Ġ,":358,"if":359,"se":360,"ĠThe":361,"Ġwh":362,"br":363,"ie":364,"Ġwas":365,"'s":366,"ag":367,"Ġ1":368,"ck":369,"od":370,"ers":371,"ĠW":372,"Ġ/>":373,"Ġ.":374,"est":375,"ri":376,"em":377,"ĠH":378,"ĠR":379,"ĠD":380,"ĠF":381,"ill":382,"th":383,"Ġal":384,"Ġv":385,"Ġ-":386,"Ġse":387,"Ġcon":388,"ke":389,"Ġyou":390,"Ġ\"":391,"and":392,"ĠN":393,"Ġthis":394,"Ġr":395,"ld":396,"pe":397,"um":398,"her":399,"ate":400,"Ġcom":401,"igh":402,"ist":403,"ĠG":404,"Ġde":405,"Ġat":406,"Ġ=":407,"ĠL":408,"oun":409,"Ġpro":410,"op":411,"ain":412,"Ġ#":413,"qu":414,"os":415,"rom":416,"up":417,"res":418,"ĠE":419,"Ġby":420,"Ġex":421,"Ġ2":422,"ort":423,"**":424,"ess":425,"Ġ`":426,"ab":427,"Ġne":428,"Ġsh":429,"Ġare":430,"Ġch":431,"end":432,"ĠO":433,"ction":434,"ight":435,"Ġha":436,"Ġfrom":437,"ies":438,"all":439,"Ġor":440,"art":441,"iv":442,"ĠU":443,"ant":444,"ud":445,"ust":446,"Ġnot":447,"lo":448,"ĠJ":449,"ĠIn":450,"ity":451,"00":452,"pt":453,"Ġhis":454,"ally":455,"ak":456,"gh":457,"ment":458,"Ġfil":459,"Ġmov":460,"ard":461,"pp":462,"ast":463,"Ġun":464,"Ġbut":465,"ould":466,"Ġpl":467,"age":468,"ame":469,"Ġk":470,"Ġj":471,"Ġus":472,"out":473,"Ġhave":474,"Ġle":475,"ure":476,"ack":477,"ell":478,"Ġfilm":479,"ive":480,"Ġ/><":481,"ome":482,"Ġsc":483,"ire":484,"Ġlo":485,"ang":486,"Ġwor":487,"day":488,"Ġgo":489,"Ġ{":490,"der":491,"Ġhas":492,"Ġ}":493,"ich":494,"ial":495,"Ġim":496,"ue":497,"ine":498,"our":499,"iz":500,"Ġcan":501,"ore":502,"Ġcomp":503,"ough":504,"Ġdo":505,"Ġab":506,"ound":507,"ect":508,"Ġmovie":509,"ong":510,"ia":511,"ere":512,"ĠK":513,"pl":514,"are":515,"Ġint":516,"ok":517,"ĠTh":518,"Ġ'":519,"Ġsu":520,"..":521,"ĠSt":522,"Ġall":523,"port":524,"Ġits":525,"orm":526,"ous":527,"ear":528,"ap":529,"Ġtr":530,"Ġone":531,".<":532,"Ġwhe":533,"Ġout":534,"39":535,"Ġif":536,"Ġso":537,"ian":538,"int":539,"ac":540,"ff":541,"ime":542,"Ġwho":543,"ory":544,"ass":545,"ile":546,"act":547,"ated":548,"'t":549,"Ġli":550,"ber":551,"Ġwe":552,"ost":553,"Ġsa":554,"Ġup":555,"so":556,"ĠV":557,"Ġcl":558,"one":559,"Ġ**":560,"ide":561,"urn":562,"Ġ<":563,"ĠCh":564,"Ġ:":565,"ther":566,"Ġen":567,"ice":568,"ake":569,"Ġar":570,"ep":571,"cc":572,"ind":573,"og":574,"ĠY":575,"ance":576,"ip":577,"Ġqu":578,"Ġper":579,"Ġad":580,"Ġwere":581,"Ġwhich":582,"ary":583,"ew":584,"ĠIt":585,"ge":586,"fter":587,"ult":588,"av":589,"ite":590,"Ġthey":591,"Ġman":592,"irst":593,"ord":594,"Ġover":595,"Ġtheir":596,"Ġres":597,"Ġmore":598,"ex":599,"very":600,"ens":601,"Ġcont":602,"cl":603,"Ġwill":604,"ans":605,"able":606,"Ġoff":607,"Ġpre":608,"ace":609,"ry":610,"Ġme":611,"Ġag":612,"ely":613,"--":614,"wo":615,"ick":616,"elf":617,"ition":618,"Ġact":619,"ov":620,"Ġsome":621,"Ġher":622,"Ġsp":623,"Ġro":624,"ub":625,"ays":626,"Ġabout":627,"con":628,"Ġret":629,"Ġfun":630,"per":631,"ations":632,"Ġ``":633,"Ġfirst":634,"ven":635,"ish":636,"Ġ19":637,"Ġhad":638,"Ġlike":639,"ence":640,"reat":641,"rit":642,"Ġ3":643,"ft":644,"ach":645,"The":646,"ren":647,"own":648,"ĠAn":649,"Ġ```":650,"ign":651,"ors":652,"Ġnew":653,"ru":654,"mer":655,"Ġinter":656,"Ġdis":657,"du":658,"Ġyour":659,"ble":660,"form":661,"ase":662,"Ġbec":663,"ne":664,"Ġafter":665,"ical":666,"Ġpr":667,"ade":668,"ict":669,"Ġtime":670,"ark":671,"amp":672,"Ġother":673,"Ġ@":674,"âĢ":675,"Ġwould":676,"vers":677,"ions":678,"ree":679,"Ġinto":680,"Ġte":681,"Ġyear":682,"Ġ//":683,"ount":684,"Ġpo":685,"ail":686,"atch":687,"hed":688,"ll":689,"ress":690,"Ġjust":691,"Ġchar":692,"Ã¡":693,"Ġreturn":694,"Ġtwo":695,"Ġwhen":696,"Ġthan":697,"Ġwhat":698,"Ġpart":699,"Ġbeen":700,"Ġser":701,"ates":702,"Ġrec":703,"Ġ:=":704,"Ġbo":705,"ces":706,"oll":707,"Ġdef":708,"old":709,"ks":710,"ings":711,"Ġany":712,"Ġsaid":713,"Ġget":714,"ĠThis":715,"ious":716,"Ġno":717,"aus":718,"Ġthere":719,"ath":720,"Ġpe":721,"Ġ0":722,"Ġbet":723,"les":724,"Ġalso":725,"get":726,"ata":727,"inal":728,"ec":729,"ode":730,"ents":731,"Ġthem":732,"ci":733,"Ġend":734,"pect":735,"Ġ200":736,"Ġgr":737,"ix":738,"gr":739,"ĠUn":740,"In":741,"ople":742,"ues":743,"ful":744,"Ġonly":745,"Ġdes":746,"Ġcol":747,"Ġmy":748,"Ġapp":749,"Ġhow":750,"ning":751,"Ġmost":752,"Ġ4":753,"we":754,"Ġhim":755,"Ġsee":756,"Ġam":757,"oc":758,"Ġdire":759,"ild":760,"ased":761,"Ġkn":762,"Ġself":763,"wn":764,"ize":765,"Ġshe":766,"Ġdid":767,"ob":768,"itt":769,"err":770,"Ġgood":771,"Ġacc":772,"ater":773,"ph":774,"Ġatt":775,"Ġplay":776,"vel":777,"clud":778,"Ġspe":779,"ĠRe":780,"hat":781,"hing":782,"ward":783,"Ġshow":784,"ced":785,"fer":786,"Ġtra":787,"Ġcould":788,"Ġcharact":789,"=\"":790,"Ã©":791,"rough":792,"Ġset":793,"red":794,"Ġback":795,"ink":796,"man":797,"iew":798,"oss":799,"tern":800,"Ġmod":801,"-@":802,"Ġ@-@":803,"ason":804,"ause":805,"ual":806,"put":807,"te":808,"Ġsup":809,"Ġpeople":810,"Ġob":811,"Ġfe":812,"Ġ20":813,"Ġmake":814,"Ġi":815,"Ġagain":816,"li":817,"Ġwork":818,"ject":819,"Ġco":820,"...":821,"Ġind":822,"Ġ5":823,"ose":824,"Ġinst":825,"ener":826,"Ġvery":827,"iss":828,"Ġrem":829,"lic":830,"aw":831,"Ġcomm":832,"ext":833,"ating":834,"ert":835,"land":836,"ug":837,"ty":838,"ise":839,"ock":840,"ident":841,"uch":842,"ax":843,"Ġra":844,"Ġdoes":845,"ited":846,"ĠHe":847,"ange":848,"uring":849,"Ġ*":850,"sh":851,"Ġeven":852,"oup":853,"ĠEn":854,"Ġz":855,"pen":856,"Ġnum":857,"ork":858,"Ġmade":859,"Ġinv":860,"Ġinclud":861,"ĠDe":862,"oy":863,"Ġear":864,"ife":865,"ines":866,"Ġlook":867,"##":868,"Ġ\\":869,"Ġsy":870,"row":871,"Ġstory":872,"Ġbu":873,"ĠNew":874,"Ġuse":875,"Ġfl":876,"other":877,"Ã½":878,"hen":879,"Ġwhere":880,"Ġwell":881,"Ġmak":882,"ved":883,"Ġunder":884,"ib":885,"ics":886,"Ġadd":887,"Ġmany":888,"ational":889,"Ġthrough":890,"Ġmay":891,"ices":892,"ek":893,"Ġrel":894,"ont":895,"cess":896,"Ġdirect":897,"Ġcons":898,"ican":899,"ific":900,"Ġbecause":901,"Ġmuch":902,"Ġimp":903,"ĠUS":904,"Ġclass":905,"hes":906,"els":907,"fore":908,"ĠFr":909,"any":910,"âĶ":911,"ton":912,"ĠAl":913,"its":914,"Ġev":915,"Ġprodu":916,"Ġent":917,"Ġscen":918,"ash":919,"Ġstr":920,"Ġsuch":921,"ĠAs":922,"Ġty":923,"Ġmin":924,"Ġlead":925,"lect":926,"ĠCom":927,"ages":928,"Ġ###":929,"Ġgreat":930,"reen":931,"Ġsl":932,"ied":933,"Ġperform":934,"Ġworld":935,"oth":936,"Ġimport":937,"Ġtri":938,"illion":939,"Ġthen":940,"ank":941,"Ġneed":942,"ĠSe":943,"**:":944,"ond":945,"Ġwant":946,"Ġshould":947,"ĠSh":948,"ons":949,"Ġwatch":950,"Ġstart":951,"ars":952,"Ġke":953,"Ġmus":954,"ÃŃ":955,"Ġbeing":956,"ĠAmer":957,"aj":958,"cond":959,"ower":960,"Ġspec":961,"Ġreally":962,"Ġ6":963,"ween":964,"Ġem":965,"Ġ10":966,"ĠIf":967,"Ġrun":968,"Ġbr":969,"com":970,"Ġbl":971,"az":972,"ems":973,"Ġsur":974,"Ġway":975,"Ġyears":976,"gt":977,"lt":978,"Ġcall":979,"ĠâĢ":980,"ĠAnd":981,"Ġval":982,"olog":983,"ually":984,"io":985,"ments":986,"ts":987,"ript":988,"Ġeff":989,"Ġsub":990,"ular":991,"Ġhigh":992,"ins":993,"urs":994,"Ġdif":995,"Ġmain":996,"ollow":997,"ho":998,"ures":999,"arg":1000,"Ġpoint":1001,"Ġ&":1002,"Ġbetween":1003,"Ġreal":1004,"Ġconst":1005,"ily":1006,"Ġreg":1007,"Ġusing":1008,"Ġcor":1009,"ray":1010,"Ġcent":1011,"ull":1012,"Ġthough":1013,"Ġprov":1014,"Ġgu":1015,"pr":1016,"Ġevery":1017,"Ġdata":1018,"Ġcre":1019,"ting":1020,"ale":1021,"omet":1022,"ox":1023,"Ġ+":1024,"Ġdown":1025,"Ġap":1026,"Ġ--":1027,"Ġerr":1028,"ince":1029,"Ġform":1030,"Ġpol":1031,"Ġwhile":1032,"ool":1033,"but":1034,"ĠLe":1035,"Ġthree":1036,"ather":1037,"Ġmet":1038,"Ġkill":1039,"ĠEx":1040,"ract":1041,"ctions":1042,"Ġthese":1043,"Ġdec":1044,"Ġknow":1045,"ros":1046,"py":1047,"ists":1048,"Ġbefore":1049,"ave":1050,"au":1051,"Ġlast":1052,"Ġinc":1053,"Ġel":1054,"ON":1055,"loat":1056,"way":1057,"rent":1058,"ĠBe":1059,"sc":1060,"Ġpres":1061,"ities":1062,"Ġsay":1063,"ves":1064,"ĠAr":1065,"ruct":1066,"Ġsim":1067,"Ġbad":1068,"als":1069,"Ġche":1070,"ove":1071,"arch":1072,"be":1073,"Äį":1074,"Ġfollow":1075,"\",":1076,"Ġbeg":1077,"ten":1078,"Ġ7":1079,"cept":1080,"anc":1081,"Ġmodel":1082,"ny":1083,"Ġsecond":1084,"app":1085,"ample":1086,"to":1087,"What":1088,"ird":1089,"Ġbest":1090,"Ġhel":1091,"vern":1092,"ving":1093,"led":1094,"ys":1095,"ames":1096,"erm":1097,"Th":1098,"Ġcount":1099,"Ġeach":1100,"osition":1101,"ters":1102,"Ġthink":1103,"Ġexp":1104,"oh":1105,"Ġpub":1106,"ever":1107,"ative":1108,"Ġmon":1109,"Ġrele":1110,"ĠBut":1111,"air":1112,"Ġsm":1113,"ets":1114,"Ġins":1115,"Ġhand":1116,"Ġlong":1117,"ives":1118,"Ġused":1119,"ision":1120,"ible":1121,"Å¾":1122,"ĠAd":1123,"Ġ8":1124,"ern":1125,"----":1126,"outh":1127,"Ġac":1128,"ina":1129,"Ġhelp":1130,"urrent":1131,"ĠIs":1132,"ĠFor":1133,"Ġgener":1134,"Ġtoo":1135,"ying":1136,"imes":1137,"val":1138,"Ġph":1139,"iel":1140,"Ġagainst":1141,"Ġdon":1142,"âĶĢ":1143,"Ġann":1144,"ism":1145,"Ġduring":1146,"Ġtak":1147,"Ġwar":1148,"Ġquot":1149,"less":1150,"Ġresult":1151,"ĠGo":1152,"Ġ201":1153,"Ġorig":1154,"Ġstill":1155,"Ġfin":1156,"Ġcharacter":1157,"Ġwon":1158,"Ġsyst":1159,"ĠWe":1160,"raw":1161,"Ġ18":1162,"Ġseason":1163,"Ġconf":1164,"Ġlife":1165,"ner":1166,"Ġfunction":1167,"ĠMon":1168,"ouse":1169,"velop":1170,"Ġfind":1171,"Ġcomple":1172,"Ġbel":1173,"gg":1174,"rop":1175,"ral":1176,"ĠZ":1177,"Ġvar":1178,"ah":1179,"Ġnow":1180,"ĠInd":1181,"Ġcr":1182,"ittle":1183,"ider":1184,"Ġdep":1185,"Ġmusic":1186,"Ġreport":1187,"Ġdist":1188,"Ġnumber":1189,"Ġext":1190,"Ãº":1191,"ared":1192,"Ġown":1193,"Ġfound":1194,"Ġwrit":1195,"âĶĢâĶĢ":1196,"oint":1197,"uss":1198,"Ġvers":1199,"Ġaut":1200,"Ġboth":1201,"son":1202,"uro":1203,"Ġ\\$":1204,"Ġcolor":1205,"ĠTo":1206,"Ġsame":1207,"chn":1208,"000":1209,"Ġname":1210,"ined":1211,"raq":1212,"Å¡":1213,"Ġfam":1214,"cent":1215,"Ġsomet":1216,"Ġass":1217,"Ġwin":1218,"Ġdiffer":1219,"Ġtrans":1220,"read":1221,"Ġimage":1222,"Ġfour":1223,"ĠPro":1224,"Ġele":1225,"Ġmem":1226,"hip":1227,"ier":1228,"Ġright":1229,"cy":1230,"Ġview":1231,"div":1232,"Ġtake":1233,"Ġgame":1234,"Ġappe":1235,"ĠAt":1236,"nes":1237,"Ġoffic":1238,"Ġcompany":1239,"oot":1240,"Ġed":1241,"Ġhere":1242,"thon":1243,"Ġhum":1244,"Ġseen":1245,"ĠYou":1246,"xt":1247,"erson":1248,"Ġgovern":1249,"ized":1250,"mp":1251,"îĪ":1252,"ĠUnited":1253,"Ġdet":1254,"irl":1255,"era":1256,"ense":1257,"Ġanother":1258,"ertain":1259,"OR":1260,"co":1261,"Ġoper":1262,"Ġref":1263,"Ġve":1264,"Ġopen":1265,"ĠWh":1266,"Ġprof":1267,"Ġcharacters":1268,"Ġline":1269,"vice":1270,"Ġbetter":1271,"ired":1272,"Ġrecord":1273,"Ġlittle":1274,"ically":1275,"lock":1276,"ody":1277,"Ġmillion":1278,"Ġstud":1279,"Ġnever":1280,"Ġexpect":1281,"Ġcode":1282,"ient":1283,"Ġloc":1284,"ĠAP":1285,"Ġgroup":1286,"olor":1287,"ĠIraq":1288,"orth":1289,"ross":1290,"ann":1291,"ted":1292,"ush":1293,"Ġaction":1294,"Ġdevelop":1295,"Ġscreen":1296,"Ġmark":1297,"This":1298,"Ġrep":1299,"go":1300,"Ġteam":1301,"here":1302,"Ġplot":1303,"ĠSp":1304,"Ġmovies":1305,"ĠCon":1306,"ief":1307,"olut":1308,"Ġpass":1309,"augh":1310,"ser":1311,"ling":1312,"Ġrequ":1313,"ik":1314,"lear":1315,"Ġold":1316,"cul":1317,"Ġpop":1318,"self":1319,"Ġray":1320,":**":1321,"ĠAmerican":1322,"ility":1323,"ĠHow":1324,"ĠThere":1325,"Ġbro":1326,"32":1327,"ror":1328,"Ġ9":1329,"Ġcar":1330,"Ġsign":1331,"Ġinterest":1332,"Ġcity":1333,"Ġbig":1334,"play":1335,"Ġmed":1336,"ature":1337,"ĠOn":1338,"orn":1339,"ched":1340,"ury":1341,"arter":1342,"Ġpri":1343,"Ġhead":1344,"Ġfilms":1345,"Ġtop":1346,"Ġday":1347,"IN":1348,"raph":1349,"Ġweek":1350,"\">":1351,"Ġpar":1352,"ement":1353,"Ġx":1354,"Ġever":1355,"Ġiss":1356,"riend":1357,"Ġaround":1358,"ohn":1359,"Ġwom":1360,"view":1361,"Ġnext":1362,"att":1363,"Ġfloat":1364,"hod":1365,"urope":1366,"ged":1367,"ital":1368,"Ġtal":1369,"ivers":1370,"Ġmight":1371,"ds":1372,"Ġthose":1373,"Ġren":1374,"chool":1375,"Ġcontin":1376,"ote":1377,"Ġsec":1378,"Å¥":1379,"Ġfinal":1380,"de":1381,"iness":1382,"Ġtype":1383,"Ġfr":1384,"ains":1385,"ional":1386,"px":1387,"St":1388,"ajor":1389,"ery":1390,"Ġ</":1391,"ĠBrit":1392,"ants":1393,"ister":1394,"Ġsince":1395,"apt":1396,"Ġsing":1397,"ĠInc":1398,"orp":1399,"ĠSun":1400,"add":1401,"ĠQ":1402,"Ġeffect":1403,"atur":1404,"ĠCl":1405,"Ġversion":1406,"ĠPr":1407,"ately":1408,"ead":1409,"ĠEng":1410,"Ġread":1411,"Ġfew":1412,"Ġfact":1413,"Ġgovernment":1414,"ness":1415,"Ġlove":1416,"ret":1417,"ĠGr":1418,"ows":1419,"fl":1420,"Ġsystem":1421,"Ġcour":1422,"ica":1423,"ĠMonday":1424,"Ġfile":1425,"iday":1426,"Ġturn":1427,"ĠMar":1428,"gram":1429,"atter":1430,"Ġhor":1431,"reak":1432,"ane":1433,"line":1434,"'re":1435,"Ġ|":1436,"Ġbased":1437,"ĠJohn":1438,"Ġincluding":1439,"orld":1440,"ER":1441,"ĠYork":1442,"ised":1443,"ĠEurope":1444,"Ġacting":1445,"Ġseries":1446,"Ġcurrent":1447,"Ġleft":1448,"Ġscene":1449,"icro":1450,"Ġstate":1451,"Ġnear":1452,"ished":1453,"vent":1454,"ng":1455,"thing":1456,"ilit":1457,"Ġrest":1458,"Ġexample":1459,"ably":1460,"uesday":1461,"ience":1462,"ology":1463,"section":1464,"ms":1465,"alcul":1466,"ware":1467,"Ġprint":1468,"Ġwithout":1469,"Ġnight":1470,"ĠWed":1471,"ccess":1472,"ĠIntern":1473,"aut":1474,"ape":1475,"df":1476,"nesday":1477,"Ġsomething":1478,"ood":1479,"arget":1480,"ĠTuesday":1481,"ask":1482,"pon":1483,"ron":1484,"eng":1485,"Ġart":1486,"osed":1487,"ecut":1488,"Ġstand":1489,"âĢĻ":1490,"Ġtechn":1491,"ides":1492,"ining":1493,"ided":1494,"ĠWednesday":1495,"Ġep":1496,"rect":1497,"Ġperformance":1498,"my":1499,"Ġdifferent":1500,"vious":1501,"Ġtext":1502,"Ġpublic":1503,"Ġhapp":1504,"med":1505,"Ġhist":1506,"ursday":1507,"Ġlist":1508,"Ġhome":1509,".\"":1510,"Ġchild":1511,"uc":1512,"ales":1513,"Ġperson":1514,"Ġelse":1515,"Ġstruct":1516,"ify":1517,"ĠSo":1518,"ait":1519,"yle":1520,"ator":1521,"Ġsever":1522,"AN":1523,"Ġinstall":1524,"vert":1525,"ĠThursday":1526,"ument":1527,"Ġcam":1528,"ctor":1529,"Ġsupport":1530,"yn":1531,"Ġvis":1532,"ĠâĢĵ":1533,"ember":1534,"Ġrange":1535,"uj":1536,"64":1537,"ĠBl":1538,"Ġtest":1539,"Ġthird":1540,"__":1541,"Ġlight":1542,"omb":1543,"Ġav":1544,"lement":1545,"Ġleast":1546,"Ġexpl":1547,"Ġgiv":1548,"Ġlet":1549,"Ġofficial":1550,"Ġmajor":1551,"Ġprocess":1552,"Ġpower":1553,"Ġearly":1554,"gy":1555,"ances":1556,"ormal":1557,"Ġoriginal":1558,"rem":1559,"ester":1560,"ĠFriday":1561,"ball":1562,"date":1563,"'ve":1564,"ĠSc":1565,"head":1566,"Ġbuild":1567,"ream":1568,"Ġsong":1569,"pro":1570,"soft":1571,"ĠNo":1572,"Ġcast":1573,"Ġmiss":1574,"ĠTr":1575,"Ġfunc":1576,"alf":1577,"Ġdem":1578,"Ġbor":1579,"Ġlater":1580,"ĠShe":1581,"work":1582,"Ġmonth":1583,"Ġbus":1584,"ĠSer":1585,"Ġdel":1586,"bo":1587,"ots":1588,"ways":1589,"Ġcalled":1590,"Ġfar":1591,"Ġexper":1592,"ene":1593,"Ġconsider":1594,"Ġput":1595,"Ġpost":1596,"idth":1597,"ĠPl":1598,"Ġopt":1599,"Ġdoesn":1600,"Ġbelie":1601,"Ġposs":1602,"ĠCan":1603,"Ġlarg":1604,"ĠThey":1605,"bers":1606,"ences":1607,"Ġfeel":1608,"Ġes":1609,"ĠWorld":1610,"Ġ;":1611,"Ġdr":1612,"ony":1613,"Ġ!":1614,"aren":1615,"Ġdesc":1616,"Ġpartic":1617,"Ġnp":1618,"Ġtoday":1619,"Ġprogram":1620,"Ġposition":1621,"Ġbox":1622,"ple":1623,"Ġmakes":1624,"aun":1625,"urity":1626,"Ġannoun":1627,"Ġmethod":1628,"Ġcomput":1629,"icrosoft":1630,"Ġsmall":1631,"\".":1632,"Ġprom":1633,"Ġcare":1634,"Ġscenes":1635,"apan":1636,"Ġappro":1637,"==":1638,"the":1639,"Ġbook":1640,"Ġmust":1641,"Ġgoing":1642,"empt":1643,"ield":1644,"Ġschool":1645,"Ġproble":1646,"Ġ12":1647,"iet":1648,"Ġsuccess":1649,"Ġfollowing":1650,"back":1651,"Ġhard":1652,"Ġest":1653,"Ġport":1654,"aim":1655,"Ġcountry":1656,"ĠAfter":1657,"iver":1658,"ĠCorp":1659,"cial":1660,"Ġplace":1661,"cing":1662,"Ġgive":1663,"Ġstep":1664,"10":1665,"</":1666,"ĠCo":1667,"ĠHere":1668,"though":1669,"ky":1670,"ived":1671,"ley":1672,"mod":1673,"Ġterm":1674,"bal":1675,"Ġcap":1676,";/":1677,"conom":1678,"ĠStates":1679,"atic":1680,"AS":1681,"gan":1682,"rist":1683,"min":1684,"esterday":1685,"ians":1686,"lose":1687,"most":1688,"erman":1689,"ording":1690,"par":1691,"Ġinvest":1692,"Ġ...":1693,"bit":1694,"ĠPres":1695,"EN":1696,"ĠMin":1697,"Ġcheck":1698,"oid":1699,"Ġjob":1700,"Ġ15":1701,"Ġtot":1702,"Ġyoung":1703,"ector":1704,"Ġthing":1705,"Ġyesterday":1706,"AR":1707,"Ġseveral":1708,"sure":1709,"'ll":1710,"Ġcontro":1711,"ĠComm":1712,"Ġour":1713,"angle":1714,"Ġmaking":1715,"ered":1716,"Ġfamily":1717,"Ġsol":1718,"que":1719,"Ġfriend":1720,"Ġtry":1721,"Ġtarget":1722,"Ġthought":1723,"Ġtrad":1724,"Ġmove":1725,"Ġvalue":1726,"ott":1727,"ĠAll":1728,"aster":1729,"ster":1730,"ium":1731,"Ġlay":1732,"ention":1733,"Ġtimes":1734,"Ġkeep":1735,"ĠAust":1736,"joy":1737,"Ġgen":1738,"Ġsure":1739,"angu":1740,"Ġtrue":1741,"til":1742,"Ġconc":1743,"'m":1744,"ended":1745,"Ġcut":1746,"Ġchang":1747,"Ġcreate":1748,"ground":1749,"Ġcome":1750,"idd":1751,"Ġide":1752,"Ġdone":1753,"ches":1754,"Ġscript":1755,"stand":1756,"arr":1757,"Ġsays":1758,"Ġless":1759,"ey":1760,"Ġgot":1761,"Ġincre":1762,"Ġloss":1763,"amed":1764,"ai":1765,"Ġenv":1766,"Ġseems":1767,"ison":1768,"Ġvict":1769,"Ġgirl":1770,"ified":1771,"ares":1772,"Ġdidn":1773,"Ġlik":1774,"ocks":1775,"ĠChina":1776,"ober":1777,"ague":1778,"Ġreason":1779,"Ġattack":1780,"by":1781,"ĠAf":1782,"Ġnet":1783,"Ġocc":1784,"Ġcase":1785,"Ġmilit":1786,"ending":1787,"ither":1788,"itle":1789,"Ġrole":1790,"ively":1791,"Ġprot":1792,"Ġminut":1793,"ney":1794,"Ġcorrect":1795,"ĠJapan":1796,"lish":1797,"Ġenjoy":1798,"ization":1799,"ST":1800,"ising":1801,"ensor":1802,"Ġ==":1803,"ĠX":1804,"ĠMay":1805,"Ġalong":1806,"Ġri":1807,"Ġmanag":1808,"ĠOr":1809,"Ġlow":1810,"for":1811,"Ġenough":1812,"ĠBritish":1813,"ounding":1814,"wards":1815,"Ġpercent":1816,"Ġdirector":1817,"ained":1818,"ĠTe":1819,"Ġpred":1820,"Ġhit":1821,"ĠPresident":1822,"Ġshort":1823,"ĠSunday":1824,"ering":1825,"Ġwr":1826,"Ġcrit":1827,"Ġho":1828,"Ġfail":1829,"ĠWest":1830,"oney":1831,"Ġlaw":1832,"ĠSouth":1833,"arn":1834,"ĠBr":1835,"ges":1836,"ribut":1837,"ops":1838,"Ġreleased":1839,"Ġleg":1840,"It":1841,"ĠRuss":1842,"Ġsoft":1843,"ĠNot":1844,"Ġmen":1845,"Ġwhy":1846,"ured":1847,"Ġ199":1848,"verage":1849,"Ġseem":1850,"ĠFl":1851,"Ġpack":1852,"Ġcommand":1853,"Ġaw":1854,"Ġdesign":1855,"enn":1856,"andom":1857,"Ġdeath":1858,"Ġbusiness":1859,"ats":1860,"eder":1861,"Ġfore":1862,"Ġplan":1863,"Ġfive":1864,"Ġtele":1865,"Ġ100":1866,"iam":1867,"Ġlot":1868,"ĠWith":1869,"Ġexc":1870,"Ġhalf":1871,"ĠHowever":1872,"Ġprob":1873,"Ġexecut":1874,"Ġwatching":1875,"AT":1876,"Ġpret":1877,"Ġwithin":1878,"Ġthings":1879,"Ġobject":1880,"Ġmat":1881,"Ġmult":1882,"ideo":1883,"Ġair":1884,"Ġgrow":1885,"Ġaway":1886,"Ġje":1887,"Ġactually":1888,"Ġbit":1889,"bed":1890,"Ġant":1891,"Ġsw":1892,"Ġbecame":1893,"ĠApp":1894,"Ġdeal":1895,"Ġkey":1896,"load":1897,"Ġoil":1898,"Ġfall":1899,"Ġuntil":1900,"ĠBy":1901,"Ġspace":1902,"ones":1903,"iron":1904,"Ġeconom":1905,"Ġlog":1906,"Ġevent":1907,"ilar":1908,"ored":1909,"Ġknown":1910,"ama":1911,"Ch":1912,"Ġaud":1913,"str":1914,"Ġ25":1915,"Ġactors":1916,"por":1917,"Ġbeh":1918,"ĠMan":1919,"rew":1920,"ards":1921,"Ġalmost":1922,"ixel":1923,"sp":1924,"Ġinvol":1925,"Ġmarket":1926,"\":":1927,"uck":1928,"ump":1929,"iant":1930,"ource":1931,"reed":1932,"af":1933,"ply":1934,"ĠThat":1935,"ries":1936,"Ġattempt":1937,"Ġkilled":1938,"Ġnothing":1939,"udd":1940,"Ġkind":1941,"Ġrece":1942,"Ġsk":1943,"Ġerror":1944,"not":1945,"Ġmess":1946,"Ġeas":1947,"Ġdri":1948,"mb":1949,"Ġdoc":1950,"Ġintern":1951,"und":1952,"istic":1953,"Ġepis":1954,"Ġgl":1955,"arge":1956,"ĠWar":1957,");":1958,"ality":1959,"Ġtell":1960,"ĠCol":1961,"mage":1962,"Ġdiv":1963,"Ġlab":1964,"Ġtyp":1965,"Ġdou":1966,"Ġinit":1967,"ĠCity":1968,"iol":1969,"^^":1970,"ĠChe":1971,"Ġbegin":1972,"Ġuser":1973,"Ġsaw":1974,"Ġsize":1975,"itut":1976,"side":1977,"hern":1978,"aps":1979,"ude":1980,"Ä¾":1981,"ĠPh":1982,"ĠCar":1983,"ĠRes":1984,"Ġcomed":1985,"ĠGerman":1986,"Ġhour":1987,"Ġhuman":1988,".,":1989,"Ġmean":1990,"ateg":1991,"Ġbas":1992,"ĠOne":1993,"set":1994,"ĠWhen":1995,"Ġlangu":1996,"Ġu":1997,"Ġprices":1998,"uff":1999,"cially":2000,"ĠUp":2001,"ories":2002,"Ġ11":2003,"Ġsix":2004,"ustom":2005,"Ġdirection":2006,"ric":2007,"Ġoften":2008,"ued":2009,"Ġorder":2010,"Ġhig":2011,"US":2012,"raz":2013,"Ġadv":2014,"Ġgiven":2015,"Ġstat":2016,"Ġ16":2017,"Ġbecome":2018,"mber":2019,"Ġquest":2020,"Ġsus":2021,"Ġeng":2022,"Ġpolit":2023,"Ġalways":2024,"Ġquarter":2025,"ault":2026,"Ġstrong":2027,"ming":2028,"Ġsum":2029,"Ġ---":2030,"Ġ>":2031,"ency":2032,"ĠPar":2033,"Ġkid":2034,"ger":2035,"ĠChrist":2036,"ĠPy":2037,"RE":2038,"Ġfunny":2039,"elt":2040,"ential":2041,"Ġcamera":2042,"ĠNE":2043,"orch":2044,"Ġbreak":2045,"Ġsound":2046,"Ġannounced":2047,"ING":2048,"Ġinform":2049,"Ġcost":2050,"Ġdat":2051,"Ġhost":2052,"ĠVector":2053,"Ġdue":2054,"let":2055,"Ġplayed":2056,"ograph":2057,"Ġsit":2058,"Ġallow":2059,"init":2060,"of":2061,"Ġmom":2062,"bs":2063,"ĠAustral":2064,"yst":2065,"Ġsex":2066,"Ġpat":2067,"ĠMicrosoft":2068,"Ġtw":2069,"Ġmar":2070,"alk":2071,"Ġspecific":2072,"ently":2073,"hor":2074,"ĠTV":2075,"Ġsingle":2076,"Ġgets":2077,"light":2078,"lymp":2079,"urther":2080,"Ġcamp":2081,"Ġquite":2082,"rench":2083,"--------":2084,"alse":2085,"vices":2086,"ior":2087,"olution":2088,"Ġcame":2089,"Ġ},":2090,"'d":2091,"Ġdisc":2092,"aturday":2093,"pite":2094,"ese":2095,"ader":2096,"Ġformer":2097,"Pr":2098,"Ġfight":2099,"dd":2100,"time":2101,"Ġtrying":2102,"used":2103,"Ġequ":2104,"rican":2105,"Ġopp":2106,"Ġsequ":2107,"Ġclaim":2108,"âĶĢâĶĢâĶĢâĶĢ":2109,"Ġlaun":2110,"ĠSaturday":2111,"Ġland":2112,"tra":2113,"Ġreported":2114,"Ġdays":2115,"aterial":2116,"urch":2117,"ĠWill":2118,"Ġrepres":2119,"omin":2120,"alth":2121,"ĠBro":2122,"Ġtem":2123,"Ġhold":2124,"Ġblock":2125,"iod":2126,"Ġproject":2127,"AL":2128,"Ġabs":2129,"lection":2130,"50":2131,"Ġrather":2132,"wood":2133,"eter":2134,"sect":2135,"na":2136,"omm":2137,"cast":2138,"Ġ$":2139,"Ġbackground":2140,"uly":2141,"uters":2142,"Ġhaving":2143,"python":2144,"js":2145,"Ġtook":2146,"ĠPe":2147,"Ġinput":2148,"Ġyet":2149,"ĠOlymp":2150,"ponse":2151,"cle":2152,"Ġcreat":2153,"Ġna":2154,"loy":2155,"Ġviol":2156,"Ġsuper":2157,"ze":2158,"Ġpretty":2159,"ĠGe":2160,"Ġimpro":2161,"Ġvalues":2162,"fo":2163,"ĠMus":2164,"Ġ2004":2165,"ĠPal":2166,"Ġlarge":2167,"error":2168,"user":2169,"Ġfull":2170,"Ġwhole":2171,"Ġminutes":2172,"Ġpay":2173,"Ġisn":2174,"Ġworth":2175,"Ġrunning":2176,"ases":2177,"Ġâ":2178,"',":2179,"ĠOpen":2180,"ĠSept":2181,"Ġtotal":2182,"Ġlate":2183,"Ġclos":2184,"Ġpresident":2185,"Ġdial":2186,"over":2187,"Ġreview":2188,"Ġhistory":2189,"ĠReuters":2190,"Ġspecial":2191,"ĠEuropean":2192,"rup":2193,"Ġop":2194,"ler":2195,"DA":2196,"ike":2197,"bum":2198,"lay":2199,"ius":2200,"Ġaff":2201,"alculate":2202,"ĠRed":2203,"Ġdead":2204,"pped":2205,"Ġ17":2206,"Ġtakes":2207,"ened":2208,"just":2209,"iff":2210,"Ġpast":2211,"Ġwoman":2212,"istan":2213,"ulation":2214,"Ġcapt":2215,"Ġsoftware":2216,"Ġtitle":2217,"pecially":2218,"Ġarea":2219,"Ġrender":2220,"Ġexpected":2221,"inem":2222,"Ġsecurity":2223,"Ġproduction":2224,"Ġlargest":2225,"iversity":2226,"Ġindust":2227,"ĠOct":2228,"Ġmoney":2229,"cont":2230,"iting":2231,"ĠNEW":2232,"`.":2233,"soci":2234,"reate":2235,"Ġsent":2236,"uary":2237,"Ġenc":2238,"Ġcop":2239,"ission":2240,"Ġwonder":2241,"ORK":2242,"ironment":2243,"rodu":2244,"osp":2245,"fect":2246,"Ġstar":2247,"Ġclose":2248,"Inter":2249,"Ġonce":2250,"Ġvideo":2251,"Ġinstead":2252,"Ġcentury":2253,"Ġprevious":2254,"ĠCanad":2255,"Ġentire":2256,"ĠNorth":2257,"Ġshows":2258,"Ġfac":2259,"Ġbegan":2260,"Ġservice":2261,"Ġface":2262,"Ġ_":2263,"Ġissue":2264,"ĠMc":2265,"`,":2266,"reet":2267,"rael":2268,"DF":2269,"ĠDav":2270,"ran":2271,"raft":2272,"ĠInternet":2273,"Ġlocal":2274,"Ġfav":2275,"Ġlooks":2276,"ĠInst":2277,"Ġlevel":2278,"rap":2279,"Ġhouse":2280,"gether":2281,"Ġchange":2282,"Ġtogether":2283,"Ġproper":2284,"Ġamong":2285,"lished":2286,"tor":2287,"Ġ30":2288,"Ġrad":2289,"bash":2290,"Ġparticular":2291,"ĠFrench":2292,"atures":2293,"Ġunderstand":2294,"An":2295,"Ġmax":2296,"ux":2297,"Ġsold":2298,"ĠYORK":2299,"itional":2300,"ee":2301,"Sc":2302,"ampl":2303,"Ġbeaut":2304,"une":2305,"Ġrese":2306,"Ġwomen":2307,"oon":2308,"ament":2309,"oice":2310,"Ġfut":2311,"Ġinclude":2312,"ially":2313,"Ġmeet":2314,"Ġside":2315,"Ġproduct":2316,"Ġfurther":2317,"Ġpot":2318,"ĠPer":2319,"olly":2320,"Ġhimself":2321,"Ġmag":2322,"lex":2323,"unk":2324,"Ġnil":2325,"Ġprobably":2326,"data":2327,"Ġfoot":2328,"Ġfather":2329,"itch":2330,"Ġalbum":2331,"ĠMich":2332,"ĠWhat":2333,"off":2334,"Ġoutput":2335,"ilt":2336,"ging":2337,"Ġter":2338,"inter":2339,"estern":2340,"Ġaccording":2341,"year":2342,"Ġanim":2343,"Ġlaugh":2344,"Ġfoc":2345,"lected":2346,"ready":2347,"Ġpoor":2348,"Ġrow":2349,"ĠAdd":2350,"Ġcomes":2351,"Ġresponse":2352,"rel":2353,"umb":2354,"attle":2355,"Ġinteresting":2356,"Ġentertain":2357,"iving":2358,"ises":2359,"inese":2360,"Ġrelease":2361,"Ġcertain":2362,"vision":2363,"Ġsearch":2364,"Ġperiod":2365,"Ġpixel":2366,"Ġwat":2367,"Ġclear":2368,"Ġdisplay":2369,"ĠInter":2370,"Ġespecially":2371,"},":2372,"Ġmaterial":2373,"':":2374,"ID":2375,"Ġexist":2376,"Ġappear":2377,"ĠNational":2378,"ps":2379,"ips":2380,"estin":2381,"Ġaverage":2382,"Ġnamed":2383,"Ġrelations":2384,"Ġmind":2385,"color":2386,"ampions":2387,"Ġcourse":2388,"LE":2389,"Ġanything":2390,"Ġ!=":2391,"place":2392,"ĠCent":2393,"Ġword":2394,"Ġarch":2395,"Ġarray":2396,"gs":2397,"Ġlooking":2398,"Ġnon":2399,"down":2400,"Ġdecl":2401,"Ġfree":2402,"arent":2403,"Ġur":2404,"Ġacross":2405,"Ġcontrol":2406,"Ġ14":2407,"Ġdetail":2408,"Ġborder":2409,"Ġoptim":2410,"Ġrandom":2411,"Ġhorror":2412,"Ġcommon":2413,"Ġcred":2414,"Ġdraw":2415,"Ġtorch":2416,"Ġblo":2417,"ores":2418,"ĠHis":2419,"ural":2420,"ĠGu":2421,"Ġeffort":2422,"iful":2423,"vas":2424,"Ġwind":2425,"Ġstri":2426,"ĠTra":2427,"ĠAir":2428,"uje":2429,"word":2430,"ĠBo":2431,"Ġheld":2432,"sw":2433,"Ġdescri":2434,"Ġalready":2435,"Ġcomedy":2436,"Ġpresent":2437,"fully":2438,"lobal":2439,"Ġbar":2440,"Ġchildren":2441,"Ġimages":2442,"Ġinformation":2443,"Ġsales":2444,"ĠEd":2445,"Ġsurpr":2446,"Ġbillion":2447,"itive":2448,"ands":2449,"Ġothers":2450,"king":2451,"Ġorgan":2452,"posed":2453,"ung":2454,"Ġpolice":2455,"PU":2456,"ests":2457,"ĠPort":2458,"Ġcommun":2459,"ĠEngland":2460,"Ġaccess":2461,"ĠAug":2462,"Ġproblem":2463,"ordin":2464,"ĠMy":2465,"Ġsugg":2466,"cÃ©":2467,"arm":2468,"iece":2469,"rad":2470,"Ġcult":2471,"ĠAb":2472,"angles":2473,"Ġpoints":2474,"top":2475,"Ġheart":2476,"Ġcinem":2477,"Ġpredict":2478,"Ġpossible":2479,"BA":2480,"oston":2481,"Ġvictory":2482,"Ġbecom":2483,"ael":2484,"Ġsett":2485,"Ġenvironment":2486,"Ġreb":2487,"ĠChinese":2488,"Ġet":2489,"Ġ13":2490,"rix":2491,"alif":2492,"Ġmilitary":2493,"Ġintersection":2494,"rest":2495,"ederal":2496,"Ġgoes":2497,"Ġshot":2498,"aid":2499,"Ġey":2500,"ĠDis":2501,"yon":2502,"ule":2503,"ators":2504,"rror":2505,"hel":2506,"ĠSec":2507,"Ġtou":2508,"Ġofficials":2509,"ortun":2510,"Ġpy":2511,"Ġjo":2512,"Ġcond":2513,"Ġ198":2514,"ĠBar":2515,"aul":2516,"Ġinfl":2517,"Ġload":2518,"Ġmer":2519,"Ġfig":2520,"Ġtreat":2521,"Ġcompet":2522,"Ġnormal":2523,"ĠLo":2524,"me":2525,"Ġexcept":2526,"mark":2527,"Ġpackage":2528,"Ġepisode":2529,"Ġdocument":2530,"aking":2531,"Ġblack":2532,"ublic":2533,"Ġapplic":2534,"ĠDef":2535,"Ġbelieve":2536,"ĠAm":2537,"Ġconv":2538,"ĠPol":2539,"Ġdiff":2540,"New":2541,"Ġmoder":2542,"Ġbank":2543,"umn":2544,"Se":2545,"aced":2546,"Ġple":2547,"iles":2548,"face":2549,"Ġsell":2550,"Ġworst":2551,"Ġeither":2552,"AI":2553,"Ġtown":2554,"ressed":2555,"20":2556,"cer":2557,"Ġworks":2558,"Ġrecomm":2559,"ference":2560,"ĠAmerica":2561,"How":2562,"Ġcustom":2563,"ĠîĪ":2564,"Ġbody":2565,"Ġcomb":2566,"Re":2567,"Ġlim":2568,"aining":2569,"Ġidea":2570,"Ġmor":2571,"Ġpos":2572,"Ġsat":2573,"acy":2574,"max":2575,"Ġimplement":2576,"Ġ197":2577,"Ġlanguage":2578,"Ġrul":2579,"Ġable":2580,"ability":2581,"Ġlost":2582,"ana":2583,"Ġalthough":2584,"Ġstring":2585,"Ġimportant":2586,"VD":2587,"Ġlack":2588,"Ġending":2589,"Ġprovide":2590,"sy":2591,"icy":2592,"Ġbuy":2593,"che":2594,"ĠGeor":2595,"Ġtraining":2596,"ength":2597,"Ġsense":2598,"Ġresults":2599,"Ġgames":2600,"Ġsimilar":2601,"Ġeffects":2602,"Ġident":2603,"Ġplans":2604,"Ġitself":2605,"66":2606,"ression":2607,"Ġdevelopment":2608,"Ġrepresent":2609,"Ġpopular":2610,"Ġtechnology":2611,"ĠSeptember":2612,"avy":2613,"itions":2614,"Ġbomb":2615,"Ġemp":2616,"rible":2617,"ĠChar":2618,"Ġfir":2619,"ned":2620,"ĠCup":2621,"Ġwater":2622,"ounter":2623,"ĠSup":2624,"Ġmatch":2625,"ried":2626,"irection":2627,"ĠBush":2628,"Ġwent":2629,"ends":2630,"erry":2631,"Ġslow":2632,"Ġcenter":2633,"Ġgave":2634,"Ġstra":2635,"Ġstop":2636,"Ġguy":2637,"ĠIsrael":2638,"ĠItal":2639,"ĠBeyon":2640,"ĠBoston":2641,"Ġtrack":2642,"Ġauthor":2643,"key":2644,"rupt":2645,"Ġwords":2646,"ĠKing":2647,"Ġcompon":2648,"action":2649,"ĠEnglish":2650,"ĠGener":2651,"cher":2652,"Ġwife":2653,"ili":2654,"Ġpriv":2655,"ension":2656,"Ġnetwork":2657,"Ġwritten":2658,"ĠAng":2659,"Ġste":2660,"Ġresp":2661,"Ġestab":2662,"Ġrock":2663,"Ġfuture":2664,"log":2665,"ĠÂ":2666,"fit":2667,"game":2668,"nÃ©":2669,"ĠDVD":2670,"Ġtf":2671,"ription":2672,"ety":2673,"Ġhowever":2674,"Ġlive":2675,"Ġintrodu":2676,"Ġago":2677,"ollywood":2678,"Ġpract":2679,"Ġavail":2680,"ills":2681,"Ġdeb":2682,"tic":2683,"Ġcaus":2684,"Ġstyle":2685,"Ġfeature":2686,"ration":2687,"Ġhy":2688,"ĠPDF":2689,"Ġjud":2690,"Ġmur":2691,"Ã½ch":2692,"akes":2693,"ĠTH":2694,"biten":2695,"Ġfell":2696,",\"":2697,"ĠSch":2698,"Ġedge":2699,"ashing":2700,"Ġhigher":2701,"Ġconn":2702,"ports":2703,"ĠSome":2704,"Ġpolitical":2705,"Wh":2706,"size":2707,"Ġsuff":2708,"ker":2709,"Ġorigin":2710,"Ġdialog":2711,"ES":2712,"Ġgra":2713,"ĠOff":2714,"Ġissues":2715,"ĠLeague":2716,"lav":2717,"Ġhop":2718,"Ġtour":2719,"ears":2720,"iddle":2721,"box":2722,"Color":2723,"Ġindustry":2724,"Data":2725,"Ġpain":2726,"Ġround":2727,"istance":2728,"ĠJan":2729,"Ġchanges":2730,"Ġthreat":2731,"ĠDes":2732,"Ġcomplet":2733,"ĠMinister":2734,"ille":2735,"ources":2736,"Ġled":2737,"aker":2738,"ancial":2739,"ĠÄį":2740,"enc":2741,"Ġaudience":2742,"ĠInternational":2743,"Ġplays":2744,"ached":2745,"Ġred":2746,"Ġisland":2747,"Ġlines":2748,"iment":2749,"va":2750,"Ġ)":2751,"FP":2752,"image":2753,"ogle":2754,"Sh":2755,"Ġcourt":2756,"Ġsn":2757,"Ġcompan":2758,"Ġwasn":2759,"Ġmembers":2760,"ĠSte":2761,"Ġsort":2762,"Ġserious":2763,"ique":2764,"Ġtro":2765,"Ġcoup":2766,"udget":2767,"button":2768,"uel":2769,"Ġearli":2770,"Ġbehind":2771,"IS":2772,"Image":2773,"aled":2774,"ĠQu":2775,"aring":2776,"Error":2777,"Ġredu":2778,"Ġperfect":2779,"Ġbeautiful":2780,"Ġrelationship":2781,"ening":2782,"oman":2783,"odes":2784,"Ġtelevision":2785,"ĠRep":2786,"Ġmonths":2787,"On":2788,"pos":2789,"Ġbase":2790,"inc":2791,"mt":2792,"unt":2793,"ĠKe":2794,"pdf":2795,"ceed":2796,"ero":2797,"Ġmath":2798,"amples":2799,"Ġmother":2800,"ĠState":2801,"ensive":2802,"Ġusers":2803,"Ġensure":2804,"ĠIndia":2805,"25":2806,"ĠThese":2807,"ĠOctober":2808,"As":2809,"itect":2810,"Ġmodern":2811,"Ġdru":2812,"Ġshare":2813,"Ġanyone":2814,"Ġpath":2815,"Ġdam":2816,"ĠâĢĶ":2817,"gest":2818,"ĠBeyoncÃ©":2819,"based":2820,"ires":2821,"Ġwidth":2822,"Ġrev":2823,"Ġelect":2824,"ĠJack":2825,"asing":2826,"Ġheight":2827,"Ġregion":2828,"net":2829,"ovan":2830,"ma":2831,"Ã´":2832,"ination":2833,"Ġvarious":2834,"urt":2835,"Ġactiv":2836,"ography":2837,"ĠMichael":2838,"lad":2839,"Ġnational":2840,"Ġstru":2841,"Ġworking":2842,"ko":2843,"sel":2844,"Ġhom":2845,"use":2846,"Ġvec":2847,"Ġlibr":2848,"aset":2849,"sole":2850,"Ġanal":2851,"like":2852,"ondon":2853,"van":2854,"Ġpdf":2855,"ĠComp":2856,"Ġneg":2857,"Ġinf":2858,"Ġ50":2859,"Ġwatched":2860,"ĠSw":2861,"nings":2862,"ĠOlympic":2863,"mit":2864,"BC":2865,"Ġindic":2866,"Ġgeneral":2867,"Ġreceived":2868,"Ġfocus":2869,"Ġplayer":2870,"ĠAugust":2871,"Ġthroughout":2872,"Ġrate":2873,"Ġprofit":2874,"Ġinitial":2875,"ĠMe":2876,"Ġinternational":2877,"Ġwhether":2878,"Ġsignific":2879,"Ġstore":2880,"Ġcontent":2881,"Ġsimply":2882,"Ġsave":2883,"Ġ}}":2884,"ios":2885,"aces":2886,"Ġeverything":2887,"Com":2888,"Ġhours":2889,"Ġavailable":2890,"Ġplaying":2891,"Ġ+=":2892,"Ġtool":2893,"ĠOut":2894,"Ġabove":2895,"Ġsomeone":2896,"appoint":2897,"ected":2898,"Ġneeded":2899,"irt":2900,"Ġdisco":2901,"Ġactor":2902,"ĠWilliam":2903,"itor":2904,"antic":2905,"aper":2906,"Ġcareer":2907,"ĠLondon":2908,"Pro":2909,"ring":2910,"ĠAg":2911,"Ġpress":2912,"Ġleading":2913,"resh":2914,"Ġfeatures":2915,"So":2916,"Ġparts":2917,"oe":2918,"ĠDon":2919,"icks":2920,"Ġadded":2921,"Ġlen":2922,"atal":2923,"ession":2924,"eks":2925,"model":2926,"Ġarg":2927,"Ġcomputer":2928,"Ġwrong":2929,"ham":2930,"Ġpict":2931,"Ġsil":2932,"pected":2933,"Ġdig":2934,"uation":2935,"Ġcreated":2936,"Ġdespite":2937,"ĠWhile":2938,"Ġbroad":2939,"Ġfalse":2940,"iers":2941,"ergy":2942,"30":2943,"Ar":2944,"To":2945,"Ġnov":2946,"ĠFe":2947,"Ġstarted":2948,"gon":2949,"ĠRec":2950,"Ġindex":2951,"Ġoperations":2952,"Ġgives":2953,"alt":2954,"ĠII":2955,"ender":2956,"right":2957,"epend":2958,"Ġnearly":2959,"Ġauto":2960,"bor":2961,"Ġoffer":2962,"Ġaccount":2963,"Ġconcern":2964,"ĠSet":2965,"Ġfavor":2966,"++":2967,"aries":2968,"idence":2969,"riangle":2970,"Ġwhite":2971,"aving":2972,"Ġcover":2973,"Ġ194":2974,"uk":2975,"atest":2976,"aling":2977,"text":2978,"Ġage":2979,"plate":2980,"ba":2981,"Ġsimple":2982,"Ġgetting":2983,"Ġmis":2984,"Ġktor":2985,"iter":2986,"ĠWind":2987,"Ġfans":2988,"Ġinj":2989,"Ġquestion":2990,"lin":2991,"Ġfan":2992,"ĠEar":2993,"ift":2994,"Ġleader":2995,"Ġhope":2996,"Ġask":2997,"ĠAra":2998,"Ġprovided":2999,"Ġfire":3000,"urrican":3001,"Ġparam":3002,"Ġbuilt":3003,"ald":3004,"ĠHar":3005,"ĠHollywood":3006,"Ġmessage":3007,"Ġcell":3008,"Ġsepar":3009,"Ġmid":3010,"iding":3011,"iple":3012,"Ġupd":3013,"Ġtaken":3014,"anks":3015,"ĠNet":3016,"Ġservices":3017,"Ġmemory":3018,"Ġcompanies":3019,"Ġseeing":3020,"Ġsoon":3021,"ĠNow":3022,"Ġdisappoint":3023,"Ġchief":3024,"Ġdest":3025,"ĠWeb":3026,"ĠCreate":3027,"Ġboy":3028,"cut":3029,"Ġreward":3030,"info":3031,"Ġdeep":3032,"uments":3033,"rown":3034,"ĠÐ":3035,"VH":3036,"Ġsaying":3037,"name":3038,"Ġforces":3039,"Ġpage":3040,"artment":3041,"Ġtaking":3042,"ĠîĪĥ":3043,"Ġtold":3044,"If":3045,"ĠRo":3046,"Ġsteps":3047,"ume":3048,"Box":3049,"Ġprice":3050,"ĠRussian":3051,"ategory":3052,"band":3053,"hens":3054,"Ġ*/":3055,"uclear":3056,"Un":3057,"usion":3058,"ights":3059,"Ġlower":3060,"ĠUniversity":3061,"12":3062,"Ġson":3063,"Ġdoll":3064,"Ġrout":3065,"Ġfriends":3066,"ĠWhite":3067,"Ġcle":3068,"Ġapproach":3069,"Ġdouble":3070,"ĠFirst":3071,"Ġinte":3072,"Ġfinally":3073,"haps":3074,"Ġce":3075,"udo":3076,"Ġperformances":3077,"Ġfem":3078,"oph":3079,"ruction":3080,"iction":3081,"Ġelements":3082,"ĠUs":3083,"ogn":3084,"Ġfmt":3085,"Ġseven":3086,"PO":3087,"Ġmedia":3088,"ĠPaul":3089,"Ġrequest":3090,"Ġbeginning":3091,"Ġlearn":3092,"Ġid":3093,"chie":3094,"Ġ/*":3095,"opin":3096,"ĠEl":3097,"îĪĦ":3098,"Ġcomplex":3099,"Ġsignificant":3100,"Ġbring":3101,"Ġopening":3102,"Ġavoid":3103,"Ġsqu":3104,"Ġcompletely":3105,"array":3106,"Ġcontract":3107,"ĠVal":3108,"Ġ196":3109,"Ġtouch":3110,"Ġfield":3111,"Ġproblems":3112,"ivid":3113,"Ġ};":3114,"ĠNe":3115,"itting":3116,"Ġconsidered":3117,"ĠJe":3118,"Ġcomplete":3119,"====":3120,"Ġengine":3121,"Ġmurder":3122,"Ġstay":3123,"Ġcapital":3124,"ĠKore":3125,"Ġoutside":3126,"Ġwriting":3127,"Ġcouple":3128,"),":3129,"style":3130,"Ġaccept":3131,"ipp":3132,"Ġhon":3133,"Ġvy":3134,"ounds":3135,"En":3136,"tt":3137,"Ġremember":3138,"ought":3139,"Ġhistor":3140,"ampionship":3141,"Ġinflu":3142,"Ex":3143,"ĠSan":3144,"Ġamount":3145,"ĠOver":3146,"uge":3147,"outhern":3148,"Ġquick":3149,"Ġbid":3150,"uda":3151,"Ġfelt":3152,"ston":3153,"Ġgun":3154,"Ġver":3155,"ĠDavid":3156,"Ġemot":3157,"Ġconsole":3158,"Ġang":3159,"ovember":3160,"body":3161,"Ġsite":3162,"Ġgold":3163,"Ġpopulation":3164,"file":3165,"ĠRay":3166,"aves":3167,"Ġsongs":3168,"ĠFin":3169,"Ġgrowth":3170,"ĠFile":3171,"Print":3172,"ims":3173,"ij":3174,"TH":3175,"ĠUN":3176,"Ġnews":3177,"Ġcoll":3178,"Al":3179,"ka":3180,"Ġten":3181,"Ġfix":3182,"Ġdoing":3183,"aign":3184,"Ġcontinue":3185,"Ġmass":3186,"Ġnation":3187,"Ġstars":3188,"Ġmix":3189,"When":3190,"cessary":3191,"type":3192,"ĠPeople":3193,"Ġpull":3194,"ĠNovember":3195,"Ġ2005":3196,"rought":3197,"ĠJapanese":3198,"Ġpadd":3199,"Ġtensor":3200,"ĠRich":3201,"Ġconfig":3202,"Ġcir":3203,"Ġ24":3204,"ench":3205,"ellent":3206,"ilities":3207,"change":3208,"lege":3209,"ĠDep":3210,"Ġgiant":3211,"ĠMr":3212,"Who":3213,"Ġplayers":3214,"Ġwanted":3215,"Ġstraight":3216,"ival":3217,"Ġwhose":3218,"Ġearlier":3219,"Ġterror":3220,"Ġcomment":3221,"Ġbrother":3222,"selves":3223,"Ġobvious":3224,"Ġeveryone":3225,"Ġmob":3226,"Ġtrain":3227,"âĶģ":3228,"ĠStep":3229,"ml":3230,"Ġpick":3231,"Ġemb":3232,"Ġsuggest":3233,"ino":3234,"Ġupdate":3235,"aff":3236,"Ġlatest":3237,"ĠPart":3238,"Ġtriangle":3239,"Ġfourth":3240,"IC":3241,"Ġfinancial":3242,"Ġcannot":3243,"men":3244,"Ġmot":3245,"ĠJust":3246,"BM":3247,"bar":3248,"izing":3249,"Ġvari":3250,"ĠBill":3251,"opt":3252,"ĠDo":3253,"Ġprim":3254,"Ġbuilding":3255,"\"&":3256,",@":3257,"Ġhot":3258,"Ġ@,@":3259,"15":3260,"step":3261,"Ġevents":3262,"Ġthr":3263,"Ġarri":3264,"ĠAustralia":3265,"pre":3266,"Ġabsolut":3267,"Ġgrad":3268,"ĠIndian":3269,"rav":3270,"ln":3271,"gress":3272,"Ġachie":3273,"ivil":3274,";...":3275,"Ġ%":3276,"uth":3277,"ĠLin":3278,"Ġmention":3279,"Ġ2008":3280,"Pod":3281,"ĠHer":3282,"adow":3283,"Ġthemselves":3284,";...&":3285,"ĠSim":3286,"Ġmeans":3287,"ĠLet":3288,"ĠStreet":3289,"aged":3290,"uit":3291,"loc":3292,"Ġeight":3293,"earch":3294,"itted":3295,"Ġbudget":3296,"Ġsupposed":3297,"point":3298,"Ġvill":3299,"Ġrecent":3300,"ĠEnsure":3301,"board":3302,"Add":3303,"EL":3304,"append":3305,"ĠCalif":3306,"ĠHam":3307,"Ġsyn":3308,"Ġrecommend":3309,"Ġdra":3310,"Ġphot":3311,"illed":3312,"Ġincluded":3313,"Ġcur":3314,"ĠJanuary":3315,"num":3316,"tr":3317,"Ġweeks":3318,"ĠPark":3319,"Ġscient":3320,"iller":3321,"Ġfront":3322,"ĠvÃ½":3323,"ĠGeorge":3324,"OU":3325,"ĠPython":3326,"Ġsource":3327,"Ġmaker":3328,"Ġtalks":3329,"AM":3330,"Ġbiggest":3331,"Ġoccur":3332,"sequ":3333,"Ġansw":3334,"Ġdark":3335,"Ġconsum":3336,"uddh":3337,"ĠThen":3338,"ashington":3339,"mi":3340,"Ġdim":3341,"rote":3342,"ĠGroup":3343,"Ġcorrectly":3344,"ĠApple":3345,"Ġbeat":3346,"pril":3347,"Ġonline":3348,"Ð¾":3349,"Ġimag":3350,"âĶģâĶģ":3351,"inary":3352,"ĠRet":3353,"icult":3354,"ĠRober":3355,"AG":3356,"ites":3357,"ĠUse":3358,"Ġvot":3359,"Ġ21":3360,"Ġresearch":3361,"Ġreve":3362,"Ġextrem":3363,"Ġpiece":3364,"Ġdistance":3365,"ole":3366,"ena":3367,"unction":3368,"AC":3369,"ĠMark":3370,"ĠCont":3371,"ĠHel":3372,"OM":3373,"Ġod":3374,"Ġpeace":3375,"ibility":3376,"Ġstandard":3377,"ĠPalestin":3378,"Ġvector":3379,"Ġeconomic":3380,"Ġarchitect":3381,"ĠGame":3382,"oved":3383,"^^^^":3384,"Ġusually":3385,"ĠJames":3386,"orks":3387,"ĠChopin":3388,"Ġinvestig":3389,"anger":3390,"Ġdeterm":3391,"Ġfast":3392,"Ġnice":3393,"imate":3394,"ellig":3395,"36":3396,"De":3397,"fe":3398,"Ġelection":3399,"ĠMed":3400,"ĠCheck":3401,"Ġobser":3402,"Ġlikely":3403,"ĠPat":3404,"Ġvol":3405,"Ġserver":3406,"Ġcalcul":3407,"Ġrom":3408,"alls":3409,"aur":3410,"Ġleave":3411,"Ġhandle":3412,"Ġacqu":3413,"ype":3414,"ĠWindows":3415,"ida":3416,"ĠUnion":3417,"Ġwait":3418,"ĠWell":3419,"ams":3420,"ibly":3421,"ĠApril":3422,"width":3423,"ĠEm":3424,"ban":3425,"There":3426,"))":3427,"Ġuses":3428,"Ġwrite":3429,"Ġlayers":3430,"Ġpadding":3431,"vation":3432,"Ġpur":3433,"ĠBu":3434,"Ġrespect":3435,"ĠSm":3436,"Ġglobal":3437,"Ġunf":3438,"Ġrelig":3439,"Ġviolence":3440,"fact":3441,"Ġmarg":3442,"Ġforward":3443,"ĠHigh":3444,"Ġmusical":3445,"oul":3446,"Ġforce":3447,"Ġstudy":3448,"atural":3449,"Ġexcellent":3450,"yl":3451,"Ġbattle":3452,"ireless":3453,"ym":3454,"ĠIsland":3455,"Ġearth":3456,"ĠIraqi":3457,"IL":3458,"Ġpersonal":3459,"Ġinvolved":3460,"Ġprivate":3461,"SON":3462,"Ġhero":3463,"Ġformat":3464,"cil":3465,"ners":3466,"direction":3467,"Ġweak":3468,"ĠCanadian":3469,"Fr":3470,"Ġdom":3471,"Ġnuclear":3472,"ĠInt":3473,"Ġcountries":3474,"Up":3475,"Ġactual":3476,"Ġreach":3477,"Ġcoach":3478,"cient":3479,"ĠHouse":3480,"orthern":3481,"Ġkilling":3482,"Ġut":3483,"Ġclassic":3484,"Ġparticularly":3485,"ula":3486,"vo":3487,"upid":3488,"Ġesc":3489,"roll":3490,"Ġupon":3491,"Ġmach":3492,"Ġmatter":3493,"ĠPrime":3494,"Ġdoub":3495,"Ġ2006":3496,"Ġemploy":3497,"Ġwrote":3498,"Ġ40":3499,"ĠUK":3500,"oz":3501,"OT":3502,"uan":3503,"Ġenergy":3504,"process":3505,"Ġrefer":3506,"okes":3507,"ĠJuly":3508,"gin":3509,"ĠDar":3510,"Ġwants":3511,"urricane":3512,"pose":3513,"Ġexact":3514,"ĠJune":3515,"Ġboard":3516,"ĠFrance":3517,"For":3518,"ĠGod":3519,"ĠMod":3520,"âĢĶ":3521,"Ġinside":3522,"dis":3523,"met":3524,"ordinates":3525,"24":3526,"IT":3527,"Ġcritic":3528,"ĠDan":3529,"Ġ80":3530,"Ġill":3531,"urg":3532,"aughter":3533,"Ġexperience":3534,"dom":3535,"Ġimprove":3536,"ĠBank":3537,"Ġshoot":3538,"duct":3539,"ĠiPod":3540,"Ġcampaign":3541,"11":3542,"Size":3543,"current":3544,"Ġlives":3545,"ĠTom":3546,"float":3547,"ris":3548,"Ġscore":3549,"pir":3550,"erve":3551,"Ġtroops":3552,"Ġneeds":3553,"Ġdied":3554,"ĠBuddh":3555,"mon":3556,"asc":3557,"Ġtrou":3558,"Ġagreed":3559,"Ġden":3560,"medi":3561,"Ġportray":3562,"ottom":3563,"Ġcomponent":3564,"Ġincludes":3565,"Ġpers":3566,"ĠMarch":3567,"ainer":3568,"akistan":3569,"unch":3570,"ĠWashington":3571,"ological":3572,"OL":3573,"Ġrequired":3574,"Ġsouth":3575,"Ġaspect":3576,"ghan":3577,"ova":3578,"Ġnorth":3579,"19":3580,"ien":3581,"Ġrespons":3582,"Ġcanvas":3583,"Ġbrought":3584,"Ġdeveloped":3585,"elling":3586,"Ġadjust":3587,"Ġhealth":3588,"Ġrecogn":3589,"Ġlength":3590,"Ġmoved":3591,"Ġitem":3592,"ously":3593,"Ġresol":3594,"ĠRepublic":3595,"eters":3596,"ĠBlack":3597,"war":3598,"bert":3599,"requ":3600,"uration":3601,"ĠPortug":3602,"tem":3603,"Ġ__":3604,"Ġreven":3605,"eth":3606,"agh":3607,"Ġindivid":3608,"oud":3609,"Ġlaunch":3610,"Ġchall":3611,"Ġphone":3612,"Ġbecomes":3613,"Ġsubject":3614,"ĠTHE":3615,"gen":3616,"Ġcontinued":3617,"initely":3618,"Ġgraph":3619,"ĠEast":3620,"Ġscale":3621,"inals":3622,"Ġfiles":3623,"ache":3624,"Ġmoment":3625,"ĠOf":3626,"Ġroom":3627,"Ġdifficult":3628,"run":3629,"Ġsudo":3630,"Ġsurv":3631,"Ġmaybe":3632,"where":3633,"ady":3634,"ĠLi":3635,"grad":3636,"itz":3637,"ctors":3638,"Ġmultiple":3639,"ouncil":3640,"Ġstudents":3641,"oration":3642,"ĠTwo":3643,"Ġnovel":3644,"16":3645,"Ġcolumn":3646,"Ġnumbers":3647,"ktop":3648,"ĠMor":3649,"Ġagre":3650,"etch":3651,"ĠAcc":3652,"ĠEven":3653,"ibet":3654,"Ġahead":3655,"Ġcoming":3656,"Ġtrade":3657,"iled":3658,"imately":3659,"Ġsocial":3660,"Ġfirm":3661,"REF":3662,"Ġdate":3663,"TON":3664,"ables":3665,"Ġstrugg":3666,"ĠGoogle":3667,"Ġstupid":3668,"ords":3669,"Ġris":3670,"Ġpotential":3671,"lying":3672,"clude":3673,"Ġobs":3674,"Ġflo":3675,"Ġfailed":3676,"lam":3677,"look":3678,"Ġdecided":3679,"Ġsometimes":3680,"ĠBel":3681,"Å¾e":3682,"Ġmoments":3683,"ĠFrom":3684,"ders":3685,"Ġareas":3686,"Ġforeign":3687,"Ġeconomy":3688,"Here":3689,"Ġfund":3690,"Ġ@.":3691,"Ġunit":3692,"Ġquality":3693,"He":3694,"anch":3695,"Ġarr":3696,"Ġrequire":3697,"ayer":3698,"Ġsystems":3699,"Ġ@.@":3700,"Ġfra":3701,"ĠId":3702,"Ġcommer":3703,"Ġsets":3704,"Ġgor":3705,"Ġtravel":3706,"Ġmargin":3707,"roy":3708,"ken":3709,"Ġlayer":3710,"Intersection":3711,"idge":3712,"nÃ½":3713,"ĠCalculate":3714,"akers":3715,"Ġcontext":3716,"Ġpolicy":3717,"ĠAssoci":3718,"ĠDem":3719,"Ġkids":3720,"ĠCount":3721,"Ġstock":3722,"ĠMac":3723,"ae":3724,"abase":3725,"Ġclub":3726,"Ġfine":3727,"hest":3728,"cember":3729,"lov":3730,"craft":3731,"unic":3732,"Ã¡l":3733,"Ġtransform":3734,"Ġswe":3735,"ĠPre":3736,"ĠParis":3737,"alle":3738,"Ġvoice":3739,"Ġdemand":3740,"ĠIran":3741,"ĠSpe":3742,"lib":3743,"Ġprovides":3744,"Ġtalent":3745,"Ġtruly":3746,"Ġstructure":3747,"Ġbra":3748,"Ġliving":3749,"Ġspl":3750,"amb":3751,"Ġleaders":3752,"Ġnames":3753,"Ġoffice":3754,"izes":3755,"Ġeduc":3756,"Ġinstalled":3757,"izer":3758,"Con":3759,"ÅĪ":3760,"Ġfair":3761,"Ġgoal":3762,"Ġended":3763,"Max":3764,"Ġale":3765,"Ġblood":3766,"aging":3767,"Ġgiving":3768,"Ġdirectly":3769,"Ġstarts":3770,"Ġdemon":3771,"Ġdescribed":3772,"OS":3773,"input":3774,"Ġball":3775,"item":3776,"Ġmaster":3777,"Ġ2007":3778,"Ġroad":3779,"vey":3780,"Ġdev":3781,"Ġfootball":3782,"ĠMake":3783,"ĠSox":3784,"Ġrace":3785,"ET":3786,"Ġstage":3787,"Ġax":3788,"abel":3789,"Ġdesigned":3790,"Ġhumor":3791,"draw":3792,"Ġdefe":3793,"ĠDecember":3794,"Sp":3795,"Ġboring":3796,"ipl":3797,"ĠAFP":3798,".îĪĦ":3799,"Ġitems":3800,"ĠHREF":3801,"Ġchance":3802,"Ðµ":3803,"ĠBell":3804,"Ġdirectory":3805,"rict":3806,"Ġparty":3807,"Ġspo":3808,"arily":3809,"Ġ\"/":3810,"Ġslight":3811,"Ġsem":3812,"full":3813,"Ġmodels":3814,"ĠGeneral":3815,"rie":3816,"Ð°":3817,"Ġcross":3818,"ĠRussia":3819,"Ġamaz":3820,"Ġproduced":3821,"Ġdistribut":3822,"Ġanti":3823,"Ġindividual":3824,"Ġsad":3825,"sk":3826,"Ġframe":3827,"Ġassoci":3828,"ification":3829,"Ġdescription":3830,"Ġlibrary":3831,"Ġwalk":3832,"Ġexecutive":3833,"ĠAlso":3834,"ĠItalian":3835,"Ġturned":3836,"ĠPost":3837,"Ã¡c":3838,"Ġ?":3839,"Ind":3840,"Ġradio":3841,"ourn":3842,"Ġgroups":3843,"aint":3844,"isco":3845,"Ġsoci":3846,"UDA":3847,"osing":3848,"Ġhighly":3849,"ico":3850,"Ġindepend":3851,"ĠLinux":3852,"Ġmanager":3853,"ourt":3854,"value":3855,"=/":3856,"ta":3857,"Ġmissing":3858,"ounded":3859,"anned":3860,"Ġcouldn":3861,"ĠFlor":3862,"ĠGPU":3863,"ception":3864,"Ġdetails":3865,"ĠMore":3866,"Ġdiscover":3867,"At":3868,"We":3869,"Ġdecision":3870,"aza":3871,"enty":3872,"ĠGet":3873,"olf":3874,"ĠOil":3875,"rc":3876,"AA":3877,"lim":3878,"main":3879,"Ġbi":3880,"âĢĵ":3881,"Ġaddition":3882,"layers":3883,"Ġpicture":3884,"Ġ2009":3885,"ĠAfghan":3886,"Ġintegr":3887,"ensions":3888,"json":3889,"ĠCong":3890,"astic":3891,"secut":3892,"Ġprem":3893,"wise":3894,"Ġstates":3895,"ĠWall":3896,"Ġcopy":3897,"icient":3898,"Ġmobile":3899,"ĠAustralian":3900,"Ġattention":3901,"home":3902,"rast":3903,"Ġsuccessful":3904,"anced":3905,"Ġmount":3906,"Ġchann":3907,"ĠComput":3908,"Ġdrop":3909,"iger":3910,"Ġdialogue":3911,"gor":3912,"Ġbasic":3913,"och":3914,"rite":3915,"Ġactress":3916,"Ġapplication":3917,"Ġfemale":3918,"Ġlabel":3919,"ĠRun":3920,"ĠGold":3921,"Ġjump":3922,"Ġcho":3923,"Ġcentral":3924,"Ġsusp":3925,"wh":3926,"Ġrepl":3927,"Ġstorm":3928,"ĠPC":3929,"Ġelement":3930,"bing":3931,"vant":3932,"Ð¸":3933,"Ġdefault":3934,"Ġworkers":3935,"Ġshown":3936,"Ġshape":3937,"Ġshares":3938,"âĶĢâĶĢâĶĢâĶĢâĶĢâĶĢâĶĢâĶĢ":3939,"Ġreports":3940,"Ġmethods":3941,"Ġmiddle":3942,"Mod":3943,"inks":3944,"irth":3945,"Ġalle":3946,"âĪ":3947,"minist":3948,"Ġdiscuss":3949,"Ġtre":3950,"ĠForm":3951,"ĠAct":3952,"ĠMad":3953,"Ġbene":3954,"ĠLa":3955,"Ġestablished":3956,"Ġrose":3957,"ĠBig":3958,"ornia":3959,"ocr":3960,"ĠHen":3961,"Ġvisual":3962,"tain":3963,"illing":3964,"Ġamp":3965,"Ġappears":3966,"sych":3967,"ading":3968,"Ġremains":3969,"Is":3970,"dule":3971,"Ġattacks":3972,"AD":3973,"Ġapparent":3974,"Ġterms":3975,"ĠMart":3976,"Ġadm":3977,"FL":3978,"Ġdebut":3979,"Ġintellig":3980,"ĠAlthough":3981,"Ġperhaps":3982,"Ġvalid":3983,"Ġhands":3984,"Ġpra":3985,"Ġweb":3986,"def":3987,"ĠPo":3988,"14":3989,"Ġprison":3990,"Ġshowed":3991,"friend":3992,"Ġ2010":3993,"Ġvisit":3994,"ago":3995,"Ġinn":3996,"Des":3997,"ĠImage":3998,"lebr":3999,"ĠOther":4000,"Ġincrease":4001,"ĠRobert":4002,"vet":4003,"Ġtax":4004,"icle":4005,"ils":4006,"script":4007,"Ġpublished":4008,"Ġawful":4009,"îĪĨ":4010,"Ġsolid":4011,"Ġseemed":4012,"ĠWAS":4013,"Ġrelated":4014,"Ġguess":4015,"ĠRichard":4016,"By":4017,"Ġlonger":4018,"count":4019,"Ġaim":4020,"Ġnode":4021,"ĠSyst":4022,"Ġreturned":4023,"ĠExpl":4024,"Ġlaws":4025,"works":4026,"Ġrank":4027,"Ġfant":4028,"ĠYour":4029,"Ġnone":4030,"ĠTibet":4031,"ĠData":4032,"ech":4033,"Ġdream":4034,"Ġwaste":4035,"Ġoverall":4036,"Ġpowerful":4037,"Ġreached":4038,"ĠCons":4039,"Ġreturns":4040,"Ġliter":4041,"ername":4042,"ht":4043,"ĠMont":4044,"Ġnecessary":4045,"Ġchanged":4046,"uz":4047,"wide":4048,"Ġband":4049,"Ġconfl":4050,"ĠAtl":4051,"Ġprofess":4052,"encies":4053,"Ġbrill":4054,"Ġcivil":4055,"isting":4056,"Ġearnings":4057,"Ġbounding":4058,"oura":4059,"ĠExample":4060,"Ġcause":4061,"Ġforced":4062,"Ġexplo":4063,"ospital":4064,"Ġworse":4065,"mail":4066,"ĠTw":4067,"ĠPakistan":4068,"Ġwonderful":4069,"Ġcy":4070,"ensity":4071,"ĠNews":4072,"hood":4073,"Ġterrible":4074,"Ġwinning":4075,"olic":4076,"asure":4077,"quote":4078,"Ġimmedi":4079,"vin":4080,"INGTON":4081,"Ġpygame":4082,"Ġemer":4083,"ortunately":4084,"ĠMost":4085,"ĠFranc":4086,"keras":4087,"je":4088,"ĠTime":4089,"Ġeyes":4090,"ĠColor":4091,"urd":4092,"quick":4093,"quarter":4094,"Ġtalk":4095,"{{":4096,"Ġ195":4097,"IA":4098,"ĠCr":4099,"Ġship":4100,"rica":4101,"yond":4102,"igned":4103,"Ġruns":4104,"Ġmeaning":4105,"no":4106,"ĠIm":4107,"ett":4108,"Ġrise":4109,"flow":4110,"ĠRoy":4111,"mar":4112,"rian":4113,"ĠBritain":4114,"Id":4115,"Ġloop":4116,"ĠGermany":4117,"atively":4118,"stocks":4119,"Ġstarting":4120,"Ġhits":4121,"ĠMusic":4122,"anish":4123,"Ġchart":4124,"Ġdog":4125,"ĠPhil":4126,"icans":4127,"Ġimg":4128,"Ġdepth":4129,"Ġcommercial":4130,"Ġaddress":4131,"Ġrival":4132,"ĠEarth":4133,"ĠFlorida":4134,"ĠCUDA":4135,"ĠGreat":4136,"Ġliked":4137,"oo":4138,"Ġaccom":4139,"EC":4140,"older":4141,"Ġaccur":4142,"Ġtries":4143,"rig":4144,"Ġwid":4145,"Ġfederal":4146,"fullquote":4147,"quickinfo":4148,"Ġconne":4149,"33":4150,"Ġarrest":4151,"Ġturns":4152,"ĠRob":4153,"Ġbutton":4154,"ĠSam":4155,"Ġstation":4156,"ĠIts":4157,"hold":4158,"Ġdirected":4159,"Ġfunctions":4160,"Ġnote":4161,"ields":4162,"Ġdataset":4163,"ÑĤ":4164,"ades":4165,"racle":4166,"Ġdrug":4167,"\"\"":4168,"One":4169,"ĠCode":4170,"Ġretail":4171,"Ġdaughter":4172,"Ġlocated":4173,"ĠLee":4174,"ĠOb":4175,"using":4176,"Ã³":4177,"Ġconflict":4178,"Ġflex":4179,"Ġmoving":4180,"ara":4181,"emy":4182,"Ġelif":4183,"Ġactions":4184,"ĠImp":4185,"Ġneigh":4186,"height":4187,"Ġful":4188,"ĠPalestinian":4189,"da":4190,"Ġcuda":4191,"Ġsle":4192,"ĠMiss":4193,"Ġadditional":4194,"Ġregard":4195,"pol":4196,"Ġcatch":4197,"Soft":4198,"dad":4199,"vest":4200,"Ġvert":4201,"Ġestim":4202,"enchmark":4203,"oring":4204,"Ġmist":4205,"ĠTit":4206,"comp":4207,"Ġprior":4208,"ĠRock":4209,"Ġsecret":4210,"ĠCalifornia":4211,"Ġhus":4212,"ĠRoman":4213,"Ġconcept":4214,"eless":4215,"list":4216,"Ġ22":4217,"Ġdrama":4218,"Ġexpand":4219,"Ġ2013":4220,"Cl":4221,"Ġstatus":4222,"Ġult":4223,"Ġrat":4224,"Ġground":4225,"Ġdeliver":4226,"Ġspeed":4227,"last":4228,"field":4229,"low":4230,"mat":4231,"undred":4232,"Ġfigure":4233,"But":4234,"Ġdyn":4235,"Ġspir":4236,"Ġthinking":4237,"nam":4238,"arning":4239,"Ġdefinitely":4240,"Ġcertainly":4241,"ðŁ":4242,"amera":4243,"ĠBest":4244,"Ġjobs":4245,"Ġdemonstr":4246,"riangles":4247,"Ġmostly":4248,"path":4249,"Ġphys":4250,"Ġlegal":4251,"ped":4252,"itude":4253,"Ġeasy":4254,"ĠLou":4255,"mary":4256,"rid":4257,"Ġwriter":4258,"Ġenjoyed":4259,"ients":4260,"oles":4261,"ĠRiver":4262,"Ġmeeting":4263,"Ġos":4264,"ulous":4265,"Ġroll":4266,"Ġrob":4267,"ĠAngel":4268,"Ġheard":4269,"Ġgenerally":4270,"Ġencounter":4271,"Ġcard":4272,"nost":4273,"aches":4274,"now":4275,"Ġvia":4276,"pton":4277,"what":4278,"Ġwestern":4279,"Ġpassed":4280,"Ġpositions":4281,"Ġentertaining":4282,"Ġunique":4283,"Ġmanagement":4284,"ĠCanada":4285,"Ġrid":4286,"Ġ255":4287,"HINGTON":4288,"Ġheavy":4289,"Ġregul":4290,"aught":4291,"Ġtowards":4292,"anke":4293,"Ġpsych":4294,"Ġcalls":4295,"Ġdro":4296,"ĠIsraeli":4297,"ĠHall":4298,"Ġ23":4299,"Ġ28":4300,"ĠWhy":4301,"Ġlaunched":4302,"ship":4303,"Ġregular":4304,"imum":4305,"osen":4306,"Ġproducts":4307,"Ġdigital":4308,"Ġabsolutely":4309,"ĠWASHINGTON":4310,"Ġcool":4311,"aghdad":4312,"ĠFederal":4313,"Ġ{{":4314,"ĠFall":4315,"Ġspecies":4316,"';":4317,"Ġstories":4318,"template":4319,"ingly":4320,"Ġsetting":4321,"Ġkept":4322,"Microsoft":4323,"Ġallowed":4324,"pan":4325,"anation":4326,"ander":4327,"ĠReg":4328,"Ġdatabase":4329,"EO":4330,"udan":4331,"fig":4332,"Ġleague":4333,"----------------":4334,"Ġwindow":4335,"ties":4336,"atives":4337,"Ġalone":4338,"osÅ¥":4339,"Ġgenre":4340,"Ġcelebr":4341,"Ġlink":4342,"ĠAfrica":4343,"ping":4344,"Ġens":4345,"Ġadult":4346,"po":4347,"Ġdie":4348,"ĠMet":4349,"ĠGree":4350,"CO":4351,"include":4352,"irect":4353,"Ġpositive":4354,"Ġmoves":4355,"Ġcinema":4356,"Ġfavorite":4357,"ĠKorea":4358,"ĠCourt":4359,"ĠWestern":4360,"Ġroles":4361,"Ġtriangles":4362,"Ġhelped":4363,"Ġaward":4364,"Ġways":4365,"ĠIr":4366,"Ġimm":4367,"Ġsymb":4368,"ĠBen":4369,"iform":4370,"ĠHT":4371,"vable":4372,"Ġthous":4373,"ĠCommission":4374,"Ġopin":4375,"eed":4376,"Ġpan":4377,"Ġvirt":4378,"Ġhighest":4379,"rated":4380,"iling":4381,"Ġhuge":4382,"Ġdomin":4383,"porary":4384,"Ġhighlight":4385,"ursor":4386,"ford":4387,"reg":4388,"Ġsens":4389,"acing":4390,"ĠAfrican":4391,"Ġquickly":4392,"Ġbrilliant":4393,"Ġebiten":4394,"ĠMat":4395,"ĠGaza":4396,"Ġdram":4397,"Ġpresidential":4398,"OK":4399,"atory":4400,"Ġbeyond":4401,"Ġplat":4402,"ĠVer":4403,"mouth":4404,"ĠðŁ":4405,"Ġprevent":4406,"enal":4407,"Ġnature":4408,"Ġadapt":4409,"Ġeventually":4410,"Ġshader":4411,"Ġfollowed":4412,"::":4413,"ĠSov":4414,"ĠDuring":4415,"istry":4416,"RG":4417,"Ġera":4418,"icit":4419,"ota":4420,"Ġcru":4421,"Ġminister":4422,"Ġ60":4423,"Ġcredit":4424,"bu":4425,"Ġ27":4426,"Ġscatter":4427,"Ġprompt":4428,"la":4429,"Ġwit":4430,"ĠAN":4431,"Ġstuff":4432,"ĠBaghdad":4433,"Ġlif":4434,"Ġexactly":4435,"SS":4436,"uing":4437,"ĠDet":4438,"iance":4439,"owers":4440,"Ġappeared":4441,"ponent":4442,"Ġtrading":4443,"Ġhusband":4444,"bel":4445,"ropri":4446,"Ġcaused":4447,"ari":4448,"under":4449,"Ġlearning":4450,"Ġcosts":4451,"writ":4452,"Ġbal":4453,"ĠSing":4454,"ML":4455,"Ġgenerate":4456,"Ġfinish":4457,"ali":4458,"Intersect":4459,"Ġcontribut":4460,"Ġcris":4461,"Ġhous":4462,"Ġnatural":4463,"ĠDel":4464,"Ġcomments":4465,"Ġends":4466,"pping":4467,"Ġloved":4468,"Ġ90":4469,"iversal":4470,"Ġnine":4471,"Ġtried":4472,"Ġsurface":4473,"Ġresolve":4474,"Draw":4475,"Ġsouthern":4476,"Ġteams":4477,"OND":4478,"Ġ2011":4479,"imin":4480,"ĠTechn":4481,"Ġallows":4482,"ĠSeries":4483,"can":4484,"Ġstocks":4485,"All":4486,"ĠTex":4487,"Ġdepend":4488,"ĠPri":4489,"Ġprep":4490,"otic":4491,"ĠCouncil":4492,"mov":4493,"ĠTest":4494,"Ġinstitut":4495,"balance":4496,"Ġmatrix":4497,"Ġstren":4498,"Ġdrive":4499,"Ġreplace":4500,"ĠNov":4501,"ĠFrank":4502,"Ġconfir":4503,"Ġcommunity":4504,"ĠÃ":4505,"Ġviewer":4506,"Ġincreased":4507,"ĠDay":4508,"Ġoffers":4509,"Ġeye":4510,"allel":4511,"Ġhappen":4512,"Ġfeeling":4513,"Us":4514,"Ġupdated":4515,"Ġrights":4516,"Ġstd":4517,"ĠBus":4518,"ĠGrand":4519,"abor":4520,"Ġmodify":4521,"Ġsequence":4522,"Ġfif":4523,"asy":4524,"Ġlooked":4525,"Ġfinds":4526,"Ġrows":4527,"iny":4528,"Ġrepe":4529,"Ġsoldiers":4530,"cel":4531,"irgin":4532,"Ġmember":4533,"arents":4534,"Ġfood":4535,"Ġones":4536,"ĠBay":4537,"Ġdevice":4538,"Ġking":4539,"ancing":4540,"Ġteen":4541,"Ġsigned":4542,"Ġefforts":4543,"iÅ¥":4544,"Ġrot":4545,"Ġboost":4546,"Ġcolors":4547,"Ġquestions":4548,"ĠChristian":4549,"ĠSecurity":4550,"Ġtypes":4551,"real":4552,"ĠSum":4553,"Ġ70":4554,"ĠSpace":4555,"ĠUpdate":4556,"17":4557,"Ġopened":4558,"Ġcontains":4559,"ĠAmericans":4560,"Ġsuit":4561,"Ġspent":4562,"Ġ000":4563,"Ġremain":4564,"vy":4565,"Ġshock":4566,"Ġsubt":4567,"test":4568,"ifying":4569,"Ġreject":4570,"Ġrare":4571,"Ġfighting":4572,"ournal":4573,"Ġder":4574,"Ġbegins":4575,"ĠÅ¡":4576,"ĠFore":4577,"anted":4578,"ixels":4579,"Ġcrew":4580,"sum":4581,"Ġobjects":4582,"ĠNAS":4583,"User":4584,"MD":4585,"Ġvote":4586,"adium":4587,"ĠDr":4588,"ĠCenter":4589,"Le":4590,"bes":4591,"ĠSen":4592,"ĠTrue":4593,"Ġtotally":4594,"Ġintroduced":4595,"Ð½":4596,"rack":4597,"Ġcarry":4598,"Ġagreement":4599,"Ġgirls":4600,"Ġawait":4601,"RL":4602,"Ġannoy":4603,"Ġer":4604,"Ġtrial":4605,"Ġstudio":4606,"Ġ26":4607,"Ġcompared":4608,"ha":4609,"acher":4610,"Ġshowing":4611,"\";":4612,"80":4613,"ĠRy":4614,"ĠDiv":4615,"ampion":4616,"Ġextra":4617,"Ġess":4618,"Ġthread":4619,"ĠGl":4620,"ufact":4621,"Ġuns":4622,"ĠStud":4623,"Ġincreasing":4624,"force":4625,"ĠAnn":4626,"ĠBer":4627,"come":4628,"Ġautom":4629,"ini":4630,"ĠWin":4631,"Ġreality":4632,"fur":4633,"ĠKh":4634,"Ġ2012":4635,"ĠChampionship":4636,"Ġeval":4637,"Ġminor":4638,"gl":4639,"ĠMot":4640,"Ġrays":4641,"Ġinvestors":4642,"bl":4643,"yles":4644,"Ġcat":4645,"ĠÂĸ":4646,"ada":4647,"Ġetc":4648,"Per":4649,"ĠScott":4650,"mosp":4651,"Ġtoward":4652,"Ġstores":4653,"ĠDraw":4654,"Ġcreating":4655,"ags":4656,"Ġgas":4657,"Ġplane":4658,"ernel":4659,"Che":4660,"Ġpair":4661,"Ġmorning":4662,"Ġspeak":4663,"rÃ¡":4664,"Ġmask":4665,"Ġachieve":4666,"vis":4667,"worth":4668,"Ġ.<":4669,"Ġgrowing":4670,"Ġsituation":4671,"ication":4672,"ĠPeter":4673,"acity":4674,"Ġdefined":4675,"Ġ}}</":4676,"dro":4677,"Ġthrow":4678,"Ġslightly":4679,"!<":4680,"Set":4681,"Ġir":4682,"astern":4683,"ĠAc":4684,"Ġhappens":4685,"Frame":4686,"rey":4687,"bruary":4688,"Ġguys":4689,"Ġhappened":4690,"Ġcrisis":4691,"ĠSince":4692,"Ġmyself":4693,"Ġwhom":4694,"ĠChic":4695,"ager":4696,"Ġworked":4697,"Ġweap":4698,"Int":4699,"Ġdeg":4700,"Ġflick":4701,"Ġdestroy":4702,"Ġ_,":4703,"Ġjudge":4704,"ĠArch":4705,"ĠSoviet":4706,"With":4707,"Ġkiller":4708,"Tr":4709,"ĠGreen":4710,"Ġreflect":4711,"enie":4712,"Ġment":4713,"Ġwebs":4714,"Ġgrand":4715,"liament":4716,"ĠFebruary":4717,"ram":4718,"ĠArmy":4719,"Ġevil":4720,"nej":4721,"Ġperformed":4722,"Ġamazing":4723,"AB":4724,"Ġbur":4725,"Ġspot":4726,"Ġflat":4727,"Ġanswer":4728,"ĠFil":4729,"ĠMer":4730,"ĠTexas":4731,"Ġwish":4732,"Ġimpact":4733,"render":4734,"Ġdollar":4735,"Ġatmosp":4736,"idden":4737,"Ġextremely":4738,"Go":4739,"anj":4740,"And":4741,"iest":4742,"Ġako":4743,"Ġpil":4744,"Ġcompl":4745,"Ġfamous":4746,"Println":4747,"ONDON":4748,"Float":4749,"iences":4750,"Ġstatement":4751,"ĠTim":4752,"istory":4753,"ĠChurch":4754,"print":4755,"Ġq":4756,"ĠSchool":4757,"ĠAlex":4758,"Name":4759,"hn":4760,"Ġlocation":4761,"Ġvo":4762,"Ġdownload":4763,"ees":4764,"Ġcalculate":4765,"Ġhun":4766,"ĠRem":4767,"Cont":4768,"ques":4769,"tes":4770,"lease":4771,"Ġclaims":4772,"Ġmeant":4773,"ĠLONDON":4774,"Ġbooks":4775,"rial":4776,";&":4777,"Ġfresh":4778,"idents":4779,"ONT":4780,"Ġlogic":4781,"ĠPly":4782,"ĠKerry":4783,"Ġtells":4784,"col":4785,"Ġhear":4786,"Ġleaving":4787,"fat":4788,"umber":4789,"ĠKey":4790,"Ġcoordinates":4791,"uke":4792,"Ġwest":4793,"Ġfa":4794,"Ġhundred":4795,"ĠID":4796,"Ġ2000":4797,"apped":4798,"html":4799,"Ġge":4800,"ĠBVH":4801,"Ġeasily":4802,"ED":4803,"ĠMex":4804,"ĠChicago":4805,"ĠEvery":4806,"oundingBox":4807,"ĠMary":4808,"antly":4809,"Ġclim":4810,"Ġtypically":4811,"ĠYanke":4812,"Ġtheme":4813,"ĠInstead":4814,"icon":4815,"ĠWood":4816,"ĠOk":4817,"ĠJim":4818,"expected":4819,"anges":4820,"Ġamb":4821,"Ġrisk":4822,"uate":4823,"Ġmut":4824,"Ġroute":4825,"ĠLaw":4826,"...<":4827,"Ġchurch":4828,"ava":4829,"icket":4830,"Ġtools":4831,"ĠOld":4832,"Ġentertainment":4833,"ĠDisney":4834,"Ġapplications":4835,"ÑĢ":4836,"Ġfrequ":4837,"aked":4838,"gal":4839,"inst":4840,"mas":4841,"ĠIBM":4842,"ĠJew":4843,"Ġsummer":4844,"Ġconcerns":4845,"Ġintersect":4846,"track":4847,"Ġfont":4848,"Ġbrow":4849,"Price":4850,"ĠPac":4851,"ĠWilliams":4852,"0000":4853,"Ġparents":4854,"Ġagent":4855,"Ġoperating":4856,"Ġlabels":4857,"Ġuint":4858,"Ġcompetition":4859,"Ġheav":4860,"ĠWal":4861,"Ġexplos":4862,"Ġexport":4863,"Ġasked":4864,"well":4865,"Ġ2014":4866,"35":4867,"inger":4868,"aby":4869,"click":4870,"Ġbrief":4871,"Ġtit":4872,"ĠSudan":4873,"erv":4874,"Ġ&&":4875,"Ġcontest":4876,"Ġenter":4877,"ĠSpanish":4878,"Ġepisodes":4879,"ĠDepartment":4880,"Res":4881,"enced":4882,"Ġbecoming":4883,"Ġopinion":4884,"ĠDown":4885,"Ġpip":4886,"ĠCor":4887,"Ġconstruct":4888,"ĠTop":4889,"ampton":4890,"oper":4891,"Node":4892,"kn":4893,"ĠAI":4894,"ĠNations":4895,"Ġrecently":4896,"Ġsubst":4897,"Ġhappy":4898,"Ġsolar":4899,"gonia":4900,"Ġridic":4901,"Ġbirth":4902,"ushed":4903,"part":4904,"resp":4905,"Ġevidence":4906,"pu":4907,"Äģ":4908,"Ġign":4909,"Ġcand":4910,"Ġnn":4911,"ona":4912,"Ġsexual":4913,"owl":4914,"ĠFunction":4915,"ĠStar":4916,"Ġ2015":4917,"ĠAccording":4918,"Ġability":4919,"Ġnorthern":4920,"miss":4921,"Ġwood":4922,"Ġdogs":4923,"Ġolder":4924,"ĠSy":4925,"Ġshall":4926,"Ġflaw":4927,"ync":4928,"Ġbehav":4929,"Ġlanguages":4930,"Ġschools":4931,"Ġtraditional":4932,"Ad":4933,"Normal":4934,"Ġcounter":4935,"Ġvoid":4936,"ĠEnter":4937,"Ġgreatest":4938,"ĠâĢ¢":4939,"Ġconcert":4940,"radius":4941,"`:":4942,"ĠBack":4943,"ĠGames":4944,"Ġadminist":4945,"itation":4946,"ĠIT":4947,"Ġcompar":4948,"Ġincred":4949,"ĠDefine":4950,"Ġbroadcast":4951,"ads":4952,"Ġattract":4953,"Ġhar":4954,"ĠFR":4955,"Ġwild":4956,"Ġscored":4957,"Ġnarr":4958,"Ġshar":4959,"ĠDeep":4960,"Ġdecent":4961,"rier":4962,"Ġnumer":4963,"ĠOracle":4964,"Ġknew":4965,"ĠGood":4966,"ĠIntel":4967,"ekt":4968,"hib":4969,"Ġviewers":4970,"Ġstrike":4971,"kt":4972,"map":4973,"spe":4974,"Ġoccurred":4975,"Ġroz":4976,"pense":4977,"asion":4978,"Ġhospital":4979,"ĠOh":4980,"Ġ2003":4981,"Ġobj":4982,"ails":4983,"Ġgrid":4984,"Ġrules":4985,"Ġarchitecture":4986,"reland":4987,"ĠAssociation":4988,"Qu":4989,"tensor":4990,"Ġaid":4991,"enge":4992,"itial":4993,"oder":4994,"Ġnegative":4995,"Ġeducation":4996,"AP":4997,"Ġannual":4998,"utch":4999,"Ġprec":5000,"Ġleads":5001,"Ġcorpor":5002,"ĠGovern":5003,"Ġseparate":5004,"house":5005,"oes":5006,"ĠnÃ¡":5007,"imal":5008,"Ġconsist":5009,"rol":5010,"ements":5011,"price":5012,"Ġready":5013,"fol":5014,"iler":5015,"Ġpractice":5016,"Ġreligious":5017,"Ġreviews":5018,"nd":5019,"Ġsen":5020,"urance":5021,"Ġcustomers":5022,"yp":5023,"Ġfully":5024,"umes":5025,"ĠMarsh":5026,"itute":5027,"Ġsurr":5028,"Ġsquare":5029,"Ġmachine":5030,"Ġairl":5031,"Ġweekend":5032,"Ġwide":5033,"Ġreasons":5034,"ĠSecret":5035,"Array":5036,"ĠHo":5037,"Ġusage":5038,"ÃŃv":5039,"No":5040,"Ġsend":5041,"Ġappropri":5042,"Ġcontrovers":5043,"Ġdoubt":5044,"Be":5045,"dy":5046,"ĠTre":5047,"After":5048,"Ã¤":5049,"ĠJer":5050,"Ġraised":5051,"Ġappearance":5052,"ĠDarfur":5053,"gorith":5054,"Ġtree":5055,"ects":5056,"Ġaccused":5057,"Ġsupporting":5058,"18":5059,"Bl":5060,"Ġarmy":5061,"ATE":5062,"Ġfalls":5063,"ĠIdol":5064,"fil":5065,"Ġpod":5066,"Ġinterview":5067,"airman":5068,"You":5069,"Ġcart":5070,"ĠSS":5071,"Ð¾Ð":5072,"iliar":5073,"pack":5074,"Ñģ":5075,"ita":5076,"Ġbatch":5077,"icide":5078,"ĠRad":5079,"Ġprogress":5080,"oses":5081,"Ġtruth":5082,"inct":5083,"Ġcrime":5084,"sl":5085,"Ġshots":5086,"Ġimmediately":5087,"ĠAsia":5088,"Ġversions":5089,"âĪĴ":5090,"gu":5091,"position":5092,"ĠPlay":5093,"env":5094,"Ġchem":5095,"vue":5096,"Ġpit":5097,"ĠThom":5098,"Ġoperation":5099,"ute":5100,"Ġchampion":5101,"clusion":5102,"Ġhopes":5103,"unications":5104,"Ġban":5105,"alled":5106,"Ġcharges":5107,"gment":5108,"illa":5109,"Ġscience":5110,"Ġ####":5111,"Ġclean":5112,"rics":5113,"ulate":5114,"Ġrap":5115,"ĠMal":5116,"throp":5117,"ĠJo":5118,"ĠQue":5119,"Ġprofessional":5120,"Of":5121,"Ġcases":5122,"Ġpurch":5123,"ĠFalse":5124,"aily":5125,"elled":5126,"anged":5127,"Ġselected":5128,"udden":5129,"Dir":5130,"uses":5131,"Ġchoice":5132,"Ġdefin":5133,"ashed":5134,"Ġwouldn":5135,"Ġculture":5136,"Ġdeser":5137,"Ġcheap":5138,"ĠCentral":5139,"Ġveh":5140,"Ġlarger":5141,"ĠHurricane":5142,"Ġrates":5143,"Ġmanufact":5144,"estic":5145,"Ġyourself":5146,"Ġremoved":5147,"ĠArab":5148,"Ray":5149,"items":5150,"ĠSand":5151,"pty":5152,"Ġrecorded":5153,"ĠDemocr":5154,"ĠBra":5155,"Ġconvers":5156,"ĠOpt":5157,"earing":5158,"Ġpreviously":5159,"entially":5160,"ĠMag":5161,"**,":5162,"Ġsister":5163,"gypt":5164,"label":5165,"ss":5166,"Ġcontem":5167,"Ġagency":5168,"ĠTrans":5169,"host":5170,"Ġbird":5171,"ĠNor":5172,"Ġagree":5173,"Ġsimpl":5174,"Ġterrit":5175,"Ġcinemat":5176,"ĠLouis":5177,"MS":5178,"NN":5179,"Ġconver":5180,"Ġconvin":5181,"Ġsche":5182,"Ġpromot":5183,"loss":5184,"Ġtim":5185,"Ġkidn":5186,"Ġtheat":5187,"Ġshut":5188,"Ġinstr":5189,"ĠIslam":5190,"App":5191,"ĠBond":5192,"Ġnewsp":5193,"ledge":5194,"Ġclaimed":5195,"ĠCharles":5196,"Ġsources":5197,"ĠSur":5198,"asty":5199,"Ġtalking":5200,"Ġhorrible":5201,"Seek":5202,"Ġsymbol":5203,"ules":5204,"iano":5205,"Ġsaf":5206,"Ã¡ci":5207,"post":5208,"asks":5209,"ĠCompany":5210,"Opt":5211,"uous":5212,"Ġgone":5213,"Ġtransl":5214,"Ġclosest":5215,"iants":5216,"win":5217,"Ġaltern":5218,"Ġrating":5219,"ĠHenry":5220,"Ġsch":5221,"ĠIreland":5222,"container":5223,"words":5224,"Co":5225,"anta":5226,"UT":5227,"Ġpoll":5228,"icial":5229,"Ġcritics":5230,"Ġsomewhat":5231,"Ġmajority":5232,"22":5233,"ĠCub":5234,"ĠWho":5235,"Ġrelay":5236,"Ġassist":5237,"how":5238,"ĠAst":5239,"phone":5240,"ĠAdjust":5241,"Ġtable":5242,"Ġdefer":5243,"My":5244,"icted":5245,"oking":5246,"ĠVict":5247,"ĠPlymouth":5248,"Ġusual":5249,"chers":5250,"Ġearthqu":5251,"ocal":5252,"content":5253,"ĠSteve":5254,"Ġmale":5255,"ĠMo":5256,"ĠLove":5257,"ĠClass":5258,"Ġadvant":5259,"Ġopportun":5260,"makers":5261,"ivity":5262,"Triangle":5263,"held":5264,"Ġchosen":5265,"Ġbool":5266,"Ġproducer":5267,"ĠSpain":5268,"ĠCap":5269,"Ġblur":5270,"ville":5271,"Ġcrow":5272,"esh":5273,"iced":5274,"state":5275,"Ġviewport":5276,"rt":5277,"ĠsÃº":5278,"Ġfit":5279,"ellite":5280,"hess":5281,"ĠSci":5282,"ashion":5283,"ref":5284,"ĠAT":5285,"chan":5286,"Ġsees":5287,"Val":5288,"ĠAre":5289,"Ġaren":5290,"ĠUnder":5291,"room":5292,"orig":5293,"Ġstated":5294,"agon":5295,"ĠIntersection":5296,"respond":5297,"ĠWay":5298,"Ġsphere":5299,"ĠShar":5300,"Ġminute":5301,"Sub":5302,"eum":5303,"Ġonto":5304,"Ġcomic":5305,"ĠVirgin":5306,"za":5307,"Ġwins":5308,"ĠMic":5309,"Ġleaves":5310,"Ġoffering":5311,"from":5312,"Ġprop":5313,"rate":5314,"west":5315,"ĠTony":5316,"ĠService":5317,"nn":5318,"Äı":5319,"Ġalgorith":5320,"Ġsociety":5321,"anjing":5322,"Ġpresence":5323,"gth":5324,"Ġpaper":5325,"oma":5326,"Ġcollege":5327,"ĠYankees":5328,"Ġcities":5329,"azine":5330,"Ġclearly":5331,"13":5332,"nÃ¡":5333,"Ġmill":5334,"ĠST":5335,"Ġauthorities":5336,"ĠIrish":5337,"hetic":5338,"Ġcompleted":5339,"gger":5340,"Ġsmaller":5341,"Ġcirc":5342,"ĠTur":5343,"ĠCath":5344,"Ġindependent":5345,"RGBA":5346,"awn":5347,"ĠLike":5348,"irector":5349,"asket":5350,"razil":5351,"ĠÃº":5352,"ĠOsc":5353,"21":5354,"gent":5355,"oding":5356,"Ġherself":5357,"Ġrule":5358,"ĠOK":5359,"een":5360,"ĠâĶ":5361,"isf":5362,"isl":5363,"Ġrecords":5364,"Ġattempts":5365,"Ġestablish":5366,"!\"":5367,"lit":5368,"Ġremained":5369,"BVH":5370,"ĠSol":5371,"Ġprime":5372,"ocument":5373,"ĠPeopleSoft":5374,"Ġmort":5375,"Ġphil":5376,"Ġexisting":5377,"Ġnav":5378,"ĠCEO":5379,"ĠFoot":5380,"ĠNone":5381,"Ġknows":5382,"arian":5383,"Ġsal":5384,"Ġforget":5385,"uman":5386,"Ġhaven":5387,"Ġfollows":5388,"Ġproperly":5389,"eal":5390,"rd":5391,"ĠIS":5392,"iven":5393,"ids":5394,"iety":5395,"ĠSouthampton":5396,"Ġfort":5397,"ĠMaybe":5398,"Check":5399,"isc":5400,"Ġintended":5401,"Ġweight":5402,"Ġbelow":5403,"Ġdivision":5404,"aho":5405,"rec":5406,"ĠPress":5407,"screen":5408,"Ġpossibly":5409,"more":5410,"itiz":5411,"ĠEnd":5412,"Ġfinished":5413,"ĠCharl":5414,"OV":5415,"pass":5416,"pired":5417,"rand":5418,"Ġhilar":5419,"Ġnor":5420,"search":5421,"ĠNOT":5422,"Triangles":5423,"yal":5424,"ĠAut":5425,"Ġsequences":5426,"Ġcash":5427,"fort":5428,"hi":5429,"ĠCard":5430,"Ġrevealed":5431,"reci":5432,"Ġpush":5433,"berg":5434,"========":5435,"Ġease":5436,"ĠMa":5437,"Ġerrors":5438,"ĠArt":5439,"Ġspirit":5440,"zi":5441,"Ġburn":5442,"Ġthou":5443,"oded":5444,"Ġ`.":5445,"Ġsoundtrack":5446,"Ġpressure":5447,"Ġconfiguration":5448,"Ġexperiment":5449,"IM":5450,"Ġiter":5451,"Ġconstruction":5452,"Ġwarned":5453,"Ġmagn":5454,"Ġconnection":5455,"ya":5456,"standing":5457,"Which":5458,"Can":5459,"Ġexpectations":5460,"Ġfuel":5461,"Ġkick":5462,"\"`":5463,"40":5464,"ĠSays":5465,"Ġparameters":5466,"PS":5467,"verse":5468,"Ġplanned":5469,"ugos":5470,"Ġcalling":5471,"Ġwireless":5472,"Ġtask":5473,"Ġdanger":5474,"Ġgod":5475,"ĠLog":5476,"ĠKar":5477,"Ġcorrespond":5478,"IO":5479,"JSON":5480,"ronic":5481,"Ġmission":5482,"razy":5483,"ĠDespite":5484,"ĠBob":5485,"ÃŃm":5486,"Ġtypical":5487,"Ġunve":5488,"Ġremove":5489,"night":5490,"abilities":5491,"Ġparticip":5492,"Ġplease":5493,"lor":5494,"Ġexpression":5495,"Ġpure":5496,"ĠCollege":5497,"ĠCounty":5498,"Ġassociated":5499,"'.":5500,"uries":5501,"ĠReturn":5502,"ĠSong":5503,"ysis":5504,"Ġatmosphere":5505,"ĠSir":5506,"Ġprote":5507,"Ġlimited":5508,"Ġwebsite":5509,"Ġforg":5510,"ĠJose":5511,"Ġuniversity":5512,"ĠAny":5513,"Ġseriously":5514,"ĠRoyal":5515,"gers":5516,"turn":5517,"Ġapt":5518,"cks":5519,"Ġquery":5520,"Ġremote":5521,"Ġflight":5522,"Ġreading":5523,"ĠProfit":5524,"left":5525,"Ġinstance":5526,"Text":5527,"ĠChief":5528,"Ġadding":5529,"Ġdb":5530,"iders":5531,"Ġfamiliar":5532,"Ġchannel":5533,"tan":5534,"Ġmentioned":5535,"First":5536,"asters":5537,"Ġgit":5538,"ĠAnother":5539,"gener":5540,"ĠPower":5541,"acter":5542,"Ġtemper":5543,"Ġplatform":5544,"folio":5545,"27":5546,"Ġcontinues":5547,"Ġartist":5548,"Ġdocumentary":5549,"Ġobviously":5550,"Now":5551,"ĠExt":5552,"Ġsurprise":5553,"aten":5554,"rip":5555,"Ġselect":5556,"Ġcrap":5557,"Ġ<<":5558,"Ġapprox":5559,"ĠArafat":5560,"Ġdisappointed":5561,"ĠWhitehead":5562,"37":5563,"Ġuniform":5564,"Ġdi":5565,"ĠWil":5566,"Ġparallel":5567,"Ġcuts":5568,"Ġapparently":5569,"Width":5570,"eps":5571,"Ġideas":5572,"ĠChristmas":5573,"ola":5574,"Ġoriginally":5575,"zer":5576,"Ġprotect":5577,"Ġinfluence":5578,"ĠSmith":5579,"Ġrevenue":5580,"Ġfear":5581,"ĠVue":5582,"Ġresc":5583,"ĠConst":5584,"Ġposted":5585,"ĠBrown":5586,"zene":5587,"hester":5588,"Ġsun":5589,"Ġmiles":5590,"ĠDou":5591,"lied":5592,"Ġtransition":5593,"Ġhonest":5594,"ĠSil":5595,"Ġroot":5596,"ropical":5597,"Ġhistorical":5598,"Ġthousands":5599,"CE":5600,"oti":5601,"ĠMov":5602,"ĠEU":5603,"Ġstrange":5604,"Ġscientists":5605,"Page":5606,"Ġbod":5607,"ĠEgypt":5608,"Ġserve":5609,"Ġstudent":5610,"ĠConvert":5611,"td":5612,"stream":5613,"CH":5614,"Ġcharge":5615,"Ġmyst":5616,"ĠTele":5617,"Ġdiscovered":5618,"ĠCongress":5619,"ĠSearch":5620,"uts":5621,"Ġchip":5622,"Ġprotest":5623,"Ġanimation":5624,"fits":5625,"ĠRE":5626,"ĠOnce":5627,"Ġrendering":5628,"TV":5629,"diff":5630,"atin":5631,"Ġarm":5632,"Ġweapons":5633,"='":5634,"sub":5635,"ĠJones":5636,"Ġ400":5637,"Ġcrude":5638,"Ġmixed":5639,"Ġsports":5640,"unes":5641,"index":5642,"Ġforecast":5643,"Ġeast":5644,"ĠDen":5645,"ĠLos":5646,"uster":5647,"ĠYes":5648,"Ġcontrast":5649,"Ġspread":5650,"Ġprofits":5651,"Ġtroub":5652,"Ġbill":5653,"Ġremark":5654,"Ġmemor":5655,"49":5656,"ns":5657,"Ġbottom":5658,"Ġmap":5659,"sey":5660,"ĠAnt":5661,"ĠOlympics":5662,"Ġwitness":5663,"ataset":5664,"igr":5665,"ĠKingdom":5666,"Ġvariable":5667,"100":5668,"Ġ29":5669,"Ġadvert":5670,"ruption":5671,"Ġannoying":5672,"ria":5673,"Ġamid":5674,"isions":5675,"ĠBlo":5676,"Ġsection":5677,"ĠNext":5678,"Ġ35":5679,"Ġlevels":5680,"ĠMos":5681,"Ġchunk":5682,"Ġhilarious":5683,"Ġgreater":5684,"Ġelections":5685,"Log":5686,"Ġsamples":5687,"do":5688,"Ġsudden":5689,"Ġmel":5690,"ĠMount":5691,"Ġmodule":5692,"Ġcollection":5693,"Ġtreaty":5694,"Ġneighbor":5695,".'":5696,"ewart":5697,"Ġappreci":5698,"UL":5699,"maker":5700,"Ġhell":5701,"ieces":5702,"rib":5703,"anging":5704,"ĠReal":5705,"batch":5706,"Ġdance":5707,"Ġstun":5708,"ĠEach":5709,"Ġblue":5710,"STM":5711,"Ġeffective":5712,"known":5713,"ding":5714,"inent":5715,"Ġsession":5716,"isters":5717,"Ġgreen":5718,"oks":5719,"Ġenh":5720,"kov":5721,"ĠRog":5722,"Ġconduct":5723,"Ġcollect":5724,"Ġrent":5725,"Ġbuildings":5726,"Height":5727,"din":5728,"Ġpace":5729,"Ġcoast":5730,"Ġmedal":5731,"Desktop":5732,"Ġnomin":5733,"semb":5734,"ttp":5735,"Div":5736,"ĠMany":5737,"redict":5738,"ĠAgain":5739,"Ġok":5740,"ĠCy":5741,"ĠCle":5742,"ĠMel":5743,"ishing":5744,"Ġgeneration":5745,"Ġproperty":5746,"Ġlimit":5747,"ĠTensor":5748,"Ġappeal":5749,"Ġinterested":5750,"Ġhostage":5751,"ĠPortugal":5752,"OW":5753,"Ġ500":5754,"âĶģâĶģâĶģâĶģ":5755,"ĠIN":5756,"Ġstaff":5757,"oken":5758,"grade":5759,"obs":5760,"Ġromantic":5761,"Amer":5762,"owell":5763,"ĠUniversal":5764,"ĠFire":5765,"Ġdelay":5766,"ĠBas":5767,"Ġyards":5768,"ĠThree":5769,"Ġattribut":5770,"Ġimpress":5771,"Ġhandling":5772,"enger":5773,"Ġphilos":5774,"Ġsoul":5775,"Ġbankrupt":5776,"warzene":5777,"ĠDeepSeek":5778,"Ġnorm":5779,"\")":5780,"UN":5781,"Ġpaid":5782,"ashes":5783,"ĠSAN":5784,"Ġ2001":5785,"lik":5786,"Ġinvent":5787,"Ġkeeps":5788,"warzenegger":5789,"Form":5790,"orage":5791,"Ġbought":5792,"Ġzomb":5793,"Ġmarried":5794,"ĠFrancisco":5795,"nosti":5796,"class":5797,"Ġserved":5798,"comm":5799,"60":5800,"ano":5801,"Ġcrim":5802,"vention":5803,"ĠSuper":5804,"Point":5805,"ĠHou":5806,"Ġsuppl":5807,"ĠzÃ¡":5808,"Ġmovement":5809,"edy":5810,"ĠNanjing":5811,"Ġplaced":5812,"izations":5813,"Ġclot":5814,"Ġoffered":5815,"coming":5816,"Ġforms":5817,"ancy":5818,"Ġ1990":5819,"Ġsequel":5820,"Ġsurprising":5821,"Ġridiculous":5822,"Ġcursor":5823,"ĠJackson":5824,"dict":5825,"aming":5826,"andon":5827,"ĠGra":5828,"open":5829,"riage":5830,"aste":5831,"apes":5832,"cers":5833,"Ġempty":5834,"Ġexpress":5835,"Ġbelieved":5836,"ĠAfghanistan":5837,"Ġbul":5838,"ĠSl":5839,"ĠMass":5840,"ĠBern":5841,"**.":5842,"ĠAsian":5843,"Ġwriters":5844,"Ġtradition":5845,"Ġsenior":5846,"Ġearthquake":5847,"hy":5848,"wan":5849,"train":5850,"Ġ1970":5851,"Ġdomestic":5852,"Ġrequirements":5853,"Ġdramatic":5854,"ĠWars":5855,"ĠJoe":5856,"Ġsetup":5857,"Ġreflection":5858,"reme":5859,"Ġantib":5860,"ĠktorÃ½":5861,"Ġcinematography":5862,"wind":5863,"ĠÅ¾e":5864,"Ġthus":5865,"Ġshared":5866,"ecause":5867,"Ġsubsequ":5868,"Ġformed":5869,"hand":5870,"rich":5871,"Ġnull":5872,"ĠSub":5873,"phas":5874,"Ġcommit":5875,"Ġrepresents":5876,"Ġtouchdown":5877,"aud":5878,"kon":5879,"ront":5880,"ĠSave":5881,"Ġrich":5882,"Ã©ho":5883,"Ġlighting":5884,"Ġmanaged":5885,"ĠDivision":5886,"ĠTal":5887,"ĠSk":5888,"ĠAv":5889,"Ġjokes":5890,"ĠKong":5891,"Ġdimensions":5892,"Ġarrested":5893,"Ġcry":5894,"ĠHot":5895,"Ġraise":5896,"iverse":5897,"ĠComputer":5898,"Ob":5899,"QL":5900,"ĠAp":5901,"thlet":5902,"option":5903,"Ġalleged":5904,"Position":5905,"Ġdefense":5906,"Ġseasons":5907,"ĠAtt":5908,"ĠAPI":5909,"Ġinvestment":5910,"Ġselling":5911,"ĠJeff":5912,"Ġaimed":5913,"Not":5914,"rehens":5915,"Ġsurprised":5916,"Ġlic":5917,"Ġviewing":5918,"Ġtwice":5919,"Update":5920,"Ġparent":5921,"ĠTor":5922,"Ġ\"\"\"":5923,"Ġappoint":5924,"Ġnumpy":5925,"Ġtrip":5926,"Ġmarkets":5927,"Where":5928,"Ġborn":5929,"ĠBet":5930,"Ġresources":5931,"Ġfactor":5932,"Ġ||":5933,"Ġjoined":5934,"Ġstrength":5935,"Time":5936,"Ġdecade":5937,"Ġconsumer":5938,"Ġpurs":5939,"Ġstreet":5940,"tered":5941,"ffic":5942,"Ġartists":5943,"Ġadvent":5944,"Ġtensorflow":5945,"Ġconvert":5946,"oky":5947,"Ġteach":5948,"Ġprograms":5949,"ijing":5950,"Ġhod":5951,"ĠBBC":5952,"Ġdifference":5953,"ittee":5954,"Ġoption":5955,"Ġdamage":5956,"mo":5957,"Ġspect":5958,"aded":5959,"ushing":5960,"Ġshop":5961,"Ġproduce":5962,"Ġtesting":5963,"Ġmissed":5964,"Ġbarrel":5965,"Ġinjured":5966,"liv":5967,"ĠTimes":5968,"Ġgang":5969,"ĠRam":5970,"istics":5971,"aine":5972,"Ġfeels":5973,"ologies":5974,"Ġoccup":5975,"Ġâľ":5976,"rees":5977,"Ġsuggests":5978,"alo":5979,"Ġdot":5980,"Ġgar":5981,"ĠDame":5982,"Ġcritical":5983,"ĠSecretary":5984,"Rect":5985,"Ġflash":5986,"Ġtemp":5987,"ĠJean":5988,"vid":5989,"ĠJul":5990,"Ġquarterly":5991,"NA":5992,"Ġfle":5993,"ĠHand":5994,"ĠNa":5995,"ĠNASA":5996,"ulated":5997,"Ġalebo":5998,"Over":5999,"ĠIns":6000,"Ġgore":6001,"Ġvectors":6002,"Ġmatches":6003,"^^^^^^^^":6004,"uese":6005,"arring":6006,"orry":6007,"Ã¡n":6008,"Ġestimated":6009,"Ġpark":6010,"ĠInitial":6011,"Ġplant":6012,"Ġwinner":6013,"TA":6014,"mm":6015,"Ġbound":6016,"Ġbatt":6017,"ĠBrazil":6018,"Ġimpl":6019,"Ġ32":6020,"Ġannounce":6021,"Ġlosses":6022,"Ġallowing":6023,"Ġcloser":6024,"Ġoptimal":6025,"Ġimplementation":6026,"Ġpurpose":6027,"ĠExplanation":6028,"ĠSat":6029,"ĠPoint":6030,"Ġremind":6031,"eline":6032,"ĠListing":6033,"Ġefficient":6034,"Ġapart":6035,"Ġstandards":6036,"ĠTro":6037,"****":6038,"Ġnoted":6039,"Ġgoals":6040,"Ġwarning":6041,"Ġconditions":6042,"ĠItaly":6043,"ĠStart":6044,"Ġoptions":6045,"ENS":6046,"Ġinvolving":6047,"Ġfaces":6048,"Ġresponsible":6049,"asketball":6050,"From":6051,"Ġwg":6052,"isher":6053,"Ġcos":6054,"Ġsuc":6055,"ograp":6056,"Ġconsidering":6057,"elines":6058,"Ġchampionship":6059,"Ġemotional":6060,"iot":6061,"inn":6062,"ĠExp":6063,"Ġunderstanding":6064,"Ġadvantage":6065,"fortunately":6066,"Ġhate":6067,"ĠMem":6068,"Ġrealistic":6069,"Ġsucceed":6070,"iro":6071,"ube":6072,"Ġfails":6073,"Ġcandid":6074,"ĠAri":6075,"Ġsmo":6076,"ĠOscar":6077,"Post":6078,"Ġpixels":6079,"Ġ=>":6080,"ĠLight":6081,"ĠLong":6082,"Ġplaces":6083,"omen":6084,"Ġlived":6085,"images":6086,"Ġremaining":6087,"ĠcudaM":6088,"ĠHong":6089,"ĠStewart":6090,"ĠprÃŃ":6091,"Ġaccident":6092,"GL":6093,"vals":6094,"ingu":6095,"cked":6096,"Ġmaint":6097,"fall":6098,"ĠWi":6099,"ĠWatch":6100,"nel":6101,"new":6102,"Ġtasks":6103,"\",\"":6104,"Ġgrew":6105,"apping":6106,"ĠCarol":6107,"move":6108,"Ġunless":6109,"ossible":6110,"Ġblast":6111,"Ġcomponents":6112,"gar":6113,"Ġpun":6114,"ĠSqu":6115,"comput":6116,"Ġsuspense":6117,"Ġdrawing":6118,"Ġsplit":6119,"ĠFootball":6120,"ĠTour":6121,"Ġprefer":6122,"ĠBoth":6123,"ennis":6124,"ĠAngeles":6125,"Ġfifth":6126,"Mat":6127,"reens":6128,"ĠHold":6129,"Ġspending":6130,"ĠHouston":6131,"bin":6132,"Ġlatter":6133,"ĠMike":6134,"osit":6135,"Ġmeets":6136,"strong":6137,"Ġsample":6138,"ami":6139,"Ġstoryline":6140,"prise":6141,"Ġpresented":6142,"Ġbunch":6143,"Ġclosed":6144,"ĠParty":6145,"iber":6146,"Ġexamples":6147,"Ġindeed":6148,"Ġseconds":6149,"ĠMuslim":6150,"Ġreduce":6151,"Ġcaught":6152,"Ġpen":6153,"ĠSecond":6154,"Ġadvanced":6155,"Ġintelligence":6156,"reward":6157,"ĠCam":6158,"Ġdirectors":6159,"Ġworldwide":6160,"Ġknowledge":6161,"icles":6162,"ĠWait":6163,"ĠShow":6164,"Ġprimary":6165,"ĠShares":6166,"Ġwinter":6167,"Ġappropriate":6168,"Ġcategory":6169,"ĠTriangle":6170,"ĠMil":6171,"Ġdynam":6172,"ĠMexico":6173,"ĠMiddle":6174,"ĠPet":6175,"aped":6176,"Ġmedical":6177,"Ġencoura":6178,"Ġfigures":6179,"Ġfaith":6180,"Ġcorporate":6181,"Don":6182,"eds":6183,"Ġpointer":6184,"orpor":6185,"ĠĠ":6186,"Ġille":6187,"ĠSony":6188,"ĠNormal":6189,"Min":6190,"math":6191,"nosÅ¥":6192,"Ġran":6193,"ĠVis":6194,"Ġwidely":6195,"Ġbrowser":6196,"Ġwithdraw":6197,"Ġofficer":6198,"Ġshadow":6199,"Ġspeech":6200,"Ġrain":6201,"iami":6202,"Ġarrived":6203,"ahoo":6204,"UP":6205,"Ġtale":6206,"Ġdull":6207,"ĠStr":6208,"Ġprocessing":6209,"Ġdistribution":6210,"Ġreplaced":6211,"IG":6212,"cos":6213,"ĠImplement":6214,"Ġbalance":6215,"break":6216,"ĠEmp":6217,"Ġdisput":6218,"player":6219,"ĠAwards":6220,"Ġ2002":6221,"Ġtexture":6222,"Ġanalyst":6223,"Ġnegoti":6224,"Ġproceed":6225,"ĠReserve":6226,"Ġsuspect":6227,"elta":6228,"Ġpredictable":6229,"ĠSom":6230,"sections":6231,"ĠPortuguese":6232,"iously":6233,"Ġgenerated":6234,"Ġcombined":6235,"ĠTito":6236,"klad":6237,"Ġthy":6238,"atever":6239,"ĠEv":6240,"Ġjournal":6241,"ĠThomas":6242,"cean":6243,"ĠTheir":6244,"Ġtechnical":6245,"Ġfilmed":6246,"ĠStan":6247,"Ġsilly":6248,"ishes":6249,"ĠMing":6250,"Ġpropos":6251,"Ġ1980":6252,"Ġexception":6253,"ĠNight":6254,"ĠOp":6255,"Ġowner":6256,"Ġentirely":6257,"Ġthriller":6258,"zen":6259,"Ġsched":6260,"ĠBlue":6261,"ALL":6262,"Ġtrouble":6263,"ĠMartin":6264,"ugoslav":6265,"Ġgain":6266,"ĠWireless":6267,"Ġextract":6268,"Ġhumans":6269,"Ġholding":6270,"estival":6271,"Ġunion":6272,"Ġrelief":6273,"ias":6274,"Ġfashion":6275,"arrow":6276,"ĠHor":6277,"oughly":6278,"Ġhelps":6279,"Ġordered":6280,"ĠHTML":6281,"Ġodd":6282,"ĠCH":6283,"Ġscary":6284,"Ġcolle":6285,"oto":6286,"ichÃ©":6287,"Ġsuicide":6288,"Ġenjoyable":6289,"Ġmagazine":6290,"Ġsatisf":6291,"KE":6292,"Ġbreat":6293,"Ġstream":6294,"ĠFeder":6295,"Ġconference":6296,"Ġspend":6297,"Ġcore":6298,"ĠSus":6299,"Ġproviding":6300,"afe":6301,"Ġanimals":6302,"ĠJane":6303,"Ġfeet":6304,"Ġbuff":6305,"ĠPlan":6306,"Ġaircraft":6307,"Ġcharged":6308,"ĠRev":6309,"inking":6310,"Ġdifferences":6311,"Ġcurrently":6312,"Ġsweet":6313,"Ġtheater":6314,"Ġcer":6315,"anda":6316,"ĠStadium":6317,"Ġmeas":6318,"ĠAL":6319,"Ġspecified":6320,"Ġcultural":6321,"File":6322,"Ġfol":6323,"Ġ31":6324,"ĠDead":6325,"Ġdecide":6326,"Ġbehavior":6327,"Ġfreed":6328,"Ġanthrop":6329,"ĠBur":6330,"\\\\":6331,"ev":6332,"Ġpet":6333,"Ġcompos":6334,"ansas":6335,"Ġmainly":6336,"Ġprofile":6337,"ĠTech":6338,"Ġinternet":6339,"EM":6340,"Lo":6341,"Red":6342,"boy":6343,"heast":6344,"active":6345,"Ġsuccessfully":6346,"Ġdrugs":6347,"Ġdollars":6348,"ĠCatholic":6349,"Ġsupply":6350,"Ġguard":6351,"BS":6352,"Ġ190":6353,"Ġvictims":6354,"ĠNotre":6355,"200":6356,"ĠMax":6357,"Ġalign":6358,"ĠGar":6359,"ĠJava":6360,"Ġsitu":6361,"wen":6362,"order":6363,"Ġbare":6364,"Ġtough":6365,"Ġotherwise":6366,"Ġfeat":6367,"ĠBeijing":6368,"ĠAthens":6369,"ĠDavis":6370,"Ġhydro":6371,"Ġescape":6372,":\"":6373,"uled":6374,"Ġtwist":6375,"ovaÅ¥":6376,"ĠDev":6377,"Ġcarried":6378,"Ġhol":6379,"Ġmanage":6380,"Ġflu":6381,"Ġviolent":6382,"Ġast":6383,"Ġboss":6384,"arters":6385,"oms":6386,"start":6387,"ĠReplace":6388,"Ġsick":6389,"plit":6390,"Ġnumerous":6391,"iques":6392,"kes":6393,"Ġwall":6394,"Ġmilitants":6395,"Ġsuperb":6396,"{}":6397,"img":6398,"Ġzero":6399,"Ġswitch":6400,"Ġprojects":6401,"ĠFred":6402,"ipment":6403,"weight":6404,"Ġlargely":6405,"Ġfailure":6406,"Back":6407,"cription":6408,"ĠDutch":6409,"Ġbaseball":6410,"Ġarrays":6411,"ilty":6412,"ĠLu":6413,"page":6414,"write":6415,"ĠBoy":6416,"ĠPrem":6417,"Ġvs":6418,"Ġbrings":6419,"Ġcrowd":6420,"UM":6421,"Ġmouse":6422,"ĠGit":6423,"ĠURL":6424,"ĠVan":6425,"ĠEr":6426,"values":6427,"Ġlegisl":6428,"Ġsuffered":6429,"Ġcontemporary":6430,"ein":6431,"Ġsin":6432,"Ġcas":6433,"Ġcomprehens":6434,"ĠYugoslav":6435,"Å¡ie":6436,"Ġeastern":6437,"Ġcondition":6438,"while":6439,"ĠCatal":6440,"Ġediting":6441,"Ġsupported":6442,"Ġblocks":6443,"Ġfeatured":6444,"pret":6445,"illy":6446,"Ġkills":6447,"itution":6448,"nament":6449,"piece":6450,"Ġfilled":6451,"Ġsea":6452,"Ġcompat":6453,"Ġmechan":6454,"__:":6455,"Ġpattern":6456,"ĠSchwarzenegger":6457,"Ph":6458,"cia":6459,"Ġtight":6460,"Ġsom":6461,"Ġscal":6462,"Ġlose":6463,"->":6464,"ku":6465,"ado":6466,"ĠCamp":6467,"Ġ64":6468,"ollowing":6469,"Ġcold":6470,"Ġpiano":6471,"ĠSal":6472,"oung":6473,"ĠKel":6474,"ĠMcC":6475,"Ġwaiting":6476,"Ġdefeat":6477,"Ġphones":6478,"ĠUsing":6479,"Ġshooting":6480,"gba":6481,"atically":6482,"ĠSE":6483,"otal":6484,"Ġpassing":6485,"Ġjoin":6486,"aug":6487,"Ġsi":6488,"ĠTai":6489,"ĠRod":6490,"ĠclichÃ©":6491,"bur":6492,"zy":6493,"Ġru":6494,"Ġund":6495,"acc":6496,"Ġbright":6497,"Ġmulti":6498,"ourney":6499,"anchester":6500,"Ġparameter":6501,"Ġmystery":6502,"ls":6503,"ĠAC":6504,"ĠJay":6505,"cipl":6506,"orter":6507,"Ġjed":6508,"ĠMajor":6509,"eping":6510,"Ġnetworks":6511,"ĠLoad":6512,"Ġultimately":6513,"ĠSlav":6514,"Ġholds":6515,"ĠSystem":6516,"ĠVictor":6517,"Ser":6518,"VER":6519,"ef":6520,"iring":6521,"Ġpolic":6522,"70":6523,"Ġded":6524,"ĠChris":6525,"ĠPacific":6526,"Net":6527,"Ġlosing":6528,"Ġproposed":6529,"const":6530,"ĠBroad":6531,"Ġrelative":6532,"actions":6533,"ĠYear":6534,"Ġprogramming":6535,"Ġbenchmark":6536,"Ġmad":6537,"Ġunc":6538,"Ġnpm":6539,"Ġopposition":6540,"Ġindicates":6541,"Ġactive":6542,"Ġattend":6543,"uffer":6544,"Ġchalleng":6545,"ĠHit":6546,"Ġdocuments":6547,"Ġnewspaper":6548,"gn":6549,"Ġton":6550,"emic":6551,"Ġunexpected":6552,"clus":6553,"Ġformula":6554,"90":6555,"?\"":6556,"inet":6557,"ĠMong":6558,"Ġcompare":6559,"rend":6560,"random":6561,"shadow":6562,"Ġvariety":6563,"iation":6564,"actor":6565,"ccer":6566,"ĠâĢľ":6567,"backs":6568,"Ġrect":6569,"Ġunits":6570,"appe":6571,"Ġresulting":6572,"Ġphilosoph":6573,"omer":6574,"ĠTod":6575,"ĠOper":6576,"teen":6577,"Ġterminal":6578,"Ġsynt":6579,"Line":6580,"mers":6581,"Ġsport":6582,"Ġsale":6583,"ĠTen":6584,"ategy":6585,"Ġdefine":6586,"Ġfalling":6587,"Ġlabor":6588,".îĪĦîĪĨ":6589,"Gr":6590,"Ġcontain":6591,"Ġwrites":6592,"ĠJohnson":6593,"ĠAtlantic":6594,"34":6595,"38":6596,"star":6597,"ĠMur":6598,"show":6599,"Ġadds":6600,"onda":6601,"ĠSSH":6602,"Ġsafety":6603,"Ġtie":6604,"inder":6605,"Ġcal":6606,"Ġfired":6607,"ĠAk":6608,"agement":6609,"ĠElect":6610,"Ġinsurance":6611,"Ġfellow":6612,"Ġchoose":6613,"category":6614,"ĠFord":6615,"this":6616,"umer":6617,"peror":6618,"Ġhomes":6619,"icated":6620,"ĠSP":6621,"ĠSure":6622,"ĠSaint":6623,"ĠZeal":6624,"Ġdetailed":6625,"Ġfantastic":6626,"origin":6627,"eda":6628,"ĠSouthern":6629,"ollar":6630,"Ġdebug":6631,"Ġbankruptcy":6632,"Ġstick":6633,"ĠRom":6634,"obile":6635,"ĠAss":6636,"Ġsounds":6637,"Ġadministration":6638,"ĠLife":6639,"Ã©m":6640,"Ġsurvey":6641,"Ġmarriage":6642,"BoundingBox":6643,"lah":6644,"roc":6645,"Ġstyles":6646,"Ġkernel":6647,"ĠForce":6648,"Ġphysical":6649,"Ġbol":6650,"Ġplain":6651,"ours":6652,"Ġ<!":6653,"Ġapply":6654,"phy":6655,"Ġcasting":6656,"module":6657,"Ġfootage":6658,"ĠFalluj":6659,"500":6660,"?<":6661,"Ġ~":6662,"update":6663,"Ġvisited":6664,"Ġcaptured":6665,"Ġconnect":6666,"Ġinvestigation":6667,"99":6668,"rick":6669,"with":6670,"Ġdict":6671,"Ġexam":6672,"abels":6673,"ĠViet":6674,"Ġutter":6675,"cho":6676,"Ġhair":6677,"ujÃº":6678,"Ġpoorly":6679,"Ġidentity":6680,"eing":6681,"ebiten":6682,"Ġteacher":6683,"Ġcapture":6684,"Ġresear":6685,"Ġexplain":6686,"Ġdropped":6687,"Flow":6688,"core":6689,"unks":6690,"Ġcreep":6691,"Ġtreatment":6692,"Ã¡cie":6693,"Oil":6694,"nÃ½ch":6695,"Ġfetch":6696,"Ġincorpor":6697,"Ġinspired":6698,"ĠOnly":6699,"Ġlisted":6700,"Ġcomputers":6701,"OP":6702,"bas":6703,"Ġfields":6704,"aly":6705,"essage":6706,"asser":6707,"Ġpartners":6708,"OD":6709,"mir":6710,"Ġbed":6711,"ĠBase":6712,"Ġsafe":6713,"Ġthemes":6714,"ÄįÃŃ":6715,"Ġactivities":6716,"ĠÅ¡t":6717,"dated":6718,"reets":6719,"Ġpieces":6720,"Ġvent":6721,"Ġasync":6722,"season":6723,"Ġsinger":6724,"Ġdeclared":6725,"/.":6726,"rat":6727,"ĠLtd":6728,"abit":6729,"ĠJon":6730,"angers":6731,"ajÃº":6732,"Ġequipment":6733,"Ã¡cia":6734,"LI":6735,"Ġfasc":6736,"ĠAward":6737,"ĠCra":6738,"Ġdevices":6739,"Users":6740,"Ġproducers":6741,"scale":6742,"Object":6743,"Ġstake":6744,"Ġtransfer":6745,"Ġchecks":6746,"chen":6747,"ĠFox":6748,"ailed":6749,"Ġtransport":6750,"Ġsinging":6751,"ĠZealand":6752,"lahoma":6753,"55":6754,"ĠTem":6755,"enter":6756,"ĠATH":6757,"ella":6758,"Ġdise":6759,"ternal":6760,"Ġdistur":6761,"Ġconnected":6762,"ĠOffice":6763,"Value":6764,"Ġstations":6765,"plot":6766,"Ġpoly":6767,"media":6768,"Ġcredits":6769,"ĠATHENS":6770,"ulf":6771,"Ġmanner":6772,"Ġemphas":6773,"Ġcerem":6774,"ĠLink":6775,"ĠLatin":6776,"Ġweird":6777,"âĢĿ":6778,"esy":6779,"Ġpowers":6780,"Ġshame":6781,"Ġfinding":6782,"Ġinjury":6783,"ĠLis":6784,"ĠOF":6785,"Ġresidents":6786,"zz":6787,"oban":6788,"Ġhoping":6789,"ĠâĶĤ":6790,"Par":6791,"Vec":6792,"length":6793,"Ġdoor":6794,"Ġ>=":6795,"Ġrocket":6796,"Ġpremise":6797,"Im":6798,"Py":6799,"Ġtakeover":6800,"Ġmaximum":6801,"Ġaspects":6802,"ittable":6803,"Ġbusinesses":6804,"Ġproperties":6805,"Ġbeauty":6806,"Ġsatellite":6807,"Ġdrawn":6808,"Ġrejected":6809,"Ġmine":6810,"Ġpitch":6811,"ĠTy":6812,"ĠCross":6813,"ĠWork":6814,"ĠFour":6815,"ĠLL":6816,"Ġoffensive":6817,"Ġza":6818,"Ġbelong":6819,"Ġairline":6820,"}}":6821,"Ġfaster":6822,"ĠmÃ´":6823,"leg":6824,"pective":6825,"ilding":6826,"Ġcentre":6827,"ĠScot":6828,"Ġconfirmed":6829,"Ġcrack":6830,"eler":6831,"Ġrein":6832,"ĠIvan":6833,"ĠManchester":6834,"Ġships":6835,"okoban":6836,"ĠStocks":6837,"Item":6838,"Ġcausing":6839,"Ġemotion":6840,"ki":6841,"rical":6842,"ĠBowl":6843,"Ġbroken":6844,"Ġinvolve":6845,"Ġrecommended":6846,"Some":6847,"Ġexchange":6848,"Ġabandon":6849,"Ġqual":6850,"Ġtests":6851,"Ġalgorithm":6852,"target":6853,"atus":6854,"ĠWhere":6855,"ĠChild":6856,"Ġextended":6857,"Ġstands":6858,"Ġletter":6859,"Ġaj":6860,"adr":6861,"Ġsector":6862,"quest":6863,"Ġeffectively":6864,"American":6865,"IBM":6866,"Ġdub":6867,"Ġconcent":6868,"Ġblow":6869,"Ġissued":6870,"ĠIntersect":6871,"secutive":6872,"close":6873,"Ġclock":6874,"ĠMiami":6875,"Ġintersections":6876,"airs":6877,"Ġexpecting":6878,"ategories":6879,"hu":6880,"ĠEastern":6881,"ĠStill":6882,"Ġseek":6883,"making":6884,"Ġtur":6885,"Ġancient":6886,"rain":6887,"Ġacted":6888,"anna":6889,"Ġsettle":6890,"okyo":6891,").":6892,"irus":6893,"irty":6894,"Ġresource":6895,"ARD":6896,"Shader":6897,"Ġinnoc":6898,"OC":6899,"hered":6900,"Ġfill":6901,"ĠCare":6902,"Ġdesper":6903,"ĠIslands":6904,"gage":6905,"anie":6906,"ĠHome":6907,"Ġorders":6908,"Ġclick":6909,"Ġowners":6910,"ĠHoward":6911,"ĠCoast":6912,"Ġlibraries":6913,"ĠBusiness":6914,"23":6915,"nie":6916,"ĠAirways":6917,"Ġhotel":6918,"Ġopportunity":6919,"nÃŃ":6920,"ĠMid":6921,"ifies":6922,"abled":6923,"Ġboys":6924,"lands":6925,"Ġflag":6926,"Ġinvolves":6927,"Ġsites":6928,"voj":6929,"Ġaxis":6930,"Ġstret":6931,"cons":6932,"azz":6933,"ĠIndones":6934,"Ġrebel":6935,"Ġdiss":6936,"Ġbadly":6937,"Ġreader":6938,"Ġmultipl":6939,"Ġrebels":6940,"Ġtournament":6941,"RA":6942,"ĠKen":6943,"aven":6944,"ĠUnfortunately":6945,"ĠDevelop":6946,"ĠSoft":6947,"Ġemployees":6948,"Ġchallenge":6949,"View":6950,"qrt":6951,"itan":6952,"Ġfault":6953,"Ġfears":6954,"Ġsevent":6955,"Ġelimin":6956,"Ġfounded":6957,"Ġbasically":6958,"ĠInstitute":6959,"Ġrub":6960,"Ġparties":6961,"ructure":6962,"Ġdecline":6963,"number":6964,"Ġcitiz":6965,"Ġconsecutive":6966,"ĠJSON":6967,"shared":6968,"Ġtelling":6969,"Ġvillain":6970,"Ġapproximately":6971,"Ġlots":6972,"ĠPack":6973,"ĠRon":6974,"Ġmakers":6975,"Ġplanet":6976,"erc":6977,"Ġdriver":6978,"ĠSwed":6979,"Ġrapid":6980,"QU":6981,"Ġwand":6982,"ĠSales":6983,"Ġadop":6984,"Ġapplied":6985,"ĠInstall":6986,"dec":6987,"Ġwel":6988,"ĠDec":6989,"Ġrail":6990,"Ġaffect":6991,"Matrix":6992,"ĠInvest":6993,"Ġbranch":6994,"Ġdecades":6995,"Ġdistinct":6996,"Ġassum":6997,"Ġbroke":6998,"ronics":6999,"untu":7000,"ovanie":7001,"Printf":7002,"Ġhundreds":7003,"Ġsan":7004,"Ġreference":7005,"ĠTay":7006,"ĠNorthern":7007,"Ġ1960":7008,"vidia":7009,"Ġsides":7010,"Ġfavour":7011,"Ġrespond":7012,"Ġbrain":7013,"ĠCast":7014,"ĠDam":7015,"Ġcorner":7016,"going":7017,"Ġargument":7018,"GE":7019,"ĠHol":7020,"ĠGiants":7021,"ĠLSTM":7022,"Ġfiled":7023,"Ġ<=":7024,"Ġpackages":7025,"ĠTensorFlow":7026,"Ġhidden":7027,"Ġlists":7028,"Ġprinc":7029,"ĠExecut":7030,"ĠTrade":7031,"Ġbasis":7032,"ĠMarshall":7033,"II":7034,"Ġham":7035,"ĠMult":7036,"ĠGal":7037,"Ã½m":7038,"hentic":7039,"Ġiniti":7040,"Ġperfectly":7041,"Space":7042,"ĠGreek":7043,"Ġreform":7044,"ANC":7045,"Ġapproved":7046,"Index":7047,"Model":7048,"Ġvirtual":7049,"Ġjoint":7050,"Ġdepart":7051,"arrass":7052,"Ġcaptain":7053,"Russ":7054,"olph":7055,"ĠStock":7056,"Ġriver":7057,"Ġrealize":7058,"Ġdeveloping":7059,"Ġdebt":7060,"46":7061,"formance":7062,"Ġcommission":7063,"ĠBlair":7064,"Ġterr":7065,"adel":7066,"opher":7067,"Ġmeasure":7068,"Ġreduced":7069,"Ġmemorable":7070,"save":7071,"senal":7072,"Ġtoken":7073,"Ġ1950":7074,"Ġclasses":7075,"Ġsecure":7076,"Ġcontroll":7077,"Ġinitially":7078,"Ġmassive":7079,"Col":7080,"title":7081,"ĠScient":7082,"Ġrally":7083,"China":7084,"Ġcreates":7085,"Ġimproved":7086,"ĠCall":7087,"Ġplt":7088,"Ġslice":7089,"Ġruled":7090,"bug":7091,"ni":7092,"ĠNY":7093,"Ġmyster":7094,"Ġofficially":7095,"Ġdestroyed":7096,"ĠJewish":7097,"bottom":7098,"sters":7099,"pper":7100,"Ġdescribe":7101,"pet":7102,"itors":7103,"urities":7104,"Ġheat":7105,"Ġ45":7106,"lig":7107,"ĠSlov":7108,"Ġunable":7109,"hattan":7110,"Ġsubs":7111,"Ġreceive":7112,"opy":7113,"ĠCommun":7114,"ĠCarl":7115,"Ġorganization":7116,"Ġguns":7117,"Ġcomparison":7118,"ockey":7119,"ographic":7120,"._":7121,"store":7122,"etic":7123,"Ġstere":7124,"ĠMilit":7125,"ĠHard":7126,"ption":7127,"Ġdetect":7128,"Ġporn":7129,"ĠIP":7130,"ĠCro":7131,"ĠCPU":7132,"Ġguide":7133,"Ġlawy":7134,"Ġensures":7135,"Ġconvincing":7136,"ademy":7137,"ighter":7138,"ĠUser":7139,"ĠThough":7140,"execut":7141,"ĠHealth":7142,"Ġentry":7143,"Ġdivided":7144,"Ġethn":7145,"6666":7146,"Ġprimarily":7147,"Ġnie":7148,"Ġexceed":7149,"ocide":7150,"sv":7151,"Ġtape":7152,"ĠNiger":7153,"ĠChampions":7154,"ansion":7155,"Ġmode":7156,"Ġsolve":7157,"ĠColumb":7158,"ipping":7159,"Ġimagine":7160,"Ð°Ð":7161,"np":7162,"ĠLine":7163,"Ġdetermine":7164,"Ġcriminal":7165,"Ġbinary":7166,"arre":7167,"Ġcreation":7168,"Ġmessages":7169,"Ġcriticism":7170,"ĠTechnology":7171,"ĠVirginia":7172,"Ġtend":7173,"Ġnative":7174,"ira":7175,"Ġtraffic":7176,"ĠAlan":7177,"ĠOnline":7178,"iplom":7179,"Block":7180,"ection":7181,"ĠBru":7182,"Ġwealth":7183,"UR":7184,"long":7185,"Ġlame":7186,"Ġresolution":7187,"Ġtechniques":7188,"Ġadvance":7189,"bon":7190,"pool":7191,"Ġstorage":7192,"ĠHill":7193,"output":7194,"itionally":7195,"Ġincome":7196,"Ġhorse":7197,"ĠPolice":7198,"Ġembarrass":7199,"arra":7200,"ĠTown":7201,"ĠHy":7202,"Ġrising":7203,"ĠLast":7204,"ĠVol":7205,"Ġregional":7206,"valid":7207,"Ġbelievable":7208,"ĠSystems":7209,"Ġinstitutions":7210,"orrow":7211,"ĠBecause":7212,"ĠDist":7213,"Ġshr":7214,"Ġsmart":7215,"Dot":7216,"len":7217,"Ġtent":7218,"ilies":7219,"Ġlies":7220,"ĠKill":7221,"Ġsaved":7222,"Ġperm":7223,"Ġ300":7224,"gged":7225,"month":7226,"Ġtack":7227,"ĠLord":7228,"Ġposts":7229,"Ġanalysis":7230,"ĠktorÃ©":7231,"Ġsuggested":7232,"Ġportrayed":7233,"Ġbanks":7234,"ĠNFL":7235,"Ġchairman":7236,"okie":7237,"ĠReport":7238,"ĠCommunications":7239,"relu":7240,"jection":7241,"Ġnations":7242,"ĠDark":7243,"abs":7244,"ĠClub":7245,"ATH":7246,"span":7247,"Ġequal":7248,"Ġranked":7249,"esome":7250,"ifer":7251,"Ġrecover":7252,"Ġappend":7253,"Ġplenty":7254,"Ġ**`":7255,"Ġfraud":7256,"ĠTaylor":7257,"vh":7258,"Ġbatter":7259,"ĠCSS":7260,"ĠWhe":7261,"andy":7262,"Ġquiet":7263,"Component":7264,"ĠOklahoma":7265,"28":7266,"Ġdraft":7267,"ĠSu":7268,"ĠStand":7269,"Ġearned":7270,"Ġfrust":7271,"Ġsolo":7272,"Ġsixth":7273,"ĠUr":7274,"Ġnoise":7275,"Ġsuffering":7276,"Ġromance":7277,"Ġfairly":7278,"ĠGovernment":7279,"Ġmanip":7280,"ĠFilm":7281,"Ġrescue":7282,"ository":7283,"jo":7284,"ĠTer":7285,"owed":7286,"ĠMah":7287,"ĠKenn":7288,"ĠKansas":7289,"ĠException":7290,"Ġcombination":7291,"Ġfeaturing":7292,"holder":7293,"orial":7294,"ĠPan":7295,"Ġvul":7296,"Ġscaling":7297,"Ġadmit":7298,"ĠIndust":7299,"ĠMaria":7300,"Ġpictures":7301,"Ġupdates":7302,"Ġterritory":7303,"ĠEmpire":7304,"%;":7305,"ati":7306,"Ġinh":7307,"Ġgains":7308,"Ġprin":7309,"ao":7310,"pixel":7311,"Ġhurt":7312,"ĠSQL":7313,"Ġassault":7314,"Ġinstallation":7315,"ĠKorean":7316,"Wind":7317,"road":7318,"ette":7319,"ĠAirl":7320,"ateur":7321,"Ġneither":7322,"ĠAdam":7323,"Ġturning":7324,"ĠIslamic":7325,"usted":7326,"Ġpal":7327,"ĠYoung":7328,"Ġsomehow":7329,"Ġpartner":7330,"Ġdirecting":7331,"Ġputs":7332,"Ġkeeping":7333,"ĠOutput":7334,"Ġpulled":7335,"Ġvillage":7336,"ĠBuddhism":7337,"Ġcartoon":7338,"Open":7339,"dim":7340,"Ġfly":7341,"ateÄ¾":7342,"Ġpros":7343,"Ġ##":7344,"Ġguilty":7345,"Ġrecording":7346,"Ġlegend":7347,"Ġexecuted":7348,"Ġangle":7349,"Ġreferred":7350,"ĠCal":7351,"ĠEy":7352,"ordan":7353,"Ġheads":7354,"ĠGeorg":7355,"ĠIII":7356,"Ġum":7357,"Ġseeking":7358,"ĠRome":7359,"Ġ{}":7360,"exp":7361,"phia":7362,"Ġmaintain":7363,"Ġparliament":7364,"ĠManhattan":7365,"Ġrelationships":7366,"ĠBillboard":7367,"Ġreligion":7368,"Ġcolumns":7369,"Ġimpressive":7370,"Po":7371,"ĠMatt":7372,"see":7373,"Ġidentify":7374,"Ġrepeated":7375,"Date":7376,"Ġdies":7377,"Ġdaily":7378,"ĠJr":7379,"Ġkm":7380,"Ġactivity":7381,"Ġthee":7382,"Ġtheory":7383,"Ġprepar":7384,"Ġpreprocess":7385,"ĠValue":7386,"ĠInitialize":7387,"Ġcable":7388,"ĠPlease":7389,"Ġarms":7390,"Ġfunds":7391,"Ġgranted":7392,"Ġcolon":7393,"lan":7394,"Ġbored":7395,"Ġmir":7396,"igan":7397,"ĠWales":7398,"ĠGen":7399,"Ġ600":7400,"Ġsigns":7401,"Ġgorgonia":7402,"Google":7403,"Ġlady":7404,"ĠBE":7405,"Ġnotice":7406,"ĠVe":7407,"Ġprotests":7408,"Ġpractices":7409,"29":7410,"Element":7411,"asets":7412,"ici":7413,"Ġknock":7414,"Ġtrained":7415,"Ġinsurg":7416,"servation":7417,"Ġexecution":7418,"Ġscreenplay":7419,"ĠHarry":7420,"Ġwounded":7421,"ĠRel":7422,"Ġconclusion":7423,"ipal":7424,"Ġgirlfriend":7425,"Ġplanning":7426,"Ġdebate":7427,"ĠÄįo":7428,"Mar":7429,"Vector":7430,"Ġpou":7431,"Ġstack":7432,"ĠFound":7433,"Ġring":7434,"ĠLater":7435,"ĠON":7436,"ellow":7437,"Ġmanages":7438,"Ġstudies":7439,"151":7440,"raction":7441,"Ġspokes":7442,"Ġserial":7443,"ĠAltern":7444,"Ġinsert":7445,"Ġfocused":7446,"bour":7447,"mond":7448,"Ġgay":7449,"Ġusername":7450,"ĠVideo":7451,"bey":7452,"ORE":7453,"ĠPrince":7454,"ĠPolish":7455,"Ġislands":7456,"Ã¡lne":7457,"sembly":7458,"Ġchain":7459,"Ġqualif":7460,"Ġsymp":7461,"Ġuseful":7462,"Ġdecides":7463,"book":7464,"Ġyounger":7465,"Ġchanging":7466,"ĠDemocratic":7467,"Ġschol":7468,"ĠPut":7469,"Ġexists":7470,"Ġspaces":7471,"Ġvolume":7472,"Ġstruggle":7473,"belie":7474,"src":7475,"ĠÅ¾":7476,"udge":7477,"ructions":7478,"Ġdeploy":7479,"Script":7480,"Ġrecognized":7481,"Fi":7482,"otten":7483,"ĠFind":7484,"Ġcontact":7485,"Ġexecutives":7486,"Ġcopies":7487,"75":7488,"IE":7489,"Ġbre":7490,"ala":7491,"ĠSky":7492,"Ġstable":7493,"Ġacts":7494,"Ġthanks":7495,"ÃºÄį":7496,"Ġparticles":7497,"Ġsettlement":7498,"ĠForeign":7499,"CC":7500,"Ġsorry":7501,"Ġcraft":7502,"Ġnotes":7503,"Ġclin":7504,"Ġclient":7505,"conv":7506,"ĠDeal":7507,"Ġregions":7508,"Ġruling":7509,"reshold":7510,"itzer":7511,"Ġcorresponding":7512,"Ġbodies":7513,"Ġillegal":7514,"ql":7515,"racy":7516,"ĠPM":7517,"ĠHait":7518,"essed":7519,"Ġdoctor":7520,"Ġdisk":7521,"Ġimportance":7522,"Ġemail":7523,"String":7524,"Ġdelight":7525,"Ġboxes":7526,"Ġpython":7527,"Ġdumb":7528,"uns":7529,"agu":7530,"Ġmodified":7531,"Ġwinds":7532,"Ġstruck":7533,"lers":7534,"life":7535,"Ġpup":7536,"outs":7537,"config":7538,"Ġpool":7539,"Ã¡z":7540,"IP":7541,"noon":7542,"Ġbreed":7543,"omic":7544,"ĠDie":7545,"Ġcontaining":7546,"azy":7547,"ynch":7548,"ENT":7549,"Ġoccasion":7550,"Ġaccuracy":7551,"Ġbasketball":7552,"ĠMen":7553,"ĠRose":7554,"ums":7555,"Ġjourney":7556,"Ã¡v":7557,"ĠAbout":7558,"Ġcars":7559,"Ġalloc":7560,"apers":7561,"Ġtrig":7562,"Ġnewly":7563,"ĠAndrew":7564,"ĠPrice":7565,"Ġtwenty":7566,"Ġurban":7567,"Ġelectric":7568,"Ġsemi":7569,"Ġincreasingly":7570,"Ġharm":7571,"Ġtrash":7572,"Ġvehicle":7573,"Ġcomprehensive":7574,"itter":7575,"Ġbaby":7576,"Ġhint":7577,"Ġstreets":7578,"ĠBat":7579,"Ġwhatever":7580,"Ġalive":7581,"Ġimpossible":7582,"Ġfacing":7583,"Ġdetermined":7584,"${":7585,".**":7586,"eric":7587,"apter":7588,"ĠYet":7589,"Ġconstant":7590,"ĠServer":7591,"Ġexperien":7592,"Ġchannels":7593,"vance":7594,"Ġnodes":7595,"ĠCertain":7596,"ĠBefore":7597,"Ġcompute":7598,"Ġawards":7599,"Ġdf":7600,"imb":7601,"alloc":7602,"Ġclosing":7603,"Ġanimal":7604,"ĠKelly":7605,"Fatal":7606,"block":7607,"db":7608,"Inst":7609,"ĠTibetan":7610,"Ġmillions":7611,"YO":7612,"Ã¡d":7613,"ĠAndy":7614,"profile":7615,"Israel":7616,"Ġstereot":7617,"fetch":7618,"source":7619,"Ġtort":7620,"ĠTOK":7621,"Ġdismiss":7622,"Å¡ÃŃ":7623,"Ġairport":7624,"Ġslowly":7625,"Ġrevenge":7626,"Get":7627,"ĠLew":7628,"ĠJason":7629,"Ġunne":7630,"Ġdisaster":7631,"Ġtherefore":7632,"Ġstrategy":7633,"Ġrelevant":7634,"ĠProgram":7635,"Ġglass":7636,"Ġlaughs":7637,"Ġpredicted":7638,"Ġcovered":7639,"Ġpilot":7640,"Gener":7641,"mal":7642,"Ġdtype":7643,"ĠPop":7644,"nesota":7645,"Ġdependencies":7646,"Ġcontroversial":7647,"orrect":7648,"Ġinspir":7649,"Ġhardly":7650,"Ġjoke":7651,"ĠFormer":7652,"canvas":7653,"Ġtitles":7654,"Ġdeserves":7655,"gpu":7656,"mes":7657,"oÅ¾":7658,"rep":7659,"ĠWalk":7660,"ĠHug":7661,"group":7662,"observation":7663,"Ġabsolute":7664,"ĠTaiwan":7665,"Mart":7666,"icker":7667,"Ġentered":7668,"ĠAllen":7669,"forward":7670,"Ġauthority":7671,"Env":7672,"Ġmotion":7673,"Bush":7674,"Iraq":7675,"high":7676,"ĠPass":7677,"ĠProject":7678,"Ġlinear":7679,"ĠEdward":7680,"ĠRoad":7681,"Ġunus":7682,"Ġintensity":7683,"Ġprocesses":7684,"Ġfirms":7685,"Ġgorout":7686,"86":7687,"SE":7688,"aire":7689,"ĠNote":7690,"ĠOdin":7691,"Ġcorruption":7692,"ĠLeg":7693,"olutions":7694,"Ġexperts":7695,"inos":7696,"Ġtom":7697,"aders":7698,"ĠBrian":7699,"Ġfeed":7700,"Ġvictim":7701,"Ġrivals":7702,"Ġexistence":7703,"predict":7704,"Ġbond":7705,"ĠDrop":7706,"ells":7707,"Stocks":7708,"Ġaccompl":7709,"ĠGreece":7710,"Ġanalysts":7711,"ĠCatalan":7712,"Key":7713,"ga":7714,"ĠPay":7715,"thur":7716,"quarters":7717,"Ġ`/":7718,"Ġkil":7719,"Ġoperator":7720,"Ġrequires":7721,"Ġretailer":7722,"Document":7723,"Man":7724,"VID":7725,"Ġble":7726,"achel":7727,"hol":7728,"Ġdu":7729,"ĠTurn":7730,"ĠDra":7731,"Ġprosecut":7732,"Ġliber":7733,"Ġperman":7734,"Let":7735,"Ġsight":7736,"stra":7737,"Ġgym":7738,"endo":7739,"okia":7740,"Ġheavily":7741,"ĠRadio":7742,"Ġsuddenly":7743,"dist":7744,"tle":7745,"Ġbat":7746,"ĠHa":7747,"ĠNavy":7748,"shape":7749,"ĠConn":7750,"Ġputting":7751,"ĠTeam":7752,"ĠApply":7753,"While":7754,"Ġscheduled":7755,"Run":7756,"Ġak":7757,"Ġhttp":7758,"ĠNaz":7759,"Ġfilming":7760,"Ġreturning":7761,"Ġrelatively":7762,"ĠSee":7763,"Ġsettings":7764,"ISCO":7765,"Ġdisappointing":7766,"Ġclever":7767,"Ġgraphics":7768,"Ġfantasy":7769,"Ġprepared":7770,"ĠTOKYO":7771,"xy":7772,"Ġmouth":7773,"ĠTokyo":7774,"ĠWH":7775,"Ġdeals":7776,"icky":7777,"rug":7778,"Ġfinale":7779,"Ġpicked":7780,"Ġvertices":7781,"ĠRoger":7782,"Ġbarely":7783,"Ġhydrogen":7784,"Ġ/>\"":7785,"Ġproved":7786,"ĠJes":7787,"Ġraw":7788,"Ġpasses":7789,"Ġcapacity":7790,"Ġtalented":7791,"ĠMontana":7792,"Rays":7793,"Ġhurricane":7794,"ĠMinnesota":7795,"Ġaccepted":7796,"Ġsvet":7797,"Ġtow":7798,"ĠSar":7799,"ĠBang":7800,"ĠFree":7801,"Ġlib":7802,"rence":7803,"Ġauthentic":7804,"tv":7805,"than":7806,"ĠYasser":7807,"Ġspark":7808,"inson":7809,"Ġhelping":7810,"Ġmarked":7811,"Ġlearned":7812,"ĠFRANC":7813,"Ġnarrative":7814,"âĪĴâĪĴ":7815,"Distance":7816,"Ġsac":7817,"ilon":7818,"usr":7819,"istent":7820,"ĠEll":7821,"assy":7822,"ocol":7823,"Ġevening":7824,"Ġdepending":7825,"Ġeditor":7826,"Ġexplicit":7827,"normal":7828,"Ġtone":7829,"ĠTake":7830,"Ġgross":7831,"Ġplayoff":7832,"Ġrefused":7833,"Ġexpects":7834,"Ġsuspected":7835,"Ġthreatened":7836,"Ġanaly":7837,"Ġaccurate":7838,"Ġmistake":7839,"ĠFRANCISCO":7840,"next":7841,"oom":7842,"ĠLittle":7843,"Ġremake":7844,"adelphia":7845,"Ġsolution":7846,"Ġboun":7847,"arant":7848,"Ġmonitor":7849,"Ġcrash":7850,"ĠRecord":7851,"Ġflying":7852,"etime":7853,"race":7854,"ĠDirector":7855,"Ġbrut":7856,"Ġquarterback":7857,"ĠRecords":7858,"Ġhouses":7859,"ĠAirlines":7860,"26":7861,"Ġrgba":7862,"istor":7863,"Ġdiplom":7864,"ĠCD":7865,"ĠDri":7866,"Ġalt":7867,"isted":7868,"oked":7869,"Ġjudges":7870,"graph":7871,"hemat":7872,"Ġfake":7873,"riers":7874,"ĠLady":7875,"osh":7876,"Ġafternoon":7877,"Ġforest":7878,"DATE":7879,"TC":7880,"distance":7881,"node":7882,"hew":7883,"uture":7884,"ĠBAG":7885,"oute":7886,"Ġanyway":7887,"Ġworker":7888,"îĪĤ":7889,"ĠConference":7890,"ographer":7891,"Ġcreepy":7892,"ĠDig":7893,"aken":7894,"Ġjustice":7895,"Ġofficers":7896,"Ġsleep":7897,"Ġsubtle":7898,"isation":7899,"Ġinterface":7900,"ugg":7901,"Ġfamilies":7902,"Ġexpert":7903,"ĠModel":7904,"ĠRyder":7905,"Ġdegree":7906,"Ġnavig":7907,"rete":7908,"ĠMove":7909,"ĠHu":7910,"andal":7911,"ĠNode":7912,"aret":7913,"Ġlocations":7914,"ĠOrgan":7915,"Project":7916,"FONT":7917,"Pe":7918,"Ġtropical":7919,"Ġintrig":7920,"ensional":7921,"Ã¡t":7922,"Ġdesert":7923,"ĠExchange":7924,"dev":7925,"AND":7926,"space":7927,"Ġincredibly":7928,"ipped":7929,"itar":7930,"ario":7931,"Ġly":7932,"Ġghost":7933,"eman":7934,"Ġwilling":7935,"ologist":7936,"ampling":7937,"Ġmagic":7938,"ÅĪuje":7939,"bt":7940,"camera":7941,"lines":7942,"olves":7943,"athan":7944,"Ġrotation":7945,"forcement":7946,"ĠCarolina":7947,"):":7948,"ca":7949,"ja":7950,"overy":7951,"Ġtension":7952,"Ġsending":7953,"Ġglo":7954,"Ġbear":7955,"Ġvary":7956,"Ġcomfort":7957,"ĠWhich":7958,"trans":7959,"ĠÃĹ":7960,"Wait":7961,"ih":7962,"lete":7963,"ĠIMD":7964,"Ġdesired":7965,"Ġ-->":7966,"Ġrepository":7967,"Screen":7968,"Ġsharp":7969,"Ġhodnot":7970,"31":7971,"ION":7972,"Ġscream":7973,"Ġlock":7974,"obe":7975,"Ġassign":7976,"Ġrestrict":7977,"Ġdeaths":7978,"DAD":7979,"Ġcommonly":7980,"Ġbringing":7981,"moves":7982,"ĠSoftware":7983,"ĠHaw":7984,"Ã¡ciu":7985,"During":7986,"version":7987,"Ġinfluenced":7988,"Ġlawsuit":7989,"history":7990,"Ġ(":7991,"Ġdress":7992,"Ġnin":7993,"aph":7994,"Ġflow":7995,"Ġgenocide":7996,"Ġexciting":7997,"Ġmagnitude":7998,"Ġthin":7999,"ĠSomet":8000,"ĠLaun":8001,"Ġinterval":8002,"learn":8003,"Store":8004,"ĠEngine":8005,"Ġgenu":8006,"ĠScience":8007,"bird":8008,"Ġtaste":8009,"abb":8010,"Ġarmed":8011,"ĠYahoo":8012,"rency":8013,"Ġinterpret":8014,"scape":8015,"Ġbelief":8016,"Ġoccurs":8017,"ĠWarner":8018,"ĠAirport":8019,"Ġsignificantly":8020,"ĠMadrid":8021,"entle":8022,"ĠEconom":8023,"Ġunlike":8024,"Ġclamp":8025,"Ġchecking":8026,"layer":8027,"Ġhousing":8028,"Ġkidnapped":8029,"44":8030,"icious":8031,"Ġnud":8032,"Ġrede":8033,"Ġvision":8034,"Ġseat":8035,"Ġcomplic":8036,"Ġrecall":8037,"Ġstrateg":8038,"Ġattacked":8039,"Ġpatent":8040,"Ġcrazy":8041,"ĠGlobal":8042,"ighting":8043,"Ġplus":8044,"Ġdisease":8045,"HDAD":8046,"Ġcheesy":8047,"Ġsoldier":8048,"ĠNetwork":8049,"Ġalternative":8050,"Ġresearchers":8051,"Ã¶":8052,"Ġexhib":8053,"ĠChanges":8054,"Ġdisappe":8055,"ĠCommittee":8056,"ĠXP":8057,"Ġsurrounding":8058,"Cross":8059,"Ġwave":8060,"Ġdancing":8061,"ĠCapt":8062,"ĠHew":8063,"ĠFle":8064,"Ġjoy":8065,"ĠThrough":8066,"Ġreser":8067,"Ġspin":8068,"annel":8069,"ĠBAGHDAD":8070,"Ġgather":8071,"ĠPitt":8072,"ĠJordan":8073,"awa":8074,"ĠPrin":8075,"ucky":8076,"Ġoppos":8077,"optim":8078,"Ġintelligent":8079,"Ġdefinition":8080,"Ġ<!--":8081,"Ġadopted":8082,"Uint":8083,"rays":8084,"esides":8085,"Ġnotable":8086,"ĠJam":8087,"Ġ1930":8088,"Ġassistance":8089,"Ġvariables":8090,"CT":8091,"fill":8092,"Ġcomics":8093,"Ġconcerned":8094,"ĠMedia":8095,"Ġunveiled":8096,"bra":8097,"edia":8098,"Ġbiz":8099,"urer":8100,"ĠConf":8101,"Ġmasterpiece":8102,"Pal":8103,"code":8104,"arry":8105,"Ġkon":8106,"ĠPhiladelphia":8107,"VIDIA":8108,"Ġreput":8109,"Ġexpressed":8110,"ĠWeek":8111,"quee":8112,"porters":8113,"Ġattempted":8114,"Mon":8115,"Ġchess":8116,"ĠOs":8117,"plays":8118,"ĠStore":8119,"Ġsole":8120,"Ġ49":8121,"Ġwarm":8122,"Ġpercentage":8123,"ĠParliament":8124,"Ġindustrial":8125,"Ġinnov":8126,"Normalize":8127,"Ġcitizens":8128,"Dis":8129,"org":8130,"iser":8131,"Ġef":8132,"chart":8133,"sea":8134,"Ġclimate":8135,"ĠAlbert":8136,"Ġantic":8137,"Ġinternal":8138,"She":8139,"Ġtun":8140,"level":8141,"username":8142,"Ġyes":8143,"sec":8144,"arden":8145,"ocracy":8146,"rows":8147,"Ġdistrict":8148,"Ġaudiences":8149,"Ġhyp":8150,"Ġportrayal":8151,"ĠMorgan":8152,"Ġindividuals":8153,"ĠCertainly":8154,"87":8155,"asher":8156,"Ġlord":8157,"oting":8158,"Ġbeating":8159,"ĠMasters":8160,"Ġskills":8161,"Ġaffected":8162,"Ġappointed":8163,"Ġsituations":8164,"EY":8165,"cite":8166,"ĭħ":8167,"Ġaware":8168,"onic":8169,"lyn":8170,"amily":8171,"ĠDick":8172,"ĠPrices":8173,"Ġscientific":8174,"ĠHelena":8175,"writer":8176,"Ġfrequently":8177,"ĠQueen":8178,"KING":8179,"ope":8180,"Ġthinks":8181,"Ġgained":8182,"ĠChen":8183,"Ġconclud":8184,"shares":8185,"Ġmonster":8186,"Ġoldest":8187,"Ġhousehold":8188,"Ġastron":8189,"iu":8190,"stein":8191,"Ġelected":8192,"ĠUk":8193,"geous":8194,"ĠSenate":8195,"bury":8196,"eral":8197,"Ġmoon":8198,"Ġwasted":8199,"Ġweather":8200,"Ġoptimizer":8201,"ylan":8202,"Ġawarded":8203,"Ġprotection":8204,"Bo":8205,"cpy":8206,"orer":8207,"Ġwer":8208,"Ġnarrow":8209,"ĠMach":8210,"ĠFun":8211,"iana":8212,"Ġbigger":8213,"Ġhistoric":8214,"Ġanswers":8215,"ĠAcademy":8216,"Ġprove":8217,"ĠKim":8218,"Ġoffset":8219,"Ġaccent":8220,"ika":8221,"Ġtelephone":8222,"Ġdefeated":8223,"ĠSingh":8224,"ĠJoseph":8225,"Ġsupplies":8226,"ĠBenchmark":8227,"ifts":8228,"Ġvan":8229,"Ġyouth":8230,"ierce":8231,"Ġfeelings":8232,"display":8233,"holders":8234,"ĠObject":8235,"Ġdangerous":8236,"LU":8237,"Ġciting":8238,"ĠCost":8239,"ĠNic":8240,"apse":8241,"epth":8242,"Ġunnecessary":8243,"gency":8244,"Ġdiction":8245,"Ġchunks":8246,"Ġquant":8247,"ĠAndre":8248,"Ġassass":8249,"ĠMuseum":8250,"ĠAdditionally":8251,"Ġstunning":8252,"`**:":8253,"âĭħ":8254,"adies":8255,"veral":8256,"Ġmood":8257,"Ġhearing":8258,"Ġowned":8259,"Ġacquis":8260,"ĠWoods":8261,"jav":8262,"Ġhat":8263,"ĠCould":8264,"Ã¡va":8265,"Ġexpansion":8266,"Ġnearby":8267,"Ġbelieves":8268,"Ġchemistry":8269,"term":8270,"ĠList":8271,"Ġdepartment":8272,"ĠProcess":8273,"likely":8274,"UPDATE":8275,"Ġopposite":8276,".__":8277,"Acc":8278,"RI":8279,"Tunes":8280,"iner":8281,"ĠType":8282,"abe":8283,"Ġunivers":8284,"Ġclassical":8285,"Å¾ÃŃ":8286,"Ġlisten":8287,"Ġmerely":8288,"Ġappreciate":8289,"ĠWarsaw":8290,"ĠHarr":8291,"ĠFinal":8292,"Ġintent":8293,"Ġretrie":8294,"Ġportfolio":8295,"ĠConsider":8296,"larg":8297,"Ġathlet":8298,"Ġcou":8299,"Ġhip":8300,"Ġthrown":8301,"ceived":8302,"Ġveter":8303,"Ġride":8304,"Ġfixed":8305,"Ġaxios":8306,"Ġadults":8307,"ĠSummary":8308,"));":8309,"uls":8310,"ĠWins":8311,"ĠHop":8312,"Ġintel":8313,"ĠStone":8314,"string":8315,"ĠResearch":8316,"Ġregarding":8317,"Create":8318,"Ġasks":8319,"Ġretire":8320,"Ã¡r":8321,"week":8322,"Ġamateur":8323,"aze":8324,"Ġrepresenting":8325,"Japan":8326,"Pol":8327,"Read":8328,"des":8329,"Ġstreak":8330,"ĠPict":8331,"ĠFre":8332,"udes":8333,"Ġupper":8334,"ults":8335,"Ġ75":8336,"onym":8337,"Ġsuspended":8338,"Ġratio":8339,"ĠLewis":8340,"bian":8341,"oÄį":8342,"Ġdesktop":8343,"Ġbuying":8344,"Ä¾ad":8345,"zeros":8346,"Bar":8347,"ĠÅ":8348,"aton":8349,"Ġspring":8350,"Ġprovince":8351,"Ġdeclined":8352,"Ġrepresented":8353,"ĠSupreme":8354,"local":8355,"ĠCharlie":8356,"\\$":8357,"create":8358,"gic":8359,"ras":8360,"ui":8361,"Ġaf":8362,"Ġlie":8363,"emory":8364,"ĠFort":8365,"Ġexerc":8366,"Ġrac":8367,"Ġheaded":8368,"Ġtexts":8369,"ĠCommand":8370,"ĠBuy":8371,"ĠAtlanta":8372,"law":8373,"Ġsitting":8374,"ĠNear":8375,"ĠNBA":8376,"Ġfilmmakers":8377,"Ġeasier":8378,"Ġcarrying":8379,"Linear":8380,"Ġcra":8381,"ĠMS":8382,"Ġord":8383,"licop":8384,"Ġacad":8385,"Ġlikes":8386,"ĠBrig":8387,"Ġexpanded":8388,"Ġscattered":8389,"ĠKhan":8390,"Ġburied":8391,"Ġinstruments":8392,"Mac":8393,"ĠHost":8394,"ĠRoss":8395,"ĠNever":8396,"Ġchips":8397,"Ġscr":8398,"ixed":8399,"Ġtracing":8400,"ERS":8401,"Ġopens":8402,"Ġmaterials":8403,"Why":8404,"Ġeuro":8405,"ĠRight":8406,"ĠDream":8407,"romise":8408,"Ġregister":8409,"Ġtargets":8410,"Ġachieved":8411,"ĠEmperor":8412,"Ġutil":8413,"Ġincredible":8414,"ĠScotland":8415,"den":8416,"het":8417,"Ġwides":8418,"roit":8419,"ĠLow":8420,"Ġorbit":8421,"gging":8422,"Ġcapable":8423,"Ġdomain":8424,"ĠSpec":8425,"ĠSharon":8426,"ĠMovie":8427,"nan":8428,"Ġfre":8429,"Ġstarring":8430,"ĠPen":8431,"Ġhelicop":8432,"ĠLabor":8433,"ounder":8434,"upt":8435,"Ġremov":8436,"Ġconfront":8437,"îĪģ":8438,"Ġrequests":8439,"Ġurl":8440,"Ġcommunic":8441,"ĠîĪĢ":8442,"Ġrevolution":8443,"âĶĢâĶĢâĶĢâĶĢâĶĢâĶĢâĶĢâĶĢâĶĢâĶĢâĶĢâĶĢâĶĢâĶĢâĶĢâĶĢ":8444,"Ġenhance":8445,"Ġsought":8446,"emcpy":8447,"ĠNaj":8448,"Ġtrust":8449,"ruit":8450,"ĠGram":8451,"Ġspacecraft":8452,"Ġweren":8453,"isp":8454,"stm":8455,"ighth":8456,"ĠLoss":8457,"formation":8458,"Ġshel":8459,"ĠDeath":8460,"Ġdriving":8461,"Ġperspective":8462,"Ġpanel":8463,"Ġinstrument":8464,"47":8465,"48":8466,"Ġsust":8467,"Ġmal":8468,"stone":8469,"ĠBad":8470,"ĠWater":8471,"ummy":8472,"Ġfranch":8473,"Ġepic":8474,"Ġcapabilities":8475,"Ġgenius":8476,"Ġanimated":8477,"Ġmoral":8478,"check":8479,"Ġcycl":8480,"Ġsmooth":8481,">{{":8482,"cie":8483,"Ġthor":8484,"Ġloud":8485,"roke":8486,"ador":8487,"Ġfilter":8488,"Ġunbelie":8489,"Ġ150":8490,"related":8491,"yard":8492,"igher":8493,"Ġaside":8494,"Ġoutlook":8495,"ordon":8496,"ĠAnton":8497,"Ġprovider":8498,"Ġdegrees":8499,"AY":8500,"Game":8501,"Ġinfo":8502,"ĠBol":8503,"Ġconsequ":8504,"Ġsoccer":8505,"Ġ38":8506,"onto":8507,"Ġmetal":8508,"ĠArsenal":8509,"Ġpassword":8510,"Ġ1999":8511,"Ġpolitics":8512,"Ġwear":8513,"Ġcrown":8514,"eded":8515,"Ġpages":8516,"Ġasking":8517,"ĠFar":8518,"ĠNik":8519,"aks":8520,"Ġreaching":8521,"Ġkilomet":8522,"Ġvide":8523,"query":8524,"Ġ});":8525,"Ġimpression":8526,"Ġlaughing":8527,"Ġbizarre":8528,"Sto":8529,"Ġreaction":8530,"Ġsurg":8531,"Ġsummary":8532,"Ġstopped":8533,"ĠFinally":8534,"Ġcrucial":8535,"ĠSquare":8536,"Ġceremony":8537,"hou":8538,"imp":8539,"Ġ1000":8540,"Ġkne":8541,"ailand":8542,"Ġrenew":8543,"Ġglad":8544,"Ġratings":8545,"Ġthreads":8546,"Ġexplosion":8547,"cknow":8548,"ugs":8549,"Ġrefuge":8550,"Ġexplained":8551,"Ġengineering":8552,"Ġholiday":8553,"Ġcab":8554,"ĠBlock":8555,"Ġunknown":8556,"oster":8557,"ĠBeat":8558,"ĠArgent":8559,"ĠForces":8560,"Ġextension":8561,"Ġconsumers":8562,"Ġbenefit":8563,"Ġadvertising":8564,"Ġiron":8565,"Ġsaving":8566,"ĠSeattle":8567,"Ġcute":8568,"ĠLook":8569,"Ġobservation":8570,"Ġdenied":8571,"Ġdreams":8572,"Ġpurchase":8573,"Ġâľħ":8574,"Ġpushed":8575,"ayers":8576,"ĠDu":8577,"Ġprobe":8578,"Ġarena":8579,"Ġcomposition":8580,"Ġabsurd":8581,"Ġfascin":8582,"Ġice":8583,"ĠTaj":8584,"ĠAli":8585,"ĠCase":8586,"Ġhasn":8587,"Ġcomposed":8588,"Ġoutstanding":8589,"Ġ2016":8590,"ĠBuddha":8591,"ĠMongol":8592,"ĠIMDb":8593,"Ġanticip":8594,"ĠBall":8595,"ĠGor":8596,"Ġfunk":8597,"ĠUSA":8598,"Ġpotentially":8599,"estiny":8600,"Ġdamaged":8601,"Ġregulators":8602,"Ġadventure":8603,"burgh":8604,"Ġnudity":8605,"Ġintellect":8606,"fire":8607,"âĸ":8608,"ĠMarg":8609,"ulations":8610,"ĠFull":8611,"ĠMarket":8612,"Ġbenefits":8613,"Ġdelivered":8614,"45":8615,"buntu":8616,"olved":8617,"Ġshift":8618,"Ġshell":8619,"Ġopera":8620,"enez":8621,"Ġurged":8622,"Ġstruggling":8623,"MaxFloat":8624,"Ġgarb":8625,"Aust":8626,"Brit":8627,"round":8628,"Ġfat":8629,"ĠEver":8630,"Ġdisg":8631,"Ġ800":8632,"ĠKevin":8633,"link":8634,"ĠSign":8635,"ĠiTunes":8636,"Ġassets":8637,"Ġprominent":8638,"ĠFederer":8639,"Ġanthropology":8640,"Ġsubsid":8641,"DB":8642,"Europe":8643,"equ":8644,"Ð»":8645,"ĠDST":8646,"tha":8647,"ĠKash":8648,"Ġrespectively":8649,"Ġpraised":8650,"etts":8651,"ĠSix":8652,"ologists":8653,"Ġpriest":8654,"Ġcombat":8655,"Options":8656,"Ġfare":8657,"ĠPowell":8658,"ĠLand":8659,"Ġtruck":8660,"Ġexpensive":8661,"ropol":8662,"cover":8663,"Ġoppon":8664,"ĠâĨ":8665,"Ġsentiment":8666,"ĠÂ£":8667,"ĠLLM":8668,"Chat":8669,"Factor":8670,"town":8671,"ĠFollowing":8672,"ĠNum":8673,"ĠKn":8674,"awi":8675,"Ġalongside":8676,"kins":8677,"Ġtied":8678,"Ġfiction":8679,"ĠCustom":8680,"ĠField":8681,"ĠNick":8682,"ĠscÃ©":8683,"rena":8684,"Ġspeaking":8685,"Ġsentence":8686,"Ġterrorist":8687,"tainment":8688,"heim":8689,"ĠBox":8690,"ĠDylan":8691,"Ġclar":8692,"ĠCorporation":8693,"mean":8694,"Ġmachines":8695,"Ġconstructed":8696,"ĠClassic":8697,"ĠVietnam":8698,"Ġmysterious":8699,"CA":8700,"Sun":8701,"Type":8702,"Ġhired":8703,"Ġoverw":8704,"Ġmedi":8705,"\"></":8706,"Ġchildhood":8707,"Ġbreaking":8708,"Ġequally":8709,"Ġencountering":8710,"78":8711,"RO":8712,"drop":8713,"git":8714,"Ġwed":8715,"Ġinning":8716,"ĠMain":8717,"Ġkom":8718,"ĠStream":8719,"acle":8720,"ÃŃs":8721,"Ġconfidence":8722,"Ġdimension":8723,"Stores":8724,"HT":8725,"SR":8726,"Ġsky":8727,"Ġpenal":8728,"ione":8729,"Ġintense":8730,"Ġdisp":8731,"Ġrecovery":8732,"ĠServices":8733,"anguage":8734,"Ġpleas":8735,"Ġextreme":8736,"Ġessential":8737,"ĠCraig":8738,"Ġseventh":8739,"Ġethnic":8740,"aÅ¾":8741,"Ġhide":8742,"ĠCalcul":8743,"ĠPenn":8744,"ĠDomin":8745,"ĠLind":8746,"Ġarts":8747,"ĠBeck":8748,"Ġrestaur":8749,"Ġarticle":8750,"Although":8751,"Ġmortgage":8752,"Ġproposal":8753,"GM":8754,"Ġthrew":8755,"ĠCass":8756,"iac":8757,"Ġfunn":8758,"Ġserves":8759,"Ġinstructions":8760,"Ġstanding":8761,"ĠAbu":8762,"Ġvotes":8763,"ascript":8764,"Ġfloor":8765,"uzz":8766,"Ġdynasty":8767,"onder":8768,"oted":8769,"Ġunw":8770,"anked":8771,"Ġfinance":8772,"ĠBrad":8773,"ĠDonald":8774,"Query":8775,"Ġorche":8776,"ĠSeveral":8777,"Ġpassion":8778,"ĠBarry":8779,".\\":8780,"intendo":8781,"Ġcontainer":8782,"Ġsomewhere":8783,"Ġpointless":8784,"ĠPrint":8785,"ĠMotor":8786,"Ġintersects":8787,"Ġschedule":8788,"ĠcudaMemcpy":8789,"')":8790,"table":8791,"Ġholes":8792,"ĠCamera":8793,"ĠMars":8794,"Ġvamp":8795,"ĠLower":8796,"Ġexit":8797,"Ġsingles":8798,"ĠDetroit":8799,"ĠSlovak":8800,"MP":8801,"Two":8802,"bus":8803,"hard":8804,"agers":8805,"ĠRoll":8806,"ĠStorm":8807,"enses":8808,"Ġamusing":8809,"Ġfaced":8810,"Ġtracks":8811,"Ġaccounting":8812,"Ġillust":8813,"Ġzombie":8814,"ĠNaN":8815,"Ġvulner":8816,"ĠAlternatively":8817,";,":8818,"rimin":8819,"ĠFood":8820,"ĠEst":8821,"ĠJenn":8822,"Ġresistance":8823,"anye":8824,"Ġcutting":8825,"Ġadaptation":8826,"Ġcomposer":8827,"execute":8828,"base":8829,"anium":8830,"Ġfate":8831,"Ġmil":8832,"ĠRa":8833,"ĠJac":8834,"Ġincident":8835,"Ġterrorism":8836,"ĠPalestinians":8837,"Ġwandb":8838,"88":8839,"bb":8840,"ĠTri":8841,"ĠSpr":8842,"ĠMP":8843,"eme":8844,"Ġvac":8845,"Ġcommitted":8846,"Ġhoriz":8847,"ĠPrincess":8848,"77":8849,"Ĥ¬":8850,"vector":8851,"ĠBron":8852,"ĠGirl":8853,"Ġcovers":8854,"Ġtemplate":8855,"ĠBuddhist":8856,"suming":8857,"HL":8858,"pread":8859,"split":8860,"Ġ);":8861,"Ġnic":8862,"Ġstead":8863,"Ġresulted":8864,"Ġbreaks":8865,"ĠRepublican":8866,"install":8867,"ĠEntertainment":8868,"ĠToronto":8869,"Well":8870,"Ġ36":8871,"Ġcoordin":8872,"Ġrape":8873,"Ġepoch":8874,"ĠSoci":8875,"Ġdemands":8876,"nÃ©ho":8877,"ĠRevolution":8878,"Ġsyntax":8879,"site":8880,"ilton":8881,"asts":8882,"Ġju":8883,"Ġdesire":8884,"Ġindices":8885,"Ġruntime":8886,"Ġbridge":8887,"Ġfactors":8888,"Ġemotions":8889,"Ġcontestants":8890,"Ġventure":8891,"Or":8892,"PT":8893,"dog":8894,"fc":8895,"Ġwalls":8896,"ĠSem":8897,"Ġupset":8898,"ickÃ©":8899,"Ġunderst":8900,"Ġenth":8901,"Ġheadquarters":8902,"ĠUpdated":8903,"01":8904,"}\")":8905,"Ġtail":8906,"heres":8907,"Ġdut":8908,"ĠTool":8909,"ĠStrip":8910,"Ġperforming":8911,"Ġknowing":8912,"Ġcontinu":8913,"Ġhappening":8914,"Ġinputs":8915,"Ġclosely":8916,"Ġbrothers":8917,"eval":8918,"fi":8919,"uits":8920,"rog":8921,"ĠFer":8922,"umph":8923,"Ġoblig":8924,"Ġradius":8925,"ĠCompute":8926,"oke":8927,"Ġdry":8928,"Ġscores":8929,"Ġspam":8930,"Ġroyal":8931,"Ġmental":8932,"ĠCardinals":8933,"bear":8934,"iang":8935,"Ġacknow":8936,"ĠTry":8937,"Ġvast":8938,"Ġdriven":8939,"ĠSimon":8940,"Ġacquired":8941,"Ġunfortunately":8942,"Ġunusual":8943,"Ġgarbage":8944,"Fil":8945,"List":8946,"SP":8947,"onna":8948,"Ġnort":8949,"ĠHuman":8950,"Ġconstantly":8951,"Ġtechnique":8952,"Ġprotagon":8953,"Ġcorrected":8954,"Ġcommands":8955,"ĠFinancial":8956,"ĠAstros":8957,"ĠYugoslavia":8958,"Group":8959,"javascript":8960,"Ġbvh":8961,"ested":8962,"ĠHart":8963,"ĠUbuntu":8964,"Ġ''":8965,"Ġcoal":8966,"away":8967,"Ġtribut":8968,"ĠBrook":8969,"Left":8970,"Ġflaws":8971,"Ġpolicies":8972,"hero":8973,"herent":8974,"ĠGordon":8975,"ĠLake":8976,"ĠThailand":8977,"Ġbrand":8978,"scri":8979,"Ġviewed":8980,"Intel":8981,"ĠColumbia":8982,"nÃº":8983,"ĠIll":8984,"ĠPerhaps":8985,"ĠBoard":8986,"Ġdisappointment":8987,"fr":8988,"reset":8989,"Ġadvice":8990,"Ġserving":8991,"Ġdefend":8992,"Ġmarketing":8993,"ĠStephen":8994,"ĠvÃ½kon":8995,"Ġconnections":8996,"Ġcircum":8997,"Ġwa":8998,"Ġwearing":8999,"Ġmuseum":9000,"Ġdealing":9001,"ĠumoÅ¾":9002,"Ġsurgery":9003,"BU":9004,"`;":9005,"cript":9006,"igration":9007,"ĠName":9008,"ĠNVIDIA":9009,"ĠShi":9010,"ĠFlask":9011,"ĠRyan":9012,"ĠNormalize":9013,"sign":9014,"ture":9015,"uction":9016,"Ġcaut":9017,"Ġfool":9018,"Ġreign":9019,"ĠNav":9020,"Ġplants":9021,"Ġpaint":9022,"Ġhonor":9023,"Ġdisturbing":9024,"That":9025,"mble":9026,"ouri":9027,"Ġreact":9028,"ĠMill":9029,"ĠBomb":9030,"ĠDun":9031,"Ġstructures":9032,"ĠMean":9033,"Ġtouching":9034,"Free":9035,"Mo":9036,"Ġmicro":9037,"rove":9038,"ameters":9039,"Ġbegun":9040,"Ġassigned":9041,"Ġskin":9042,"Ġtrees":9043,"Ġmelod":9044,"Ġsubsequent":9045,"ĠNajaf":9046,"ĠKashmir":9047,"Use":9048,"orious":9049,"emp":9050,"ĠGary":9051,"Ġscaled":9052,"Ġmedium":9053,"Ġphotography":9054,"BR":9055,"Ġbin":9056,"ĠGer":9057,"Ġhack":9058,"Ġjson":9059,"ĠinvDir":9060,"Ġslasher":9061,"gedy":9062,"Ġwalking":9063,"Ġtreated":9064,"ĠSummer":9065,"Ġsurprisingly":9066,"ĠHaiti":9067,"Search":9068,"ilight":9069,"Ġrewards":9070,"Ġchase":9071,"Ġ34":9072,"Ġlongest":9073,"Step":9074,"Ġcreative":9075,"Ġvoters":9076,"Ġmountain":9077,"Ġestimates":9078,"Ġlinked":9079,"Ġpilots":9080,"ribly":9081,"final":9082,"eras":9083,"ĠLuc":9084,"ĠEarn":9085,"Ġextend":9086,"Ġpolitic":9087,"Ġcampus":9088,"ĠÂ°":9089,"Ġarguments":9090,"Ġscientist":9091,"Ġadmitted":9092,"eff":9093,"Ñĭ":9094,"atel":9095,"Ġbother":9096,"ented":9097,"agn":9098,"ĠDal":9099,"ĠOcean":9100,"ĠTrain":9101,"AGO":9102,"Conv":9103,"ĠâĨĴ":9104,"GA":9105,"car":9106,"ether":9107,"Ġunlikely":9108,"isms":9109,"Ġafford":9110,"Ġtroubled":9111,"âĸĪ":9112,"uated":9113,"zes":9114,"zai":9115,"Ġjail":9116,"Ġ'',":9117,"Ġsurf":9118,"lessly":9119,"Ġmilitant":9120,"ĠGenerate":9121,"Ġdispute":9122,"Ġefekt":9123,"Ġfranchise":9124,"Close":9125,"abr":9126,"ĠFestival":9127,"ĠOak":9128,"ensors":9129,"Ġsupporters":9130,"Ġzone":9131,"ĠEarly":9132,"ĠDaniel":9133,"ĠLiber":9134,"Ġliterally":9135,"Ġwidespread":9136,"cuda":9137,"alion":9138,"ĠmÃ¡":9139,"icing":9140,"ĠFurther":9141,"ĠNorm":9142,"ppy":9143,"conc":9144,"ĠClark":9145,"Ġmultip":9146,"Ġspecifically":9147,"Ġcalculation":9148,"Ã¡lny":9149,"Ġinnocent":9150,"World":9151,"Ġties":9152,"lets":9153,"ĠMoon":9154,"Ġexcess":9155,"Ġoverse":9156,"Ġsuperior":9157,"ĠBoeing":9158,"window":9159,"world":9160,"ĠRise":9161,"ĠDog":9162,"quential":9163,"Ġexclus":9164,"rowth":9165,"Ġangry":9166,"Ġcompatible":9167,"ĠBruce":9168,"Ġexperienced":9169,"Austral":9170,"Ġcategories":9171,"Ġmart":9172,"ĠText":9173,"Ġ65":9174,"Ġoccas":9175,"Ġsettled":9176,"Ġloading":9177,"ĠFallujah":9178,"BI":9179,"ĠDod":9180,"claim":9181,"shire":9182,"Ġconsists":9183,"Ġsecondary":9184,"Ġletters":9185,"lett":9186,"âĸĪâĸĪ":9187,"RM":9188,"ilers":9189,"ĠStation":9190,"=\"{{":9191,"Ġflights":9192,"appy":9193,"Ġviews":9194,"Ġmotiv":9195,"Ġpremier":9196,"ĠWayne":9197,"Ġconducted":9198,"ĠTalks":9199,"Ġcandidate":9200,"IF":9201,"sm":9202,"Ġdither":9203,"ĠSn":9204,"Ġnecess":9205,"Ġcharming":9206,"Ġdistingu":9207,"thony":9208,"Ġpersonality":9209,"Ġdrunk":9210,"Ġlayout":9211,"Ñı":9212,"Ġaver":9213,"ĠSant":9214,"ĠCut":9215,"olen":9216,"ĠBattle":9217,"Ġloyal":9218,"Ġpoz":9219,"anka":9220,"ĠLeon":9221,"Ġhumour":9222,"Ġindicate":9223,"build":9224,"Ġmeasures":9225,"AF":9226,"Pdf":9227,"Ver":9228,"Ġstatic":9229,"venue":9230,"Ġassert":9231,"Ġassume":9232,"device":9233,"Ġ1996":9234,"ĠPalace":9235,"Rad":9236,"Ġlinks":9237,"rov":9238,"Ġsty":9239,"ĠBry":9240,"abul":9241,"Ġspoken":9242,"Ġthoughts":9243,"Ġdeadly":9244,"LES":9245,"Af":9246,"OST":9247,"done":9248,"Ġapartment":9249,"Ġpubs":9250,"Ġhorr":9251,"Ġearliest":9252,"Ġfundament":9253,"iveness":9254,"Ed":9255,"xx":9256,"hem":9257,"vere":9258,"ĠKanye":9259,"Ġtermin":9260,"Ġlanding":9261,"Ġassistant":9262,"FER":9263,"Ġsoph":9264,"ĠOS":9265,"Ġoverlay":9266,"achus":9267,"Ġ48":9268,"ocial":9269,"Ġcarrier":9270,"Ġportion":9271,"ĠPoland":9272,"ilipp":9273,"Ġcells":9274,"baselines":9275,"Ġreputation":9276,"Ġordinary":9277,"Sch":9278,"Ġtmax":9279,"ĠCat":9280,"ĠPrix":9281,"ĠDell":9282,"Ġalien":9283,"ĠChart":9284,"Ġformal":9285,"Ġdepict":9286,"plex":9287,"ĠPhill":9288,"ĠFormula":9289,"Ġmutual":9290,"Ġtemperature":9291,"bish":9292,"ĠPublic":9293,"ĠWould":9294,"Ġseeks":9295,"ĠRef":9296,"ĠAssuming":9297,"ĠBrother":9298,"Ġautomatically":9299,"colors":9300,"acterial":9301,"ĠCarey":9302,"Ġspokesman":9303,"Ġacquisition":9304,"AV":9305,"card":9306,"Ġtmin":9307,"Ġhall":9308,"ĠSaf":9309,"ĠGlo":9310,"ĠEdd":9311,"Ġscoring":9312,"Ġspons":9313,"ĠHeart":9314,"Ġnowhere":9315,"Ġapproval":9316,"ĠPeace":9317,"Ġidentified":9318,"Ġacademic":9319,"Ġtears":9320,"ongh":9321,"etary":9322,"ĠCivil":9323,"orders":9324,"Ġbombing":9325,"Ġclothing":9326,"Ġutterly":9327,"ĠDevelopment":9328,"ĠMobile":9329,"ĠHat":9330,"never":9331,"Ġjustify":9332,"ificial":9333,"Ġblame":9334,"Ġvoted":9335,"ĠLibr":9336,"ĠAttack":9337,"ĠJavaScript":9338,"ela":9339,"iments":9340,"ĠMaster":9341,"ĠLam":9342,"aints":9343,"Ġchose":9344,"Ġoverl":9345,"Å¾it":9346,"Ġgrace":9347,"power":9348,"inters":9349,"urse":9350,"ĠBatt":9351,"ĠPage":9352,"Ġcompelling":9353,"ocity":9354,"Ġcauses":9355,"Ġaccounts":9356,"points":9357,"iotics":9358,"./":9359,"CS":9360,"QN":9361,"ĠArena":9362,"urers":9363,"Ġ`${":9364,"plete":9365,"Ġawesome":9366,"Second":9367,"Ġfunding":9368,"Ġclimax":9369,"ĠExtract":9370,"IUS":9371,"Pl":9372,"iary":9373,"rices":9374,"your":9375,"omy":9376,"olid":9377,"riots":9378,"ĠHigher":9379,"osure":9380,"Ġreset":9381,"reek":9382,"Ġimpressed":9383,"Ġpossibility":9384,"ystem":9385,"Ġpredictions":9386,"Ġ1940":9387,"Ġsuitable":9388,"ypes":9389,"ĠDistrict":9390,"Ġredeem":9391,"Ġslo":9392,"ĠBurn":9393,"umin":9394,"Ġsci":9395,"Ġscandal":9396,"Ġdisplayed":9397,"ĠKeep":9398,"Ġpriority":9399,"65":9400,"DP":9401,"GB":9402,"eah":9403,"Ġicon":9404,"alid":9405,"ĠAFL":9406,"ĠWW":9407,"ĠWild":9408,"ĠFund":9409,"ĠEag":9410,"ĠStory":9411,"ensus":9412,"ickets":9413,"ocus":9414,"ĠSea":9415,"Ġblind":9416,"hover":9417,"Ġstrongly":9418,"ĠâĤ¬":9419,"Ġmerger":9420,"vania":9421,"Ġdeeply":9422,"Ġalleg":9423,"ĠPrize":9424,"Ġdedicated":9425,"inner":9426,"ifier":9427,"ĠHave":9428,"Ġpled":9429,"Ġlets":9430,"Ġ33":9431,"Ġobt":9432,"Ġflame":9433,"Ġcenturies":9434,"Ġlacks":9435,"ĠOverall":9436,"Ġvoting":9437,"Ġsubstant":9438,"Ġchemical":9439,"Ġchallenges":9440,"Ġoverwhel":9441,"xis":9442,"ani":9443,"ĠTiger":9444,"Ġisol":9445,"unny":9446,"rac":9447,"Ġabuse":9448,"Ġintention":9449,"Ġmainstream":9450,"ĠSpark":9451,"ĠMinistry":9452,"ĠChel":9453,"Ġcontrols":9454,"Ġfreedom":9455,"ĠStandard":9456,"Ġintellectual":9457,"mates":9458,"ride":9459,"Î¸":9460,"Ġpom":9461,"amount":9462,"changed":9463,"Ġhandled":9464,"numpy":9465,"Ġabandoned":9466,"sled":9467,"asp":9468,"raine":9469,"ĠJerry":9470,"Ġ})":9471,"Ġcanc":9472,"=\"#":9473,"Ġcoverage":9474,"bean":9475,"Ġcounty":9476,"iamond":9477,"ALU":9478,"Ġreferences":9479,"Task":9480,"ĠÄ":9481,"Ġoh":9482,"ĠSans":9483,"Ġgam":9484,"ura":9485,"iffer":9486,"ĠWrit":9487,"Ġsav":9488,"ĠAnthony":9489,"Ġinterpol":9490,"ĠAgency":9491,"CES":9492,"Ġchat":9493,"cles":9494,"Ġspy":9495,"ĠAnderson":9496,"Ġcrimes":9497,"ĠscreenWidth":9498,"Ġlowest":9499,"Ġattempting":9500,"Ġhostages":9501,"Ġdescribes":9502,"Ġorganizations":9503,"However":9504,"Ġsilent":9505,"Ġvertex":9506,"Ġhighlights":9507,"packages":9508,"achusetts":9509,"Ã¼":9510,"etc":9511,"Ġstored":9512,"ĠRest":9513,"Ġvend":9514,"ĠNO":9515,"ĠIndex":9516,"ĠMichigan":9517,"akespe":9518,"Ġphilosophy":9519,"ĠToday":9520,"GO":9521,"Ġ00":9522,"Ġvocal":9523,"ĠNort":9524,"ĠEbiten":9525,"Ġcleric":9526,"Ġresign":9527,"amps":9528,"Ġtech":9529,"Ġincreases":9530,"Ġforever":9531,"Ġhostile":9532,"Ġrarely":9533,":</":9534,"Do":9535,"EU":9536,"burn":9537,"coh":9538,"Ġinnings":9539,"ĠDelta":9540,"Info":9541,"Ġ189":9542,"Ġconfused":9543,"Ġexperiences":9544,"Ġestate":9545,"Ġstatements":9546,"Ġpainful":9547,"iÄį":9548,"Ġing":9549,"Ġtired":9550,"ĠSpect":9551,"irm":9552,"Ġrated":9553,"ĠLive":9554,"Ġthank":9555,"Ġservers":9556,"Ġpeak":9557,"lient":9558,"Ġexplanation":9559,"ĠChristopher":9560,"Comp":9561,"According":9562,"Ġtz":9563,"ĠBon":9564,"ĠNob":9565,"Ġneut":9566,"Ġuncon":9567,"Ġrefract":9568,"Ġabsor":9569,"Ġbloody":9570,"ĠGuard":9571,"Ġbombs":9572,"poses":9573,"Ġemerged":9574,"ĠTreas":9575,"FT":9576,"Off":9577,"aeda":9578,"best":9579,"Ġbold":9580,"enth":9581,"essor":9582,"Ġkde":9583,"Ġliqu":9584,"azon":9585,"Ġartistic":9586,"Ġdestruction":9587,"Ġstayed":9588,"ĠJustice":9589,"Ġvehicles":9590,"ĠMassachusetts":9591,"ĠExpress":9592,"Ġscalar":9593,"dataset":9594,"txt":9595,"import":9596,"ĠBal":9597,"select":9598,"ĠFPS":9599,"ĠOliv":9600,"ĠInf":9601,"Ġloves":9602,"ĠThose":9603,"ĠStores":9604,"Ġminimum":9605,"Ġdelivers":9606,"Ġaffair":9607,"Ġintroduction":9608,"Ġsurvive":9609,"Ġtroubles":9610,"Ġattribute":9611,"enezuel":9612,"Bey":9613,"Tree":9614,"ivery":9615,"Ġinner":9616,"ĠRen":9617,"ĠFive":9618,"Ġproced":9619,"ups":9620,"acular":9621,"Ġpathetic":9622,"Ġcollapse":9623,"Ġexplore":9624,"Coordinates":9625,"IST":9626,"mitted":9627,"Ġsed":9628,"Ġtoll":9629,"Ġstuck":9630,"ĠBalt":9631,"ĠNumber":9632,"Ġraising":9633,"Ġsubur":9634,"Ġjeho":9635,"ĠAND":9636,"ĠArchitect":9637,"Ġgentle":9638,"imore":9639,"Ġstadium":9640,"ĠNap":9641,"Ġaby":9642,"Ġtragedy":9643,"Ġguid":9644,"loading":9645,"Ġdrives":9646,"Ġcasual":9647,"85":9648,"nav":9649,"Ñĥ":9650,"heastern":9651,"Ġnap":9652,"ĠmoÅ¾":9653,"ĠDom":9654,"ichuan":9655,"ĠChannel":9656,"object":9657,"Ġrealized":9658,"Ġprofession":9659,"Ġalbums":9660,"Direction":9661,"atten":9662,"Ġfict":9663,"ilation":9664,"rior":9665,"Ġ->":9666,"Ġ\"\"":9667,"ĠNC":9668,"aka":9669,"Ġspr":9670,"olds":9671,"ĠHead":9672,"ĠArthur":9673,"ĠIss":9674,"Ġsupports":9675,"ĠOrder":9676,"Ġsilver":9677,"Ġmounted":9678,"ĠCHIC":9679,"queeze":9680,"\".<":9681,"oons":9682,"leep":9683,"apore":9684,"elson":9685,"Ġmedzi":9686,"Ġacquire":9687,"Ġsubsequently":9688,"Ġterrific":9689,"Window":9690,"Ġpir":9691,"ĠCarter":9692,"Ġnoble":9693,"Ġattended":9694,"Ġborrow":9695,"ĠWithout":9696,"ĠBook":9697,"Ġbirds":9698,"Ġnominated":9699,"Ġtonight":9700,"Ġlawyer":9701,"People":9702,"ropolitan":9703,"BER":9704,"Ġtag":9705,"Ġcouncil":9706,"esters":9707,"Ġfish":9708,"Ġmater":9709,"Ġlaid":9710,"ĠCurt":9711,"ĠHero":9712,"ĠError":9713,"ressing":9714,"Ġproducing":9715,"Ġsevere":9716,"ĠOrig":9717,"Ġactivation":9718,"Ġboyfriend":9719,"ĠRetrie":9720,"rÃ¡t":9721,"ĠAlexander":9722,"ĠApache":9723,"ook":9724,"uce":9725,"esis":9726,"ĠWas":9727,"ĠRos":9728,"Ġvz":9729,"ĠJin":9730,"Ġdisplays":9731,"oca":9732,"Ġ55":9733,"Ġstrings":9734,"Ġspecify":9735,"Ġpreser":9736,"engers":9737,"Ġseemingly":9738,"Ġexcuse":9739,"Ġsteel":9740,"ILL":9741,"Ġneighborhood":9742,"ĠNigeria":9743,"Hub":9744,"Ġtiny":9745,"Ġforth":9746,"Ġ`<":9747,"ĠVill":9748,"Ġsurge":9749,"scaled":9750,"Ġgovernments":9751,"ovania":9752,"preprocess":9753,"ĠIranian":9754,"ĠJersey":9755,"Ġremarkable":9756,"Ġbuffer":9757,"BackUp":9758,"ĠCHICAGO":9759,"alks":9760,"Ġdy":9761,"ĠEle":9762,"Ġscener":9763,"Ġgoods":9764,"Ġdecre":9765,"ĠProt":9766,"Ġstronger":9767,"Ġcalculations":9768,"Ġcriticized":9769,"defined":9770,"ĠAgainst":9771,"Ġdynamic":9772,"Ġpermanent":9773,"ĠSociety":9774,"burg":9775,"even":9776,"eries":9777,"reck":9778,"ĠPers":9779,"selected":9780,"esting":9781,"ĠDrug":9782,"Ġvoc":9783,"ĠGulf":9784,"Ġlover":9785,"Ġenable":9786,"---":9787,"Ġmissile":9788,"Ġpromote":9789,"ĠktorÃ¡":9790,"Ġemergency":9791,"ĠRemember":9792,"Ġwooden":9793,"Ġsharply":9794,"ĠOptim":9795,"Ġclothes":9796,"dri":9797,"zens":9798,"Ġagencies":9799,"aching":9800,"Ġ78":9801,"Ġinsult":9802,"ĠProdu":9803,"Ġaudio":9804,"vantage":9805,"Ġessentially":9806,"Apple":9807,"ĠExecutive":9808,"ĠCroat":9809,"bn":9810,"Ġdates":9811,"ĠBR":9812,"irs":9813,"ĠHung":9814,"Ġ-=":9815,"abeth":9816,"Ġhaun":9817,"udson":9818,"izers":9819,"area":9820,"Ġcharm":9821,"ifications":9822,"Ġconfusion":9823,"ĠToo":9824,"theless":9825,"iverpool":9826,"Ġdatasets":9827,"discount":9828,"movie":9829,"================":9830,"Ġokay":9831,"ĠPremier":9832,"ĠStreamlit":9833,"akespeare":9834,"Pass":9835,"Sing":9836,"mens":9837,"squ":9838,"heart":9839,"Ġphen":9840,"ĠCorn":9841,"raid":9842,"ĠWomen":9843,"ĠVo":9844,"Ġrefers":9845,"ĠPlus":9846,"Ġmathemat":9847,"Ġtwists":9848,"Ġcinematic":9849,"ĠTajik":9850,"ĠChelsea":9851,"cow":9852,"rust":9853,"oral":9854,"enia":9855,"Ġhal":9856,"ĠIv":9857,"ptr":9858,"Ġprev":9859,"Ġpromise":9860,"ĠCommon":9861,"Ġ1995":9862,"Ġsexy":9863,"Ġoutputs":9864,"Ġdevast":9865,"Ġconversation":9866,"Ġteaching":9867,"Ġannouncement":9868,"employ":9869,"Code":9870,"iat":9871,"ora":9872,"Ġwra":9873,"Ġbow":9874,"Ġconvent":9875,"Ġenemy":9876,"ultane":9877,"Ġinteract":9878,"athon":9879,"Ġinvalid":9880,"Ġevolution":9881,"Ġhardware":9882,"Ġflood":9883,"ĠREFER":9884,"ĠGeorgia":9885,"Since":9886,"call":9887,"ssh":9888,"uct":9889,"wall":9890,"Ġdread":9891,"amer":9892,"imir":9893,"ĠBuck":9894,"Ġaspir":9895,"Ġinterim":9896,"Ġguarant":9897,"Ġfright":9898,"ENCES":9899,"Ġengaging":9900,"Ġcollaps":9901,"Ġcircle":9902,"ĠCongo":9903,"ktÃº":9904,"Ġcontroversy":9905,"Ġaired":9906,"ilst":9907,"Ġvirus":9908,"umble":9909,"Ġcancer":9910,"athy":9911,"Ġ42":9912,"Ġsuppose":9913,"Ġstrict":9914,"Ġhighway":9915,"Ġclaiming":9916,"Another":9917,"Ġarchae":9918,"Ġmotor":9919,"ĠDanny":9920,"Ġfavourite":9921,"Ġunbelievable":9922,"lisher":9923,"ĠSocial":9924,"Ġgap":9925,"agues":9926,"ĠHistory":9927,"Ġloan":9928,"ĠAdminist":9929,"Ġ1991":9930,"rupted":9931,"Ġaccordingly":9932,"urricanes":9933,"ĠTwilight":9934,"Canvas":9935,"Ġpartnership":9936,"SpaceCoordinates":9937,"Ġpenalty":9938,"Dist":9939,"Iran":9940,"KA":9941,"Te":9942,"Ġdated":9943,"Ġgrown":9944,"otype":9945,"ĠDNA":9946,"Ġsegment":9947,"ĠLim":9948,"oped":9949,"Ġ`-":9950,"Ġuniverse":9951,"Ġboat":9952,"Ġgrade":9953,"Ġequival":9954,"ĠMethod":9955,"communications":9956,"ĠSlavic":9957,"ĠBaltimore":9958,"Ġ]":9959,"Ġlift":9960,"essions":9961,"Ġaccum":9962,"ĠEnv":9963,"Ġcostumes":9964,"Ġbanking":9965,"âĶģâĶģâĶģâĶģâĶģâĶģâĶģâĶģ":9966,"ĠValueError":9967,"Ġninth":9968,"Ġuniversities":9969,"Ġcircumst":9970,"TS":9971,"ean":9972,"triangle":9973,"iners":9974,"ĠMoz":9975,"Ġprost":9976,"Ġexternal":9977,"udy":9978,"Ġexecute":9979,"zech":9980,"ĠAngels":9981,"Def":9982,"bertian":9983,"Ġderived":9984,"Ġscenery":9985,"ĠREFERENCES":9986,"iy":9987,"¸ı":9988,"ouch":9989,"Ġda":9990,"Ġven":9991,"ĠUt":9992,"Ġfilmmaker":9993,"Ġdozen":9994,"Ġreleases":9995,"Ġ1997":9996,"ĠBelg":9997,"Ġregarded":9998,"HP":9999,"ï¸ı":10000,"inity":10001,"ĠSay":10002,"ĠClear":10003,"ĠNintendo":10004,"ĠVec":10005,"Ġincorrect":10006,"Ġimproving":10007,"Ġloaded":10008,"Number":10009,"rum":10010,"Ġgro":10011,"Ġbeer":10012,"ĠOur":10013,"ductor":10014,"itty":10015,"beat":10016,"ĠProf":10017,"ERE":10018,"ĠManagement":10019,"Ġcomedies":10020,"Ġresemb":10021,"Ġthousand":10022,"57":10023,"89":10024,"Base":10025,"hour":10026,"Ġbounds":10027,"Ġpov":10028,"ouble":10029,"ĠSon":10030,"ĠVery":10031,"ĠVlad":10032,"Ġpoem":10033,"Ġdefensive":10034,"Ġkeys":10035,"Ġexploration":10036,"Ġrendered":10037,"Ġleadership":10038,"Ġdelayed":10039,"Ġzombies":10040,"bi":10041,"amber":10042,"ĠJournal":10043,"conn":10044,"Ġ37":10045,"Ġevac":10046,"Ġconfusing":10047,"Ġcricket":10048,"Ġideal":10049,"Ġwaters":10050,"iscal":10051,"Ġrapidly":10052,"born":10053,"Ġske":10054,"Ġhur":10055,"ĠAMD":10056,"ĠCG":10057,"ĠBul":10058,"Ġseed":10059,"Ġrough":10060,"plik":10061,"ĠVI":10062,"ĠChairman":10063,"Ġpersonally":10064,"Ġshortly":10065,"Ġbitter":10066,"ĠPDFs":10067,"Ġimmediate":10068,"rell":10069,"olang":10070,"cket":10071,"ĠWat":10072,"ĠDestiny":10073,"Ġselection":10074,"Ġmyth":10075,"Ġequation":10076,"Ġelectronic":10077,"ĠGolden":10078,"54":10079,"AH":10080,"kin":10081,"Ġthick":10082,"ĠSin":10083,"ĠCisco":10084,"ĠHan":10085,"ples":10086,"ĠStri":10087,"axis":10088,"Ġinvasion":10089,"ĠSeason":10090,"ĠLeban":10091,"ĠAppro":10092,"Ġgrab":10093,"Ġelectronics":10094,"ĠEliz":10095,"Ġindependence":10096,"Ġoccasionally":10097,"ĠCaptain":10098,"gas":10099,"vely":10100,"Ġfought":10101,"rok":10102,"ĠvÅ¡":10103,"aky":10104,"bery":10105,"Ġreflected":10106,"Chan":10107,"Ġcondem":10108,"ICH":10109,"ÐµÐ":10110,"Ġimmigr":10111,"Ġhunting":10112,"?!":10113,"budget":10114,"Ġloses":10115,"ĠIM":10116,"ĠRender":10117,"ĠReview":10118,"Ġextent":10119,"ĠscreenHeight":10120,"Ġdominated":10121,"Ġstrengt":10122,"Ġconsistent":10123,">`":10124,"Ġug":10125,"rez":10126,"organ":10127,"Ġfolder":10128,"Ġdying":10129,"ushes":10130,"ĠMs":10131,"ĠFra":10132,"oping":10133,"ĠKir":10134,"Ġminimal":10135,"Ġdevelopers":10136,"Ġreceiving":10137,"Ġgradient":10138,"ĠPatrick":10139,"Ġensuring":10140,"Ġattractive":10141,"ĠIndonesia":10142,"ĠJennifer":10143,".$":10144,"UK":10145,"custom":10146,"Ġlit":10147,"Ġeighth":10148,"ĠProm":10149,"Ġalcoh":10150,"Ġpregn":10151,"Ġpoet":10152,"ĠReb":10153,"Ġtrailer":10154,"Ġpromised":10155,"Ġdiscount":10156,"Ġorganized":10157,"Ġinflation":10158,"Ġthoroughly":10159,"CL":10160,"Hand":10161,"South":10162,"pop":10163,"uable":10164,"Ġsolutions":10165,"Ġhang":10166,"ila":10167,"owboy":10168,"ithub":10169,"seq":10170,"ĠHudson":10171,"tegr":10172,"Ġministers":10173,"Ġproves":10174,"Ġprotesters":10175,"ukos":10176,"Ġdeeper":10177,"Ġbattles":10178,"05":10179,"RB":10180,"~~":10181,"Ġwake":10182,"outer":10183,"Ġnaked":10184,"ĠHas":10185,"ĠHun":10186,"ĠThan":10187,"Scatter":10188,"Ġpopularity":10189,"ĠJesus":10190,"400":10191,"HS":10192,"dra":10193,"stup":10194,"ĠCre":10195,"ĠDirect":10196,"Ġ:**":10197,"Ġ1920":10198,"Ġgreatly":10199,"ĠProv":10200,"server":10201,"STER":10202,"ĠNothing":10203,"Ġopposed":10204,"Ġbeautifully":10205,"ĠValley":10206,"Ġcalculated":10207,"ĠMissouri":10208,"glas":10209,"Labels":10210,"Oh":10211,"iotic":10212,"Ġhittable":10213,"ello":10214,"eller":10215,"Ġnobody":10216,"Ã½mi":10217,"ohan":10218,"ĠJohnny":10219,"Ġcomputing":10220,"Ġgradients":10221,"Ġimagination":10222,"ĠOhio":10223,"ĠIndustry":10224,"rative":10225,"zo":10226,"Ġcards":10227,"ĠCreat":10228,"ĠFig":10229,"Ġfriendly":10230,"Ġtemporary":10231,"Ġpleasure":10232,"Ð¸Ð":10233,"Idx":10234,"Pre":10235,"Src":10236,"father":10237,"message":10238,"ĠAsh":10239,"ĠMTV":10240,"ĠShakespeare":10241,"Ġmetres":10242,"scroll":10243,"Ġplanes":10244,"Ġenvironmental":10245,"Ġdesperate":10246,"ÏĢ":10247,"reb":10248,"Ġcm":10249,"ĠSH":10250,"ĠSher":10251,"ĠColl":10252,"Ġstone":10253,"Ġhen":10254,"ĠEdu":10255,"Ġ**\"":10256,"ĠShader":10257,"Ġhanded":10258,"Ġconfident":10259,"Ġedges":10260,"Ġlights":10261,"Ġwondering":10262,"Ġpraise":10263,"Ġforgotten":10264,"Ġshopping":10265,"greg":10266,"var":10267,"ĠCS":10268,"ĠEX":10269,"Ġattor":10270,"ĠArm":10271,"iversary":10272,"Ġgradually":10273,"Ġreveal":10274,"ĠBuilding":10275,"Ġframework":10276,"ĠAriz":10277,"Ġfolks":10278,"bad":10279,"mate":10280,"she":10281,"tx":10282,"vol":10283,"Ġcache":10284,"Ġbind":10285,"Ġbbox":10286,"Ġla":10287,"Ġvlast":10288,"ĠEric":10289,"Ġphase":10290,"Ġedition":10291,"Ġlaughable":10292,"Ġdocumentation":10293,"Ġuncertain":10294,"Install":10295,"Ġfascinating":10296,"Rec":10297,"pip":10298,"Ġaims":10299,"Ġsir":10300,"encing":10301,"Ġfur":10302,"ropy":10303,"ĠCBS":10304,"Ġvice":10305,"Ã¡lov":10306,"Ġconspir":10307,"Ġ%}":10308,"ÑģÑĤ":10309,"Ġantibiotics":10310,"Ġknee":10311,"Beyon":10312,"BO":10313,"mare":10314,"Ġsql":10315,"Ġstem":10316,"ĠBilly":10317,"ĠWel":10318,"ĠDaily":10319,"ĠLiverpool":10320,"ĠShort":10321,"Start":10322,"Ġvisiting":10323,"Ġcommander":10324,"Ġmarry":10325,"Ġnormalized":10326,"Ġpanic":10327,"Ġinspiration":10328,"ĠSometimes":10329,"TP":10330,"pa":10331,"ĠCNN":10332,"ĠBoundingBox":10333,"agger":10334,"andas":10335,"quir":10336,"Ġcha":10337,"Ġplug":10338,"Ġearn":10339,"aturally":10340,"Ġfriendship":10341,"Ġswim":10342,"Ġprompted":10343,"Ġhunter":10344,"Ġenterprise":10345,"Ġdictionary":10346,"Fl":10347,"rating":10348,"ĠHoll":10349,"think":10350,"ĠLarry":10351,"outheast":10352,"Ġdefence":10353,"Ġprofil":10354,"Ġdelivery":10355,"Ġ120":10356,"Ġfailing":10357,"Ġpaying":10358,"Ġrebu":10359,"Ġintroduce":10360,"Ġcommented":10361,"Click":10362,"missions":10363,"ĠAriel":10364,"Buffer":10365,"PE":10366,"cation":10367,"fox":10368,"mart":10369,"oning":10370,"idel":10371,"ĠCold":10372,"igers":10373,"ĠDid":10374,"Ġalert":10375,"Ġroughly":10376,"ĠLynch":10377,"***":10378,"antry":10379,"ĠKid":10380,"Ġupgrade":10381,"orses":10382,"Ġanywhere":10383,"ĠConc":10384,"prof":10385,"ĠDefense":10386,"Ġdiscovery":10387,"ĠNether":10388,"Ġpurposes":10389,"ĠPCs":10390,"ĠLaure":10391,"ABLE":10392,"ĠGrammy":10393,"Pack":10394,"gather":10395,"Ġsrc":10396,"enÃ¡":10397,"Ġneck":10398,"grid":10399,"erring":10400,"ĠPhilipp":10401,"Ġimprovements":10402,"Ġpropag":10403,"Ġlyrics":10404,"Ġveteran":10405,"Ġfictional":10406,"ND":10407,"dat":10408,"Ġ39":10409,"inch":10410,"Ġmild":10411,"aser":10412,"ĠBreak":10413,"ĠWor":10414,"ĠKy":10415,"obraz":10416,"umps":10417,"ĠDisplay":10418,"Ġmerged":10419,"ĠSwiss":10420,"ĠPosts":10421,"ĠCuba":10422,"ĠDouglas":10423,"Am":10424,"after":10425,"bet":10426,"Ġpok":10427,"ĠTu":10428,"ĠRangers":10429,"Ġlovely":10430,"acre":10431,"sob":10432,"Ġ2024":10433,"score":10434,"Ġ700":10435,"ĠConfig":10436,"Ġtechnologies":10437,"Ġvisible":10438,"ystems":10439,"ELL":10440,"filter":10441,"ĠDigital":10442,"300":10443,"case":10444,"Ġtab":10445,"Ġbits":10446,"Ġbull":10447,"ieval":10448,"ĠElection":10449,"ĠKu":10450,"ocre":10451,"Ġfactory":10452,"Ġhole":10453,"Ġlaunches":10454,"mlu":10455,"Ġintegrate":10456,"Ġfolk":10457,"Ġwedding":10458,">;":10459,"DU":10460,"fn":10461,"hape":10462,"ĠBaker":10463,"ĠDQN":10464,"ĠGil":10465,"ĠGun":10466,"ĠGene":10467,"ĠLy":10468,"Ġintens":10469,"ĠThird":10470,"ĠVers":10471,"Ġfunctionality":10472,"ĠCooper":10473,"Ġthreats":10474,"Ġarrang":10475,"\";\"":10476,"ĠScottish":10477,"Ġcontrolled":10478,"Ġelectricity":10479,"Ġow":10480,"ĠCzech":10481,"char":10482,"ĠMir":10483,"ĠBor":10484,"ĠRachel":10485,"abil":10486,"Ġappl":10487,"Ġ2025":10488,"Ġcontinuing":10489,"ĠBridge":10490,"Ġdialect":10491,"Ġrepresentation":10492,"Ġindicating":10493,"Ġobserv":10494,"Ġrecognize":10495,"ĠPoly":10496,"Ġaccompan":10497,"ĠTurk":10498,"Count":10499,"TY":10500,"ĠSanta":10501,"urches":10502,"ĠBos":10503,"Ġoffense":10504,"mann":10505,"Ġprepare":10506,"Ġnegotiations":10507,"Ġdubbed":10508,"Category":10509,"lstm":10510,"itarian":10511,"Ġfiscal":10512,"arial":10513,"ĠSell":10514,"ĠAge":10515,"ĠDuke":10516,"Ġneural":10517,"Ġscare":10518,"Ġcolour":10519,"Ġ47":10520,"ĠMcL":10521,"Ġmerge":10522,"Ġcompete":10523,"Ġcollabor":10524,"ĠMalays":10525,"ĠclosestIntersection":10526,"Ġsacr":10527,"alia":10528,"aden":10529,"allas":10530,"Ġorient":10531,"Ġouter":10532,"Ġresident":10533,"âĢ²":10534,"Ġconstitut":10535,"Ġcenters":10536,"Ġwarns":10537,"Scan":10538,"Ġfutures":10539,"Ġbroadband":10540,"Ġliterature":10541,"ĠCubs":10542,"ĠBaseball":10543,"Gen":10544,"free":10545,"rous":10546,"ĠAM":10547,"agan":10548,"Ġtrick":10549,"ĠVi":10550,"owned":10551,"Ġ1998":10552,"Ġfights":10553,"factor":10554,"ĠEgyptian":10555,"Ġacknowled":10556,"ĠVladimir":10557,"IV":10558,"Next":10559,"gments":10560,"Ġfatal":10561,"ĠTreat":10562,"Ġyard":10563,"ĠPur":10564,"ĠFace":10565,"Ġcompens":10566,"Ġreportedly":10567,"Ġworthy":10568,"Ġsquad":10569,"Ġpatterns":10570,"Ġmartial":10571,";.":10572,"cif":10573,"han":10574,"Ġdad":10575,"ĠLA":10576,"ĠEston":10577,"ureau":10578,"Ġpreview":10579,"Ġcooper":10580,"Ġgovernor":10581,"Ġrepublic":10582,"ategor":10583,"ĠSupport":10584,"Modal":10585,"ĠMichel":10586,"Ġwitnesses":10587,"Ġbrutal":10588,"Any":10589,"CAR":10590,"Must":10591,"Ret":10592,"Spe":10593,"function":10594,"Ġstood":10595,"Ġcompr":10596,"Ġcontained":10597,"hedral":10598,"Ġmini":10599,"ĠExper":10600,"Ġassess":10601,"Ġsemif":10602,"ĠFROM":10603,"ĠMoscow":10604,"Ġstretch":10605,"Ġconcluded":10606,"ĠumoÅ¾ÅĪuje":10607,"pes":10608,"rets":10609,"elve":10610,"rot":10611,"ĠNep":10612,"ĠNBC":10613,"ĠVen":10614,"Ġresort":10615,"Ġspol":10616,"argo":10617,"ĠLeft":10618,"Ġsimultane":10619,"Ġdrinking":10620,"ĠSpecial":10621,"don":10622,"die":10623,"inction":10624,"Ġwider":10625,"Ġcu":10626,"ĠTel":10627,"ĠCarr":10628,"ĠRow":10629,"ichol":10630,"Ġpromising":10631,"ATO":10632,"ĠColin":10633,"Ġresponses":10634,"Ã³n":10635,"Ġconflicts":10636,"ĠDiego":10637,"ĠLibrary":10638,"Ġfles":10639,"Ġmarch":10640,"Ġdx":10641,"Ġdensity":10642,"Ġstops":10643,"ĠBan":10644,"Ġrural":10645,"ĠLOS":10646,"arded":10647,"Ġoffices":10648,"Ġshouldn":10649,"ĠSoon":10650,"Ġfastest":10651,"Ġmaintained":10652,"ĠGitHub":10653,"Ġafraid":10654,"vereign":10655,"dir":10656,"Ġbanned":10657,"ĠTO":10658,"Ġgem":10659,"ĠAz":10660,"ĠCome":10661,"bridge":10662,"Ġdirections":10663,"Ġapolog":10664,"background":10665,"ricult":10666,"Ġteenage":10667,"audi":10668,"Ġlegislation":10669,"Ġwelcome":10670,"Ġdetective":10671,"Ġenthus":10672,"42":10673,"Grid":10674,"Tra":10675,"ĠÄ¾":10676,"elocity":10677,"ĠPPO":10678,"Ġupgrad":10679,"Ġ**:":10680,"ogether":10681,"Ġdiscipl":10682,"ĠfinalColor":10683,"ĠtargetDiv":10684,"Ġmatrices":10685,"Ġdeadline":10686,"Ġstriker":10687,"handle":10688,"Ġfleet":10689,"ĠNumPy":10690,"Ġhorizont":10691,"ĠBrooklyn":10692,"Bay":10693,"iate":10694,"Ġcert":10695,"Ġnons":10696,"Ġnaj":10697,"esty":10698,"Ġviz":10699,"ĠGall":10700,"ixon":10701,"usharra":10702,"ĠVictoria":10703,"ĠSpectre":10704,"usharraf":10705,"rary":10706,"Ġtu":10707,"itu":10708,"stop":10709,"ĠCru":10710,"Ġcancel":10711,"Ġouts":10712,"Ġgrant":10713,"Ġdepression":10714,"Ġhumanity":10715,"255":10716,"Ġirrit":10717,"Ġconverted":10718,"largest":10719,"Ġequivalent":10720,"PR":10721,"same":10722,"Ġsli":10723,"orters":10724,"itable":10725,"oub":10726,"eland":10727,"ĠIF":10728,"ĠHospital":10729,"Ġbytes":10730,"Ġworry":10731,"izon":10732,"Ġfuneral":10733,"Ġdeficit":10734,"Ġrestart":10735,"uddy":10736,"Ġmurders":10737,"ĠColorado":10738,"Ġpsychological":10739,"ĠTs":10740,"idal":10741,"Ġongoing":10742,"Ġagricult":10743,"They":10744,"âĢľ":10745,"Ġtragic":10746,"Ġobtain":10747,"Ġlikable":10748,"Ġinteger":10749,"ĠStudio":10750,"Ġoccupied":10751,"ĠPutin":10752,"Ġpushing":10753,"Ġecho":10754,"ĠPAR":10755,"ĠRain":10756,"ĠFed":10757,"ĠJobs":10758,"ĠKat":10759,"aping":10760,"ĠVenezuel":10761,"ateral":10762,"Ġ187":10763,"AST":10764,"ĠAustria":10765,"Ġtempor":10766,"Ġconvolut":10767,"POIL":10768,"Ġobserved":10769,"Ġsurvived":10770,"Ġvirtually":10771,"Ġgeomet":10772,"Sl":10773,"mult":10774,"Ġtennis":10775,"Ġdrew":10776,"ĠPil":10777,"uma":10778,"Ġqueen":10779,"Ġanymore":10780,"getElement":10781,"phoon":10782,"Ġtriumph":10783,"Ġverify":10784,"Ġgraphic":10785,"ĠANGE":10786,"Ġnormally":10787,"ĠcudaMalloc":10788,"Ġmediocre":10789,"Just":10790,"John":10791,"ww":10792,"Ġpd":10793,"ĠGO":10794,"Ã¡m":10795,"Ġeverybody":10796,"ĠAttor":10797,"Ġargued":10798,"Ġspoke":10799,"Ġtheatre":10800,"randint":10801,"ĠANGELES":10802,"det":10803,"zero":10804,"ctic":10805,"Ġreun":10806,"ĠRub":10807,"ĠFalls":10808,"keep":10809,"Ġranks":10810,"ĠLes":10811,"Ġinterpre":10812,"ĠShan":10813,"Ġextensive":10814,"Ġfoundation":10815,"Ġdrivers":10816,"Ġsearching":10817,"Ġsnow":10818,"Ġcommentary":10819,"India":10820,"Web":10821,"ĠImport":10822,"Ġconcepts":10823,"Overall":10824,"Cr":10825,"aÅ¥":10826,"buster":10827,"memory":10828,"ĠSut":10829,"ĠMade":10830,"ĠLear":10831,"ĠLock":10832,"ogy":10833,"Ġinsight":10834,"Ġmovements":10835,"Ġlogin":10836,"Ġreveals":10837,"ById":10838,"ĠJimmy":10839,"Ġpurchased":10840,"Ġsanctions":10841,"DN":10842,"Write":10843,"ĠSports":10844,"ĠDirection":10845,"ĠFel":10846,"pha":10847,"=\"-":10848,"ĠAlice":10849,"ĠZel":10850,"Ġrented":10851,"Ġexplains":10852,"Ġreasoning":10853,"Ġuranium":10854,"Ġprisoners":10855,"Ġultimate":10856,"ĠElizabeth":10857,"Ġugly":10858,"UI":10859,"ipe":10860,"Ġtons":10861,"ĠSource":10862,"oples":10863,"Ġcompile":10864,"ibbean":10865,"annie":10866,"Ġpassengers":10867,"ynam":10868,"gym":10869,"Ġmatters":10870,"Scal":10871,"ĠHamilton":10872,"ĠTitan":10873,"Ġcontributed":10874,"generation":10875,"ĠMargaret":10876,"ĠOakland":10877,"ĠNetherlands":10878,"mission":10879,"aron":10880,"Ġeat":10881,"ĠAh":10882,"Ġbeats":10883,"ĠPod":10884,"ĠDolph":10885,"ĠLab":10886,"resent":10887,"usting":10888,"Ġsoap":10889,"ĠsprÃ¡":10890,"Ġconsult":10891,"Ġprize":10892,"Ġsuffer":10893,"Ġjumped":10894,"--------------------------------":10895,"ervative":10896,"ĠTurkey":10897,"Ġspectacular":10898,"Ġinsurgents":10899,"Axis":10900,"ranked":10901,"heat":10902,"Ġdual":10903,"Ġthreshold":10904,"url":10905,"ĠBayer":10906,"iege":10907,"ĠFair":10908,"Ġscreens":10909,"Ġworries":10910,"arest":10911,"Ġboom":10912,"Ġobsc":10913,"ĠEnron":10914,"Ġunderw":10915,"ĠâĢĻ":10916,"appers":10917,"Ġdeveloper":10918,"Ġcomplexity":10919,"Ġangles":10920,"Ġmanufacturing":10921,"Login":10922,"ĠHitler":10923,"advantage":10924,"amin":10925,"Ġrhy":10926,"ighters":10927,"Ġmanually":10928,"Ġboot":10929,"arena":10930,"ĠOpenGL":10931,"ĠSecurities":10932,"Ġfocuses":10933,"Result":10934,"ĠPitts":10935,"rison":10936,"Ġbot":10937,"Ġbrew":10938,"Ġlaug":10939,"ĠIPO":10940,"ĠHom":10941,"Ġatomic":10942,"ĠEs":10943,"aboration":10944,"Ġchances":10945,"ĠInto":10946,"ovÃ©":10947,"Ġdisag":10948,"Ġpover":10949,"Ġsupp":10950,"ĠArray":10951,"ĠConv":10952,"Ġdeliber":10953,"arma":10954,",\\":10955,"finals":10956,"Ġhath":10957,"unc":10958,"rained":10959,"ĠWalt":10960,"ĠEff":10961,"Ġloving":10962,"Ġdozens":10963,"Input":10964,"techn":10965,"Ġwhereas":10966,"Ġanniversary":10967,"Ġcarries":10968,"Ġcontinuous":10969,"Ġengaged":10970,"ĠOfficial":10971,"gradient":10972,"ĠcudaFree":10973,"policy":10974,"ĠSingapore":10975,"Ġshocking":10976,"ĠFoundation":10977,"ĠBrigade":10978,"AK":10979,"High":10980,"Lib":10981,"Sim":10982,"athered":10983,"Ġctx":10984,"itled":10985,"ĠDense":10986,"Ġscar":10987,"okies":10988,"Ġalliance":10989,"Ġquit":10990,"web":10991,"ĠEnergy":10992,"Ġwanting":10993,"Ġmemories":10994,"Ġcreature":10995,"Ġfacilities":10996,"Ġlimits":10997,"Ġsnipp":10998,"Ġreducing":10999,"ĠUsers":11000,"ĠSteps":11001,"Ġarrival":11002,"vetica":11003,"ĠVisual":11004,"ĠBatman":11005,"Ġhelicopter":11006,"getElementById":11007,"Ġtrend":11008,"isk":11009,"ilder":11010,"Ġgolf":11011,"Ġmole":11012,"Ġloans":11013,"Ġaggress":11014,"Ġdecisions":11015,"Ġpublisher":11016,"Ġsurviv":11017,"Despite":11018,"Ġtouchdowns":11019,"ĠBroadway":11020,"ĠEddie":11021,"Pos":11022,"cu":11023,"Ġhref":11024,"ĠNokia":11025,"quis":11026,"Ġproud":11027,"Ġminim":11028,"Ġelev":11029,"INE":11030,"ĠCaribbean":11031,"Ġstrikes":11032,"Ġlacking":11033,"Ġefficiently":11034,"ĠmÃ´Å¾":11035,"ĠArizona":11036,"Client":11037,"Hit":11038,"gb":11039,"sin":11040,"Ġpione":11041,"ĠTerror":11042,"ĠDallas":11043,"Ġ{%":11044,"Ġoverride":11045,"Ġformally":11046,"Ġsword":11047,"Ġtreaties":11048,"Ġsteam":11049,"Ġhoped":11050,"ependent":11051,"Ġvytv":11052,"ĠWalter":11053,"Ġsubstance":11054,"^^^^^^^^^^^^^^^^":11055,"reenspan":11056,"Ġmultiplication":11057,"Ġcomplicated":11058,"Ġtribute":11059,"56":11060,"><":11061,"Sokoban":11062,"Ġinaug":11063,"ĠTarget":11064,"ĠCit":11065,"Ġproport":11066,"berry":11067,"Ġlistening":11068,"Ġelsewhere":11069,"Ġprocessor":11070,"Ġverz":11071,"ĠAvoid":11072,"Orig":11073,"Ġtaught":11074,"athetic":11075,"Ġfestival":11076,"Ġgall":11077,"ĠAy":11078,"ĠPit":11079,"ĠInformation":11080,"ĠView":11081,"atching":11082,"ĠIncre":11083,"ĠBarbar":11084,"Ġbriefly":11085,"Ġbreath":11086,"ĠmÃ´Å¾e":11087,"Ġinvolvement":11088,"ĠSwedish":11089,"Russia":11090,"Ġprospect":11091,"Ġcircumstances":11092,"lie":11093,"lins":11094,"ugh":11095,"{},":11096,"Ġped":11097,"Ġnem":11098,"Ġreverse":11099,"ĠCos":11100,"Ġstages":11101,"ĠHal":11102,"ĠDor":11103,"ĠDub":11104,"Ġrum":11105,"Ġatroc":11106,"Ġnoticed":11107,"ĠThunder":11108,"Ġagents":11109,"ĠAlf":11110,"Ġpointed":11111,"Ġrip":11112,"ĠAmong":11113,"Ġmurdered":11114,"ĠPakistani":11115,"Ġdrove":11116,"Ġdeserved":11117,"ĠClevel":11118,"Ġpreparing":11119,"ĠNazi":11120,"Ġexplicitly":11121,"ALUES":11122,"ĠOlivier":11123,"ĠAdministration":11124,"Ġpoverty":11125,"AX":11126,"Gu":11127,"Many":11128,"Part":11129,"cat":11130,"cest":11131,"del":11132,"Ġtor":11133,"kej":11134,"ĠVin":11135,"ulls":11136,"Ġbroker":11137,"Ġrenamed":11138,"ANG":11139,"produ":11140,"ĠCole":11141,"Ġcycle":11142,"ĠPhilip":11143,"Ġsensitive":11144,"ĠQueens":11145,"epsilon":11146,"computer":11147,"ĠStanley":11148,"ĠOrganization":11149,"Ġexercise":11150,"ĠCleveland":11151,"04":11152,"Out":11153,"cri":11154,"kit":11155,"take":11156,"Ġnasty":11157,"otes":11158,"ĠEli":11159,"ĠInn":11160,"Ġdoctors":11161,"ĠVS":11162,"Ġpron":11163,"Ġ41":11164,"ioxx":11165,"Ġguest":11166,"Ġdepends":11167,"cython":11168,"ĠPlans":11169,"Ġlogical":11170,"ĠTrace":11171,"ĠDoes":11172,"Ġrespective":11173,"Ġrobust":11174,"Ġinhabit":11175,"Ġinterpretation":11176,"ĠSlovakia":11177,"Ġlaughed":11178,"Torch":11179,"western":11180,"inging":11181,"Ġlam":11182,"ĠBa":11183,"ifted":11184,"estone":11185,"ĠHon":11186,"ĠHind":11187,"ĠKaz":11188,"Ġdesp":11189,"Ġfinest":11190,"Star":11191,"probs":11192,"Ġsurely":11193,"Ġresponsibility":11194,"ambod":11195,"Ġwalked":11196,"Ġadmir":11197,"Trans":11198,"iciency":11199,"samples":11200,"Ġslic":11201,"Ġwrap":11202,"else":11203,"ĠAff":11204,"Ġheating":11205,"Ġlovers":11206,"Ġcollected":11207,"Ġcoff":11208,"ĠComb":11209,"Ġelder":11210,"Ġholy":11211,"Ġsupposedly":11212,"looking":11213,"Ġsociet":11214,"Ġheaven":11215,"dimensional":11216,"ĠUkraine":11217,"ez":11218,"gie":11219,"mn":11220,"ĠÄı":11221,"ato":11222,"ĠMae":11223,"ĠBart":11224,"Ġyellow":11225,"Ġconven":11226,"ĠKent":11227,"Ġadj":11228,"oven":11229,"ciu":11230,"Ġ44":11231,"Ġacceler":11232,"ĠDean":11233,"ĠFrances":11234,"Ġphr":11235,"ĠsystÃ©m":11236,"Ġappealing":11237,"Ġcommunities":11238,"Ġstruggles":11239,"ĠVerify":11240,"ĠMoore":11241,"ĠBlood":11242,"Ġreminded":11243,"Ġtorture":11244,"Ġsophistic":11245,"Card":11246,"TO":11247,"Ġsand":11248,"Ġcents":11249,"ĠCas":11250,"ifting":11251,"Ġchore":11252,"auss":11253,"ĠSha":11254,"Ġreporting":11255,"Ġheading":11256,"Ġexcited":11257,"REATE":11258,"Ġthreatening":11259,"Ġpaths":11260,"Ġgorgeous":11261,"Ġintegration":11262,"white":11263,"Ġjournalist":11264,"ĠHarris":11265,"rama":11266,"ĠCrit":11267,"that":11268,"Ġchair":11269,"oren":11270,"ported":11271,"ĠAssembly":11272,"Ġhighs":11273,"Ġregime":11274,"ĠLead":11275,"Ġparse":11276,"Ġcriter":11277,"Ġhyper":11278,"ĠBerlin":11279,"iconductor":11280,"ĠAttorney":11281,"calculate":11282,"kan":11283,"sample":11284,"vens":11285,"xual":11286,"Ġcel":11287,"Ġcdef":11288,"align":11289,"Ġunint":11290,"ĠStra":11291,"boxes":11292,"Ġgoroutines":11293,"ĠPittsburgh":11294,"zig":11295,"anes":11296,"kei":11297,"ĠEp":11298,"Ġchick":11299,"ollision":11300,"Ġinvited":11301,"Ġentering":11302,"Ġpublish":11303,"Ġmusicians":11304,"Ġfinals":11305,"Ġcameras":11306,"Ġeth":11307,"Ġweakness":11308,"Ġranking":11309,"Ġharsh":11310,"îĪģîĪĨ":11311,"ĠMeanwhile":11312,"Br":11313,"Call":11314,"depth":11315,"front":11316,"vard":11317,"Ġfounder":11318,"Ġanger":11319,"Ġhitting":11320,"std":11321,"Ġreli":11322,"adows":11323,"verd":11324,"ishment":11325,"Ġgray":11326,"Ġobst":11327,"Ġgotten":11328,"Ġradical":11329,"Ġappearances":11330,"Ġpersu":11331,"ĠCython":11332,"news":11333,"Ġliquid":11334,";-":11335,"PM":11336,"Top":11337,"hot":11338,"mic":11339,"Ġhorses":11340,"oln":11341,"ĠMuch":11342,"ĠDE":11343,"Ġunreal":11344,"Ġscan":11345,"ĠKnow":11346,"ruktÃº":11347,"oby":11348,"issance":11349,"Ġapproaches":11350,"Ġ128":11351,"Ġsuccessor":11352,"Ġcaps":11353,"ĠTraining":11354,"Ġconfirm":11355,"Ġtitled":11356,"Ġluck":11357,"ĠTar":11358,"ĠMun":11359,"ĠNL":11360,"Ġloose":11361,"soever":11362,"aved":11363,"Ġlogs":11364,"Ġhosted":11365,"Ġimplemented":11366,"Ġsteal":11367,"ĠÐ¸":11368,"îĪĦîĪĨ":11369,"Ġactresses":11370,"println":11371,"Ġcandidates":11372,"Ġqualifying":11373,"Act":11374,"GET":11375,"Ġtong":11376,"Ġlun":11377,"ĠHay":11378,"ĠVÃ½":11379,"Ġinteraction":11380,"Ġ57":11381,"good":11382,"Ä¾a":11383,"Ġreviewers":11384,"ĠQuarter":11385,"Ġcharts":11386,"Ġthrowing":11387,"Ġspiritual":11388,"Oracle":11389,"cost":11390,"hop":11391,"Ã¨":11392,"Ġtorn":11393,"itrust":11394,"Ġpunch":11395,"Ġtoler":11396,"ĠPosition":11397,"Ġconvention":11398,"Ġshapes":11399,"Ġjet":11400,"ĠKills":11401,"portfolio":11402,"Ġmetrics":11403,"Ġframes":11404,"Ġvisually":11405,"Ġpayment":11406,"Ġdialects":11407,"Ġpdfjs":11408,"Ġmistakes":11409,"DrawImage":11410,"Ġscheme":11411,"Ġlicens":11412,"IR":11413,"Most":11414,"nut":11415,"names":11416,"wick":11417,"Ġich":11418,"erk":11419,"ĠTABLE":11420,"ĠSlo":11421,"ĠMillion":11422,"ĠPent":11423,"ĠPerson":11424,"ĠHad":11425,"ĠDi":11426,"Ġconvey":11427,"ĠLanguage":11428,"common":11429,"Ġdistances":11430,"umped":11431,"Ġpatient":11432,"Ġcommunication":11433,"ĠDisc":11434,"ĠHope":11435,"record":11436,".&":11437,"Cons":11438,"Ġtall":11439,"Ġmac":11440,"Ġrevers":11441,"Ġgender":11442,"amm":11443,"osaur":11444,"ĠEmb":11445,"Ġjunk":11446,"perial":11447,"duce":11448,"ĠpoÄį":11449,"Ġtrav":11450,"Ġentr":11451,"service":11452,"ĠSerif":11453,"Ġ256":11454,"ĠPyTorch":11455,"helvetica":11456,"ĠExplorer":11457,"ĠGovernor":11458,"ĠSolar":11459,"Ġsuspects":11460,"666666":11461,"Ġoverseas":11462,"ĠIvory":11463,"verdana":11464,"URL":11465,"aver":11466,"half":11467,"push":11468,"woman":11469,"ĠFant":11470,"ĠLib":11471,"weet":11472,"shot":11473,"Ġsmile":11474,"Ġinterests":11475,"Ġexploded":11476,"ĠScreen":11477,"Ġmanagers":11478,"Ġprobability":11479,"Ġdeclar":11480,"ĠMrs":11481,"rastructure":11482,"Ġdemonstrated":11483,"ĠMatrix":11484,"ĠBonds":11485,"ĠAnti":11486,"ĠÅ¾iv":11487,"ÑĮ":11488,"atra":11489,"Ġcul":11490,"Ġbott":11491,"icity":11492,"leans":11493,"umed":11494,"ĠChall":11495,"Ġenrich":11496,"Ġresume":11497,"Ġinstant":11498,"Ġmarks":11499,"Ġheroes":11500,"Ġscattering":11501,"ĠForest":11502,"Ġminority":11503,"Ġsurrounded":11504,"ĠBobby":11505,"Ġnecessarily":11506,"West":11507,"copy":11508,"Ġbath":11509,"Ġbeach":11510,"ĠMath":11511,"ĠEqu":11512,"ĠInput":11513,"Ġnoir":11514,"Ġfewer":11515,"ĠMarc":11516,"Ġpatients":11517,"Ġlands":11518,"Ġengineers":11519,"Ġterrorists":11520,"Ġarrive":11521,"ĠIdent":11522,"ĠDataFrame":11523,"Ġevaluate":11524,"ĠMexican":11525,"submit":11526,"breaking":11527,"Ġretirement":11528,"Ġkilometres":11529,"FF":11530,"uint":11531,"stat":11532,"Ġgri":11533,"ĠClose":11534,"ĠPra":11535,"ĠDer":11536,"ĠGets":11537,"Ġjack":11538,"Ġwhenever":11539,"aconda":11540,"Ġdisrupt":11541,"Ġpole":11542,"Ġwhatsoever":11543,"Ġflicks":11544,"Ġspeculation":11545,"Ġ1992":11546,"Ġskip":11547,"Ġsync":11548,"ĠPatriots":11549,"ĠStudios":11550,"Dollar":11551,"void":11552,"isers":11553,"Ġfreak":11554,"ĠMicro":11555,"ĠBi":11556,"aga":11557,"Ġalter":11558,"ĠGrowth":11559,"ogue":11560,"merce":11561,"Ã©t":11562,"rett":11563,"modal":11564,"Ġencountered":11565,"ĠAnyway":11566,"Ġhonestly":11567,"Ġmunic":11568,"estion":11569,"ĠRI":11570,"ĠER":11571,"enders":11572,"ousy":11573,"Ġsaves":11574,"ubble":11575,"Ġretired":11576,"ĠAnne":11577,"Ġdeserve":11578,"...\"":11579,"issions":11580,"Ġwarn":11581,"Ġdaylight":11582,"Ġfallen":11583,"Ġopener":11584,"ĠAdded":11585,"Ġshareholders":11586,"inois":11587,"Ġcounterpart":11588,"ĠMilitary":11589,"Ġfunniest":11590,"Ġmateri":11591,"Done":11592,"Ge":11593,"girl":11594,"mus":11595,"Ġhabit":11596,"child":11597,"usal":11598,"ĠFast":11599,"ĠVioxx":11600,"Ġ54":11601,"Ġ56":11602,"ibilities":11603,"ĠClint":11604,"Ġpublication":11605,"Ġcomputation":11606,"Ġbloom":11607,"Ġrevised":11608,"ĠÐ¿":11609,"Ġpitcher":11610,"password":11611,"ĠKarzai":11612,"aÅ¾d":11613,"Even":11614,"More":11615,"called":11616,"Ġtex":11617,"Ġdestin":11618,"Ġdinos":11619,"icate":11620,"ĠAD":11621,"ĠFlo":11622,"Ġvi":11623,"Ġproduces":11624,"Ġguitar":11625,"Ġlasted":11626,"Ġ76":11627,"ĠConvention":11628,"Ġcastle":11629,"Ġtelecommunications":11630,"ĠSteel":11631,"ladesh":11632,"Ġindicated":11633,"Exec":11634,"Ġphotos":11635,"Ġemployed":11636,"Ġteenager":11637,"ĠAuthor":11638,"ĠArgentina":11639,"ĠUtah":11640,"82":11641,"laim":11642,"you":11643,"Ġtact":11644,"ania":11645,"Ġdiverse":11646,"Ġgathered":11647,"Ġeating":11648,"Ġyield":11649,"Ġash":11650,"ĠEvent":11651,"ante":11652,"Ġcrashed":11653,"login":11654,"Ġmixture":11655,"Ġconvinced":11656,"ĠArea":11657,"Ġdismissed":11658,"Ġgenuine":11659,"Car":11660,"NAS":11661,"Sum":11662,"cursor":11663,"sa":11664,"Ġwing":11665,"Ġpin":11666,"Ġhunt":11667,"ĠCab":11668,"ĠMiller":11669,"ĠHD":11670,"Ġscroll":11671,"ĠChange":11672,"Ġinstruct":11673,"Ġperforms":11674,"modules":11675,"ĠFla":11676,"vanced":11677,"ĠModern":11678,"Ġassociation":11679,"Ġrepeat":11680,"ĠOkay":11681,"Ġattracted":11682,"Ġpitched":11683,"Ġtomorrow":11684,"Dra":11685,"MC":11686,"lims":11687,"ĠBid":11688,"ulating":11689,"emark":11690,"keys":11691,"ĠNas":11692,"ĠEuro":11693,"abama":11694,"ĠDescription":11695,"193":11696,"ourage":11697,"Ġvoices":11698,"Ġsimultaneously":11699,"sen":11700,"uccess":11701,"Ġmail":11702,"Ġlying":11703,"ĠTerm":11704,"estyle":11705,"ando":11706,"Ġrises":11707,"Ġ52":11708,"Ġauth":11709,"Ġlandmark":11710,"Ġâŀ":11711,"News":11712,"Ġsufficient":11713,"Ġseparated":11714,"Ġremembered":11715,"Ġinvestigate":11716,"meta":11717,"ĠEnterprise":11718,"ĠMicros":11719,"Ġqualities":11720,"ĠCommunist":11721,"ĠKennedy":11722,"Ġprotagonist":11723,"Mc":11724,"RY":11725,"Right":11726,"foot":11727,"labels":11728,"Ġaer":11729,"Ġcous":11730,"itative":11731,"Ġpars":11732,"ĠSEC":11733,"imation":11734,"ĠHum":11735,"Ġoutcome":11736,"ĠYears":11737,"Ġquake":11738,"convert":11739,"Ġdefending":11740,"hesis":11741,"Ġ66":11742,"ONG":11743,"Ġoperate":11744,"Ġdemocracy":11745,"Ġskill":11746,"Ġadvoc":11747,"ĠAmazon":11748,"Report":11749,"Ġwithdrawal":11750,"Ġscholars":11751,"ĠclampUint":11752,"ĠTajikistan":11753,"95":11754,"Ġfits":11755,"ington":11756,"ĠSid":11757,"Ġstating":11758,"ĠPho":11759,"ĠFamily":11760,"Ġrushed":11761,"osis":11762,"Ġnep":11763,"Ġsuck":11764,"Ġslap":11765,"Ġorigins":11766,"nessee":11767,"Ġsignal":11768,"Ġmedic":11769,"Ġcomputed":11770,"ĠOrleans":11771,"Ġdraws":11772,"Ġarrives":11773,"Ġobsah":11774,"Ġcopyright":11775,"ĠMotors":11776,"ĠDodgers":11777,"Ġallegations":11778,"GFP":11779,"JRB":11780,"LY":11781,"Tensor":11782,"tw":11783,"Ġtill":11784,"enz":11785,"Ġcrop":11786,"Ġpension":11787,"Ġdense":11788,"ĠAccess":11789,"ĠFerr":11790,"Ġfiling":11791,"Ġsovereign":11792,"osti":11793,"ĠYukos":11794,"ĠSean":11795,"Ġstriking":11796,"Ġaccessible":11797,"Ġillness":11798,"Ġestablishment":11799,"JRBGFP":11800,"Day":11801,"hr":11802,"Ġwrest":11803,"ito":11804,"ĠMu":11805,"ĠMGM":11806,"Ġ/=":11807,"through":11808,"ĠNichol":11809,"ĠLuke":11810,"ĠbyÅ¥":11811,"ĠUlt":11812,"ĠCho":11813,"conf":11814,"Ġattitude":11815,"Ġdrink":11816,"Ä¾ÃºÄį":11817,"Ġappearing":11818,"Ġreduction":11819,"Ġdrag":11820,"ĠContent":11821,"True":11822,"Ġshallow":11823,"0193":11824,"Sur":11825,"hÄ¾ad":11826,"mine":11827,"inely":11828,"ĠTed":11829,"ento":11830,"ĠPot":11831,"Ġdeleg":11832,"Ġshipping":11833,"ĠIntegr":11834,"Ġunemploy":11835,"Ġscared":11836,"ĠCharg":11837,"Ġpartly":11838,"phony":11839,"Ġgenerating":11840,"Ġrestored":11841,"Ġpublicly":11842,"Ġparticle":11843,"ĠSett":11844,"Ġcurrency":11845,"Ġlawsuits":11846,"Ġevaluation":11847,"Ġobjekt":11848,"ĠSaturn":11849,"Images":11850,"Det":11851,"SI":11852,"aa":11853,"inally":11854,"Ġwounding":11855,"Ġinfect":11856,"eto":11857,"imony":11858,"Ġstays":11859,"Ġstolen":11860,"ounced":11861,"Ġprojection":11862,"Ġupcoming":11863,"aval":11864,"Ġovercome":11865,"ovÃ½":11866,"Ġheader":11867,"autiful":11868,"ĠRussell":11869,"ĠNotes":11870,"Ġrounds":11871,"Ã´z":11872,"ĠpdfPage":11873,"ĠEverything":11874,"Ġblurred":11875,"Ġastronaut":11876,"Ġredeeming":11877,"quiry":11878,"oj":11879,"sqrt":11880,"Ġles":11881,"ĠTOR":11882,"ĠCelt":11883,"rived":11884,"ĠRace":11885,"ĠChan":11886,"Ġbacked":11887,"rowing":11888,"insula":11889,"Ġwarming":11890,"Ġtopics":11891,"Ġpredec":11892,"Ġ250":11893,"Scale":11894,"Ġcustomer":11895,"Ġdamn":11896,"written":11897,"Context":11898,"Ġalgorithms":11899,"ĠSilver":11900,"Ġvideos":11901,"Ġunderstood":11902,"ĠTreasury":11903,",'":11904,"Ara":11905,"tf":11906,"Ġfro":11907,"Ġbell":11908,"Ġbarg":11909,"Ġpatch":11910,"ctl":11911,"entious":11912,"olis":11913,"ĠPL":11914,"ĠHits":11915,"Ġconqu":11916,"ĠJos":11917,"Ġoutra":11918,"Ġspan":11919,"Ġevident":11920,"Ġvaluable":11921,"Ġdepicted":11922,"ĠÄįas":11923,"ĠVegas":11924,"ĠBattalion":11925,"Will":11926,"bro":11927,"cious":11928,"mask":11929,"nu":11930,"Ġtut":11931,"Ġsends":11932,"itals":11933,"Ġmi":11934,"Ġlon":11935,"Ġreaches":11936,"ĠCop":11937,"ĠMort":11938,"ulative":11939,"Ġsear":11940,"ghai":11941,"Ġscoped":11942,"Ġ{\"":11943,"\">{{":11944,"Ġportra":11945,"Ġplaceholder":11946,"Ġtargeted":11947,"Ġhook":11948,"Ġkinds":11949,"ĠAbbey":11950,"Ġprediction":11951,"FPS":11952,"Ġinvestigating":11953,"ĠBuild":11954,"ambling":11955,"Ġboundaries":11956,"isphere":11957,"aussian":11958,"Ok":11959,"Sec":11960,"mind":11961,"pson":11962,"Ġwis":11963,"eness":11964,"eld":11965,"ental":11966,"ĠLines":11967,"Ġchapter":11968,"ĠJun":11969,"ĠKurt":11970,"Then":11971,"Ġfee":11972,"liver":11973,"ĠArts":11974,"Ġinspect":11975,"ĠGrant":11976,"Ġartificial":11977,"ĠPlot":11978,"Ġcarefully":11979,"Ġhover":11980,"Ġ1993":11981,"ĠPolit":11982,"ĠHTTP":11983,"speed":11984,"Ġsucceeded":11985,"Ġeliminated":11986,"Russian":11987,"ĠLaunch":11988,"rine":11989,"tool":11990,"zed":11991,"Ġcant":11992,"rob":11993,"ayana":11994,"ĠFOR":11995,"ĠJets":11996,"ĠChile":11997,"Ġmeat":11998,"Ġraises":11999,"ĠSeven":12000,"Ġwatchdog":12001,"Ġhelpful":12002,"Ġsigning":12003,"Ġcourts":12004,"Ġprogramme":12005,"Child":12006,"Ġpresentation":12007,"ĠRooney":12008,"Ġcircul":12009,"OUR":12010,"Ġliterary":12011,"ONTO":12012,"ĠJoan":12013,"Ġbattery":12014,"Ġrenewed":12015,"Ġattorney":12016,"ĠpdfjsLib":12017,"Lin":12018,"ses":12019,"ĠCry":12020,"ĠWang":12021,"ĠWrite":12022,"Ġrand":12023,"Ġranges":12024,"ĠEval":12025,"Ġkont":12026,"Ġages":12027,"ishop":12028,"Ġcharacteristics":12029,"Ġinstalling":12030,"Ġpromises":12031,"Ġtraders":12032,"Ġcomedic":12033,"Ġfocusing":12034,"Ġsadly":12035,"Ġsecretary":12036,"Ġlifted":12037,"Ġopportunities":12038,"ĠTrophy":12039,"ĠBryant":12040,"PeopleSoft":12041,"53":12042,"lon":12043,"rr":12044,"uating":12045,"ÃĹ":12046,"Ġtrem":12047,"Ġfet":12048,"Ġancest":12049,"ĠAthlet":12050,"ĠPad":12051,"ĠHell":12052,"ĠHistor":12053,"ĠRail":12054,"ĠFriend":12055,"Ġsharing":12056,"Ġkiss":12057,"pless":12058,"ĠThus":12059,"ĠVALUES":12060,"Ġroots":12061,"Ġoperates":12062,"header":12063,"ĠPlayer":12064,"Ġopacity":12065,"ĠPercent":12066,"Ġexisted":12067,"ITY":12068,"poÄį":12069,"ĠAuto":12070,"join":12071,"Ne":12072,"Ġted":12073,"Ġincom":12074,"ĠTotal":12075,"ĠSaudi":12076,"aya":12077,"ĠDate":12078,"ĠGive":12079,"ĠJen":12080,"Ġjury":12081,"ĠKate":12082,"Ġcommittee":12083,"oys":12084,"ĠAlabama":12085,"Ġblond":12086,"Ġcoron":12087,"Ġproviders":12088,"ielder":12089,"Ġdeter":12090,"Ġbusy":12091,"Ġabsence":12092,"ĠPope":12093,"Ġcivilians":12094,"Ġexpanding":12095,"construct":12096,"Ġrestaurant":12097,"ĠMicrosystems":12098,"ĠTORONTO":12099,"96":12100,"Sign":12101,"jan":12102,"kward":12103,"Ġticket":12104,"Ġauction":12105,"Ġsampling":12106,"atched":12107,"itches":12108,"Ġbag":12109,"Ġbass":12110,"Ġpul":12111,"ĠHockey":12112,"ĠItem":12113,"Ġaged":12114,"ancer":12115,"Ġgenerator":12116,"Ġpassenger":12117,"worker":12118,"Ġfacility":12119,"Ġtowns":12120,"Ġlearns":12121,"rendered":12122,"ĠWilson":12123,"ĠStrong":12124,"Ġcalm":12125,"Ġpermission":12126,"NL":12127,"rant":12128,"torch":12129,"Ġot":12130,"Ġinev":12131,"amd":12132,"ĠPoll":12133,"Ġwhilst":12134,"resize":12135,"apo":12136,"Ġhadn":12137,"Ġedited":12138,"Ġtopic":12139,"ĠMayor":12140,"ĠSteven":12141,"vanie":12142,"Ġinfrastructure":12143,"Ġconsumption":12144,"rolled":12145,"Ġhumorous":12146,"Ġextraordin":12147,"ĠHoly":12148,"Ġpolls":12149,"ĠEarnings":12150,"iors":12151,"selling":12152,"Ġslov":12153,"Ġhated":12154,"odox":12155,"emies":12156,"ĠDa":12157,"ĠNHL":12158,"ĠGA":12159,"Ġclash":12160,"aware":12161,"Ġraid":12162,"Ġwarnings":12163,"Ġstudios":12164,"Ġmanaging":12165,"Ġawkward":12166,"loader":12167,"Ġamongst":12168,"Ġjoining":12169,"ĠRoberts":12170,"ĠSpeed":12171,"Ġdistributed":12172,"ĠRobinson":12173,"ĠReturns":12174,"ciples":12175,"Ġtackle":12176,"British":12177,"Pakistan":12178,"Rem":12179,"first":12180,"iqu":12181,"Ġhalt":12182,"ĠIV":12183,"ĠCuts":12184,"ĠMets":12185,"Ġmock":12186,"ĠHaving":12187,"ĠGreg":12188,"ĠED":12189,"closed":12190,"nection":12191,"Ġpoison":12192,"Ġenters":12193,"Ġscenario":12194,"Ġ186":12195,"Ġpopulations":12196,"ĠChristians":12197,"Ġcultures":12198,"ĠControl":12199,"Ġrooms":12200,"Ġfloating":12201,"Ġbirthday":12202,"Ġwoods":12203,"Texture":12204,"Ġwealthy":12205,"Ġintriguing":12206,"ĠTurkish":12207,"Grad":12208,"Rel":12209,"average":12210,"dot":12211,"iad":12212,"wing":12213,"atio":12214,"Ġfo":12215,"ilo":12216,"stal":12217,"Ġgithub":12218,"ĠAG":12219,"ĠMusharraf":12220,"emen":12221,"Ġsake":12222,"ĠVar":12223,"ĠVik":12224,"ĠYang":12225,"ampa":12226,"Ġrelie":12227,"ĠForbes":12228,"Ġoperated":12229,"kyt":12230,"NewImage":12231,"Profile":12232,"Ġinfluential":12233,"Ġignor":12234,"Ġtiming":12235,"Ġexperimental":12236,"ĠWii":12237,"ĠEconomic":12238,"European":12239,"Ġfundamental":12240,"Ġalcohol":12241,"lÃ¡":12242,"onia":12243,"Ġwise":12244,"Ġfruit":12245,"Ġmature":12246,"Ġnvidia":12247,"ĠSab":12248,"ĠBh":12249,"ĠBow":12250,"ĠHus":12251,"Ġdeput":12252,"Ġchampions":12253,"Ġoverflow":12254,"Ġ46":12255,"ĠRead":12256,"Ġracing":12257,"Ġzobraz":12258,"ĠExpos":12259,"ĠTherefore":12260,"Ġparody":12261,"Ġ1989":12262,"syl":12263,"ĠSimilar":12264,"Ġtranslation":12265,"Ġchallenging":12266,"Ġsubstantial":12267,"Ġconspiracy":12268,"=,":12269,"CV":12270,"Light":12271,"mouse":12272,"zt":12273,"Ġhanging":12274,"Ġhockey":12275,"anded":12276,"oser":12277,"icked":12278,"Ġgrat":12279,"Ġsym":12280,"Ġexposed":12281,"Ġinsights":12282,"Ġhandles":12283,"ĠIndians":12284,"Ġfacts":12285,"minute":12286,"Ġpractical":12287,"Ġhonour":12288,"Ġembassy":12289,"Ġdiscussed":12290,"Ġdominant":12291,"Ġreplacement":12292,"spec":12293,"ĠEnvironment":12294,"ĠEducation":12295,"Big":12296,"Comm":12297,"Email":12298,"route":12299,"Ġtren":12300,"Ġbon":12301,"ĠTigers":12302,"ĠSri":12303,"ĠCur":12304,"Ġbehead":12305,"Ġvir":12306,"ĠLas":12307,"Ġworried":12308,"icking":12309,"Ġ43":12310,"ĠComponent":12311,"Ġsubmar":12312,"Ġprovin":12313,"anches":12314,"Ġexped":12315,"Ġplots":12316,"Ġpossess":12317,"ĠÄįi":12318,"ĠJews":12319,"Ġconversations":12320,"itzerland":12321,"Ġguidance":12322,"Global":12323,"dem":12324,"pace":12325,"vm":12326,"Ġaabb":12327,"Ġdod":12328,"ĠBL":12329,"ĠLess":12330,"Ġunh":12331,"ĠStyles":12332,"Ġattached":12333,"Ġslide":12334,"Å¾ÃŃv":12335,"return":12336,"Ġwonderfully":12337,"Ġstarred":12338,"ĠPerform":12339,"network":12340,"Ġinjuries":12341,"Ġbenef":12342,"Ġvisitors":12343,"ĠCapital":12344,"ĠTennessee":12345,"ĠMachine":12346,"BeyoncÃ©":12347,"Random":12348,"yan":12349,"Ġtear":12350,"stable":12351,"ceÅ¡":12352,"ĠMey":12353,"ĠNative":12354,"rome":12355,"avatel":12356,"ĠAnal":12357,"ORD":12358,"umbling":12359,"Ġcredited":12360,"pdfjs":12361,"Ġrevol":12362,"irtual":12363,"texture":12364,"Ġamounts":12365,"Address":12366,"Ġtheaters":12367,"Ġnewspapers":12368,"Ġnortheast":12369,"ĠEagles":12370,"Ġaccompanied":12371,"wich":12372,"Ġssh":12373,"ĠSuch":12374,"ĠLayer":12375,"ubs":12376,"Ġrecurs":12377,"Ġanybody":12378,"Ġlessons":12379,"uffle":12380,"Ġlanded":12381,"castle":12382,"ĠMuslims":12383,"incoln":12384,"Ġ}}\">":12385,"ĠScientists":12386,"ĠKenneth":12387,"Ġflesh":12388,"PDF":12389,"bors":12390,"nik":12391,"orse":12392,"ĠSound":12393,"ĠMut":12394,"ĠMess":12395,"email":12396,"ĠLay":12397,"result":12398,"ĠChase":12399,"Ġpermissions":12400,"Ġsomebody":12401,"Ġspots":12402,"othy":12403,"Ġoptimize":12404,"Ġcombine":12405,"Ġgrave":12406,"Ġimprovement":12407,"Ġprofessor":12408,"Ġallegedly":12409,"Ġstrengthen":12410,"Dou":12411,"ept":12412,"kom":12413,"}},":12414,"only":12415,"Ġsack":12416,"Ġwitch":12417,"Ġocean":12418,"Ġpacing":12419,"ĠSichuan":12420,"Ġrall":12421,"expl":12422,"gets":12423,"Ġgram":12424,"ĠSection":12425,"Ġsubscri":12426,"Ġreceiver":12427,"Ġcaptures":12428,"ĠDesign":12429,"Ġdestro":12430,"Ġphoto":12431,"Ġlaunching":12432,"Ġeducational":12433,"ĠTechnologies":12434,"Ġmagnific":12435,"Ġlicense":12436,".-":12437,"02":12438,"<<":12439,"cock":12440,"gus":12441,"tml":12442,"itement":12443,"ĠSad":12444,"ĠAS":12445,"ircle":12446,"Ġvess":12447,"Ġchurches":12448,"Ġintr":12449,"acent":12450,"Ġresigned":12451,"Ġ1918":12452,"Ġ\\,":12453,"args":12454,"ĠArn":12455,"ĠMarie":12456,"Also":12457,"Ġrecognition":12458,"ĠBusch":12459,"Ġpipeline":12460,"Ġmanufacturer":12461,"Ġgods":12462,"ĠConstitution":12463,"ĠCarlos":12464,"ĠHewitt":12465,"onymous":12466,"ĠIllinois":12467,"ĠCGI":12468,"ĠFigure":12469,"\"?":12470,"vate":12471,"Ġbacter":12472,"ingular":12473,"Ġmism":12474,"Ġprav":12475,"Ġinher":12476,"amo":12477,"ĠCe":12478,"ĠRaj":12479,"errill":12480,"ĠRele":12481,"iban":12482,"cope":12483,"Ġconsiderable":12484,"ĠskÃº":12485,"Ġreviewer":12486,"Ġsatire":12487,"Ġtracking":12488,"ĠSwitzerland":12489,"Ġbeaten":12490,"ĠFrancis":12491,"ĠNASCAR":12492,"Ġpromoted":12493,"Server":12494,"ĠConnect":12495,"Ġopponents":12496,"NE":12497,"find":12498,"wolf":12499,"Ġfame":12500,"semble":12501,"ĠGerm":12502,"uple":12503,"Intern":12504,"ĠFran":12505,"Ġembed":12506,"Ġmetropolitan":12507,"Ġpresents":12508,"Ġinsisted":12509,"Ġfemin":12510,"Ġrolling":12511,"ĠChristianity":12512,"column":12513,"ÃŃvne":12514,"ĠFirefox":12515,"ĠHandling":12516,"Ġprinciples":12517,"Ġneutral":12518,"rezent":12519,"Ġtongue":12520,"Kernel":12521,"WA":12522,"range":12523,"Ġinfer":12524,"lements":12525,"Ġrevel":12526,"ĠSold":12527,"ĠABC":12528,"usive":12529,"ĠRu":12530,"ĠGill":12531,"enda":12532,"ĠOtt":12533,"ĠJud":12534,"elli":12535,"Ġdock":12536,"Ġcontents":12537,"Ġprelim":12538,"Ġworlds":12539,"century":12540,"ujem":12541,"Ġtwelve":12542,"LECT":12543,"helps":12544,"Ġconvicted":12545,"Ġdenomin":12546,"Ġpersists":12547,"ĠboundingBox":12548,"Ġspeaks":12549,"Ġpromotion":12550,"ĠSatellite":12551,"********":12552,"Ġencouraged":12553,"Ġassumed":12554,"riminator":12555,"TE":12556,"buffer":12557,"Ġtank":12558,"ervation":12559,"Ġbars":12560,"ilateral":12561,"agg":12562,"ĠRav":12563,"ĠRises":12564,"uper":12565,"alling":12566,"Ġuncle":12567,"Ġhash":12568,"Ġpref":12569,"rene":12570,"Ġprince":12571,"Ġunderground":12572,"Ġclassification":12573,"ĠSpir":12574,"Ġexperiments":12575,"ART":12576,"enna":12577,"ĠPerformance":12578,"Ġcollaboration":12579,"ĠAssociates":12580,"Ġdebuted":12581,"Ġregularly":12582,"ĠðŁĶ":12583,"Ġreminds":12584,"ĠFalluja":12585,"ĠCastle":12586,"Ġprincipal":12587,"Ġscholar":12588,"ĠBrothers":12589,"Ġimmigrants":12590,"Work":12591,"Ġ^":12592,"Ġmu":12593,"Ġmile":12594,"Ġpuzz":12595,"Ġladies":12596,"ĠTam":12597,"ĠSav":12598,"oween":12599,"ĠMOS":12600,"ĠDO":12601,"iva":12602,"ĠUpon":12603,"Ġcann":12604,"Ġrecip":12605,"Ġtrapped":12606,"Ġrelax":12607,"Ġproductions":12608,"Ġelabor":12609,"Ġannually":12610,"Ġlegs":12611,"Ġ1994":12612,"Chart":12613,"Ġoptimized":12614,"Ġtraveled":12615,"nÃ½m":12616,"Ġbuttons":12617,"Ġpreferred":12618,"Ġdebugging":12619,"ĠPennsyl":12620,"FB":12621,"dick":12622,"fw":12623,"isy":12624,"edge":12625,"ĠSa":12626,"Ġgift":12627,"Ġegg":12628,"Ġyen":12629,"ĠrÃ´z":12630,"Ġfilters":12631,"ĠKU":12632,"Ġpartial":12633,"asha":12634,"ĠZomb":12635,"ĠUsage":12636,"Ġarchitectural":12637,"ĠCrude":12638,"ĠLawrence":12639,"Ġtheatrical":12640,"Å¾ÃŃva":12641,"Ġcoordinate":12642,"ĠspoloÄį":12643,"CPU":12644,"Sony":12645,"cott":12646,"nod":12647,"Ġnut":12648,"ĠAverage":12649,"amous":12650,"ĠCreek":12651,"ĠCambod":12652,"Ġbeings":12653,"ĠBert":12654,"ĠDS":12655,"Ġranging":12656,"ĠLen":12657,"ĠJess":12658,"Ġunions":12659,"Ġabbey":12660,"Ġ<-":12661,"Ġarbit":12662,"anson":12663,"Init":12664,"Ġapplying":12665,"ocking":12666,"shi":12667,"Ġmetaph":12668,"Ġ85":12669,"Ġassumes":12670,"Ġstructured":12671,"Ġlesson":12672,"umbled":12673,"Ġcovering":12674,"ĠSmall":12675,"Ġignore":12676,"ĠÅ¡truktÃº":12677,"ĠBangladesh":12678,"Ġcommunications":12679,"heatmap":12680,"las":12681,"lings":12682,"zan":12683,"Ġaplik":12684,"atist":12685,"alin":12686,"ĠAud":12687,"ĠRays":12688,"ĠGL":12689,"ĠLama":12690,"Ġproof":12691,"Ġgrass":12692,"Ġclassified":12693,"Ġexposure":12694,"models":12695,"Ġhomer":12696,"Ġinitialize":12697,"Ġdiscovers":12698,"Ġsubjects":12699,"IntersectBVH":12700,"ĠBrazilian":12701,"ĠMurphy":12702,"Ġcomfortable":12703,"Ġvampire":12704,"Ġnicely":12705,"ĠPhoen":12706,"Like":12707,"`**":12708,"material":12709,"Ġdiver":12710,"ĠAR":12711,"ĠPir":12712,"ĠFul":12713,"Ġscope":12714,"Ġcanon":12715,"Ġovernight":12716,"Ġcharism":12717,"Ġbackend":12718,"ĠSequential":12719,"Ġtransp":12720,"ĠPrinc":12721,"Ġconcurrent":12722,"Ġmiser":12723,"Ġpulls":12724,"Ġpulling":12725,"Ġdemanding":12726,"Ġterritories":12727,"Overlay":12728,"Other":12729,"inis":12730,"Ġpandas":12731,"Ġincomp":12732,"Ġdating":12733,"ĠHamp":12734,"ĠHills":12735,"resolution":12736,"Ġpeoples":12737,"Ġfarm":12738,"Ġperiods":12739,"Ġfiring":12740,"ovanÃ©":12741,"Ġupdating":12742,"OME":12743,"ĠHoldings":12744,"Ġpremiered":12745,"Ġobtained":12746,"Camera":12747,"rection":12748,"Ġsizes":12749,"Ġwalks":12750,"Ġmaj":12751,"Ġdressed":12752,"Ġnaturally":12753,"ĠPam":12754,"ĠFoster":12755,"Ġvon":12756,"ĠGraph":12757,"Ġexports":12758,"ourse":12759,"assi":12760,"Ġoverly":12761,"Ġrecru":12762,"Ġacclaim":12763,"ugby":12764,"lectric":12765,"ĠProduct":12766,"ĠApplic":12767,"Ġreceives":12768,"ĠRunning":12769,"ĠNovell":12770,"ĠBeckham":12771,"VP":12772,"Ġbland":12773,"Ġnom":12774,"ĠSokoban":12775,"Ġeager":12776,"ĠDow":12777,"Ġcompiler":12778,"apolis":12779,"ĠUnlike":12780,"ĠSees":12781,"Ġrealism":12782,"Ġvisits":12783,"Ġhalfway":12784,"Ġwindows":12785,"ÐµÐ½":12786,"Ġspoof":12787,"Ġcruel":12788,"Ġweapon":12789,"ĠTrek":12790,"film":12791,"ĠTransform":12792,"Ġtemperatures":12793,"ĠIndonesian":12794,"Ġâŀľ":12795,"Ġabr":12796,"ayed":12797,"Ġgal":12798,"igg":12799,"Ġstom":12800,"ĠWarn":12801,"ĠRaid":12802,"ĠGi":12803,"ĠLanka":12804,"ĠLincoln":12805,"ĠVHS":12806,"types":12807,"Ġsignature":12808,"Ġcomeback":12809,"Ġsentenced":12810,"Ġ1987":12811,"Ġcurious":12812,"Ġdrops":12813,"BVHNode":12814,"Eng":12815,"Ġreactions":12816,"ĠMend":12817,"irts":12818,"Ġassembly":12819,"ĠRal":12820,"ĠGiven":12821,"ĠOwen":12822,"plates":12823,"ĠThreat":12824,"Ġwheel":12825,"ĠVote":12826,"Ġ59":12827,"othic":12828,"Ġefficiency":12829,"ĠLeader":12830,"Ġintroduces":12831,"Ġvyu":12832,"ĠHelp":12833,"ĠBraves":12834,"OWN":12835,"ographed":12836,"accur":12837,"General":12838,"Ġsteady":12839,"Ġcollapsed":12840,"120":12841,"Host":12842,"Layer":12843,"Mont":12844,"css":12845,"pÅ¡":12846,"zmlu":12847,"Ġwreck":12848,"Ġthirty":12849,"ĠFather":12850,"Ġsections":12851,"ĠOri":12852,"Ġplastic":12853,"avor":12854,"Ġovers":12855,"Ġantitrust":12856,"Ġstatistics":12857,"Ġprivile":12858,"Ġsuggesting":12859,"Ġescaped":12860,"Ġsurviving":12861,"ĠLiu":12862,"Ġrisks":12863,"ĠAssociated":12864,"ĠSyd":12865,"ĠBloom":12866,"WaitGroup":12867,"ĠCalculation":12868,"Ġpropaganda":12869,"Ġobservations":12870,"ĠPennsylvania":12871,"feld":12872,"pers":12873,"Äĩ":12874,"enÃ©":12875,"Ġfold":12876,"ĠTakes":12877,"vez":12878,"clip":12879,"Ġsurpass":12880,"Ġregret":12881,"Three":12882,"Ġcounts":12883,"Ġmonarch":12884,"Ġreporter":12885,"Ġdivor":12886,"Ġbarrier":12887,"ĠSchum":12888,"Ġargue":12889,"ĠJustin":12890,"Ġroads":12891,"Ġsuspension":12892,"Ġinstitution":12893,"ĠHawai":12894,"Ġsubsidiary":12895,"Ġoverwhelming":12896,"ĠNobel":12897,"NASA":12898,"Every":12899,"Mult":12900,"ded":12901,"director":12902,"Ġcops":12903,"oured":12904,"Ġhill":12905,"ĠCinem":12906,"imination":12907,"Ġbez":12908,"ĠDoc":12909,"ĠFish":12910,"Ġnotably":12911,"ĠkaÅ¾d":12912,"versal":12913,"Ġteeth":12914,"Ġpartition":12915,"scaling":12916,"Ġdistract":12917,"Ġrestore":12918,"Ġgraf":12919,"ĠDesktop":12920,"Ġdoubled":12921,"Adam":12922,"igroup":12923,"Ġrubbish":12924,"ĠSweden":12925,"ĠSpring":12926,"bie":12927,"cap":12928,"send":12929,"Ġwars":12930,"Ġcsv":12931,"Ġmere":12932,"omber":12933,"otte":12934,"ĠCrown":12935,"ĠOpp":12936,"ogw":12937,"Ġfled":12938,"Ġunderlying":12939,"Ġ68":12940,"oxel":12941,"iko":12942,"training":12943,"ReLU":12944,"Ġsuffers":12945,"Ġtourists":12946,"true":12947,"ĠTwins":12948,"Ġvertical":12949,"Ġtranslate":12950,"Ġfortune":12951,"Ġmaintaining":12952,"Ġencourage":12953,"Ġduty":12954,"ĠShiite":12955,"Ġpregnant":12956,"Yes":12957,"cular":12958,"Ġbug":12959,"ĠTento":12960,"ĠTampa":12961,"util":12962,"ĠAle":12963,"Ġforcing":12964,"chy":12965,"ĠBased":12966,"ĠBaby":12967,"ĠHP":12968,"ĠRandom":12969,"umbo":12970,"ounters":12971,"orest":12972,"ensk":12973,"ickÃ½":12974,"âĢ¦":12975,"Ġ51":12976,"Ġraces":12977,"Ġconservative":12978,"Ġwatchable":12979,"azer":12980,"Ġmeters":12981,"ĠZh":12982,"Ġweekly":12983,"Ġtalents":12984,"ĠScout":12985,"Ġexcitement":12986,"Ġgrows":12987,"ĠPalm":12988,"Ġindustries":12989,"Ġminds":12990,"Ġstrip":12991,"Ġsettlers":12992,"Ġjoins":12993,"ĠSuperman":12994,"ovanÃ½":12995,"Ġroutine":12996,"Ġcontracts":12997,"Ġcalculates":12998,"Ġagrees":12999,"Ġchoices":13000,"Ġdiscussion":13001,"Ġcardinal":13002,"ĠclichÃ©s":13003,"Ġrectangle":13004,"ĠPARIS":13005,"Mus":13006,"dig":13007,"ju":13008,"lays":13009,"reated":13010,"Ġwolf":13011,"itage":13012,"ĠSyn":13013,"ĠPle":13014,"agen":13015,"Ġrig":13016,"ĠGDP":13017,"Ġabroad":13018,"ĠVice":13019,"ĠUnit":13020,"Ins":13021,"Ġrelatives":13022,"ĠFront":13023,"sche":13024,"Ġrefres":13025,"Ġdrum":13026,"idding":13027,"chess":13028,"market":13029,"ĠOutlook":13030,"ACD":13031,"Ġcelebrated":13032,"ĠSudanese":13033,"Ġrental":13034,"ĠMemory":13035,"Donald":13036,"ĠHorror":13037,"Ġgoroutine":13038,"Ġregistered":13039,"Ġsacrif":13040,"ĠZelda":13041,"Ġsophisticated":13042,"Ġauthors":13043,"Chess":13044,"buck":13045,"gAA":13046,"hittable":13047,"lections":13048,"ĠTower":13049,"ethe":13050,"ĠDave":13051,"Ġenemies":13052,"Ġreserve":13053,"osexual":13054,"ĠDecl":13055,"Ġshoulder":13056,"Ġcentered":13057,"Ġdecor":13058,"Ġdivide":13059,"Ġgolden":13060,"ĠHamas":13061,"ACK":13062,"currentFrame":13063,"ĠMontreal":13064,"Ġrobot":13065,"Ġburst":13066,"Ġprecision":13067,"Ġburned":13068,"Ġreinforcement":13069,"ĠSQLite":13070,"imbab":13071,"Ġassassin":13072,"ICHARD":13073,"Source":13074,"pad":13075,"oned":13076,"Ġsvoj":13077,"Ġcro":13078,"arth":13079,"raint":13080,"ĠWis":13081,"Ġ./":13082,"ĠRh":13083,"Ġatop":13084,"Ġchap":13085,"ĠJu":13086,"aws":13087,"ierarch":13088,"Ġsecurities":13089,"ĠColomb":13090,"traction":13091,"ĠNetworks":13092,"Ġjumps":13093,"Ġshocked":13094,"ĠDevon":13095,"Ġtransferred":13096,"imbabwe":13097,"Down":13098,"Sm":13099,"Ġcited":13100,"Ġfitz":13101,"Ġmesh":13102,"otion":13103,"Ġjazz":13104,"inea":13105,"Ġcloud":13106,"Ġslam":13107,"ikes":13108,"Ġobjective":13109,"ĠColon":13110,"BAD":13111,"Ġimagin":13112,"Blue":13113,"Ġsafely":13114,"ĠDouble":13115,"ĠHewlett":13116,"Ġtemporarily":13117,"Ġcousin":13118,"Ab":13119,"gi":13120,"hill":13121,"water":13122,"Ġtm":13123,"Ġsne":13124,"Ġpor":13125,"arp":13126,"Ġdust":13127,"unte":13128,"ieÅ¡":13129,"ĠWo":13130,"ĠGy":13131,"Ġnearest":13132,"ovi":13133,"Ġmayor":13134,"ĠAlt":13135,"Äįuje":13136,"ĠTrust":13137,"ĠTrading":13138,"umping":13139,"Ġroutes":13140,"ijay":13141,"ĠBelow":13142,"COW":13143,"Ġadapted":13144,"Ġpurely":13145,"ĠDevil":13146,"Ġdeparture":13147,"Pointer":13148,"DUKE":13149,"ĠBarbara":13150,"59":13151,"kle":13152,"mount":13153,"nia":13154,"pur":13155,"prom":13156,"ĠÎ":13157,"isons":13158,"Ġnick":13159,"ĠDataset":13160,"Ġshark":13161,"arta":13162,"ivan":13163,"Ġfiltered":13164,"astype":13165,"Ġlocked":13166,"ĠKilled":13167,"ĠThanks":13168,"ĠAnna":13169,"Ġsheer":13170,"center":13171,"Ġappeals":13172,"Ġtraditions":13173,"Ġtrademark":13174,"Ġscripts":13175,"ĠAbd":13176,"ĠPolicy":13177,"Ġdiffuse":13178,"Ġimplementing":13179,"ĠStevens":13180,"Ġclubs":13181,"Ġignored":13182,"ĠTelevision":13183,"Ġantibacterial":13184,"Ġincorporated":13185,"Ġoccasional":13186,"hearted":13187,"ĠShanghai":13188,"ĠDolphins":13189,"ĠMOSCOW":13190,"79":13191,"Future":13192,"Sadr":13193,"gence":13194,"lined":13195,"nast":13196,"Ġtap":13197,"enÃ½":13198,"Ġmph":13199,"eling":13200,"ĠPR":13201,"ĠDue":13202,"ĠThank":13203,"ĠStop":13204,"ousands":13205,"Ġads":13206,"Ġgrounds":13207,"Ġsupern":13208,"Ġ53":13209,"beaten":13210,"Ġgenetic":13211,"Ġpretentious":13212,"Ġ1968":13213,"ĠMerck":13214,"Ġconcerts":13215,"Ġsymbols":13216,"Ġsmoke":13217,"ĠSomalia":13218,"Australia":13219,"Ġdithering":13220,"Ġcasualties":13221,"Ġpreliminary":13222,"FA":13223,"sur":13224,"struct":13225,"ĠSite":13226,"aying":13227,"ĠCREATE":13228,"illery":13229,"Ġseats":13230,"istration":13231,"Ġinstances":13232,"Ġbuys":13233,"Status":13234,"ĠClaim":13235,"ribute":13236,"Ġdesigns":13237,"ĠPygame":13238,"ĠKeaton":13239,"256":13240,"Ġnovels":13241,"ĠMedical":13242,"Ġinitiative":13243,"ĠPictures":13244,"Ġremoving":13245,"Packard":13246,"Ġextraordinary":13247,":<":13248,"PA":13249,"XY":13250,"doc":13251,"global":13252,"hit":13253,"Ġpile":13254,"ĠdÃ´":13255,"icer":13256,"ĠIan":13257,"ĠSym":13258,"owa":13259,"ĠPath":13260,"ĠProp":13261,"ĠRoute":13262,"Ġsail":13263,"Ġinteractions":13264,"Ġfees":13265,"ĠNewcastle":13266,"ĠUSB":13267,"Ġeveryday":13268,"Ġinches":13269,"aha":13270,"Ġcarbon":13271,".\"<":13272,"Ġconvince":13273,"ĠHamm":13274,"OUL":13275,"Ġheroine":13276,"Ġutility":13277,"ĠCountry":13278,"ski":13279,"Ġneighboring":13280,"Ġdelightful":13281,"Ġstrategies":13282,"Ġcancelled":13283,"Dense":13284,"hran":13285,"vised":13286,"Ġwaves":13287,"Ġpicks":13288,"Ġtoss":13289,"Ġgru":13290,"ĠFix":13291,"ĠFannie":13292,"Ġseized":13293,"Ġramp":13294,"anga":13295,"Ġprie":13296,"Ġzip":13297,"Ġeleven":13298,"ĠIraqis":13299,"Ġprocessed":13300,"Ġdesignated":13301,"pora":13302,"Ġnationwide":13303,"elligence":13304,"Ġadjustments":13305,"Ġcivilian":13306,"ypical":13307,"Ġembarrassing":13308,"ĠFleet":13309,"ĠGorgonia":13310,"Ġhence":13311,"Ġnonsense":13312,"itual":13313,"odak":13314,"ĠRandy":13315,"Ġ===":13316,"ellar":13317,"Ġspite":13318,"ĠReports":13319,"Ġbacks":13320,"ĠUSSR":13321,"Ġ180":13322,"Ġprofound":13323,"minster":13324,"Ġcease":13325,"ĠParker":13326,"ACi":13327,"ĠObser":13328,"ĠEveryone":13329,"Ġbrows":13330,"Ġexplosions":13331,"ĠOption":13332,"Ġtranslated":13333,"Ġpursue":13334,"ĠSlavs":13335,"Ġemphasis":13336,"Ġemotionally":13337,"optimizer":13338,"KAACi":13339,"ACDKAACi":13340,"Agy":13341,"KIM":13342,"SA":13343,"nvidia":13344,"rong":13345,"session":13346,"Ġshed":13347,"Ġnast":13348,"amy":13349,"igate":13350,"ĠTheat":13351,"Ġvow":13352,"ĠLiving":13353,"Ġprops":13354,"Ġperpet":13355,"Ġroof":13356,"Ġendless":13357,"oco":13358,"Ġbrig":13359,"Ġmissions":13360,"parison":13361,"Change":13362,"ĠResources":13363,"DAAgy":13364,"Ġcompetitive":13365,"Ġrocks":13366,"Ġ1945":13367,"ĠMadison":13368,"Ġvisuals":13369,"Ġaccidentally":13370,"ĠLegend":13371,"ĠJacques":13372,"ACDKAACiDAAgy":13373,"ACDKAACiDAAgygAA":13374,"51":13375,"Loss":13376,"May":13377,"Pad":13378,"dense":13379,"safe":13380,"Ġsiege":13381,"Ġfu":13382,"Ġfinger":13383,"Ġbowl":13384,"Ġhtml":13385,"ĠCa":13386,"vec":13387,"ĠMaur":13388,"ĠBuff":13389,"ĠWrap":13390,"ĠDur":13391,"andra":13392,"endum":13393,"ĠOd":13394,"Ġplun":13395,"ective":13396,"ĠStruct":13397,"ouses":13398,"Ġenumer":13399,"ships":13400,"ĠâĢŀ":13401,"Ġrefraction":13402,"Ġprotected":13403,"Ġsummit":13404,"Ġâĸ":13405,"Ġtorchbear":13406,"ĠEdition":13407,"AIMo":13408,"ĠMeet":13409,"Ġvillains":13410,"Ġmeaningful":13411,"Ġinterviews":13412,"ĠAntonio":13413,"Ġadjacent":13414,"ogwAIMo":13415,"ACDKAACiDAAgygAAogwAIMo":13416,"ACDKAACiDAAgygAAogwAIMoAA":13417,"bell":13418,"bound":13419,"double":13420,"oly":13421,"walk":13422,"Ġtensors":13423,"icular":13424,"ĠTitle":13425,"ĠAction":13426,"ĠHass":13427,"istically":13428,"ĠGray":13429,"Ġprog":13430,"Ġallies":13431,"Ġ1936":13432,"Ġinstruction":13433,"Ġ62":13434,"Ġeverywhere":13435,"Ġbrown":13436,"Ġpersonnel":13437,"Ġgenome":13438,"Ġaffili":13439,"Ġterribly":13440,"Ġaccommod":13441,"Ġfrequent":13442,"Ġconversion":13443,"ĠHandle":13444,"Israeli":13445,"ĠTurner":13446,"ĠSarah":13447,"ĠvÅ¡et":13448,"Ġenrichment":13449,"ACDKAACiDAAgygAAogwAIMoAAKIM":13450,"WARD":13451,"cpp":13452,"dam":13453,"mul":13454,"mother":13455,"sky":13456,"telling":13457,"Ġcow":13458,"omed":13459,"Ġlux":13460,"ĠTax":13461,"Ġster":13462,"Ġthats":13463,"ĠPast":13464,"ĠNelson":13465,"ĠGates":13466,"Ġcomparing":13467,"Ġabst":13468,"Ġoverlook":13469,"ĠAlbum":13470,"Ġconstitution":13471,"nych":13472,"ĠAdams":13473,"aughters":13474,"ĠCentre":13475,"ĠpdfDocument":13476,"ĠHamid":13477,"Ġresolved":13478,"ocratic":13479,"ĠRobin":13480,"Ġregulations":13481,"ĠAppe":13482,"Ġstreamlit":13483,"Ġrailway":13484,"Ġstereotypes":13485,"ĠCSV":13486,"ĠVersion":13487,"Ġsurvivors":13488,"ĠÄıal":13489,"ĠArnold":13490,"tav":13491,"Ġtender":13492,"itudes":13493,"Ġpity":13494,"ĠTru":13495,"Ġgear":13496,"ĠMakes":13497,"ifa":13498,"ĠWik":13499,"Ġuniversal":13500,"Ġsued":13501,"iteÄ¾":13502,"Ġcompleting":13503,"Ġrepet":13504,"ĠMartha":13505,"ĠBlu":13506,"Ġtransformation":13507,"skins":13508,"Ġreplacing":13509,"ĠFranklin":13510,"Ġcomplaint":13511,"Contract":13512,"ĠNorway":13513,"Ġplatforms":13514,"Ġforecasts":13515,"ĠtempIntersection":13516,"Ġoptimaliz":13517,"decode":13518,"frame":13519,"Following":13520,"Vert":13521,"direct":13522,"Ġbes":13523,"Ġner":13524,"utes":13525,"ĠMul":13526,"ĠMAN":13527,"ĠBir":13528,"ulpt":13529,"ĠDrew":13530,"Ġvital":13531,"Ġconve":13532,"ĠGarden":13533,"oppy":13534,"abling":13535,"Ġspur":13536,"Ġperformers":13537,"ĠSeen":13538,"ĠShould":13539,"Ġsurreal":13540,"Ġformation":13541,"rawl":13542,"Station":13543,"Ġdealt":13544,"Ġformerly":13545,"ĠAirbus":13546,"ĠBoost":13547,"ĠKeith":13548,"Ġcleared":13549,"Ġpickle":13550,"Ġembark":13551,"Ġemployee":13552,"Ġsuspic":13553,"Ġkingdom":13554,"ĠCorrect":13555,"Ġjednot":13556,"Ġpolygon":13557,"hua":13558,"Ġownership":13559,"Ġlegendary":13560,"Ġliberal":13561,"Ġathletes":13562,"ĠÅł":13563,"Ġisolated":13564,"Ġsnippet":13565,"Ġinhabitants":13566,"ACDKAACiDAAgygAAogwAIMoAAKIMACDKAACiDAAgygAAogwAIMoAAKIM":13567,">);":13568,"DNN":13569,"EE":13570,"Sw":13571,"cop":13572,"clear":13573,"oard":13574,"vÃ½":13575,"oni":13576,"Ġhung":13577,"ioned":13578,"Ġbears":13579,"Ġ/>-":13580,"ateway":13581,"fff":13582,"Ġoverview":13583,"Ġreminis":13584,"Ġzo":13585,"Ġrelation":13586,"Ġentitled":13587,"Ġ95":13588,"Ġbreakdown":13589,"ĠEdge":13590,"Ġcommunist":13591,"Ġtouches":13592,"Along":13593,"ĠPrep":13594,"Ġbrave":13595,"Button":13596,"party":13597,"Ġinvented":13598,"innati":13599,"Ġrepeatedly":13600,"Ġsolely":13601,"Ġprocedure":13602,"Ġsocieties":13603,"ĠRalph":13604,"Ġfest":13605,"uri":13606,"chu":13607,"Ġstress":13608,"ĠRoc":13609,"ĠDocument":13610,"ĠLate":13611,"ĠOliver":13612,"Ġquad":13613,"Ġflags":13614,"ĠAlmost":13615,"avez":13616,"Ġboxing":13617,"bitious":13618,"Ġmenu":13619,"Ġaudition":13620,"offs":13621,"ĠEdwards":13622,"Ġ1986":13623,"incinnati":13624,"amsung":13625,"ĠBigley":13626,"ĠSyria":13627,"Ã¡dza":13628,"Ġaccomplished":13629,"Reader":13630,"Ġconsequences":13631,"ĠNorman":13632,"Ġhorizontal":13633,"Ġunemployment":13634,"ME":13635,"Pressed":13636,"Yahoo":13637,"nom":13638,"person":13639,"reduce":13640,"Ġsons":13641,"Ġbore":13642,"ĠSadd":13643,"emon":13644,"ĠDere":13645,"ĠJak":13646,"ĠJob":13647,"ĠJuan":13648,"Ġworm":13649,"Ġtrace":13650,"Ġobraz":13651,"Ġbranches":13652,"Ġcheer":13653,"ĠAdrian":13654,"âĶĢâĶ":13655,"Å¡e":13656,"ĠProper":13657,"Ġrestruct":13658,"Ġeps":13659,"Ġdesigner":13660,"Ġmeetings":13661,"ĠJackie":13662,"Intensity":13663,"ĠMaryland":13664,"Ġexpressions":13665,"Ġscreaming":13666,"Ġinnovative":13667,"58":13668,"Green":13669,"Tape":13670,"Ġpounds":13671,"asi":13672,"stan":13673,"ĠSize":13674,"utical":13675,"thread":13676,"Ġved":13677,"akh":13678,"Ġweigh":13679,"Ġretained":13680,"ĠAna":13681,"Ġcolony":13682,"Ġrelate":13683,"Ġstrang":13684,"Ġ67":13685,"Ġblamed":13686,"Ġhandheld":13687,"Ġversus":13688,"ĠPlace":13689,"ĠCook":13690,"afone":13691,"Ġhosts":13692,"Ġlandscape":13693,"ĠGuy":13694,"Ġmatching":13695,"Ġinitialized":13696,"ĠGPUs":13697,"Ġintegrated":13698,"ĠOtherwise":13699,"ĠCharlotte":13700,"Ġsatisfying":13701,"Ġruined":13702,"Ġreforms":13703,"ĠWalker":13704,"Ġpovr":13705,"Ġverzia":13706,"43":13707,"big":13708,"Ġmaid":13709,"ĠSide":13710,"ĠWu":13711,"ĠNag":13712,"ĠGreenspan":13713,"ĠEri":13714,"ĠOx":13715,"love":13716,"ĠStre":13717,"Ġweights":13718,"Ġcontrad":13719,"aceutical":13720,"Ġformats":13721,"ĠMario":13722,"ĠSerb":13723,"armaceutical":13724,"Ġposkyt":13725,"Ġflooding":13726,"Ġaccurately":13727,"ĠLisa":13728,"Ġwelcom":13729,"Ġlawyers":13730,"Ġduo":13731,"transform":13732,"Palestin":13733,"ĠPicture":13734,"ĠMSN":13735,"ĠHampshire":13736,"ti":13737,"vic":13738,"zing":13739,"Ġbills":13740,"ĠMol":13741,"ĠBand":13742,"Ġsculpt":13743,"ĠKum":13744,"Ġenabled":13745,"redit":13746,"Ġcoinc":13747,"Ġdelays":13748,"Ġjeal":13749,"Ġemplo":13750,"Enter":13751,"Ġpersons":13752,"Ġstruggled":13753,"Ġteenagers":13754,"ĠChampionships":13755,"Ġfrequency":13756,"Ð¾Ð²":13757,"Ġiterate":13758,"ĠJonathan":13759,"ĠTemple":13760,"Ġrecovered":13761,"Ġdeputy":13762,"600":13763,"Air":13764,"Boston":13765,"orus":13766,"Ġfox":13767,"Ġfps":13768,"Ġbesides":13769,"Ġmand":13770,"ĠIron":13771,"Ġgags":13772,"igm":13773,"Ġstability":13774,"ĠWolf":13775,"ĠGib":13776,"ĠEis":13777,"Ġbyte":13778,"Ġexagger":13779,"Ġabilities":13780,"ĠChip":13781,"uburn":13782,"Ġshowdown":13783,"ĠHeat":13784,"Ġfollowers":13785,"address":13786,"Ġmilitia":13787,"undant":13788,"ĠTHIS":13789,"ĠvÃ½poÄį":13790,"ĠContin":13791,"Ġcontestant":13792,"OfIntersection":13793,"Ġresponded":13794,"Ġpleasant":13795,"Ġexclusively":13796,"ISTS":13797,"cifar":13798,"ĠLabour":13799,"Ġmunicipal":13800,"UST":13801,"inition":13802,"orous":13803,"ĠSie":13804,"ĠBC":13805,"ĠPGA":13806,"ĠRally":13807,"ĠFields":13808,"Ġvowed":13809,"ivate":13810,"uez":13811,"ĠStaff":13812,"acles":13813,"Ġacid":13814,"Ġpassage":13815,"ĠcurrentPrice":13816,"ponents":13817,"Ġchecked":13818,"Ġconcrete":13819,"Ġempire":13820,"ĠAngular":13821,"Ġconfigured":13822,"Ġpeaceful":13823,"ĠDeterm":13824,"ĠDownload":13825,"ĠJeremy":13826,"Ġiteration":13827,"atenate":13828,"ĠHotel":13829,"ĠOperations":13830,"ratio":13831,"ĠHolmes":13832,"ĠEyes":13833,"Ġauthentication":13834,"Ġpoliticians":13835,"ĠPhoenix":13836,"Dataset":13837,"election":13838,"make":13839,"iture":13840,"Ġthro":13841,"Ġgrit":13842,"ĠCA":13843,"ĠBureau":13844,"odafone":13845,"ĠHorn":13846,"ĠRand":13847,"uplic":13848,"enson":13849,"Ġpreced":13850,"Initial":13851,"Ġracial":13852,"Ġtrials":13853,"Ġprocessors":13854,"Ġportrays":13855,"Ġsteals":13856,"Ġcalculating":13857,"ĠiPods":13858,"Before":13859,"Ġcolonial":13860,"Ġracist":13861,"ĠVenezuela":13862,"ĠSydney":13863,"Cube":13864,"rÃŃ":13865,"wart":13866,"Ġtune":13867,"atile":13868,"Ġours":13869,"Ġmm":13870,"Ġwashing":13871,"ĠHitch":13872,"Ġscrew":13873,"ĠKage":13874,"Ġzoom":13875,"Ġdetected":13876,"Ġ99":13877,"Ġreaders":13878,"Items":13879,"Ġfigured":13880,"Ġnormalize":13881,"Ġ1971":13882,"Ġruler":13883,"Ġpainting":13884,"Ġstraightforward":13885,"olean":13886,"Device":13887,"PerBlock":13888,"Ġconsistently":13889,"ĠGrace":13890,"Ġcolleges":13891,"ĠFreddy":13892,"ĠDrive":13893,"btc":13894,"Ġgenuinely":13895,"Ġmathematical":13896,"ĠLauren":13897,"ught":13898,"Ke":13899,"MA":13900,"made":13901,"vi":13902,"ename":13903,"Ġpapers":13904,"Ġreq":13905,"ĠMAR":13906,"ĠPed":13907,"ĠWord":13908,"ĠLaur":13909,"resident":13910,"Ġuninter":13911,"apa":13912,"Ġtril":13913,"Ġoverhead":13914,"Ġspat":13915,"Ġpartially":13916,"Ġfeared":13917,"ullivan":13918,"ĠBeing":13919,"ĠArmed":13920,"Ġrepair":13921,"Ġtested":13922,"ĠCoach":13923,"Ġlaughter":13924,"Ġsimilarly":13925,"Ensure":13926,"Ġrolled":13927,"Ġboosted":13928,"Ġcartoons":13929,"Ġgathering":13930,"signature":13931,"ĠDalai":13932,"ĠCroatia":13933,"ĠEstonian":13934,"Ġentrance":13935,"Ġmetaphys":13936,"El":13937,"million":13938,"occ":13939,"Ġtables":13940,"atabase":13941,"Ġmes":13942,"ĠCincinnati":13943,"ĠPu":13944,"Ġhem":13945,"ĠRights":13946,"Ġriding":13947,"Ġexec":13948,"Ġsucks":13949,"eway":13950,"Ġresidence":13951,"ovÃ½ch":13952,"oya":13953,"Ġcorrupt":13954,"Ġ77":13955,"Ġedit":13956,"Ġfrank":13957,"aska":13958,"Ġtraded":13959,"Ġengines":13960,"Ġmarvel":13961,"ĠTrack":13962,"Ġsorts":13963,"ĠIndiana":13964,"AMD":13965,"Ġnorthwest":13966,"Ġaiming":13967,"Ġruin":13968,"ĠMahayana":13969,"Ġmirror":13970,"Ġtower":13971,"Ġstrategic":13972,"Ġanticipated":13973,".;":13974,"fielder":13975,"iels":13976,"late":13977,"pin":13978,"vn":13979,"vod":13980,"erning":13981,"Ġcatal":13982,"asia":13983,"Ġhire":13984,"ĠSnow":13985,"igation":13986,"ieu":13987,"ĠLion":13988,"Ġunpre":13989,"placed":13990,"ĠVijay":13991,"Ġ1964":13992,"Ġdefines":13993,"Ġmodest":13994,"Ġconsiders":13995,"ĠBei":13996,"Ġ72":13997,"Ġmusician":13998,"Ġgrouped":13999,"profit":14000,"Ġkinda":14001,"Ġstrongest":14002,"Ġcreator":14003,"Ġ1944":14004,"Ġ1969":14005,"ĠNeed":14006,"Ġthrill":14007,"Ġunfunny":14008,"Ġmountains":14009,"Ġemerging":14010,"ĠPlayStation":14011,"ĠRogers":14012,"Ġcompatibility":14013,"ĠArchitecture":14014,"ĠTreaty":14015,"Return":14016,"Ġmagnificent":14017,"ĠGermans":14018,"Ġrefreshing":14019,"OO":14020,"PATH":14021,"bre":14022,"qt":14023,"wa":14024,"Ġtv":14025,"Ġfond":14026,"inge":14027,"ution":14028,"Ġgiants":14029,"ĠBears":14030,"rapy":14031,"seeded":14032,"thodox":14033,"Ġ\"\\":14034,"ĠGh":14035,"Ġdear":14036,"Ġjun":14037,"Ġspheres":14038,"ĠAdvanced":14039,"Ġgeneric":14040,"Ġborough":14041,"Ġmonthly":14042,"ĠFlight":14043,"Ġaffairs":14044,"Ġrandomly":14045,"Ġbarriers":14046,"ipper":14047,"ĠWelles":14048,"Ġexploitation":14049,"Ġthrows":14050,"ĠMerc":14051,"Ġsimplicity":14052,"Ġparticipate":14053,"ĠBetween":14054,"Ġgangster":14055,"Ġtrigg":14056,"Ġvulnerable":14057,"Ġconvolutional":14058,"52":14059,"NG":14060,"Velocity":14061,"oDB":14062,"Ġcv":14063,"Ġincons":14064,"role":14065,"ĠCer":14066,"ige":14067,"ĠMust":14068,"ĠWid":14069,"ĠNUM":14070,"ĠKath":14071,"ĠThink":14072,"ĠVilla":14073,"Ġclicks":14074,"Ġretain":14075,"Ġconsolid":14076,"Ġmedieval":14077,"ĠQaeda":14078,"ALEM":14079,"loyd":14080,"Ġpotreb":14081,"Ġfemales":14082,"ĠvÃ½sled":14083,"Ġblew":14084,"Ġassassination":14085,"Ġrhyth":14086,"Kerry":14087,"bul":14088,"has":14089,"tc":14090,"atform":14091,"Ġcyn":14092,"Ġtomb":14093,"Ġdign":14094,"lee":14095,"ĠMother":14096,"ĠFiles":14097,"Ġenorm":14098,"ogg":14099,"Ġambitious":14100,"erto":14101,"Ġ69":14102,"Ġpointing":14103,"Ġestimate":14104,"ironments":14105,"Ġtwin":14106,"Ġentertained":14107,"Ġtouched":14108,"Request":14109,"ĠBeyonce":14110,"Ġpractically":14111,"Ġcompletion":14112,"Ġvolumes":14113,"running":14114,"Ġdevoted":14115,"Ġrejects":14116,"Ġreflects":14117,"Ġfaithful":14118,"Ġsustain":14119,"ĠEXISTS":14120,"Ġslices":14121,"ĠTheatre":14122,"gra":14123,"uÃ¡lne":14124,"itched":14125,"anim":14126,"Ġpprof":14127,"Ġreplay":14128,"entin":14129,"Ġecc":14130,"ĠFly":14131,"ĠFame":14132,"ĠNuclear":14133,"ista":14134,"ĠEight":14135,"ppers":14136,"Ġsucked":14137,"acts":14138,"answ":14139,"ovÃ¡":14140,"Ġbeta":14141,"Ġmining":14142,"Ġreasonable":14143,"Ġpacked":14144,"arently":14145,"Ġengineer":14146,"Ġpairs":14147,"\",\"\",\"":14148,"Ġphilosophical":14149,"connect":14150,"ĠLebanon":14151,"ĠVienna":14152,"Dy":14153,"bles":14154,"sell":14155,"Ġmaps":14156,"Ġpause":14157,"leton":14158,"omers":14159,"ĠCategory":14160,"ĠNathan":14161,"Ġcompilation":14162,"Ġweaker":14163,"Ġclients":14164,"Ġque":14165,"ĠItems":14166,"Ġrookie":14167,"Ġpointers":14168,"Ġmakeup":14169,"prises":14170,"Ġgenerates":14171,"ĠProtest":14172,"debug":14173,"Ġpowered":14174,"Ġpayments":14175,"Ġ1972":14176,"White":14177,"Ġlowered":14178,"Ġportraying":14179,"Ġsweep":14180,"Ġlifetime":14181,"ĠDetails":14182,"ĠDelhi":14183,"Black":14184,"ĠMountain":14185,"QUE":14186,"Ġdiplomatic":14187,"Ġnavigation":14188,"Ġdreadful":14189,"noduch":14190,"Good":14191,"Sqrt":14192,"cor":14193,"iar":14194,"alty":14195,"Ġmales":14196,"Ġnas":14197,"orted":14198,"ĠJER":14199,"apova":14200,"assador":14201,"ĠYuan":14202,"ovic":14203,"Ã©d":14204,"awks":14205,"component":14206,"Ġhandful":14207,"Ġasset":14208,"Ġstudied":14209,"Ġsolving":14210,"Ġsupercomputer":14211,"Ġfinishing":14212,"Ġkicked":14213,"ULL":14214,"Ġnomination":14215,"Ġattributed":14216,"Ġtransportation":14217,"Ġconventional":14218,"Ġculmin":14219,"LAN":14220,"files":14221,"there":14222,"Ġsisters":14223,"Ġwitty":14224,"around":14225,"stick":14226,"Ġlingu":14227,"Ġmos":14228,"emit":14229,"Ġproj":14230,"Ġdoct":14231,"Ġoutline":14232,"Ġsurged":14233,"ĠExamples":14234,"Ġharder":14235,"Ġswap":14236,"Ġsounded":14237,"Ġdetermin":14238,"Ġremainder":14239,"Ġcommitment":14240,"Ġunexpectedly":14241,"Ġcrappy":14242,"Ġcabinet":14243,"ĠKirk":14244,"ĠÄ¾ud":14245,"Ġaggressive":14246,"ĠDerek":14247,"care":14248,"kens":14249,"promise":14250,"urop":14251,"inf":14252,"Ġfishing":14253,"Ġmatur":14254,"Ġec":14255,"ĠCell":14256,"ĠCowboy":14257,"Ġstunt":14258,"Ġstaged":14259,"tery":14260,"ounce":14261,"essa":14262,"Ġshifts":14263,"Ġuncom":14264,"Ġgoof":14265,"ĠViol":14266,"teenth":14267,"ĠkeÄı":14268,"Ġrefuses":14269,"Ġportable":14270,"Ġgenres":14271,"ĠOrland":14272,"Ġcameo":14273,"Ġtaxes":14274,"Ġbullet":14275,"IGN":14276,"Ġjournalists":14277,"Ġ~/.":14278,"Ġshrine":14279,"Ġtroublesho":14280,"ĠLearning":14281,"osaurus":14282,"ĠRIBA":14283,"ĠMeyer":14284,"etheless":14285,"GH":14286,"Gold":14287,"])":14288,"aÄį":14289,"kind":14290,"Ġcave":14291,"Ġfighters":14292,"Ġbands":14293,"Ġanime":14294,"ĠMoh":14295,"Ġmozes":14296,"ĠEva":14297,"Ġnez":14298,"Ġaboard":14299,"Ġnose":14300,"Ġbacking":14301,"Ġ\\\\":14302,"Ġdowntown":14303,"apply":14304,"Ġmarking":14305,"Ġmarathon":14306,"Ġdescribing":14307,"Ġsurprises":14308,"ducted":14309,"ĠConsumer":14310,"Ġcontribute":14311,"ĠArabic":14312,"ĠMatthew":14313,"Ġsympathetic":14314,"Ġdeployed":14315,"Ġracism":14316,"ifferent":14317,"Ġstomach":14318,"âĶĢâĶ¼":14319,"41":14320,"gop":14321,"Ã£":14322,"rele":14323,"Ġther":14324,"Ġdaughters":14325,"Ġhx":14326,"ĠML":14327,"ĠRend":14328,"ĠDC":14329,"Ġlogging":14330,"Ġ1966":14331,"Ġdism":14332,"Ġattending":14333,"cluding":14334,"Ġcorrel":14335,"ĠBeach":14336,"Ġquoted":14337,"ĠGriff":14338,"Ġcourses":14339,"params":14340,"Ġglory":14341,"entials":14342,"Ġcreatures":14343,"fection":14344,"Ġhandsome":14345,"Ġcyber":14346,"Ġnotebook":14347,"ĠDrawRays":14348,"ĠDenver":14349,"Ġpursuit":14350,"Ġfluid":14351,"Ġmonitoring":14352,"Ġhodnoty":14353,"Ġsustained":14354,"ĠConfiguration":14355,"ĠNepal":14356,"NBA":14357,"Row":14358,"oided":14359,"xc":14360,"Ġwishes":14361,"enged":14362,"Ġmic":14363,"arios":14364,"Ġdirty":14365,"roph":14366,"ĠCob":14367,"igs":14368,"ĠMi":14369,"second":14370,"ckets":14371,"ĠWonder":14372,"ĠFal":14373,"ĠFBI":14374,"ĠEVER":14375,"Ġune":14376,
[...]
