{"<PAD>":0,"<UNK>":1,"<START>":2,"<END>":3,"!":4,"\"":5,"#":6,"$":7,"%":8,"&":9,"'":10,"(":11,")":12,"*":13,"+":14,",":15,"-":16,".":17,"/":18,"0":19,"1":20,"2":21,"3":22,"4":23,"5":24,"6":25,"7":26,"8":27,"9":28,":":29,";":30,"<":31,"=":32,">":33,"?":34,"@":35,"A":36,"B":37,"C":38,"D":39,"E":40,"F":41,"G":42,"H":43,"I":44,"J":45,"K":46,"L":47,"M":48,"N":49,"O":50,"P":51,"Q":52,"R":53,"S":54,"T":55,"U":56,"V":57,"W":58,"X":59,"Y":60,"Z":61,"[":62,"\\":63,"]":64,"^":65,"_":66,"`":67,"a":68,"b":69,"c":70,"d":71,"e":72,"f":73,"g":74,"h":75,"i":76,"j":77,"k":78,"l":79,"m":80,"n":81,"o":82,"p":83,"q":84,"r":85,"s":86,"t":87,"u":88,"v":89,"w":90,"x":91,"y":92,"z":93,"{":94,"|":95,"}":96,"~":97,"¡":98,"¢":99,"£":100,"¤":101,"¥":102,"¦":103,"§":104,"¨":105,"©":106,"ª":107,"«":108,"¬":109,"®":110,"¯":111,"°":112,"±":113,"²":114,"³":115,"´":116,"µ":117,"¶":118,"·":119,"¸":120,"¹":121,"º":122,"»":123,"¼":124,"½":125,"¾":126,"¿":127,"À":128,"Á":129,"Â":130,"Ã":131,"Ä":132,"Å":133,"Æ":134,"Ç":135,"È":136,"É":137,"Ê":138,"Ë":139,"Ì":140,"Í":141,"Î":142,"Ï":143,"Ð":144,"Ñ":145,"Ò":146,"Ó":147,"Ô":148,"Õ":149,"Ö":150,"×":151,"Ø":152,"Ù":153,"Ú":154,"Û":155,"Ü":156,"Ý":157,"Þ":158,"ß":159,"à":160,"á":161,"â":162,"ã":163,"ä":164,"å":165,"æ":166,"ç":167,"è":168,"é":169,"ê":170,"ë":171,"ì":172,"í":173,"î":174,"ï":175,"ð":176,"ñ":177,"ò":178,"ó":179,"ô":180,"õ":181,"ö":182,"÷":183,"ø":184,"ù":185,"ú":186,"û":187,"ü":188,"ý":189,"þ":190,"ÿ":191,"Ā":192,"ā":193,"Ă":194,"ă":195,"Ą":196,"ą":197,"Ć":198,"ć":199,"Ĉ":200,"ĉ":201,"Ċ":202,"ċ":203,"Č":204,"č":205,"Ď":206,"ď":207,"Đ":208,"đ":209,"Ē":210,"ē":211,"Ĕ":212,"ĕ":213,"Ė":214,"ė":215,"Ę":216,"ę":217,"Ě":218,"ě":219,"Ĝ":220,"ĝ":221,"Ğ":222,"ğ":223,"Ġ":224,"ġ":225,"Ģ":226,"ģ":227,"Ĥ":228,"ĥ":229,"Ħ":230,"ħ":231,"Ĩ":232,"ĩ":233,"Ī":234,"ī":235,"Ĭ":236,"ĭ":237,"Į":238,"į":239,"İ":240,"ı":241,"Ĳ":242,"ĳ":243,"Ĵ":244,"ĵ":245,"Ķ":246,"ķ":247,"ĸ":248,"Ĺ":249,"ĺ":250,"Ļ":251,"ļ":252,"Ľ":253,"ľ":254,"Ŀ":255,"ŀ":256,"Ł":257,"ł":258,"Ń":259,"Ġt":260,"in":261,"er":262,"Ġa":263,"on":264,"re":265,"he":266,"Ġs":267,"or":268,"at":269,"en":270,"es":271,"is":272,"Ġthe":273,"Ġc":274,"Ġf":275,"it":276,"Ġ=":277,"al":278,"an":279,"le":280,"ar":281,"Ġd":282,"Ġw":283,"Ġp":284,"Ġo":285,"as":286,"el":287,"ed":288,"ing":289,"ion":290,"Ġb":291,"Ġm":292,"et":293,"ic":294,"ro":295,"--":296,"Ġin":297,"Ġre":298,"ut":299,"nd":300,"Ġi":301,"ur":302,"ct":303,"st":304,"Ġn":305,"Ġof":306,"Ġto":307,"Ġ#":308,"am":309,"Ġh":310,"il":311,"Ġth":312,"ent":313,"se":314,"Ġl":315,"mp":316,"Ġand":317,"Ġ\"":318,"ĠT":319,"Ġe":320,"ou":321,"ot":322,"od":323,"ri":324,"ad":325,"ce":326,"elf":327,"##":328,"ef":329,"Ġself":330,"Ġg":331,"ĠS":332,"Ġ'":333,"id":334,"Ġis":335,"ort":336,"Ġ/":337,"ĠI":338,"Ġ{":339,"ĠA":340,"est":341,"**":342,"Ġ<":343,"ol":344,"om":345,"ass":346,"----":347,"Ġ}":348,"Ġu":349,"ag":350,"ĠC":351,"Ġv":352,"Ġif":353,"Ġfor":354,"ch":355,"Ġ*":356,"urn":357,"Ġst":358,"ul":359,"ate":360,"ay":361,"==":362,"ck":363,"ig":364,"Ġdef":365,"pe":366,"ve":367,"pt":368,"turn":369,"ist":370,"qu":371,"ow":372,"ly":373,"ers":374,"im":375,"ation":376,"ith":377,"Ġreturn":378,"ĠL":379,"Ġimp":380,"Ġas":381,"Ġon":382,"ame":383,"ex":384,"ra":385,"Ġit":386,"um":387,"rom":388,"un":389,"ĠP":390,"Ġcon":391,"Ġ,":392,"ert":393,"ab":394,"=\"":395,"Ġbe":396,"th":397,"Ġimport":398,"ĠM":399,"ir":400,"end":401,"Ġ1":402,"lo":403,"ter":404,"ver":405,"ub":406,"lass":407,"ĠF":408,"op":409,"ue":410,"Ġthat":411,"Ġ.":412,"Ġwith":413,"Ġex":414,"\"\"":415,"if":416,"####":417,"Ġfrom":418,"age":419,"pp":420,"ĠN":421,"ĠB":422,"Ġthis":423,"em":424,"ht":425,"ess":426,"Ġan":427,"ect":428,"ke":429,"__":430,"><":431,"Ġwh":432,"and":433,"ew":434,"us":435,"Ġnot":436,"Ġal":437,"ĠD":438,"ile":439,"Ġ-":440,"ĠR":441,"get":442,"res":443,"ĠG":444,"br":445,"iv":446,"ĠW":447,"Ġor":448,"Ġy":449,"Ġmo":450,"ĠThe":451,"Ġclass":452,"ĠO":453,"ain":454,"ang":455,"li":456,"nt":457,"Ġ$":458,"lic":459,"Ġ2":460,"--------":461,"ction":462,"****":463,"00":464,"Ġ//":465,"Ġpro":466,"Ġ@":467,"ĠH":468,"':":469,"====":470,"ĠE":471,"int":472,"ult":473,"ment":474,"Ġse":475,"ld":476,"con":477,"up":478,"Ġwas":479,"Ġ\"\"\"":480,"ine":481,"ere":482,"art":483,"ext":484,"ack":485,"'s":486,"ode":487,"Ġr":488,"one":489,"out":490,"able":491,"de":492,"our":493,"Ġ0":494,"Ġby":495,"ption":496,"ype":497,"Ġlo":498,"..":499,"ill":500,"Ġat":501,"Ġsh":502,"all":503,"omp":504,"ath":505,"ata":506,"Ġch":507,"vi":508,"Ġhe":509,"iz":510,"ap":511,"tr":512,"os":513,"orm":514,"ac":515,"are":516,"Ġres":517,"ire":518,"ind":519,"av":520,"Ġ:":521,"Ġare":522,"ase":523,"ublic":524,"Ġde":525,"ry":526,"ave":527,"pl":528,"to":529,"Ġtest":530,"Ġel":531,"Ġfil":532,"ure":533,"ant":534,"\">":535,"Ġj":536,"ial":537,"ore":538,"ime":539,"ĠU":540,"ject":541,"cri":542,"ity":543,"########":544,"set":545,"Ġ+":546,"Ġdo":547,"put":548,"ust":549,"ror":550,"Ġget":551,"ug":552,"ould":553,"</":554,");":555,"te":556,"Ġus":557,"Ġ_":558,"ord":559,"ense":560,"act":561,"Ġcont":562,"rit":563,"ĠJ":564,"Ġyou":565,"assert":566,"par":567,"ies":568,"ĠTh":569,"ive":570,"alue":571,"dd":572,"cl":573,"name":574,"Ġpl":575,"rib":576,"Ġar":577,"._":578,"ak":579,"Ġ</":580,"ff":581,"ast":582,"//":583,"ace":584,"qual":585,"Ġbut":586,"Ġ==":587,"app":588,"Ġstr":589,"Ġk":590,"ER":591,"ard":592,"omm":593,"Ġall":594,"ance":595,"Ġpublic":596,"ory":597,"Ġ/>":598,"Ġso":599,"Ġhave":600,"ice":601,"ĠLic":602,"Ġnew":603,"Ġmod":604,"ost":605,"ated":606,"ome":607,"ON":608,"ok":609,"->":610,"ary":611,"Ġle":612,"form":613,"og":614,"AR":615,"Ġelse":616,"ong":617,"IT":618,"ail":619,"Ġout":620,"ip":621,"ight":622,"Ġset":623,"ĠIn":624,"Ġ/><":625,"ener":626,"ft":627,"Ġ)":628,"********":629,"iel":630,"Ġfun":631,"ble":632,"ell":633,"Ġfilm":634,"ens":635,"Ġmovi":636,"ribut":637,"ĠV":638,"ans":639,"Ġun":640,"rue":641,"rig":642,"ser":643,"ield":644,"ĠLicense":645,"ally":646,"ict":647,"rint":648,"ions":649,"Ġcan":650,"str":651,"IN":652,"Ġ*/":653,"ber":654,"atch":655,"Ġass":656,"----------------":657,"Ġhis":658,"ork":659,"Ġhas":660,"In":661,"Ġwe":662,"ule":663,"add":664,"========":665,"Ġ`":666,"ont":667,"Ġgo":668,"Ġcomp":669,"bject":670,"cc":671,"ml":672,"Ġ__":673,"ild":674,"Ġab":675,"ud":676,"Ġsc":677,"fig":678,"'t":679,"opy":680,"ree":681,"ich":682,"ll":683,"pro":684,"ĠK":685,"div":686,"ize":687,"nder":688,"sp":689,"',":690,"Ġone":691,"../":692,"ES":693,"ref":694,"::":695,"oc":696,"ake":697,"Ġmovie":698,"Ġsu":699,"right":700,"ec":701,"Ġ3":702,"01":703,"ersion":704,"ount":705,"Ġname":706,"ress":707,"></":708,"hen":709,"arg":710,"ph":711,"Ġwill":712,"key":713,"cript":714,"ign":715,"Ġro":716,"Ġen":717,"Ġend":718,"OR":719,"Equal":720,"erm":721,"ery":722,"ĠNone":723,"ink":724,"ach":725,"Ġli":726,".<":727,"Ġfile":728,"angu":729,"sh":730,"ray":731,"so":732,"Ġev":733,"Ġup":734,"eth":735,"ĠThis":736,"alse":737,"che":738,"ise":739,"ĠY":740,"irst":741,"ous":742,"Ġint":743,"ings":744,"ep":745,"Ġ%":746,"anguage":747,"NT":748,"Ġassert":749,"ound":750,"ear":751,"ther":752,"param":753,"rror":754,"ence":755,"own":756,"Ġfunction":757,"Ġprint":758,"reate":759,"Ġrequ":760,"low":761,"oid":762,"cept":763,"pec":764,"amp":765,"lement":766,"ite":767,"fo":768,"Ġvar":769,"Error":770,"test":771,"Ġra":772,"ide":773,"ault":774,"Ġwhich":775,"ix":776,"Ġpar":777,"ents":778,"Ġ\\":779,"Ġuse":780,"Ġwho":781,"per":782,"ys":783,"mod":784,"\",":785,"row":786,"Ġtime":787,"Ġdata":788,"ition":789,"path":790,"Ġany":791,"pon":792,"Ġunder":793,"assertEqual":794,"St":795,"und":796,"Ex":797,"AT":798,"uct":799,"pect":800,"Ġmore":801,"ax":802,"\":":803,"ception":804,"her":805,"Ġstat":806,"ator":807,"Ġact":808,"ss":809,"ource":810,"util":811,"ger":812,"Ġno":813,"Ġdis":814,"ull":815,"val":816,"Ġresult":817,"################":818,"ool":819,"ations":820,"Ġnum":821,"url":822,"Ġqu":823,"Ġtry":824,"Ġdes":825,"cont":826,"type":827,"Ġte":828,"file":829,"roup":830,"der":831,"Ġman":832,"tring":833,"ware":834,"erv":835,"Ġvoid":836,"ude":837,"istribut":838,"read":839,"inal":840,"port":841,"ĠIt":842,"ames":843,"led":844,"ia":845,"../../":846,"ange":847,"def":848,"Pro":849,"ie":850,"ache":851,"Ġne":852,"Ġapp":853,"Ġthey":854,"Ġfirst":855,"ob":856,"Ġvalue":857,"Ġag":858,"Ġchar":859,"Ġos":860,"Ġits":861,"Ġtype":862,"Ġcom":863,"son":864,"date":865,"init":866,"ark":867,"ĠSt":868,"SE":869,"oint":870,"Ġpre":871,"ĠCh":872,"Ġx":873,"uth":874,"Ġme":875,"tt":876,"rite":877,"Ġher":878,"Ġlist":879,"AL":880,"Ġadd":881,"Ġ4":882,"les":883,"bo":884,"irect":885,"ĠLanguage":886,"Ġpri":887,"yst":888,"Ġ--":889,"mo":890,"iss":891,"data":892,"ethod":893,"code":894,"Ġpart":895,"fter":896,"Ġ&":897,"Ġwere":898,"Ġsome":899,"Ġexcept":900,"Ġwhen":901,"UT":902,"lock":903,"wo":904,"Ġshould":905,"error":906,"Ġcol":907,"vel":908,"clude":909,"Ġtr":910,"Ġlog":911,"use":912,"html":913,"ument":914,"Ġ/**":915,"Ġover":916,"uild":917,"Ġper":918,"ely":919,"Ġsub":920,"append":921,"cess":922,"Ġ>":923,"ces":924,"ick":925,"Ġ;":926,"ftware":927,"Ġval":928,"Con":929,"AS":930,"we":931,"itle":932,"Ġ/*":933,"ish":934,"si":935,"////":936,"cal":937,"Ġother":938,"Ġhref":939,"tern":940,"Re":941,"ader":942,"ors":943,"ask":944,"Ġabout":945,"pen":946,"Ġonly":947,"gr":948,"Ġform":949,"ommand":950,"yth":951,"reat":952,"Ġsp":953,"ĠIf":954,"\"\"\"":955,"oug":956,"Ġtheir":957,"lect":958,"stance":959,"The":960,"ĠAN":961,"ystem":962,"urre":963,"Ġlike":964,"ponse":965,"ee":966,"Ġ|":967,"heck":968,"Ġline":969,"aw":970,"Ġid":971,"ues":972,"nect":973,"RA":974,"ning":975,"col":976,"ge":977,"Ġstring":978,"RE":979,"Ġ5":980,"ific":981,"Ġmay":982,"ical":983,"Ġconst":984,"opyright":985,"Ġbec":986,"ual":987,"****************":988,"list":989,"Ġ201":990,"els":991,"Ġversion":992,"Ġsee":993,"log":994,"ater":995,"ute":996,"fer":997,"IC":998,"Ġ19":999,"Ġhad":1000,"Ġspec":1001,"imp":1002,"pert":1003,"ays":1004,"ey":1005,"ade":1006,"Ġ!":1007,"Ġpass":1008,"Ġjust":1009,"ĠEx":1010,"Ġarg":1011,"ample":1012,"Ġinto":1013,"lient":1014,"ĠTrue":1015,"HE":1016,"ty":1017,"essage":1018,"io":1019,"LE":1020,"Ġrec":1021,"Ġbo":1022,"ates":1023,"load":1024,"Ġwould":1025,"Ġthere":1026,"Ġ200":1027,"Test":1028,"vate":1029,"text":1030,"red":1031,"ugh":1032,"iew":1033,"class":1034,"Ġmodule":1035,"Ġwork":1036,"Ġthan":1037,"ng":1038,"ful":1039,"Ġkey":1040,"Ġob":1041,"ired":1042,"Ġdistribut":1043,"Ġraise":1044,"Ġstatic":1045,"Ġthem":1046,"Ġnumber":1047,"mpl":1048,"Ġcharact":1049,"================":1050,"vent":1051,"Ġtwo":1052,"comp":1053,"Ġlen":1054,"ython":1055,"cription":1056,"ĠGener":1057,"Cont":1058,"Ġcl":1059,"old":1060,"co":1061,"du":1062,"ify":1063,"Ġoff":1064,"arch":1065,"Ġser":1066,"Ġbeen":1067,"Ġinter":1068,"Ġext":1069,"ages":1070,"ava":1071,"td":1072,"IS":1073,"``":1074,"ash":1075,"Ġafter":1076,"__:":1077,"Ġalso":1078,"))":1079,"urrent":1080,"ian":1081,"ines":1082,"List":1083,"Ġwhat":1084,"hed":1085,"ĠUn":1086,"line":1087,"oin":1088,"span":1089,"Res":1090,"Ġever":1091,"Ġrun":1092,"ĠYou":1093,"Ġent":1094,"day":1095,"Ġ+=":1096,"this":1097,"Ġrel":1098,"Ġprivate":1099,"Ġbet":1100,"Ġexp":1101,"Ġeven":1102,"include":1103,"NU":1104,"ody":1105,"Ġback":1106,"ose":1107,"Type":1108,"ptions":1109,"Ġfol":1110,"Ġmy":1111,"ause":1112,"ĠQ":1113,"Ġdoes":1114,"fil":1115,"-----":1116,"Ġacc":1117,"AB":1118,"back":1119,"Ġshe":1120,"ID":1121,"ifi":1122,"Ġstart":1123,"Ġobject":1124,"Ġ''":1125,"IL":1126,"work":1127,"--------------------------------":1128,"Ġpos":1129,"yn":1130,"Ġshow":1131,"ĠSo":1132,"Ġmake":1133,"not":1134,"Th":1135,"ME":1136,"let":1137,"Ġim":1138,"round":1139,"ĠRe":1140,"its":1141,"Name":1142,"ION":1143,"Ġcase":1144,"ream":1145,"ner":1146,"script":1147,"Ġad":1148,"info":1149,"Ġtrue":1150,"ĠFalse":1151,"CT":1152,"ock":1153,"Ġusing":1154,"quest":1155,"Ġgood":1156,"cond":1157,"Ġreg":1158,"Ġfe":1159,"Ġused":1160,"Ġdirect":1161,"Ch":1162,"Ġkn":1163,"Ġdefault":1164,"Ġhim":1165,"Ġcontain":1166,"min":1167,"ough":1168,"ĠOF":1169,"UL":1170,"Ġpe":1171,"ĠGeneral":1172,"Ġ->":1173,"value":1174,"Ġuser":1175,"yle":1176,"lete":1177,"ĠPublic":1178,"Ġind":1179,"Ġthen":1180,"user":1181,"Ġorg":1182,"Ġ@-":1183,"Ġplay":1184,"ST":1185,"umm":1186,"Ġ@-@":1187,"Ġconfig":1188,"Ġtra":1189,"Ġfield":1190,"rc":1191,"ĠGNU":1192,"ton":1193,"eturn":1194,"Ġfollow":1195,"Ġ10":1196,"Ġarray":1197,"return":1198,"ĠCopyright":1199,"be":1200,"time":1201,"Ġwrit":1202,"Ġdistributed":1203,"Ġexpect":1204,"UR":1205,"abel":1206,"view":1207,"Ġcopy":1208,"ins":1209,"Ġyear":1210,"ĠOR":1211,"Ġgiv":1212,"write":1213,"utils":1214,"Ġmost":1215,"ib":1216,"yp":1217,"Ġpath":1218,"Ġco":1219,"Ġdid":1220,"Ġatt":1221,"Ġinst":1222,"Ġwhile":1223,"itt":1224,"ices":1225,"arget":1226,"att":1227,"uch":1228,"pport":1229,"create":1230,"ĠANY":1231,"dict":1232,"raph":1233,"ems":1234,"efore":1235,"perty":1236,"sible":1237,"Ġsys":1238,"Ġvery":1239,"...":1240,"Ġ///":1241,"uff":1242,"config":1243,"man":1244,"ĠAn":1245,"reg":1246,"Set":1247,"cre":1248,"ics":1249,"Ġwithout":1250,"ackage":1251,"Ġmin":1252,"EN":1253,"uper":1254,"ract":1255,"play":1256,"String":1257,"ED":1258,"Ġam":1259,"ler":1260,"ither":1261,"arn":1262,"Ġelif":1263,"Ġcheck":1264,".__":1265,"object":1266,"string":1267,"Ġ},":1268,"ING":1269,"Ġrequest":1270,"pr":1271,"ĠString":1272,"Ġeach":1273,"Ġyour":1274,"vid":1275,"ĠIN":1276,"Ġdoc":1277,"igh":1278,"ank":1279,"reak":1280,"Ġ6":1281,"Ġdet":1282,"ote":1283,"ople":1284,"vice":1285,"Ġ!=":1286,"Ġfl":1287,"main":1288,"ĠCon":1289,"lean":1290,"stat":1291,"lose":1292,"ĠSee":1293,"Ġcode":1294,"lib":1295,"\"><":1296,"run":1297,"mplate":1298,"ession":1299,"Id":1300,"gram":1301,"word":1302,"px":1303,"ne":1304,"by":1305,"),":1306,"HO":1307,"Ġwhere":1308,"args":1309,"ĠWAR":1310,"ased":1311,"ms":1312,"Ġoutput":1313,"dir":1314,"ET":1315,"Ġwor":1316,".\"\"\"":1317,"enc":1318,"pre":1319,"Ġcould":1320,"ends":1321,"Ġlook":1322,"eta":1323,"oth":1324,"Ġfinal":1325,"lection":1326,"less":1327,"Ġ=>":1328,"Ġstate":1329,"Mod":1330,"Ġurl":1331,"rough":1332,"Ġhow":1333,"Ġparam":1334,"ved":1335,"idth":1336,"Par":1337,"Ġopen":1338,"Ġhand":1339,"ager":1340,"âĢ":1341,"ĠHe":1342,"10":1343,"ĠAr":1344,"Ġsoftware":1345,"mer":1346,"ward":1347,"ists":1348,"db":1349,"RANT":1350,"arent":1351,"rame":1352,"Ġneed":1353,"ating":1354,"ĠWARRANT":1355,"py":1356,"ĠX":1357,"ango":1358,"Ġap":1359,"Ġfalse":1360,"39":1361,"define":1362,"Ġcall":1363,"ĠCON":1364,"Ġstory":1365,"Exception":1366,"ason":1367,"ĠWIT":1368,"Data":1369,"Ġmain":1370,"Ġbecause":1371,"ĠTest":1372,"ars":1373,"++":1374,"Ġfind":1375,"me":1376,"ma":1377,"Ġtrans":1378,"gth":1379,"ails":1380,"Ġsa":1381,"Ġnames":1382,"ĠTHE":1383,"ĠFor":1384,"OT":1385,"Ġsuper":1386,"Ġgener":1387,"ister":1388,"Field":1389,"Ġright":1390,"Ġerror":1391,"Ġpeople":1392,"ervice":1393,"jango":1394,"ative":1395,"Ġeither":1396,"ove":1397,"Ġread":1398,"ished":1399,"To":1400,"Ġwell":1401,"clud":1402,"CH":1403,"ps":1404,"md":1405,"Ġ8":1406,"vert":1407,"ride":1408,"move":1409,"Ġnp":1410,"indow":1411,"err":1412,"ious":1413,"\";":1414,"Ġmade":1415,"uthor":1416,"ife":1417,"ML":1418,"air":1419,"Ġ{}":1420,"ures":1421,"resent":1422,"mb":1423,"Ġcomm":1424,"ape":1425,"Ġz":1426,"Ġ?":1427,"Ġthrough":1428,"link":1429,"start":1430,"size":1431,"Ġtext":1432,"olut":1433,"with":1434,"sub":1435,"ature":1436,"\"></":1437,"lied":1438,"akes":1439,"no":1440,"Ar":1441,"head":1442,"ccess":1443,"tings":1444,"Ġmethod":1445,"rid":1446,"Ġwant":1447,"Ġgreat":1448,"32":1449,"ĠPro":1450,"000":1451,"imit":1452,"ower":1453,"ets":1454,"pace":1455,"lob":1456,"ermiss":1457,"Ġ};":1458,"Col":1459,"ESS":1460,"Ġcreate":1461,"Ġreally":1462,"Ġwatch":1463,"ĠWh":1464,"ns":1465,"File":1466,"Ġ});":1467,"Ġmany":1468,"Ġmust":1469,"Ġgiven":1470,"lp":1471,"IG":1472,"other":1473,"Ġlong":1474,"Ġpoint":1475,"ular":1476,"Ġprogram":1477,"count":1478,"ITY":1479,"Ġscen":1480,"group":1481,"que":1482,"field":1483,"////////":1484,"from":1485,"Ġmuch":1486,"any":1487,"plit":1488,"ived":1489,"Ġbreak":1490,"Ġdif":1491,"RO":1492,"ision":1493,"Ġcurrent":1494,"ments":1495,"ced":1496,"action":1497,"Ġagain":1498,"parse":1499,"az":1500,"ush":1501,"DE":1502,"Ġresponse":1503,"check":1504,"valid":1505,"Ġsuch":1506,"Ġ7":1507,"ags":1508,"attr":1509,"Ġtitle":1510,"join":1511,"fl":1512,"ann":1513,"Ġhere":1514,"Ġbefore":1515,"Ġlast":1516,"Ġway":1517,"Ġgroup":1518,"raw":1519,"erson":1520,"PO":1521,"ĠAl":1522,"face":1523,"Wh":1524,"urs":1525,"als":1526,"AN":1527,"pos":1528,"Ġdec":1529,"It":1530,"roll":1531,"Ġinte":1532,"uration":1533,"Ġsame":1534,"ĠAnd":1535,"instance":1536,"ait":1537,"Ġinput":1538,"ily":1539,"Ġfound":1540,"ually":1541,"ween":1542,"ump":1543,"fun":1544,"MP":1545,"Ġnull":1546,"ĠSoftware":1547,"Ġcount":1548,"index":1549,"################################":1550,"='":1551,"Ġreal":1552,"ren":1553,"ince":1554,"rol":1555,"Ġsecond":1556,"Ġbeing":1557,"com":1558,"Ġgu":1559,"Ġdict":1560,"Ġret":1561,"order":1562,"Ġsource":1563,"Ġdat":1564,"Ġdon":1565,"Ġrequired":1566,"oding":1567,"Ġ```":1568,"Ġterm":1569,"ging":1570,"map":1571,"Ġwar":1572,"Ġcons":1573,"title":1574,"uring":1575,"ummary":1576,"ĠAll":1577,"place":1578,"for":1579,"Ġcal":1580,"bar":1581,"nection":1582,"ting":1583,"bin":1584,"Ġview":1585,"module":1586,"ĠSh":1587,"Ġdescription":1588,"';":1589,"ified":1590,"Ġbase":1591,"12":1592,"!--":1593,"True":1594,"Ġinclud":1595,"Ġbuild":1596,"format":1597,"bug":1598,"Ġbad":1599,"api":1600,"ĠDe":1601,"Ġperform":1602,"utput":1603,"ities":1604,"ILITY":1605,"Ġ'''":1606,"AG":1607,"ather":1608,"ized":1609,"Ġsrc":1610,"ises":1611,"Ġcontent":1612,".\"":1613,"json":1614,"Ġpy":1615,"Value":1616,"eter":1617,"ĠWe":1618,"Ġelement":1619,"~~":1620,"Ġbetween":1621,"update":1622,"wn":1623,"sc":1624,"ves":1625,"Ġcommand":1626,"HOUT":1627,"Ġcharacter":1628,"Ġfollowing":1629,"ubl":1630,"apt":1631,"num":1632,"Ġlater":1633,"ĠWITHOUT":1634,"Ġsing":1635,"ope":1636,"Ġinv":1637,"ten":1638,"Ġdjango":1639,"ern":1640,"Ġdel":1641,"Ġorig":1642,"ĠIS":1643,"Ġrece":1644,"Get":1645,"Ġthese":1646,"dis":1647,"Ġgr":1648,"Ġrep":1649,"Ġpol":1650,"imes":1651,"Ġaw":1652,"Ġknow":1653,"len":1654,"Ġcontin":1655,"0000":1656,"Ġold":1657,"AP":1658,"ever":1659,"Class":1660,"Ġac":1661,"Ġinit":1662,"ĠNew":1663,"*-":1664,"table":1665,"Ġfiles":1666,"11":1667,"dt":1668,"blem":1669,"ven":1670,"Ġport":1671,"rap":1672,"ric":1673,"equal":1674,"Ġstruct":1675,"nav":1676,"ined":1677,"Ġ-*-":1678,"js":1679,"method":1680,"Ġthrow":1681,"Ġbl":1682,"Ġaction":1683,"Ġtarget":1684,"ART":1685,"Ġdown":1686,"Ġsom":1687,"body":1688,"PE":1689,"ched":1690,"Ġcharacters":1691,"Ġimplied":1692,"version":1693,"struct":1694,"Ġrange":1695,"Ġmem":1696,"loat":1697,"Ġvalues":1698,"ĠFOR":1699,"Ġsize":1700,"Ġfin":1701,"env":1702,"default":1703,"Ġdocument":1704,"Ġgover":1705,"Ġthink":1706,"ribute":1707,"Ġoper":1708,"\".":1709,"Text":1710,"Ġ**":1711,"Ġbel":1712,"php":1713,"ABILITY":1714,"Object":1715,"ts":1716,"ility":1717,"of":1718,"Ġaut":1719,"Ġsupport":1720,"Ġ9":1721,"Ġ{'":1722,"rop":1723,"lease":1724,"search":1725,"Ġtoo":1726,"lear":1727,"Ġevery":1728,"ourse":1729,"ĠReturn":1730,"cho":1731,"fe":1732,"Ġcor":1733,"Comp":1734,"')":1735,"ken":1736,"ĠSystem":1737,"bers":1738,"comm":1739,"actory":1740,"Ġmat":1741,"ci":1742,"client":1743,"ensor":1744,"Up":1745,"aut":1746,"land":1747,"Config":1748,"eters":1749,"base":1750,"Ġnext":1751,"olog":1752,"Ã©":1753,"array":1754,"oun":1755,"Ġsaid":1756,"ases":1757,"ook":1758,"new":1759,"ared":1760,"Ġprovid":1761,"Ġed":1762,"Ġmax":1763,"cent":1764,"andom":1765,"su":1766,"OL":1767,"Ġevent":1768,"state":1769,"Ġbeg":1770,"duct":1771,"ĠZ":1772,"odes":1773,"ĠHT":1774,"print":1775,"Ġdep":1776,"ited":1777,"self":1778,"Ġargs":1779,"Ġcontext":1780,"Ġchild":1781,"utton":1782,"top":1783,"Ġnode":1784,"Ġmessage":1785,"ĠRes":1786,"ql":1787,"ĠJava":1788,"Ġav":1789,"Over":1790,"ale":1791,"iter":1792,"import":1793,"trans":1794,"Ġorder":1795,"core":1796,"alk":1797,"Ġnow":1798,"tain":1799,"Ġ]":1800,"ä¸":1801,"oy":1802,"64":1803,"des":1804,"Ġmodel":1805,"Ġ<!--":1806,"Ġsign":1807,"Ġph":1808,"Ġerr":1809,"etwork":1810,"Ġoptions":1811,"Ġlocal":1812,"ync":1813,"Ġworld":1814,"split":1815,"Add":1816,"Ġbu":1817,"ules":1818,"Ġeff":1819,"Ġalong":1820,"meric":1821,"orth":1822,"itions":1823,"Ġprocess":1824,"doc":1825,"Ġ##":1826,"input":1827,"params":1828,"Not":1829,"inter":1830,"Un":1831,"summary":1832,"Ġplot":1833,"Ġpackage":1834,"Se":1835,"Ġtop":1836,"********************************":1837,"Ġhead":1838,"over":1839,"down":1840,"find":1841,"View":1842,"lay":1843,"Ġmatch":1844,"Ġspecific":1845,"ood":1846,"TER":1847,"idd":1848,"umn":1849,"ron":1850,"Ġred":1851,"mpty":1852,"Ġlimit":1853,"anc":1854,"gs":1855,"De":1856,"ible":1857,"ĠSe":1858,"ĠGet":1859,"DO":1860,"IES":1861,"ï¼":1862,"Ġprodu":1863,"ops":1864,"model":1865,"tect":1866,"Ġ-----":1867,"Ġbest":1868,"Ġdiffer":1869,"Ġins":1870,"ott":1871,"andler":1872,"ational":1873,"Ġ-->":1874,"oot":1875,"Ġmus":1876,"ename":1877,"ari":1878,"Ġrecord":1879,"formation":1880,"Ġsm":1881,"Ġfree":1882,"ĠUS":1883,"Ġsay":1884,"tra":1885,"AD":1886,"ENT":1887,"ĠBut":1888,"Ġyears":1889,"oundation":1890,"ane":1891,"Key":1892,"Ġsur":1893,"aking":1894,"AC":1895,"Log":1896,"ouse":1897,"Ġvalid":1898,"uffer":1899,"TH":1900,"uture":1901,"Ġbr":1902,"Form":1903,"Ġtyp":1904,"nb":1905,"Ġop":1906,"aj":1907,"ateg":1908,"Ġjava":1909,"ants":1910,"ittle":1911,"ox":1912,"Man":1913,"host":1914,"},":1915,"Ġexpress":1916,"Ġrem":1917,"Ġboth":1918,"result":1919,"ĠAs":1920,"ĠâĢ":1921,"ek":1922,"Ġpr":1923,"enu":1924,"item":1925,"rip":1926,"ĠAmeric":1927,"sg":1928,"Ġear":1929,"ustom":1930,"Ġmet":1931,"Ġrequire":1932,"call":1933,"Ġthree":1934,"ĠThere":1935,"block":1936,"This":1937,"OP":1938,"TR":1939,"ttp":1940,"Ġitem":1941,"=\"../../":1942,"ident":1943,"temp":1944,"Element":1945,"oo":1946,"Ġcent":1947,"Ġindex":1948,"ead":1949,"ru":1950,"Ġapplic":1951,"By":1952,"LO":1953,"Ġlife":1954,"Ġlet":1955,"Ġwon":1956,"Ġdist":1957,"ecut":1958,"css":1959,"Ġinstance":1960,"Ġperson":1961,"Ġmon":1962,"anged":1963,"Ġmark":1964,"Ġblock":1965,"label":1966,"Ġjson":1967,"Ġpubl":1968,"open":1969,"Ġpermiss":1970,"Ġbool":1971,"Ġseen":1972,"close":1973,"HT":1974,"Ġhigh":1975,"Ġla":1976,"Ġstill":1977,"ĠFoundation":1978,"Ġhost":1979,"Ġ18":1980,"utf":1981,"Ġisinstance":1982,"Ġdetails":1983,"Time":1984,"Ġmodels":1985,"ches":1986,"16":1987,"ANT":1988,"loc":1989,"Ġnever":1990,"process":1991,"Ġcond":1992,"ways":1993,"erved":1994,"ient":1995,"Ġown":1996,"ries":1997,").":1998,"pper":1999,"cket":2000,"irt":2001,"Ġsl":2002,"Ġ>>":2003,"sw":2004,"Ġparser":2005,"Ġcre":2006,"vers":2007,"ideo":2008,"ider":2009,"velop":2010,"ically":2011,"request":2012,"itch":2013,"ĠJo":2014,"Ġlanguage":2015,"Ġconf":2016,"aster":2017,"rans":2018,"Ġsystem":2019,"status":2020,"Ġ&&":2021,"Ġexpected":2022,"IO":2023,"ground":2024,"ĠWARRANTIES":2025,"ĠNot":2026,"ume":2027,"ny":2028,"Ġscript":2029,"Ġterms":2030,"Sh":2031,"lick":2032,"nbsp":2033,"content":2034,"python":2035,"Ġallow":2036,"reen":2037,"onent":2038,"Ġsingle":2039,"icon":2040,"ĠInc":2041,"Ġformat":2042,"lt":2043,"ternal":2044,"Ġleft":2045,"Ġprotect":2046,"iled":2047,"med":2048,"Ġhelp":2049,"Ġ12":2050,"lobal":2051,"Ġsw":2052,"ĠOn":2053,"Ġmovies":2054,"CL":2055,"ension":2056,"uments":2057,"Ġappe":2058,"================================":2059,"Ġabs":2060,"Ġdoesn":2061,"201":2062,"ond":2063,"vious":2064,"Ġnamespace":2065,"ĠAp":2066,"itor":2067,"ier":2068,"ances":2069,"iron":2070,"ots":2071,"Ġreceived":2072,"Ġsk":2073,"reed":2074,"Ġproject":2075,"ertain":2076,"Ġlic":2077,"Ġword":2078,"Ġlittle":2079,"Ġdr":2080,"ero":2081,"ird":2082,"point":2083,"Ġload":2084,"Int":2085,"ization":2086,"Ġstd":2087,"Ġfam":2088,"Ġsequ":2089,"Ġcontains":2090,"Ġanother":2091,"Qu":2092,"tes":2093,"Ġvari":2094,"ĠAP":2095,"los":2096,"Ġpage":2097,"OF":2098,"Ġbro":2099,"box":2100,"Ġoriginal":2101,"ĠLI":2102,"sl":2103,"flow":2104,"Ġthose":2105,"Ġstyle":2106,"ism":2107,"ĠFree":2108,"Ġfact":2109,"etime":2110,"Ġduring":2111,"Ġsimp":2112,"property":2113,"Ġhum":2114,"Ġnon":2115,"Ġes":2116,"):":2117,"Ġfields":2118,"Ġtake":2119,"ĠPART":2120,"page":2121,"ugin":2122,"Ġenc":2123,"Ġem":2124,"ouble":2125,"Ġimage":2126,"NESS":2127,"All":2128,"Ġlaw":2129,"Ġ20":2130,"ĠFIT":2131,"Ġmed":2132,"ables":2133,"ĠSet":2134,"ĠTe":2135,"Ġke":2136,"ĠMER":2137,"Override":2138,"Ġlogging":2139,"Ġbetter":2140,"Param":2141,"Path":2142,"ndex":2143,"Ġfilms":2144,"Ġdb":2145,"State":2146,"Ġwriting":2147,"Model":2148,"ULAR":2149,"CHANT":2150,"POSE":2151,"ember":2152,"20":2153,"ĠFITNESS":2154,"ling":2155,"ences":2156,"ĠMERCHANT":2157,"Ġenv":2158,"Ġ...":2159,"ĠPARTIC":2160,"filter":2161,"ĠPUR":2162,"build":2163,"brary":2164,"ĠPURPOSE":2165,"ui":2166,"ĠPARTICULAR":2167,"ah":2168,"Ġcalled":2169,"idget":2170,"Ġwrite":2171,"ĠAdd":2172,"Ġtot":2173,"Ġreport":2174,"Ġstud":2175,"Ġsince":2176,"off":2177,"abase":2178,"sign":2179,"the":2180,"lex":2181,"'.":2182,"most":2183,"Ġexample":2184,"Ġvis":2185,"Ġlarg":2186,"Ġlink":2187,"Ġcontinue":2188,"ĠMERCHANTABILITY":2189,"ething":2190,"ĠPar":2191,"rix":2192,"Ġobtain":2193,"Ġhor":2194,"Ġresults":2195,"Return":2196,"query":2197,"\")":2198,"ĠTO":2199,"Ġlove":2200,"Ġtemp":2201,"ought":2202,"Ġmodify":2203,"Ġquery":2204,"Event":2205,"width":2206,"my":2207,"ik":2208,"Manager":2209,"Ġdifferent":2210,"wh":2211,"Ġ<<":2212,"Ġlead":2213,"ialog":2214,"post":2215,"Ġobj":2216,"Ser":2217,"ids":2218,"Ġhope":2219,"attern":2220,"aces":2221,"ailable":2222,"ources":2223,"ness":2224,"Ġlines":2225,"Ġgame":2226,"Ġloc":2227,"US":2228,"command":2229,"AM":2230,"Ġturn":2231,"Ġinitial":2232,"Info":2233,"option":2234,"50":2235,"Ġ###":2236,"Request":2237,"ĠNOT":2238,"Ġref":2239,"ross":2240,"dat":2241,"Item":2242,"ALL":2243,"roller":2244,"ĠVersion":2245,"Ġcolor":2246,"Map":2247,"ampl":2248,"Ġinformation":2249,"Script":2250,"What":2251,"Ġhapp":2252,"meta":2253,"Ġsuccess":2254,"Ġacting":2255,"max":2256,"ĠAND":2257,"function":2258,"Node":2259,"Ġunit":2260,"ĠException":2261,"ĠHTML":2262,"Ġshort":2263,"Ġput":2264,"Ġrole":2265,"aving":2266,"ique":2267,"Ġday":2268,"ĠCol":2269,"Ġinterest":2270,"Ġart":2271,"mark":2272,"Ġ100":2273,"ĠNo":2274,"irl":2275,"gt":2276,"ultip":2277,"Ġinteger":2278,"Ġpop":2279,"Ġpost":2280,"Ġsy":2281,"Ġtask":2282,"30":2283,"Ġaround":2284,"rant":2285,"output":2286,"tml":2287,"amed":2288,"Ġplace":2289,"ecute":2290,"Ġalways":2291,"ĠHow":2292,"ogle":2293,"Ġupdate":2294,"abled":2295,"En":2296,"ately":2297,"ving":2298,"Ġ);":2299,"header":2300,"Ġparent":2301,"Result":2302,"rec":2303,"ably":2304,"Ġep":2305,"omain":2306,"Ġopt":2307,"tx":2308,"Ġmusic":2309,"FF":2310,"Ġprotected":2311,"Ġserver":2312,"met":2313,"sk":2314,"Ġpublished":2315,"spec":2316,"ential":2317,"outh":2318,"User":2319,"ives":2320,"SS":2321,"ready":2322,"ĠReturns":2323,"Ġimplement":2324,"ector":2325,"ised":2326,"Ġsol":2327,"Ġ``":2328,"Service":2329,"ience":2330,"ributes":2331,"cache":2332,"Fil":2333,"ĠList":2334,"Ġexception":2335,"Ġwom":2336,"WAR":2337,"hn":2338,"itional":2339,"Ġstand":2340,"ied":2341,"ĠFr":2342,"aps":2343,"ights":2344,"assertTrue":2345,"Ġgot":2346,"ĠComp":2347,"Ġsort":2348,"Ġmock":2349,"ories":2350,"refix":2351,"ensed":2352,"Ġexist":2353,"Ġq":2354,"Ġsomething":2355,"context":2356,"IND":2357,"Ġstatus":2358,"fail":2359,"Ġseason":2360,"ons":2361,"Ġecho":2362,"iver":2363,"Ġdone":2364,"remove":2365,"Ġclient":2366,"ainer":2367,"Ġjob":2368,"Ġseries":2369,"eg":2370,"Ġtemplate":2371,"Ġtable":2372,"ï¼Į":2373,"ored":2374,"leg":2375,"ATE":2376,"til":2377,"items":2378,"Ġ<?":2379,"orn":2380,"illion":2381,"IONS":2382,"cs":2383,"way":2384,"Input":2385,"ĠWARRANTY":2386,"files":2387,"requ":2388,"ĠShe":2389,"VER":2390,"used":2391,"connect":2392,"ĠTo":2393,"ux":2394,"rect":2395,"inary":2396,"style":2397,"Ġrow":2398,"Factory":2399,"sm":2400,"Ġrest":2401,"task":2402,"ĠSolut":2403,"Ġuseful":2404,"ormal":2405,"Def":2406,"ĠApache":2407,"bs":2408,"Ġexc":2409,"ification":2410,"ĠAt":2411,"Ġscene":2412,"hing":2413,"Ġtimes":2414,"ãģ":2415,"Ġour":2416,"ĠPython":2417,"On":2418,"debug":2419,"MPL":2420,"Ġagainst":2421,"DI":2422,"Ent":2423,"objects":2424,"image":2425,"part":2426,"Ġfri":2427,"Ġyield":2428,"Ġfour":2429,"Ġfloat":2430,"Ġcast":2431,"ral":2432,"olean":2433,"lin":2434,"EST":2435,"aim":2436,"atform":2437,"Ġabove":2438,"Ġeffect":2439,"IP":2440,"Ġfew":2441,"Ġbig":2442,"ĠOpen":2443,"Ġfr":2444,"Ġ),":2445,"Response":2446,"Ġincluding":2447,"options":2448,"Ġpo":2449,"Build":2450,"Ġcr":2451,"exp":2452,"TD":2453,"Ġinclude":2454,"typ":2455,"mage":2456,"Ġcar":2457,"wargs":2458,"amples":2459,"ifier":2460,"chool":2461,"Ġ>>>":2462,"Ġgen":2463,"Ġfunc":2464,"show":2465,"server":2466,"obj":2467,"Ġhome":2468,"pack":2469,"Ġbit":2470,"ĠEX":2471,"Ġdevelop":2472,"ĠRed":2473,"For":2474,"perties":2475,"Ġ:=":2476,"ĠInput":2477,"App":2478,"'re":2479,"Al":2480,"ha":2481,"Ġ$.":2482,"UN":2483,"cur":2484,"ĠCont":2485,"'ve":2486,"gener":2487,"oci":2488,"sy":2489,"icode":2490,"Val":2491,"99":2492,"Ġleast":2493,"Ġwin":2494,"da":2495,"opt":2496,"ended":2497,"message":2498,"ASS":2499,"Message":2500,"Ġbody":2501,"aises":2502,"utes":2503,"izer":2504,"node":2505,"CO":2506,"Ġfull":2507,"Ġlength":2508,"pass":2509,"Ġoption":2510,"çļ":2511,"adata":2512,"ONT":2513,"Ġmsg":2514,"ony":2515,"dl":2516,"author":2517,"color":2518,"Ġdiv":2519,"Ġwidth":2520,"rim":2521,"ABLE":2522,"yles":2523,"Array":2524,"Ġ'\\":2525,"Is":2526,"uc":2527,"ĠDE":2528,"=\"../../../../":2529,"liance":2530,"patch":2531,"IB":2532,"ĠThey":2533,"irtual":2534,"Ġsong":2535,"25":2536,"Ġmakes":2537,"ured":2538,"ĠKIND":2539,"Ġrefer":2540,"resh":2541,"chn":2542,"çļĦ":2543,"ilt":2544,"imum":2545,"exit":2546,"ĠValue":2547,"Ġcoding":2548,"length":2549,"Ġfa":2550,"Ġunt":2551,"Ġfore":2552,"Ġsettings":2553,"Context":2554,"Ġrights":2555,"ift":2556,"gn":2557,"Ġdescri":2558,"ina":2559,"ORT":2560,"sole":2561,"Ġlevel":2562,"itive":2563,"With":2564,"ĠĠ":2565,"False":2566,"Ġutf":2567,"Handler":2568,"ending":2569,"Command":2570,"CE":2571,"ĠOutput":2572,"Size":2573,"Ġcourse":2574,"bl":2575,"has":2576,"Ġdirectory":2577,"response":2578,"Ġthing":2579,"Stat":2580,"ĠImp":2581,"Ġdisplay":2582,"ĠPl":2583,"river":2584,"replace":2585,"Problem":2586,"ĠApp":2587,"Ġ||":2588,"orage":2589,"Ġscenes":2590,"ĠIs":2591,"ĠAmerican":2592,"////////////////":2593,"Ġagreed":2594,"names":2595,"ottom":2596,"frame":2597,"ender":2598,"Ġpython":2599,"Ġest":2600,"amb":2601,"Ġkeep":2602,"Output":2603,"types":2604,"Ġtw":2605,"ĠEng":2606,"As":2607,"Ġsure":2608,"Ġsmall":2609,"Ġpermissions":2610,"Ġrele":2611,"oud":2612,"Ġsearch":2613,"Index":2614,"current":2615,"lected":2616,"oogle":2617,"Ġhtml":2618,"Ġver":2619,"TP":2620,"net":2621,"Ġbook":2622,"bu":2623,"Ġmiss":2624,"Des":2625,"future":2626,"Ġkill":2627,"ĠLicensed":2628,"std":2629,"YPE":2630,"Ġwarrant":2631,"anges":2632,"Ġprovided":2633,"Ġ[":2634,"Ġservice":2635,"tty":2636,"He":2637,"ĠCl":2638,"Att":2639,"Ġbased":2640,"asic":2641,"ols":2642,"ĠSolutions":2643,"An":2644,"lication":2645,"Ġfeel":2646,"ression":2647,"oice":2648,"AME":2649,"Ġgoing":2650,"Ġaccess":2651,"Ġ<=":2652,"Ġpartic":2653,"auth":2654,"elt":2655,"ograph":2656,"common":2657,"WARE":2658,"match":2659,"Ġmove":2660,"endif":2661,"ĠMan":2662,"hes":2663,"Inter":2664,"era":2665,"Ġhist":2666,"Ġthough":2667,"Ġocc":2668,"Run":2669,"cast":2670,"Ġparse":2671,"Ġreturned":2672,"ĠJohn":2673,"40":2674,"Ġreturns":2675,"Ġfont":2676,"Ġ15":2677,"Ġcopyright":2678,"Ġtotal":2679,"var":2680,"af":2681,"ivers":2682,"usr":2683,"Ġchange":2684,"Reg":2685,"ology":2686,"Ġlicense":2687,"ĠCL":2688,"Ġche":2689,"Ġweek":2690,"Te":2691,"xy":2692,"mat":2693,"Pl":2694,"org":2695,"Ġconditions":2696,"heet":2697,"Ġhard":2698,"delete":2699,"EX":2700,"Ġbackground":2701,"hand":2702,"DIT":2703,"side":2704,"ĠWhen":2705,"Ġdest":2706,"atures":2707,"xml":2708,"template":2709,"Ġteam":2710,"Ġnothing":2711,"EL":2712,"save":2713,"Ġ\"\"":2714,"ãĢ":2715,"inst":2716,"Ġroot":2717,"OFT":2718,"'m":2719,"Code":2720,"Ġ16":2721,"earch":2722,"argin":2723,"Ġinstall":2724,"Ġâ":2725,"Ġcity":2726,"Ġdate":2727,"Ġtests":2728,"Ġrender":2729,"ĠYork":2730,"Ġwarranty":2731,"Ġpower":2732,"Ġcmd":2733,"Ġactually":2734,"unction":2735,"Ġgive":2736,"Ġremove":2737,"Client":2738,"assertR":2739,"Ġbelie":2740,"avas":2741,"riter":2742,"loy":2743,"Ġscreen":2744,"Ġalready":2745,"Ġpresent":2746,"Ġgovern":2747,"''":2748,"Ġreason":2749,"Ġfilter":2750,"board":2751,"vision":2752,"ship":2753,"Ġextends":2754,"arr":2755,"rel":2756,"ators":2757,"Ġsession":2758,"older":2759,"Ġaud":2760,"session":2761,"unk":2762,"Ġredistribut":2763,"avascript":2764,"tp":2765,"alf":2766,"Ġlogger":2767,"tag":2768,"oad":2769,"Ġsupp":2770,"CK":2771,"icro":2772,"Ġkind":2773,"15":2774,"send":2775,"aterial":2776,"Ġcare":2777,"Ġpossible":2778,"quot":2779,"Ġsever":2780,"Base":2781,"wise":2782,"gers":2783,"ĠSOFT":2784,"orld":2785,"ital":2786,"ĠAnsible":2787,"Ġnotice":2788,"ĠInd":2789,"Ġthings":2790,"Ġconnect":2791,"13":2792,"button":2793,"Ġavailable":2794,"Action":2795,"Ġdidn":2796,"mock":2797,"Ġparams":2798,"----------------------------------------------------------------":2799,"joy":2800,"ĠSp":2801,"Ġless":2802,"Ġgirl":2803,"ajor":2804,"ural":2805,"ĠLe":2806,"Ġmight":2807,"Ġuntil":2808,"bed":2809,"Ġthought":2810,"=\"#":2811,"last":2812,"Query":2813,"ĠSOFTWARE":2814,"Ġfar":2815,"assertRaises":2816,"Ġvideo":2817,"Ġlimitations":2818,"Ġrepresent":2819,"igr":2820,"tab":2821,"Ġmap":2822,"char":2823,"Ġvol":2824,"rad":2825,"pped":2826,"etch":2827,"ged":2828,"Nav":2829,"ium":2830,"Ġcreated":2831,"Ġcompliance":2832,"do":2833,"ĠUnless":2834,"From":2835,"Ġgoverning":2836,"local":2837,"ETTER":2838,"wards":2839,"Ġdouble":2840,"Bar":2841,"ĠBAS":2842,"Ġapplicable":2843,"18":2844,"33":2845,"fect":2846,"aml":2847,"Ġ?>":2848,"cy":2849,"gether":2850,"ĠLETTER":2851,"umer":2852,"models":2853,"Ġbegin":2854,"cle":2855,"HP":2856,"section":2857,"Line":2858,"uck":2859,"essages":2860,"Ġcell":2861,"Ġenough":2862,"Ġposition":2863,"THER":2864,"annel":2865,"though":2866,"ĠCan":2867,"RL":2868,"ayout":2869,"refer":2870,"DITIONS":2871,"Ġboolean":2872,"Ġredistribute":2873,"Ġauthor":2874,"ĠBASIS":2875,"ency":2876,"stream":2877,"raint":2878,"Ġcache":2879,"Ġinfo":2880,"ĠCONDITIONS":2881,"Ġconsider":2882,"description":2883,"ially":2884,"Ġmer":2885,"ention":2886,"ĠBe":2887,"stand":2888,"Trans":2889,"illi":2890,"pol":2891,"event":2892,"umber":2893,"Util":2894,"pop":2895,"ionary":2896,"cul":2897,"Ġinstead":2898,"tot":2899,"Ġfail":2900,"Ġfamily":2901,"iod":2902,"Ġrandom":2903,"exception":2904,"ĠMar":2905,"ĠAss":2906,"adding":2907,"hether":2908,"rist":2909,"ULL":2910,"ĠMod":2911,"ĠDef":2912,"Ġcome":2913,"Ġaddress":2914,"Ġlot":2915,"Ġcomplet":2916,"Ġenjoy":2917,"~~~~":2918,"stract":2919,"web":2920,"ains":2921,"iness":2922,"`.":2923,"uster":2924,"Ġwatching":2925,"active":2926,"Ġpres":2927,"gine":2928,"Box":2929,"ination":2930,"EE":2931,"cor":2932,"uid":2933,"ury":2934,"Ġnear":2935,"Ġwhy":2936,"Ġexecut":2937,"icy":2938,"uple":2939,"Ġcontrol":2940,"Ġseem":2941,"Ġdem":2942,"ĠCreate":2943,"rapper":2944,"vis":2945,"roid":2946,"ugg":2947,"ĠValueError":2948,"Ġ%}":2949,"Ġsequence":2950,"lish":2951,"Ġschool":2952,"Ġactors":2953,"Ġtell":2954,"iler":2955,"Ġelements":2956,"ĠUser":2957,"register":2958,"unit":2959,"Ġide":2960,"ĠInt":2961,"Ġonce":2962,"uro":2963,"edy":2964,"olute":2965,".</":2966,"bit":2967,"ĠAd":2968,"Ġentry":2969,"Ġexport":2970,"Ġdevice":2971,"javascript":2972,"Ġident":2973,"Property":2974,"FI":2975,"conf":2976,"Ġmean":2977,"Group":2978,"14":2979,"eger":2980,"Ġca":2981,"ĠExample":2982,"umpy":2983,"Ġwait":2984,"rypt":2985,"Ġglobal":2986,"Ġprob":2987,"Ġspe":2988,"next":2989,"strip":2990,"ilar":2991,"Or":2992,"Ġweb":2993,"Ġperformance":2994,"Ġspace":2995,"Ġgl":2996,"Ġdatetime":2997,"Ġborder":2998,"Check":2999,"imal":3000,"values":3001,"ironment":3002,"parent":3003,"!/":3004,"ĠCheck":3005,"And":3006,"Ġtri":3007,"ixed":3008,"{{":3009,"ĠOr":3010,"Ġproduct":3011,"copy":3012,"left":3013,"IM":3014,"'\\":3015,"pc":3016,"Date":3017,"ĠTH":3018,"Ġsn":3019,"'ll":3020,"Ġwindow":3021,"Ġattemp":3022,"ively":3023,"Ġwritten":3024,"img":3025,"ounter":3026,"Stream":3027,"rem":3028,"Ġgets":3029,"Ġepis":3030,">;":3031,"Ġ}}":3032,"Ġdirector":3033,"ires":3034,"Ġresource":3035,"ĠType":3036,"mit":3037,"Ġremain":3038,"unch":3039,"oney":3040,"ording":3041,"MA":3042,"Ġheader":3043,"apping":3044,"mode":3045,"icle":3046,"bum":3047,"Ġmillion":3048,"atic":3049,"));":3050,"plot":3051,"source":3052,"expect":3053,"24":3054,"df":3055,"verse":3056,"ategory":3057,"ĠUnited":3058,"mt":3059,"iff":3060,"ialize":3061,"umb":3062,"Table":3063,"Ġconnection":3064,"ĠWest":3065,"80":3066,"SON":3067,"SC":3068,"Ġspecial":3069,"Ġlik":3070,"Ġisn":3071,"sing":3072,"keys":3073,"ivity":3074,"ley":3075,"fields":3076,"Ġpretty":3077,"apache":3078,"ection":3079,"Ġcls":3080,"Ġcred":3081,"Ġsix":3082,"Ġclose":3083,"stop":3084,"Case":3085,"styles":3086,"QU":3087,"ayer":3088,"ĠBy":3089,"ĠSc":3090,"istic":3091,"package":3092,"Ġyoung":3093,"Module":3094,"FA":3095,"Ġ'.":3096,"Ġnil":3097,"Ġseveral":3098,"Ġdev":3099,"tests":3100,"leep":3101,"Sub":3102,"PL":3103,"Ġknown":3104,"Ġspecified":3105,"iddle":3106,"ram":3107,"Ġtag":3108,"Ġmom":3109,"Page":3110,"Ġsim":3111,"settings":3112,"Ġcatch":3113,"ĠMark":3114,"ctor":3115,"ours":3116,"Ġoffic":3117,"ĠMy":3118,"cover":3119,"irection":3120,"PR":3121,"select":3122,"istry":3123,"Ġearly":3124,"Ġsent":3125,"Instance":3126,"Ġlibrary":3127,"cope":3128,"Ġheight":3129,"ks":3130,"Ġmaking":3131,"Loc":3132,"Ġeas":3133,"Ġtensor":3134,"Ġkwargs":3135,"/>":3136,"Ġsit":3137,"ĠOne":3138,"IGHT":3139,"Ġfunny":3140,"Of":3141,"'d":3142,"ones":3143,"soft":3144,"child":3145,"pi":3146,"Ġprevious":3147,"Ġmajor":3148,"bt":3149,"level":3150,"Ġtakes":3151,"Ġperm":3152,"ret":3153,"Parser":3154,"Ġcustom":3155,"NS":3156,"serv":3157,"Dis":3158,"element":3159,"Ġax":3160,"ison":3161,"FONT":3162,"Ġcop":3163,"Ġempty":3164,"ultiple":3165,"Gener":3166,"Ġseems":3167,"ole":3168,"Ġet":3169,"Char":3170,"Ġcomment":3171,"ĠMon":3172,"ĠâĢĵ":3173,"Ġreleased":3174,"ī¤":3175,"inc":3176,"Builder":3177,"Create":3178,"ales":3179,"Ġwhole":3180,"hel":3181,"Ġtoken":3182,"åı":3183,"assertEquals":3184,"Hel":3185,"ĠFile":3186,"Ġaway":3187,"Ġcur":3188,"render":3189,"Rec":3190,"Ġdefined":3191,"Ġsound":3192,"omb":3193,"])":3194,"Ġprom":3195,"ä»":3196,"Ġhandle":3197,"ursor":3198,"Ġlabel":3199,"ĠThat":3200,"Rep":3201,"make":3202,"Content":3203,"ĠBl":3204,"rep":3205,"Ġfall":3206,"ãĤ":3207,"const":3208,"34":3209,"ĠLAT":3210,"Ġstream":3211,"Ġclear":3212,"root":3213,"Color":3214,"ĠHowever":3215,"ĠJavaScript":3216,"aged":3217,"Ġ11":3218,"Ġaccount":3219,"Ġdocumentation":3220,"Ad":3221,"Ġ30":3222,"Ġnumbers":3223,"Ġcommon":3224,"ĠLATIN":3225,"We":3226,"Pos":3227,"Ġalmost":3228,"arm":3229,"Ġfinally":3230,"Ġplt":3231,"ĠAPI":3232,"ĠAfter":3233,"ze":3234,"ying":3235,"Ġbinary":3236,"Ġstop":3237,"http":3238,"atter":3239,"Ġnight":3240,"ĠNULL":3241,"arnings":3242,"book":3243,"Ġparameters":3244,"Ġlow":3245,"ĠBrit":3246,"Ġsaw":3247,"ats":3248,"olution":3249,"Ġsave":3250,"Ġpay":3251,"tocol":3252,"OM":3253,"Ġthread":3254,"lip":3255,"CC":3256,";</":3257,"Ġreserved":3258,"Ġmil":3259,"Ġchanged":3260,"Ġquite":3261,"Ġsubject":3262,"ught":3263,"thing":3264,"KE":3265,"Ġdelete":3266,"vider":3267,"Ġobjects":3268,"ring":3269,"ĠÐ":3270,"osed":3271,"vol":3272,"uter":3273,"ĠMay":3274,"Ġunittest":3275,"rl":3276,"Imp":3277,"ĠEn":3278,"ensions":3279,"project":3280,"Ġserv":3281,"gress":3282,"Ġstep":3283,"ĠLO":3284,"Ġyet":3285,"Count":3286,"Ġdesign":3287,"Ġpack":3288,"alled":3289,"Ġ..":3290,"Ġminutes":3291,"ĠGe":3292,"TRA":3293,"thers":3294,"Ġwithin":3295,"Ġann":3296,"Ġconfiguration":3297,"$.":3298,"22":3299,"Ġ199":3300,"hip":3301,"Ġ'/":3302,"Ġhttp":3303,"Ġdig":3304,"device":3305,"aced":3306,"service":3307,"Ġcap":3308,"---":3309,"navbar":3310,"first":3311,"Ġhaving":3312,"Image":3313,"Ġequal":3314,"dep":3315,"Ġtim":3316,"Ġmargin":3317,"Ġpoints":3318,"Ġconvert":3319,"rest":3320,"Ġproblem":3321,"Ġmen":3322,"ai":3323,"ools":3324,"AGE":3325,"No":3326,"ĠCor":3327,"raft":3328,"cer":3329,"Be":3330,"Ġcompany":3331,"ĠST":3332,"arning":3333,"Method":3334,"exists":3335,"hent":3336,"Ref":3337,"ges":3338,"ĠID":3339,"Window":3340,"lines":3341,"New":3342,"omet":3343,"ĠLog":3344,"Ġside":3345,"change":3346,"Ġreview":3347,"oken":3348,"Ġrather":3349,"CTION":3350,"DB":3351,"Ġ>=":3352,"func":3353,"Ġcases":3354,"Ġgraph":3355,"Ġcountry":3356,"lections":3357,"66":3358,"ides":3359,"Ġsample":3360,"Ġthird":3361,"At":3362,"Ġmar":3363,"Ġanything":3364,"msg":3365,"execute":3366,"Ġfilename":3367,"Ġdeal":3368,"mbol":3369,"Ġvirtual":3370,"Ġter":3371,"Su":3372,"Ġincre":3373,"Ġbus":3374,"ards":3375,"ining":3376,"Ġchildren":3377,"oup":3378,"Ġnamed":3379,"Ġsex":3380,"Ġcreat":3381,"REF":3382,"help":3383,"Ġhalf":3384,"ĠQu":3385,"++++":3386,"Ġ#################################":3387,"argument":3388,"Ġexpl":3389,"ently":3390,"Ġcho":3391,"Ġargument":3392,"ULT":3393,"Ġpick":3394,"inem":3395,"Ġmode":3396,"Ġquot":3397,"light":3398,"Ġinterface":3399,"hentic":3400,"Ġthrows":3401,"rew":3402,"gen":3403,"address":3404,"mem":3405,"Ġcorrect":3406,"#!/":3407,"Ġtree":3408,"Ġcrit":3409,"Ġdeath":3410,"Frame":3411,"alth":3412,"pond":3413,"dev":3414,"true":3415,"onents":3416,"rowser":3417,"Ġnumpy":3418,"Ġexper":3419,"uly":3420,"ypes":3421,"Ġlight":3422,"ĠSer":3423,"ĠDis":3424,"Ġproperty":3425,"anel":3426,"Ġiter":3427,"Ġassoci":3428,"roy":3429,"Ġair":3430,"ĠURL":3431,"range":3432,"cale":3433,"URL":3434,"only":3435,"Ġsum":3436,"ĠPh":3437,"Ġworks":3438,"Ġintegers":3439,"cial":3440,"ev":3441,"Ġquest":3442,"Meta":3443,"det":3444,"Ġwhether":3445,"Ġmonth":3446,"ability":3447,"Filter":3448,"ama":3449,"idden":3450,"Ġsend":3451,"entry":3452,"ĠNO":3453,"Ġfeature":3454,"Ġhuman":3455,"Ġaff":3456,"Ġ17":3457,"21":3458,"ĠDo":3459,"Ġevents":3460,"Ġparticular":3461,"Ġnetwork":3462,"shape":3463,"ĠEV":3464,"Ġ})":3465,"ĠNote":3466,"}}":3467,"stylesheet":3468,"ĠRun":3469,"Ġhash":3470,"late":3471,"uss":3472,"display":3473,"Str":3474,"Call":3475,"itted":3476,"na":3477,"Server":3478,"Ġpur":3479,"Ġbecome":3480,"ĠCar":3481,"OPY":3482,"token":3483,"ĠÂ":3484,"DER":3485,"ĠPHP":3486,"ball":3487,"contrib":3488,"Button":3489,"agement":3490,"Ġparts":3491,"avor":3492,"Ġrunning":3493,"Tra":3494,"ising":3495,"ov":3496,"Ġ\"\\":3497,"iful":3498,"push":3499,"ĠUp":3500,"Ġarguments":3501,"Ġproduction":3502,"ORS":3503,"otion":3504,"If":3505,"cut":3506,"ãĥ":3507,"tim":3508,"Ġtf":3509,"Ġwonder":3510,"sequ":3511,"Ġdialog":3512,"anch":3513,"Ġplayed":3514,"can":3515,"Ġarch":3516,"Ġ25":3517,"Ġappear":3518,"gy":3519,"=\"\">":3520,"Ġrelease":3521,"Ġ'__":3522,"ulti":3523,"Ġtrack":3524,"uction":3525,"rong":3526,"curity":3527,"ything":3528,"ĠWith":3529,"ĠKey":3530,"Ġattr":3531,"Ġalbum":3532,"NO":3533,"QL":3534,"Ġbeaut":3535,"ĠChrist":3536,"Ġcut":3537,"Ġfig":3538,"ĠClass":3539,"Ġ{%":3540,"target":3541,"Ġpassword":3542,"Ġplayer":3543,"Status":3544,"font":3545,"nown":3546,"fr":3547,"Ġtechn":3548,"Ġincluded":3549,"ĠHol":3550,"wood":3551,"Ed":3552,"ĠImport":3553,"Ġmaterial":3554,"Ġleg":3555,"ters":3556,"UD":3557,"%%":3558,"88":3559,"Ġsetup":3560,"Logger":3561,"ĠDes":3562,"NAME":3563,"Ġtypes":3564,"100":3565,"Ġbecame":3566,"Ġsimple":3567,"Ġentire":3568,"Ġabsolute":3569,"static":3570,"Ġ14":3571,"fg":3572,"Ġhappen":3573,"istr":3574,"ICEN":3575,"aff":3576,"Ġcame":3577,"Ġcam":3578,"Ġtalk":3579,"Ġtogether":3580,"stack":3581,"Ġprobably":3582,"oring":3583,"structor":3584,"bottom":3585,"verage":3586,"Ġxml":3587,"Ġdraw":3588,"ĠRem":3589,"Ġ2013":3590,"Ġ'%":3591,"ĠBase":3592,"Ġnav":3593,"Ġansw":3594,"Link":3595,"Ġmag":3596,"Ġinteresting":3597,"urope":3598,"fic":3599,"Ġframe":3600,"mail":3601,"case":3602,"Ġadded":3603,"Ġaccept":3604,"Ġdays":3605,".,":3606,"MS":3607,"ixt":3608,"igation":3609,"sets":3610,"Ġign":3611,"Ġworth":3612,"ĠComm":3613,"19":3614,"system":3615,"ĠCo":3616,"Ġge":3617,"Ġbox":3618,"ĠTV":3619,"IZ":3620,"hash":3621,"ted":3622,"cp":3623,"Ġnone":3624,"Ð¾":3625,"Ġdir":3626,"Ġapi":3627,"UP":3628,"go":3629,"ĠObject":3630,"atched":3631,"Ġâī¤":3632,"iece":3633,"ICENSE":3634,"Ġgovernment":3635,"SD":3636,"insert":3637,"*/":3638,"tree":3639,"Ġlaugh":3640,"Const":3641,"ius":3642,"oto":3643,"Ġcertain":3644,"Ġshows":3645,"using":3646,"05":3647,"like":3648,"ports":3649,"iol":3650,"Ġdecl":3651,"olve":3652,"Ġsepar":3653,"lymp":3654,"Ġhorror":3655,"200":3656,"Ġsuff":3657,"ĠRob":3658,"Ð°":3659,"Ġpattern":3660,"ceed":3661,"ĠWorld":3662,"IME":3663,"Ġlate":3664,"ĠPort":3665,"Ġserial":3666,"ĠCLASS":3667,"gg":3668,"eed":3669,"ĠWhat":3670,"Ġpair":3671,"Ġant":3672,"Ġmoney":3673,"ORM":3674,"graph":3675,"OS":3676,"Ġoverride":3677,"Ġemp":3678,"Ġ13":3679,"CON":3680,"ĠRep":3681,"Ġwoman":3682,"ites":3683,"Ġitems":3684,"Ġpassed":3685,"umns":3686,"number":3687,"04":3688,"eyon":3689,"sa":3690,"ĠUse":3691,"Ġfriend":3692,"ike":3693,"Ġprof":3694,"ene":3695,"Ġregister":3696,"Ġfive":3697,"Ġarea":3698,"Ġcomes":3699,"Ġmedia":3700,"ĠData":3701,"dated":3702,"Version":3703,"sum":3704,"Ġclos":3705,"aly":3706,"Ġplan":3707,"Component":3708,"Ġcannot":3709,"iting":3710,"Ġlib":3711,"reet":3712,"Ġansible":3713,"Ġerrors":3714,"Ġdatabase":3715,"ĠTODO":3716,"ered":3717,"ATION":3718,"ĠStates":3719,"oll":3720,"Ġbuilt":3721,"Ġauth":3722,"Ġrelation":3723,"Ġhold":3724,"ĠReg":3725,"une":3726,"Ġlarge":3727,"fs":3728,"Ġ2015":3729,"rie":3730,"Ġqual":3731,"container":3732,"encode":3733,"Ġbar":3734,"ĠEurope":3735,"Ġtrying":3736,"Valid":3737,"ĠCity":3738,"Ġattack":3739,"AV":3740,"chema":3741,"Ġnet":3742,"aker":3743,"ĠCOPY":3744,"logger":3745,"Ġblack":3746,"Ġperiod":3747,"aken":3748,"Ġcomedy":3749,"ĠAb":3750,"MENT":3751,"Ġitself":3752,"setup":3753,"ias":3754,"60":3755,"Ġfoot":3756,"pool":3757,"Ġhistory":3758,"ndef":3759,"Dict":3760,"äº":3761,"Ġextra":3762,"Ġden":3763,"ulation":3764,"Ġcontaining":3765,"Ġtoday":3766,"None":3767,"ĠIMPL":3768,"ãĢĤ":3769,"pri":3770,"ĠMo":3771,"Ġstar":3772,"cmd":3773,"abs":3774,"Ext":3775,"layer":3776,"skip":3777,"ana":3778,"Ġinc":3779,"Ġ{\"":3780,"Ġpoor":3781,"Ġclean":3782,"IED":3783,"Ġselect":3784,"Ġappro":3785,"Ġcost":3786,"ambda":3787,"Ġ2012":3788,"Ġ2014":3789,"Ġmethods":3790,"ĠConfig":3791,"ĠAtt":3792,"Ġentertain":3793,"illed":3794,"Ġhimself":3795,"Ġ50":3796,"Ġnormal":3797,"Ġcontribut":3798,"Ġland":3799,"compile":3800,"Doc":3801,"IAL":3802,"ĠSte":3803,"Controller":3804,"Ġtensorflow":3805,"Ġswitch":3806,"admin":3807,"Ġesc":3808,"Ġremo":3809,"control":3810,"Attribute":3811,"Ġ#################################################################":3812,"Ġparameter":3813,"irm":3814,"starts":3815,"Ġsat":3816,"sql":3817,"connection":3818,"Ġtele":3819,"fact":3820,"Ġque":3821,"clear":3822,"cÃ©":3823,"Ġcinem":3824,"Ġauto":3825,"now":3826,"Ġhouse":3827,"Ġgoes":3828,"86":3829,"Ġfather":3830,"XX":3831,"Ġcapt":3832,"__':":3833,"ued":3834,"omes":3835,"dom":3836,"abels":3837,"Ġlocation":3838,"iving":3839,"ĠInst":3840,"sed":3841,"oded":3842,"ety":3843,"ĠSome":3844,"ĠDAM":3845,"ĠAR":3846,"ĠSH":3847,"ĠOlymp":3848,"Ġrule":3849,"Ġstrings":3850,"Cell":3851,"ĠName":3852,"=\"../":3853,"ĠMin":3854,"tore":3855,"Point":3856,"Ġprov":3857,"support":3858,"åĪ":3859,"Ġsite":3860,"ĠFl":3861,"Ġwords":3862,"tk":3863,"Ġdue":3864,"æľ":3865,"oper":3866,"Ġactual":3867,"Tests":3868,"fort":3869,"miss":3870,"ĠIMPLIED":3871,"Ġuint":3872,"xx":3873,"Ġoften":3874,"rows":3875,"Ðµ":3876,"random":3877,"parser":3878,"02":3879,"pose":3880,"Ġconsole":3881,"Ġforms":3882,"ĠWITH":3883,"ĠHREF":3884,"ster":3885,"ĠEd":3886,"account":3887,"password":3888,"ĠBu":3889,"Ġsus":3890,"AY":3891,"ĠPer":3892,"raints":3893,"Oper":3894,"ached":3895,"ĠAust":3896,"height":3897,"Function":3898,"Ġforce":3899,"iction":3900,"irectory":3901,"35":3902,"src":3903,"ariable":3904,"Ġface":3905,"BU":3906,"classes":3907,"Ġmind":3908,"aset":3909,"prec":3910,"COL":3911,"Ġepisode":3912,"atal":3913,"lower":3914,"Ġlooking":3915,"VD":3916,"{}":3917,"rand":3918,"Ġpadding":3919,"Tree":3920,"Connection":3921,"ided":3922,"Ġdri":3923,"Ġregion":3924,"ĠChe":3925,"ĠWar":3926,"undle":3927,">&":3928,"gor":3929,"ĠAL":3930,"Ġanim":3931,"ĠSub":3932,"17":3933,"Ġstore":3934,"nes":3935,"Ġstrong":3936,"ĠGoogle":3937,"ĠPol":3938,"Ġtrad":3939,"mber":3940,"sort":3941,"`,":3942,"Ġcomplete":3943,"ĠChar":3944,"icrosoft":3945,"Act":3946,"ĠSy":3947,"IGN":3948,"Source":3949,"ĠMA":3950,"cert":3951,"Ġgetattr":3952,"ĠThese":3953,"aries":3954,"ĠAff":3955,"ĠLICENSE":3956,"pth":3957,"ĠBE":3958,"Ġtook":3959,"Ġattribute":3960,"Ġunique":3961,"MO":3962,"rench":3963,"itory":3964,"location":3965,"Ġlooks":3966,"Ġpain":3967,"ĠsetUp":3968,"RIGHT":3969,"Ġiss":3970,"ĠEN":3971,"png":3972,"ipp":3973,"ĠVal":3974,"Ġindic":3975,"center":3976,"signed":3977,"startswith":3978,"dist":3979,"uby":3980,"rible":3981,"install":3982,"Block":3983,"Le":3984,"Process":3985,"Default":3986,"Ġur":3987,"encies":3988,"ermission":3989,"thread":3990,"fully":3991,"eyoncÃ©":3992,"Ġhig":3993,"ĠGu":3994,"Read":3995,"Ġreq":3996,"ĠHis":3997,"Ġable":3998,"Ġothers":3999,"ses":4000,"ĠIntern":4001,"win":4002,"Ġneeds":4003,"Ġrecomm":4004,"############":4005,"End":4006,"mm":4007,"ca":4008,"UB":4009,"ĠPRO":4010,"acing":4011,"Ġkeys":4012,"Ġfunctions":4013,"handle":4014,"access":4015,"Ġfight":4016,"ocus":4017,"Sp":4018,"Ġda":4019,"oder":4020,"iment":4021,"MM":4022,"Ġraw":4023,"alt":4024,"Ġder":4025,"Cl":4026,"strong":4027,"bind":4028,"ĠRE":4029,"Ġwomen":4030,"oke":4031,"Start":4032,"Ġbutton":4033,"estamp":4034,"36":4035,"Ġgenerated":4036,"space":4037,"ography":4038,"Ġending":4039,"Ġscore":4040,"ung":4041,"Ġsense":4042,".'":4043,"Ġdepend":4044,"aves":4045,"Ġgenerate":4046,"Ġdi":4047,"Select":4048,"email":4049,"struction":4050,"Ġbas":4051,"Ġbyte":4052,"derr":4053,"Ġ\"%":4054,"Ġhowever":4055,"Ġ'<":4056,"Ġguy":4057,"Ġcamp":4058,"ĠBritish":4059,"Task":4060,"claim":4061,"Ġworst":4062,"Ġbelieve":4063,"TO":4064,"------------------------------------------------------------------------":4065,"sv":4066,"Ġprior":4067,"ĠLIABILITY":4068,"Ġbeh":4069,"Ġperfect":4070,"txt":4071,"scope":4072,"ecess":4073,"Null":4074,"SP":4075,"ĠGerm":4076,"iven":4077,"eline":4078,"Ġri":4079,"olved":4080,"manager":4081,"ering":4082,"ords":4083,"Ġutil":4084,"Arg":4085,"lice":4086,"Ġdead":4087,"Ġunderstand":4088,"Resource":4089,"Search":4090,"gorith":4091,"uary":4092,"Ġchanges":4093,"lang":4094,"Ġfailed":4095,"Ġprefix":4096,"Ġmultiple":4097,"creen":4098,"pite":4099,"Ġpat":4100,"ĠPy":4101,"fa":4102,"ians":4103,"ĠAug":4104,"Ġwrong":4105,"arge":4106,"Widget":4107,"rupt":4108,"cd":4109,"Ġten":4110,"extend":4111,"ĠTrans":4112,"Fl":4113,"va":4114,"Ġ2008":4115,"network":4116,"ĠThen":4117,"Ġ2011":4118,"Ġey":4119,"ael":4120,"zz":4121,"Ġgrow":4122,"Ġamong":4123,"Ġneeded":4124,"should":4125,"Ġviol":4126,"System":4127,"ĠSu":4128,",\"":4129,"Ġgra":4130,"Ġrad":4131,"inition":4132,"ĠOTHER":4133,"achine":4134,"Ġsurpr":4135,"Ġidea":4136,"Ġdirection":4137,"Ġexists":4138,"Ġheart":4139,"Ġeverything":4140,"Ġvariable":4141,"ĠTHIS":4142,"TYPE":4143,"ibility":4144,"ĠSM":4145,"Ġexit":4146,"55":4147,"ATA":4148,"Ġassociated":4149,"Ġexact":4150,"dump":4151,"Ġround":4152,"Down":4153,"ĠâĢĶ":4154,"ĠCal":4155,"RECT":4156,"Ġfur":4157,"ĠLOG":4158,"Ġsimply":4159,"mon":4160,"Ġlive":4161,"Init":4162,"ĠArray":4163,"Ġhit":4164,"Ġeffects":4165,"acy":4166,"Ġmeans":4167,"menu":4168,"iversity":4169,"Ġbeautiful":4170,"Ġlower":4171,"apan":4172,"ĠRedistribut":4173,"Ġmaster":4174,"70":4175,"leq":4176,"Ġuses":4177,"Ġ2010":4178,"raq":4179,"ĠMich":4180,"Ġamount":4181,"Ġpast":4182,"Ġsche":4183,"Ġsql":4184,"****************************************************************":4185,"framework":4186,"Ġactor":4187,"Ġpolit":4188,"Ġoperation":4189,"Ġadmin":4190,"alent":4191,"Ġofficial":4192,"lier":4193,"Ġlost":4194,"Ġunicode":4195,"Ġsil":4196,"plan":4197,"pecially":4198,"=\"\"":4199,"Ġbytes":4200,"ĠBro":4201,":`":4202,"Ġcolumn":4203,"Ġfeatures":4204,"Ġheaders":4205,"NavBar":4206,"allow":4207,"Ġdebug":4208,"Ġvict":4209,"Ġconv":4210,"foot":4211,";&":4212,"ĠForm":4213,"Ġpermission":4214,"atrix":4215,"Ġapplication":4216,"Mock":4217,"sel":4218,"Ġdictionary":4219,"apter":4220,"56":4221,"omic":4222,"ĠDon":4223,"PC":4224,"TE":4225,"Ġjoin":4226,"Ġadv":4227,"clus":4228,"Entity":4229,"ressed":4230,"Ġresp":4231,"Ġawait":4232,"ĠÃ":4233,"ĠInit":4234,"Ġlack":4235,"Ġang":4236,"Ġdistribution":4237,"click":4238,"ĠLess":4239,"Ð¸":4240,"Ġask":4241,"step":4242,"omin":4243,"____":4244,"Ġrelationship":4245,"ming":4246,"Ġcommands":4247,"ĠCorp":4248,"Ġsimilar":4249,"NE":4250,"Ġbuffer":4251,"Ġalthough":4252,"Ġ####":4253,"Ġmilit":4254,"ordin":4255,"INE":4256,"Ġorgan":4257,"89":4258,"ief":4259,"Ġ::":4260,"Ġemail":4261,"ĠFri":4262,"plugin":4263,"Ġanyone":4264,"Ġinvest":4265,"FAULT":4266,"izes":4267,"cret":4268,"è¿":4269,"à¤":4270,"Ġprim":4271,"havi":4272,"domain":4273,"rief":4274,"ba":4275,"handler":4276,"ĠCOPYRIGHT":4277,"fn":4278,"rt":4279,"Ġadditional":4280,"API":4281,"medi":4282,"$,":4283,"ĠJSON":4284,"Ġrespect":4285,"imple":4286,"Ġanswer":4287,"ERR":4288,"VAL":4289,"Ġwife":4290,"ĠTra":4291,"annot":4292,"headers":4293,"oss":4294,"fin":4295,"Ġens":4296,"ĠBeyoncÃ©":4297,"aring":4298,"Ġdefine":4299,"Ġwriter":4300,"kg":4301,"Ġeq":4302,"ĠFirst":4303,"ĠIO":4304,"Ġasync":4305,"Ġotherwise":4306,"Ġpredict":4307,"Column":4308,"ĠAssert":4309,"Label":4310,"Ġcult":4311,"ris":4312,"Ġplays":4313,"Update":4314,"ĠHTTP":4315,"Ġsays":4316,"SED":4317,"Ġoffset":4318,"ĠDVD":4319,"Ġwasn":4320,"ĠMc":4321,"Ġespecially":4322,"Ġaudience":4323,"uation":4324,"store":4325,"ĠAffero":4326,"Child":4327,"Ġcoup":4328,"unic":4329,"ĠNe":4330,"Ġbegan":4331,"udget":4332,"Number":4333,"Listener":4334,"Ġclaim":4335,"modules":4336,"Options":4337,"Token":4338,"Ġ---":4339,"ATH":4340,"Ġtor":4341,"draw":4342,"Ġtmp":4343,"expected":4344,"Ġtro":4345,"enter":4346,"Ġhasattr":4347,"Ġsection":4348,"Ġwhite":4349,"Ġshot":4350,"Ġsqu":4351,"Ġ\",":4352,"known":4353,"Ġnodes":4354,"Ġoffer":4355,"Ġattributes":4356,"Ġcallback":4357,"Ġallowed":4358,"Ġmembers":4359,"Core":4360,"ĠImportError":4361,"Buffer":4362,"KEY":4363,"IZE":4364,"depend":4365,"Layout":4366,"Ġlock":4367,"'},":4368,"ometry":4369,"Ġwatched":4370,"Write":4371,"Ġsorted":4372,"del":4373,"ĠAct":4374,"Ġ))":4375,"Ġreference":4376,"but":4377,"uggest":4378,"æĸ":4379,"resource":4380,"course":4381,"boot":4382,"Ġfriends":4383,"åĲ":4384,"ĠEach":4385,"Ġstarted":4386,"Ġ2004":4387,"Url":4388,"bose":4389,"eder":4390,"lywood":4391,"ä½":4392,"Ġcentury":4393,"=\"../../../../../":4394,"Len":4395,"Ġavoid":4396,"ĠChina":4397,"Ġenvironment":4398,"Ġannoun":4399,"ĠEnglish":4400,"ynam":4401,"Interface":4402,"Ġandroid":4403,"urch":4404,"IF":4405,"asure":4406,"Ġassign":4407,"urren":4408,"Cache":4409,"ĠAD":4410,"Ġcover":4411,"Ġshape":4412,"edef":4413,"ĠNow":4414,"unity":4415,"gment":4416,"Ġsocket":4417,"åħ":4418,"Ġcopies":4419,"Ġ2009":4420,"ROM":4421,"ĠDefault":4422,"Ġslow":4423,"Format":4424,"ada":4425,"Ġdomain":4426,"Provider":4427,"queue":4428,"75":4429,"Ġwants":4430,"03":4431,"Ġemb":4432,"clean":4433,"ula":4434,"Ġgrad":4435,"Ġsomeone":4436,"inese":4437,"ta":4438,"Ġsubprocess":4439,"Utils":4440,"ixture":4441,"criptor":4442,"Ass":4443,"ĠId":4444,"Exp":4445,"Entry":4446,"real":4447,"position":4448,"Font":4449,"Ġfire":4450,"Ġplatform":4451,"Ġtuple":4452,"ado":4453,"ĠIraq":4454,"Ġkilled":4455,"Ġmur":4456,"apsh":4457,"decode":4458,"indows":4459,"nodes":4460,"å®":4461,"Ġreplace":4462,"success":4463,"Ġhandler":4464,"icture":4465,"\"/>":4466,"Ġacross":4467,"ĠUSE":4468,"wait":4469,"assertFalse":4470,"44":4471,"Ġwent":4472,"Ġstandard":4473,"empty":4474,"'}":4475,"ourt":4476,"sian":4477,"results":4478,"ares":4479,"ĠHttp":4480,"\");":4481,"MIT":4482,"ĠPr":4483,"ĠFrench":4484,"Rem":4485,"\\\\":4486,"gin":4487,"ament":4488,"Ġgroups":4489,"ague":4490,"ĠDav":4491,"Ġdisc":4492,"ÑĤ":4493,"VID":4494,"ogn":4495,"returns":4496,"Ġvariables":4497,"iny":4498,"licit":4499,"hern":4500,"cel":4501,"year":4502,"ĠAcc":4503,"login":4504,"Ġlambda":4505,"Lo":4506,"Ġsold":4507,"Ġjav":4508,"Ġgave":4509,"Ġexisting":4510,"ĠCAP":4511,"Tag":4512,"ourn":4513,"Ġ\\$":4514,"sys":4515,"enn":4516,"Ġimportant":4517,"Configuration":4518,"Ġfuture":4519,"lood":4520,"groups":4521,"Ġmanager":4522,"rics":4523,"rs":4524,"ĠJapan":4525,"Ġbeginning":4526,"Ġmis":4527,"Ġplaying":4528,"atabase":4529,"ĠAT":4530,"sib":4531,"ĠIP":4532,"ointer":4533,"Ġwater":4534,"ester":4535,"Implement":4536,"ĠRec":4537,"29":4538,"Menu":4539,"Ġgives":4540,"Ġshown":4541,"astic":4542,"idual":4543,"Ġcompletely":4544,"ĠState":4545,"ese":4546,"Ġcert":4547,"elling":4548,"Ġdisable":4549,"Ġsets":4550,"foo":4551,"çĶ":4552,"åŃ":4553,"attle":4554,"ams":4555,"ellent":4556,"aging":4557,"ĠHel":4558,"Ġunsigned":4559,"INT":4560,"Ġbusiness":4561,"One":4562,"Ġdeterm":4563,"23":4564,"Ġneg":4565,"_;":4566,"stdout":4567,"Option":4568,"Ġmessages":4569,"Ġtransform":4570,"flags":4571,"rodu":4572,"ugins":4573,"reated":4574,"Ġthroughout":4575,"Ġdescribe":4576,"ĠAuth":4577,"Ġdoing":4578,"ior":4579,"tools":4580,"ĠOUT":4581,"Ġvert":4582,"INF":4583,"],":4584,"buffer":4585,"ĠTime":4586,"CP":4587,"77":4588,"ERT":4589,"float":4590,"vas":4591,"Ġdim":4592,"Ġbound":4593,"ptr":4594,"ĠFil":4595,"gorithm":4596,"sn":4597,"Ġconsidered":4598,"prefix":4599,"Ġinternal":4600,"ĠCode":4601,"ĠWed":4602,"classmethod":4603,"AGES":4604,"cat":4605,"ulate":4606,"ĠSMALL":4607,"Ġmother":4608,"iet":4609,"unt":4610,"Ġwhose":4611,"ĠLesser":4612,"DIR":4613,"look":4614,"platform":4615,"Ġencoding":4616,"ench":4617,"Ġrelative":4618,"ried":4619,"ĠFe":4620,"ITAL":4621,"Ġbelow":4622,"hor":4623,"Ġcoll":4624,"Ġworking":4625,"ĠMarkdown":4626,"ĠLa":4627,"Ġtags":4628,"BC":4629,"UE":4630,"Ġip":4631,"blems":4632,"Ġflags":4633,"kit":4634,"actions":4635,"AND":4636,"Ġtypedef":4637,"Ġ2006":4638,"Ġ],":4639,"ement":4640,"product":4641,"dest":4642,"aved":4643,"Ġ\"/":4644,"ĠFI":4645,"Ġplugin":4646,"Ġfavor":4647,"ĠSw":4648,"full":4649,"%;":4650,"Ġfan":4651,"rigger":4652,"Header":4653,"Ġcamera":4654,"Ġusers":4655,"track":4656,"column":4657,"Ġ_,":4658,"ontal":4659,"Ġcontainer":4660,"opin":4661,"ĠWeb":4662,"Ġ#############################################################################":4663,"zen":4664,"Thread":4665,"Ġvers":4666,"ili":4667,"ĠBar":4668,"Ġcenter":4669,"Ġfurther":4670,"esh":4671,"TestCase":4672,"Ġregard":4673,"ernel":4674,"aper":4675,"grad":4676,"compat":4677,"Ġpercent":4678,"ĠAustral":4679,"UI":4680,"engine":4681,"=\"/":4682,"Ġconstant":4683,"filename":4684,"Ġmissing":4685,"gu":4686,"ran":4687,"ĠMock":4688,"Ġclasses":4689,"Ġgetting":4690,"agment":4691,"Ġserious":4692,"Vis":4693,"ae":4694,"req":4695,"leted":4696,"BO":4697,"lying":4698,"rain":4699,"ĠCAPITAL":4700,"Load":4701,"Ġorigin":4702,"ĠBuild":4703,"Ġmaximum":4704,"Parameter":4705,"ores":4706,"Ġvia":4707,"bytes":4708,"æĺ":4709,"raises":4710,"ĠSch":4711,"Ġ24":4712,"Ġattempt":4713,"scale":4714,"Ġeffort":4715,"document":4716,"appoint":4717,"ĠKing":4718,"Met":4719,"Ġhel":4720,"CLUD":4721,"PORT":4722,"elta":4723,"Ġstarts":4724,"ĠParam":4725,"aul":4726,"Ġson":4727,"Ġinfl":4728,"ĠPres":4729,"ĠMicrosoft":4730,"Ġloss":4731,"Ġflag":4732,"Ġperformances":4733,"ds":4734,"Ġhop":4735,"Ġalign":4736,"Ġmeet":4737,"cr":4738,"ĠSept":4739,"zone":4740,"ĠPO":4741,"band":4742,"loader":4743,"Part":4744,"mple":4745,"uesday":4746,"Ġforeach":4747,"ĠCommand":4748,"II":4749,"Ġboy":4750,"Ġdevelopment":4751,"ĠMichael":4752,"Ġ\".":4753,"Session":4754,"imate":4755,"ĠChinese":4756,"widget":4757,"ĠOther":4758,"å¤":4759,"vm":4760,"ality":4761,"ARY":4762,"Ġtheme":4763,"uk":4764,"ĠDate":4765,"Ġvarious":4766,"Ġinline":4767,"ĠGroup":4768,"Ġsetting":4769,"ĠSouth":4770,"'>":4771,"GET":4772,"dig":4773,"Ġpositive":4774,"Ġmatrix":4775,"null":4776,"ingly":4777,"Ġmor":4778,"Ġnice":4779,"Ġ\"<":4780,"Ġlinks":4781,"Dir":4782,"respond":4783,"Ġmemory":4784,"ASE":4785,"Ġmiddle":4786,"writ":4787,"entity":4788,"Ġremember":4789,"TRIB":4790,"Mode":4791,"ained":4792,"izontal":4793,"Ġcomponent":4794,"ICE":4795,"Template":4796,"FL":4797,"udio":4798,"Ġrequests":4799,"itut":4800,"Ġwalk":4801,"Ġengine":4802,"UTH":4803,"strap":4804,"Ġdam":4805,"see":4806,"Ġalt":4807,"Ġ2007":4808,"addr":4809,"Control":4810,"Web":4811,"ecessary":4812,"Acc":4813,"Ġbank":4814,"Ġcollection":4815,"nesday":4816,"Style":4817,"Ġpi":4818,"Ġlat":4819,"First":4820,"ney":4821,"ĠSk":4822,"ĠInter":4823,"Ġ2016":4824,"Ġestab":4825,"COLOR":4826,"Ġicon":4827,"attributes":4828,"ĠAlso":4829,"Open":4830,"ĠQt":4831,"ĠArgs":4832,"Ã¡":4833,"ĠJack":4834,"arter":4835,"ios":4836,"Ġsuggest":4837,"AA":4838,"Ġseeing":4839,"once":4840,"ĠMe":4841,"SION":4842,"lint":4843,"ĠJan":4844,"job":4845,"Ġutils":4846,"Ġtown":4847,"Ġecon":4848,"Ġdeep":4849,"Ġnote":4850,"ACK":4851,"Ġintern":4852,"Dec":4853,"ĠDI":4854,"TRIBUT":4855,"Ġproblems":4856,"Ġobvious":4857,"weight":4858,"Ġoperations":4859,"la":4860,"ueue":4861,"isted":4862,"Ġconn":4863,"Ġquestion":4864,"oolean":4865,"zer":4866,"ĠTuesday":4867,"Spec":4868,"offset":4869,"Pol":4870,"adow":4871,"ĠAS":4872,"ills":4873,"ĠHollywood":4874,"VE":4875,"anger":4876,"Ġeveryone":4877,"Ġtaken":4878,"oman":4879,"words":4880,"totype":4881,"ĠEVENT":4882,"Ġcouple":4883,"Dep":4884,"FIG":4885,"Ġcalcul":4886,"just":4887,"ĠText":4888,"Comm":4889,"cks":4890,"ips":4891,"Serial":4892,"aa":4893,"Ġdefinit":4894,"Ġfem":4895,"Ġfelt":4896,"reset":4897,"oration":4898,"Out":4899,"ĠNorth":4900,",@":4901,"alys":4902,"Ġ@,@":4903,"report":4904,"Ġportray":4905,"Ġwarnings":4906,"semb":4907,"ntax":4908,"Ġheld":4909,"Ġpaths":4910,"Ġpot":4911,"loads":4912,"environ":4913,"Ob":4914,"cing":4915,"How":4916,"Types":4917,"vector":4918,"ĠWHE":4919,"Ġage":4920,"fit":4921,"æķ":4922,"ĠDO":4923,"pu":4924,"ĠOver":4925,"azy":4926,"ĠWednesday":4927,"where":4928,"Ġstack":4929,"urt":4930,"Back":4931,"Ġgrant":4932,"Ġequ":4933,"ube":4934,"points":4935,"igration":4936,"eval":4937,"Reader":4938,"Position":4939,"transform":4940,"Ġbecomes":4941,"Ġsplit":4942,"ands":4943,"tn":4944,"Ġaccording":4945,"OK":4946,"Ġmath":4947,"Ġsecurity":4948,"Ġdisappoint":4949,"icks":4950,"Integer":4951,"Ð½":4952,"Ġformer":4953,"Ġsupported":4954,"ĠMonday":4955,"reference":4956,"Ġopts":4957,"Ġpiece":4958,"andle":4959,"Ġmarket":4960,"lation":4961,"Ġhours":4962,"ĠPe":4963,"Equals":4964,"mpt":4965,"oms":4966,"unc":4967,"Ġprep":4968,"rees":4969,"Ġjavax":4970,"tags":4971,"ĠEnd":4972,"Ġimplementation":4973,"zy":4974,"Ġhon":4975,"ĠUSA":4976,"08":4977,"rote":4978,"Aut":4979,"ĠRef":4980,"27":4981,"ls":4982,"Ġstri":4983,"Inst":4984,"Ġbehind":4985,"ĠRights":4986,"================================================================":4987,"CR":4988,"Ġenumer":4989,"Ġsupposed":4990,"Ġeval":4991,"game":4992,"Ġremote":4993,"Ġdescribed":4994,"Ġrc":4995,"Pre":4996,"hist":4997,"holder":4998,"pha":4999,"validate":5000,"small":5001,"ifndef":5002,"Ġdiscover":5003,"socket":5004,"inx":5005,"ĠJust":5006,"ĠINCLUD":5007,"Ġcompet":5008,"Ġguess":5009,"Ġele":5010,"ĠBG":5011,"bb":5012,"Off":5013,"Helper":5014,"DS":5015,"application":5016,"Ġactive":5017,"Ġgold":5018,"assertIs":5019,"han":5020,"none":5021,"called":5022,"Ġinsert":5023,"antic":5024,"Ġ40":5025,"Ġcalls":5026,"ĠBUT":5027,"Do":5028,"ĠBo":5029,"Container":5030,"ĠFROM":5031,"Ġjud":5032,"footer":5033,"Ġheav":5034,"Dialog":5035,"Ġwanted":5036,"angle":5037,"Ġcompat":5038,"Ġprovide":5039,"rate":5040,"ĠPart":5041,"CharField":5042,"wd":5043,"Row":5044,"Store":5045,"ĠWhile":5046,"mar":5047,"mplates":5048,"Stack":5049,"Ġusername":5050,"////////////////////////////////":5051,"ĠChopin":5052,"Ġexactly":5053,"Ġstars":5054,"ĠReserved":5055,"ĠLi":5056,"Ġmetadata":5057,"metadata":5058,"Ġimag":5059,"Ġnovel":5060,"Ġurllib":5061,"interface":5062,"ĠVer":5063,"orge":5064,"Ġwhom":5065,"Ġetc":5066,"ĠTask":5067,"Ġselected":5068,"peat":5069,"ĠNational":5070,"try":5071,"stats":5072,"Ġinside":5073,"Ġcombin":5074,"short":5075,"Ġvill":5076,"Ġtimeout":5077,"Ġsongs":5078,"ĠPROVID":5079,"Ġ~":5080,"Ġcir":5081,"idence":5082,"Record":5083,"ĠDAMAGES":5084,"ĠAugust":5085,"Com":5086,"oston":5087,"ĠOlympic":5088,"Ġlargest":5089,"atur":5090,"Ġintrodu":5091,"Ġimages":5092,"apshot":5093,"ĠNE":5094,"Ġrank":5095,"oph":5096,"Ġvisit":5097,"ĠON":5098,"ORK":5099,"ighb":5100,"buf":5101,"Project":5102,"Ġoperator":5103,"Ġ=====":5104,"grid":5105,"ln":5106,"Ġopp":5107,"ĠSU":5108,"PEC":5109,"Ġleading":5110,"26":5111,"Sc":5112,"ĠFrank":5113,"Ġmoment":5114,"Next":5115,"align":5116,"Ġ',":5117,"alysis":5118,"au":5119,"erence":5120,"Ġmass":5121,"lers":5122,"Ġpatch":5123,"ica":5124,"Ġsoon":5125,"produ":5126,"Address":5127,"ĠINCLUDING":5128,"Ge":5129,"Ġmys":5130,"upid":5131,"Ġleave":5132,"ORY":5133,"loor":5134,"bot":5135,"ĠWhite":5136,"Ġrecommend":5137,"28":5138,"Ġfast":5139,"Ġvolume":5140,"ĠOS":5141,"Ġautom":5142,"OLDER":5143,"37":5144,"amily":5145,"Fr":5146,"edit":5147,"={":5148,"erry":5149,"errors":5150,"ĠKe":5151,"************************************************************************":5152,"ĠPri":5153,"Ġpolice":5154,"Ġreported":5155,"Ġrid":5156,"haps":5157,"comment":5158,"claimer":5159,"apper":5160,"Ġscope":5161,"Ġgeneral":5162,"ĠLIMIT":5163,"Det":5164,"required":5165,"ĠMake":5166,"ĠHer":5167,"site":5168,"Ġmurder":5169,"FORM":5170,"WE":5171,"inv":5172,"Ġcra":5173,"long":5174,"itude":5175,"Ġstuff":5176,"è¯":5177,"Ġlearn":5178,"Ġoptional":5179,"TRACT":5180,"Writer":5181,"SH":5182,"rule":5183,"ÑĢ":5184,"Ġcharset":5185,"Ġfeed":5186,"PRESS":5187,"Ġaverage":5188,"edia":5189,"Description":5190,"Close":5191,"Json":5192,"scri":5193,"Ġrate":5194,"Ġmatches":5195,"ĠRead":5196,"ĠSource":5197,"getLogger":5198,"Ġupon":5199,"Pass":5200,"ilities":5201,"Ġ--------":5202,"Ġok":5203,"Ġmember":5204,"Per":5205,"Ġindiv":5206,"region":5207,"ursday":5208,"=\"../../../../../../":5209,"ĠBudd":5210,"Ġio":5211,"Ġsolid":5212,"IE":5213,"Names":5214,"asy":5215,"Ġste":5216,"ĠWindows":5217,"iller":5218,"acter":5219,"When":5220,"_{":5221,"Ġexcellent":5222,"selves":5223,"aid":5224,"Ġnor":5225,"hentication":5226,"stderr":5227,"Ġimpro":5228,"=\"_":5229,"Ġtrace":5230,"ĠOption":5231,"Ġimplements":5232,"ĠSHALL":5233,"ĠPROVIDED":5234,"ĠDep":5235,"${":5236,"Ġthr":5237,"Ġund":5238,"Ġcareer":5239,"WS":5240,"fetch":5241,"Implemented":5242,"Sample":5243,"Ġredu":5244,"ISING":5245,"Ġopening":5246,"~~~~~~~~":5247,"45":5248,"ĠHar":5249,"apse":5250,"Ġtrain":5251,"48":5252,"ummy":5253,"tic":5254,"Ġstructure":5255,"ĠSE":5256,"IR":5257,"atural":5258,"MD":5259,"Ġforward":5260,"Ġdisclaimer":5261,"hook":5262,"aur":5263,"free":5264,"Ġ{{":5265,"dates":5266,"rown":5267,"callback":5268,"ĠBoston":5269,"Ġcorrespond":5270,"ham":5271,"Unit":5272,"ĠLIABLE":5273,"ĠARISING":5274,":\"":5275,"orary":5276,"Ġrespon":5277,"istration":5278,"Ġbehavi":5279,"ĠError":5280,"lies":5281,"Ġtx":5282,"gl":5283,"Ġmention":5284,"ĠYour":5285,"Ġquick":5286,"Ġsusp":5287,"BUG":5288,"Render":5289,"There":5290,"ĠMus":5291,"itting":5292,"window":5293,"<?":5294,"Ġvalidate":5295,"Ġwrote":5296,"Ġarr":5297,"HTML":5298,":-----":5299,"added":5300,"Sy":5301,"Ġfn":5302,"uge":5303,"------":5304,"Settings":5305,"eries":5306,"Ġlang":5307,"ĠAir":5308,">'":5309,"Range":5310,"Ġgit":5311,"Ġrepl":5312,"ANG":5313,"Ġwest":5314,"images":5315,"Ġled":5316,"Ġinstalled":5317,"Ġbuilding":5318,"datetime":5319,"btn":5320,"ĠEl":5321,"ele":5322,"yl":5323,"ully":5324,"Ġshall":5325,"Ġcursor":5326,"ĠAf":5327,"Ġthemselves":5328,"Ġrules":5329,"Ġextension":5330,"ĠWHETHER":5331,"ĠEXPRESS":5332,"Ġcause":5333,"Ġdark":5334,"ĠTORT":5335,"unicode":5336,"Ġsem":5337,"planation":5338,"Ġali":5339,"inder":5340,"ĠCONTRACT":5341,"orig":5342,"ĠCount":5343,"ĠProject":5344,"Ġquality":5345,"Max":5346,"Ġhero":5347,"basic":5348,"then":5349,"children":5350,"Ġproperties":5351,"Ġseconds":5352,"Ġ60":5353,"LL":5354,"ĠThursday":5355,"Ġpopular":5356,"uters":5357,"acro":5358,"Document":5359,"Ġclassic":5360,"Found":5361,"custom":5362,"Order":5363,"mk":5364,"Ġbudget":5365,"Ġlayer":5366,"actor":5367,"Ġtelevision":5368,"Ġgun":5369,"olver":5370,"ificate":5371,"ĠPresident":5372,"Target":5373,"ĠAmerica":5374,"artment":5375,"ailed":5376,"ino":5377,"oreign":5378,"ĠLIMITED":5379,"ban":5380,"Ġstra":5381,"kens":5382,"isf":5383,"ĠGod":5384,"38":5385,"Match":5386,"allen":5387,"Bundle":5388,"Title":5389,"pattern":5390,"ĠImage":5391,"ĠBGCOLOR":5392,"ĠSec":5393,"ĠWilli":5394,"Ġfront":5395,"Ġcross":5396,"itter":5397,"Ġtouch":5398,"Ġctx":5399,"Ġ1000":5400,"Ġmerge":5401,"Ġrom":5402,"ughter":5403,"emon":5404,"Http":5405,"IST":5406,"ĠUniversity":5407,"ĠRequest":5408,"sleep":5409,"Ġut":5410,"Ġord":5411,"Ñģ":5412,"ĠAng":5413,"aked":5414,"Ġ80":5415,"ĠAuthors":5416,"quote":5417,"herit":5418,"TEST":5419,"Ġapply":5420,"Ġtorch":5421,"UM":5422,"cell":5423,"ä¹":5424,"Ġchannel":5425,"Ġcand":5426,"Ġsess":5427,"dec":5428,"CS":5429,"Ġstupid":5430,"oting":5431,"driver":5432,"Ġdownload":5433,"Ġinf":5434,"Ġplease":5435,"rome":5436,"ĠRich":5437,"public":5438,"ĠNotImplemented":5439,"ference":5440,"Ġlives":5441,"Ġì":5442,"WN":5443,"Ġ\"__":5444,"ĠSeptember":5445,"record":5446,"Ġtaking":5447,"Ġow":5448,"Ġsched":5449,"Ġ2005":5450,"Length":5451,"Ġ21":5452,"Ġmodern":5453,"okie":5454,"ĠExt":5455,"ibet":5456,"OO":5457,"ĠStreet":5458,"Ġmatter":5459,"Level":5460,"uel":5461,"SET":5462,"Ġindividual":5463,"Ġsouth":5464,"Ġcomments":5465,"Ġentity":5466,"Ġcoq":5467,"Ġenumerate":5468,"Ġcard":5469,"Change":5470,";/":5471,"Ph":5472,"Ġstay":5473,"ongo":5474,"fortun":5475,"yg":5476,"Ġstage":5477,"ĠEver":5478,"\\\"":5479,"ww":5480,"Ġmid":5481,"Ġ@.":5482,"timeout":5483,"unique":5484,"Ġsell":5485,"izing":5486,"Ġ@.@":5487,"Ġinvalid":5488,"ĠFriday":5489,"Port":5490,"false":5491,"ĠAm":5492,"ims":5493,"Ġextract":5494,"Collection":5495,"Returns":5496,"entials":5497,"Hash":5498,"warn":5499,"ersist":5500,"ĠMap":5501,"enced":5502,"Ġcouldn":5503,"'''":5504,"ĠSm":5505,"warning":5506,"Tim":5507,"Ġfake":5508,"Ġpip":5509,"exceptions":5510,"Ġmenu":5511,"second":5512,"ĠINT":5513,"IPT":5514,"Ġkids":5515,"Ġstudents":5516,"Ġminimum":5517,"Classes":5518,"Last":5519,"username":5520,"ä¸Ģ":5521,"Ġdivision":5522,"Ġannounced":5523,"illa":5524,"Ġmilitary":5525,"liter":5526,"Ġhour":5527,"aws":5528,"CTYPE":5529,"Ġdeliver":5530,"ĠEven":5531,"else":5532,"ĠAg":5533,"76":5534,"Ġusage":5535,"Ġsubst":5536,"ĠPortug":5537,"drop":5538,"Ġindust":5539,"volume":5540,"craft":5541,"ĠDavid":5542,"Ġtool":5543,"Ġones":5544,"ĠAfric":5545,"49":5546,"åľ":5547,"ĠWell":5548,"Ġmoments":5549,"Auth":5550,"Ġbasic":5551,"Ġlett":5552,"Ġfans":5553,"Ġcontents":5554,"ĠCONTRIBUT":5555,"Ġensure":5556,"repr":5557,"Ġstrict":5558,"ested":5559,"total":5560,"Ġdie":5561,"ĠJames":5562,"Ġcomplex":5563,"Ġskip":5564,"++++++++":5565,".*":5566,"ouch":5567,"ĠFrom":5568,"strict":5569,"views":5570,"Ġredirect":5571,"anced":5572,"urity":5573,"Ġgrid":5574,"energy":5575,"ewh":5576,"Work":5577,"erve":5578,"ĠValid":5579,"ĠCONTRIBUTORS":5580,"card":5581,"Ġrelated":5582,"Ġbring":5583,"Parameters":5584,"Ġ<!":5585,"Ġtear":5586,"alle":5587,"ĠUN":5588,"Ġmusical":5589,"PATH":5590,"ĠEngland":5591,"Ab":5592,"ald":5593,"Ġoutside":5594,"faces":5595,"Ġhot":5596,"ĠEar":5597,"Ġboring":5598,"ĠApr":5599,"Ġstarting":5600,"Ġqueue":5601,"Access":5602,"vari":5603,"Ġpract":5604,"ĠHOLDER":5605,"ĠLoc":5606,"profile":5607,"Ġtruly":5608,"Ġfollows":5609,"09":5610,"google":5611,"ĠStr":5612,"cloud":5613,"Ġcore":5614,"Ġgames":5615,"vars":5616,"war":5617,"Ġextern":5618,"Ġer":5619,"gments":5620,"asing":5621,"ynamic":5622,"convert":5623,"Loader":5624,"Ġimmedi":5625,"Ġpolitical":5626,"Ġpool":5627,"Ġpicture":5628,"ico":5629,"Ġmaybe":5630,"generate":5631,"ĠRobert":5632,"awn":5633,"Ġrelig":5634,"Ġzip":5635,"Ð¾Ð":5636,"ira":5637,"Ġamaz":5638,"Ġkid":5639,"LOG":5640,"pg":5641,"ĠPaul":5642,"Ġversions":5643,"Ġtold":5644,"Ġ\"\",":5645,"ĠBSD":5646,"ĠVector":5647,"ĠArg":5648,"Ġdecided":5649,"linux":5650,"æĪ":5651,"safe":5652,"Ġscale":5653,"Ġeng":5654,"greg":5655,"umes":5656,"59":5657,"Ġpytest":5658,"tmp":5659,"Ġtab":5660,"auto":5661,"Sign":5662,"aching":5663,"ĠIF":5664,"uses":5665,"cons":5666,"rf":5667,"Example":5668,"Ġdirectly":5669,"EM":5670,"Sk":5671,"ja":5672,"Ġoil":5673,"ĠTw":5674,"Ġ$_":5675,"ĠRedistributions":5676,"Ġï":5677,"Ġelect":5678,"UID":5679,"inct":5680,"Ġmob":5681,"grade":5682,"++;":5683,"ĠDoc":5684,"Ġaccomp":5685,"That":5686,"Ġzero":5687,"ĠAc":5688,"Ġcounter":5689,"Ġ-=":5690,"uler":5691,"FILE":5692,"istan":5693,"dr":5694,"Ġrev":5695,"akers":5696,"HTTP":5697,"Ġinflu":5698,"Ġpages":5699,"Ġsuccessful":5700,"Ġ(":5701,"Ġstorage":5702,"abor":5703,"Ġweak":5704,"ĠMr":5705,"Ġpylint":5706,"My":5707,"oon":5708,"ĠOf":5709,"acity":5710,"fri":5711,"Ġcy":5712,"aven":5713,"Ġprem":5714,"Ġlayout":5715,"ĠCom":5716,"Ġactiv":5717,"END":5718,"Ġcommit":5719,"Ġremoved":5720,"ERROR":5721,"06":5722,"Ġfell":5723,"Ġdesc":5724,"bound":5725,"Ġpsy":5726,"ĠGiven":5727,"Ġroles":5728,"Ġupdated":5729,"pag":5730,"Ġsumm":5731,">>":5732,"After":5733,"ĠIndex":5734,"ĠAuthor":5735,"Properties":5736,"ADD":5737,"Min":5738,"bing":5739,"__\":":5740,"Ġsaying":5741,"Graph":5742,"Ġago":5743,"pename":5744,"ithub":5745,"Ġsecret":5746,"Ġregular":5747,"Ġ\"-":5748,"ĠCall":5749,"fill":5750,"Ġtesting":5751,"Ġusually":5752,"Ġtreat":5753,"Ġtries":5754,"esterday":5755,"PRO":5756,"ussian":5757,"Ġ32":5758,"Tool":5759,"ollow":5760,"chie":5761,"Ġroom":5762,"Argument":5763,"ĠSund":5764,"irth":5765,"osition":5766,"Parse":5767,"Ġdiffic":5768,"Ġshoot":5769,"ously":5770,"Ġbroad":5771,"Ġtalent":5772,"Ġdog":5773,"Ġactions":5774,"ological":5775,"Ġdestroy":5776,"ondon":5777,"Ġng":5778,"Ġstock":5779,"ĠDr":5780,"ĠOct":5781,"urrency":5782,"Ġir":5783,"ĠSP":5784,"ĠOff":5785,"wrap":5786,"Ġruns":5787,"Ġpress":5788,"Changed":5789,"Ġsomewh":5790,"bsite":5791,"Ġinvolved":5792,"storage":5793,"Serv":5794,"Ġhumor":5795,"ĠUpdate":5796,"Ġbuf":5797,"Iter":5798,"Ġdifficult":5799,"hi":5800,"lished":5801,"Ġarri":5802,"DOCTYPE":5803,"ĠApril":5804,"ĠSpec":5805,"ĠModel":5806,"Ġexperience":5807,"Current":5808,"ĠEvent":5809,"Fe":5810,"Ġfair":5811,"Ġrecogn":5812,"Device":5813,"etimes":5814,"precated":5815,"enses":5816,"GER":5817,"category":5818,"Ġsad":5819,"Ġdrop":5820,",,":5821,"RI":5822,"Ġreverse":5823,"Ġcoming":5824,"ĠTypeError":5825,"æĺ¯":5826,"ĠMO":5827,"}.":5828,"Ġbal":5829,">\"":5830,"Ã³":5831,"inner":5832,"ĠJuly":5833,"Ġactress":5834,"Ġproducts":5835,"Layer":5836,"ĠStat":5837,"expand":5838,"uate":5839,"conn":5840,"Ġsymbol":5841,"iform":5842,"properties":5843,"Ġends":5844,"uri":5845,"ĠLondon":5846,"ĠFind":5847,"Ġpossib":5848,"cap":5849,"oul":5850,"Ġdistance":5851,"Ġfigure":5852,"Ġpotential":5853,"after":5854,"Ġsyn":5855,"Ġmut":5856,"Ġimg":5857,"Enc":5858,"limit":5859,"ws":5860,"ifies":5861,"Ġlogin":5862,"Ġignore":5863,"arp":5864,"Ġexpression":5865,"Rout":5866,"changed":5867,"54":5868,"Red":5869,"RING":5870,"Ġmask":5871,"ĠSim":5872,"Ġagre":5873,"ĠWrite":5874,"media":5875,"ĠPal":5876,"Ġearth":5877,"Ġhigher":5878,"Ġabstract":5879,"ĠRuby":5880,"itect":5881,"Ġ'',":5882,"layout":5883,"Ġnearly":5884,"route":5885,"ĠPark":5886,"prototype":5887,"Ġroute":5888,"RES":5889,"tool":5890,"Ġprovides":5891,";}":5892,"Matrix":5893,"bel":5894,"è®":5895,"ĠVAL":5896,"Ġpolicy":5897,"Callback":5898,"79":5899,"ĠAut":5900,"aint":5901,"Ġsafe":5902,"Ġroad":5903,"EXT":5904,"kwargs":5905,"Ġprintf":5906,"Ġdespite":5907,"»¿":5908,"aled":5909,"eless":5910,"Ġweight":5911,"31":5912,"rappe":5913,"PT":5914,"ĠGerman":5915,"Ġfine":5916,"ifth":5917,"Ġyesterday":5918,"Ġloop":5919,"Ġstates":5920,"factory":5921,"Ġjourn":5922,"ensive":5923,"components":5924,"Ġresources":5925,"ridge":5926,"Vector":5927,"Ġconstruct":5928,"Ġprogress":5929,"Ġsocial":5930,"many":5931,"come":5932,"ership":5933,"ĠEuropean":5934,"bootstrap":5935,"upt":5936,"anging":5937,"Package":5938,"Ġconsist":5939,"000000":5940,"ropri":5941,"Ġbtn":5942,"Ġinsp":5943,"weet":5944,"!\"":5945,"Ġ--------------------------------":5946,"ĠCH":5947,"okes":5948,"Ġdialogue":5949,"Ġflick":5950,"Ġnecessary":5951,"Ġexecute":5952,"ifest":5953,"Ġawful":5954,"ĠService":5955,"ĠXML":5956,"Ġincludes":5957,"}\"":5958,"ById":5959,"normal":5960,"Ġreve":5961,"Ġvector":5962,"coll":5963,"horizontal":5964,"pid":5965,"writer":5966,"ĠAUTH":5967,"Ġopener":5968,"Ġvoice":5969,"ao":5970,"Ġappend":5971,"commit":5972,"lege":5973,"ĠFin":5974,"Ġearlier":5975,"Mem":5976,"resources":5977,"Ġgranted":5978,"hell":5979,"Ġissue":5980,"math":5981,"ĠJune":5982,"hood":5983,"Ġresearch":5984,"atches":5985,"Ġtraining":5986,"Ġprices":5987,"ĠRemove":5988,"urric":5989,"Ġliter":5990,"ĠBill":5991,"compiler":5992,"hr":5993,"testing":5994,"copyright":5995,"pay":5996,"exc":5997,"Ġproper":5998,"Ġlabels":5999,"ĠField":6000,"Ġverify":6001,"mask":6002,"ped":6003,"ĠTibet":6004,"enty":6005,"Ġenum":6006,"SL":6007,"Ġ===":6008,"ival":6009,"controller":6010,"Ġdirected":6011,"vie":6012,"ĠNode":6013,"Location":6014,"Ġjump":6015,"Ġï»¿":6016,"ĠTim":6017,"ĠFunction":6018,"Ġletter":6019,"Api":6020,"quired":6021,"park":6022,"Ġcluster":6023,"Ġturns":6024,"git":6025,"Ġband":6026,"Ġterrible":6027,"PRE":6028,"Ġways":6029,"Ġsometimes":6030,"Ġescape":6031,"ĠBY":6032,"ancel":6033,"AU":6034,"cb":6035,"home":6036,"Ġfocus":6037,"Ġ##############################################################################":6038,"inux":6039,"Ġfinished":6040,"})":6041,"-------":6042,"Ġmoved":6043,"VERSION":6044,"Ġeasy":6045,"olutely":6046,"ĠSunday":6047,"DF":6048,"Queue":6049,"SQL":6050,"rr":6051,"internal":6052,"ellig":6053,"78":6054,"Ġcollect":6055,"Ġlonger":6056,"ancial":6057,"Ġliked":6058,"fortunately":6059,"!<":6060,"Ġwaste":6061,"Draw":6062,"atically":6063,"ĠSTR":6064,"Ġprofile":6065,"ĠUs":6066,"Files":6067,">,":6068,"apply":6069,"sd":6070,"Ġfant":6071,"ĠStart":6072,"Ġcritic":6073,"Ġphys":6074,"Ġproduced":6075,"Ġturned":6076,"Ġpush":6077,"Ġmyst":6078,"istant":6079,"Params":6080,"Ġwonderful":6081,"Ġbuy":6082,"Ġfill":6083,"Ġpull":6084,"ĠDIS":6085,"ĠEnt":6086,"Who":6087,"ĠSQL":6088,"Ġsleep":6089,"Ġhook":6090,"Ġallows":6091,"matrix":6092,"ĠChef":6093,"zip":6094,"Ġfac":6095,"Application":6096,"ĠJanuary":6097,"ĠMac":6098,"ashing":6099,"ady":6100,"Ġmoving":6101,"ĠDEFAULT":6102,"NavBarCell":6103,"ĠHOLDERS":6104,"Ġcourt":6105,"Ġdriver":6106,"Ġsignific":6107,"Ġenergy":6108,"Ġsignal":6109,"Ġservices":6110,"rieve":6111,"=,":6112,"Ġ22":6113,"sembly":6114,"indent":6115,"atalog":6116,"58":6117,"Ġexceptions":6118,"Ġdeveloped":6119,"messages":6120,"Ġwidget":6121,"Host":6122,"non":6123,"release":6124,"raction":6125,"Ġshutil":6126,"ĠassertEquals":6127,"Ġreceive":6128,"Ġfix":6129,"Ġparticularly":6130,"Ġschema":6131,"language":6132,"ĠDet":6133,"ĠGame":6134,"ĠAny":6135,"âĢĶ":6136,"Ġhistor":6137,"Ġbatch":6138,"role":6139,"Ġill":6140,"encoding":6141,"desc":6142,"aign":6143,"Sec":6144,"rd":6145,"arily":6146,"phere":6147,"Ġdiff":6148,"Ġcurrently":6149,"Ġprice":6150,"Ġemotion":6151,"Width":6152,"Ġstatement":6153,"Ġbi":6154,"Ġbrought":6155,"Ġfemale":6156,"Xml":6157,"ÃŃ":6158,"Ġcategory":6159,"eft":6160,"çĶ¨":6161,"Ġcharge":6162,"learn":6163,"=\"\"></":6164,"Ġblood":6165,"Ġletters":6166,"eric":6167,"Ġfollowed":6168,"Ġwarning":6169,"Ġsatisf":6170,"Us":6171,"Ġcli":6172,"Ġ'-":6173,"Ġshare":6174,"Ġprovider":6175,"46":6176,"Ġå":6177,"hest":6178,"Ġappears":6179,"07":6180,"æĹ":6181,"Ġul":6182,"ĠLink":6183,"============":6184,"gest":6185,"Ġbug":6186,"Ġmeta":6187,"Ġchart":6188,"global":6189,"illiant":6190,"ping":6191,"dden":6192,"Ġgiving":6193,"ĠHere":6194,"Ġmonths":6195,"ĠSPEC":6196,"ĠMag":6197,"Ġ23":6198,"pytest":6199,"Ġbits":6200,"imately":6201,"Ġpopulation":6202,"Ġfails":6203,"Ġaddition":6204,"ĠNotImplementedError":6205,"bas":6206,"ercial":6207,"ening":6208,"***":6209,"ĠOnly":6210,"omy":6211,"Ġbuilder":6212,"sequence":6213,"invalid":6214,"Ġbottom":6215,"attribute":6216,"Ġdaughter":6217,"Ġstraight":6218,"async":6219,"vey":6220,"download":6221,"Click":6222,"Ġvm":6223,"ĠPost":6224,"Ġfailure":6225,".$":6226,"Ġground":6227,"Ġseemed":6228,"ACE":6229,"Pod":6230,"based":6231,"Ġliving":6232,"Ġeight":6233,"Ġfetch":6234,"-->":6235,"Ġcontact":6236,"Ġworse":6237,"Ġple":6238,"emy":6239,"ĠDec":6240,"Ġseven":6241,"Ġbrother":6242,"Ġwarn":6243,"ifdef":6244,"argv":6245,"ĠCO":6246,"pository":6247,"Ġstats":6248,"DU":6249,"Eng":6250,"inger":6251,"Ġreading":6252,"%%%%":6253,"://":6254,"bad":6255,"Ġbin":6256,"ĠBen":6257,"construct":6258,"mos":6259,"Ġstudent":6260,"present":6261,"Ġwish":6262,"ĠNumber":6263,"Ġunits":6264,"Ġchoices":6265,"Ġdependencies":6266,"Ġdf":6267,"Ġreset":6268,"Ġbrowser":6269,"ĠEND":6270,"Plugin":6271,"Ġachie":6272,"Ġball":6273,"ĠTr":6274,"users":6275,"anned":6276,"Ġexpand":6277,"Ġmaterials":6278,"ka":6279,"oom":6280,"Ġprotocol":6281,"extract":6282,"256":6283,"staticmethod":6284,"Empty":6285,"Ġrent":6286,"Ġchance":6287,"plugins":6288,"pair":6289,"Ġentries":6290,"æķ°":6291,"video":6292,"Ġindepend":6293,"Ġestim":6294,"ĠAlthough":6295,"Values":6296,"ker":6297,"Ġcoordin":6298,"Ġdetect":6299,"Ġcompare":6300,"hens":6301,"ocket":6302,"ĠConst":6303,"Ġpublish":6304,"Use":6305,"Ġmaintain":6306,"Ġisland":6307,"license":6308,"uplic":6309,"Ġunless":6310,"åĬ":6311,"Ġintegr":6312,"So":6313,"Ġfrappe":6314,"example":6315,"Ġ26":6316,"Ġchunk":6317,"reshold":6318,"à®":6319,"Ġui":6320,"quire":6321,"exec":6322,"ission":6323,"println":6324,"PS":6325,"exist":6326,"asc":6327,"ONE":6328,"Ġpersonal":6329,"Ġfavorite":6330,"}/":6331,"ij":6332,"alloc":6333,"ĠSimple":6334,"osp":6335,"Ġviewer":6336,"Enum":6337,"mas":6338,"Ġflow":6339,"ĠHO":6340,"Ġrecent":6341,"Ġwrapper":6342,"ĠMIT":6343,"Ġrows":6344,":</":6345,"Ġfund":6346,"Ġmigr":6347,"iling":6348,"ĠPoint":6349,"Ġdefinitely":6350,"42":6351,"ua":6352,"Ġdataset":6353,"ĠGeorge":6354,"ĠLet":6355,"Ġplayers":6356,"Ġaffect":6357,"assertIn":6358,"Ġlookup":6359,"Ġchoose":6360,"ario":6361,"ĠSci":6362,"istance":6363,"Ġvisual":6364,"Ġentertaining":6365,"Ġglob":6366,"pping":6367,"icket":6368,"Ġblocks":6369,"Ġstre":6370,"Ġabsolutely":6371,"Ġemploy":6372,"Fail":6373,"ober":6374,"Ġcv":6375,"ĠGo":6376,"force":6377,"Ġperformed":6378,"Ġdrug":6379,"_.":6380,"diff":6381,"spe":6382,"screen":6383,"è¡":6384,"enable":6385,"Ġcolumns":6386,"Ġboard":6387,"Rel":6388,"usband":6389,"Ġmoves":6390,"REG":6391,"Ġcertainly":6392,"ggle":6393,"Rule":6394,"orse":6395,"Ġnational":6396,"Ġenable":6397,"Ġsales":6398,"MET":6399,"Ġdrama":6400,"ĠApple":6401,"oles":6402,"ĠMarch":6403,"Ind":6404,"ara":6405,"vable":6406,"Execut":6407,"Each":6408,"Ġ000":6409,"Assert":6410,"Ġforces":6411,"parameters":6412,"Ġ])":6413,"Ġ2017":6414,"Ġspecify":6415,"tasks":6416,"uan":6417,"ĠLee":6418,"47":6419,"how":6420,"rey":6421,"Ġdepth":6422,"apped":6423,"begin":6424,"ened":6425,"ĠMost":6426,"area":6427,"Ġimm":6428,"ĠInternational":6429,"enabled":6430,"columns":6431,"Ġhighly":6432,"ĠAttribute":6433,"friend":6434,"Ġwx":6435,"ĠII":6436,"Convert":6437,"Ġhappens":6438,"Ġsens":6439,"urricane":6440,"ixel":6441,"Ġenjoyed":6442,"iles":6443,"ĠTwo":6444,"resents":6445,"Ġparents":6446,"helper":6447,"Ġmeaning":6448,"Ġstories":6449,"===":6450,"ĠMore":6451,"Ġparty":6452,"Ġpresident":6453,"Ġdream":6454,"Ġconstructor":6455,"Icon":6456,"adian":6457,"inds":6458,"annotation":6459,"wrapper":6460,"istics":6461,"Ġmarker":6462,"ORE":6463,"Storage":6464,"Ġdefaults":6465,"Lock":6466,"prim":6467,"Ġfrequ":6468,"isk":6469,"Cons":6470,"compute":6471,"INGS":6472,"Ġcinema":6473,"ĠMet":6474,"ubs":6475,"impl":6476,"ĠAction":6477,"Ġphot":6478,"Local":6479,"family":6480,"hs":6481,"SIZE":6482,"Ġdro":6483,"Ġrecords":6484,"Ġcondition":6485,"ĠNEW":6486,"Schema":6487,"ĠArt":6488,"HER":6489,"ICT":6490,"iag":6491,"ategy":6492,"np":6493,"ĠBig":6494,"ĠExp":6495,"Ġmount":6496,"Ġodd":6497,"ĠPrint":6498,"events":6499,"Ġraised":6500,"dim":6501,"LIC":6502,"ients":6503,"Ġve":6504,"Ġprev":6505,"Delete":6506,"Ġfit":6507,"ĠTom":6508,"ĠBlack":6509,"Ġeyes":6510,"Ġty":6511,"Ġanno":6512,"Ġspeed":6513,"Ġcfg":6514,"Ġbattle":6515,"toString":6516,"Operation":6517,"ĠAccording":6518,"Impl":6519,"ille":6520,"Ġextrem":6521,"Ġbrilliant":6522,"Ġ'_":6523,"prep":6524,"Ġfinish":6525,"trace":6526,"Ġviolence":6527,"lim":6528,"Ġshared":6529,"ivil":6530,"Ġmodules":6531,"Ġbehavior":6532,"Ġwra":6533,"Post":6534,"ii":6535,"othing":6536,"Ġmess":6537,"Ġprec":6538,"LOCK":6539,"Height":6540,"PAR":6541,"Ġhealth":6542,"big":6543,"Ġmot":6544,"ĠMessage":6545,"Ġapparent":6546,"Ġspir":6547,"Ġedge":6548,"Ġwit":6549,"Ġquarter":6550,"ĠWhy":6551,"Ġedit":6552,"endswith":6553,"Top":6554,"Ġexamples":6555,"Ver":6556,"ĠElement":6557,"eces":6558,"Ġdou":6559,"Args":6560,"edd":6561,"Ġhusband":6562,"Ġchoice":6563,"Ġsett":6564,"done":6565,"hpp":6566,"Ġdump":6567,"Ġdefinition":6568,"aturday":6569,"Ġfort":6570,"assign":6571,"urls":6572,"ovember":6573,"Ġthreat":6574,"ategories":6575,"sample":6576,"Ġsources":6577,"ĠSince":6578,"Ġloved":6579,"Ġderived":6580,"ĠPre":6581,"Ġsequences":6582,"Ġcapital":6583,"53":6584,"ç»":6585,"Ġexec":6586,"Ġcompute":6587,"ĠOctober":6588,"sec":6589,"inf":6590,"decor":6591,"Ġ=================================================================":6592,"getElement":6593,"Are":6594,"oe":6595,"ĠMath":6596,"Ġagent":6597,"Ġfourth":6598,"ĠParameters":6599,"Ġdeg":6600,"Admin":6601,"ĠKeyError":6602,"'\"":6603,"ĠPlease":6604,"GL":6605,"uous":6606,"ulous":6607,"Ġ28":6608,"feed":6609,"proxy":6610,"vals":6611,"iot":6612,"Ġmd":6613,"Ġsubt":6614,"Ġfolder":6615,"LS":6616,"men":6617,"ades":6618,"execut":6619,"ĠDan":6620,"Invalid":6621,"Ġverbose":6622,"policy":6623,"atory":6624,"DIRECT":6625,"};":6626,"security":6627,"Ġaspect":6628,"Ġended":6629,"flush":6630,"Ġnorth":6631,"ĠBest":6632,"STAT":6633,"Ġattention":6634,"Database":6635,"lat":6636,"Ġtotally":6637,"egr":6638,"ini":6639,"Ġfoo":6640,"ĠLoad":6641,"ĠInternet":6642,"ĠCreat":6643,"ffff":6644,"Ġrot":6645,"simple":6646,"TY":6647,"Ġshift":6648,"printf":6649,"commands":6650,"Ġmixed":6651,"Ġrv":6652,"Ġcontroller":6653,"Constraints":6654,"itles":6655,"ĠLine":6656,"Ġgenre":6657,"Ġimmediately":6658,"\\-":6659,"ette":6660,"ĠNovember":6661,"rab":6662,"chron":6663,"Ġconcept":6664,"Ġappropri":6665,"Py":6666,"ository":6667,"Ġ2000":6668,"Ġcredit":6669,"Gui":6670,"Mon":6671,"sched":6672,"ipher":6673,"ventory":6674,"ä¸ª":6675,"more":6676,"Ġmachine":6677,"Ġpartner":6678,"Ġoverall":6679,"Ġsymp":6680,"Ġsignificant":6681,"under":6682,"ðŁ":6683,"ĠPath":6684,"proto":6685,"Ġenabled":6686,"HECK":6687,"ĠWork":6688,"Ġheard":6689,"Ġspecies":6690,"Ġtravel":6691,"POST":6692,"literals":6693,"agent":6694,"ĠINC":6695,"equals":6696,"Ġkept":6697,"Ġcreating":6698,"Ġprimary":6699,"ga":6700,"ena":6701,"ĠHam":6702,"django":6703,"flag":6704,"Ġ90":6705,"Num":6706,"OUR":6707,"break":6708,"fd":6709,"cker":6710,"Ġ++":6711,"ĠPermission":6712,"Ġfinds":6713,"ĠParis":6714,"iant":6715,"Co":6716,"You":6717,"Ġchallen":6718,"DEF":6719,"Ġstudy":6720,"PUT":6721,"anies":6722,"lie":6723,"outhern":6724,"Ġcompar":6725,"Ġeventually":6726,"Boolean":6727,"Ġtechnology":6728,"ĠRichard":6729,"OUT":6730,"ĠSan":6731,"Ġ.<":6732,"ĠTEST":6733,"Ġcontract":6734,"Ġlocated":6735,"Enabled":6736,"equ":6737,"arant":6738,"Ġadapt":6739,"NotFound":6740,"lipse":6741,";\">":6742,"å°":6743,"Ġperhaps":6744,"Edit":6745,"JSON":6746,"ateway":6747,"Ġlatest":6748,"Ġopenerp":6749,"Var":6750,"tensor":6751,"Ġthinking":6752,"=%":6753,"wer":6754,"ĠCent":6755,"ĠNetwork":6756,"ements":6757,"redirect":6758,"Ġinstances":6759,"Bl":6760,"Ġscient":6761,"Ġevil":6762,"Ġneighb":6763,"ĠTemplate":6764,"opts":6765,"');":6766,"CD":6767,"Wrapper":6768,"vention":6769,"inate":6770,"secut":6771,"rian":6772,"yper":6773,"ĠDB":6774,"Ġzone":6775,"Ġmyself":6776,"Ġsig":6777,"ĠiPod":6778,"Ġalone":6779,"Ġbranch":6780,"Ġdemon":6781,"Ġfactory":6782,"ĠÂĸ":6783,"GE":6784,"scription":6785,"tw":6786,"Ġlaunch":6787,"mn":6788,"axis":6789,"train":6790,"Can":6791,"Ġbra":6792,"Ġhidden":6793,"Ġestablished":6794,"fc":6795,"void":6796,"Ġstation":6797,"tod":6798,"Ġnews":6799,"browser":6800,"directory":6801,"ĠSaturday":6802,"ermissions":6803,"Ġhom":6804,"phinx":6805,"Ġrequires":6806,"Variable":6807,"ria":6808,"Ġcomputer":6809,"ORD":6810,"Connect":6811,"member":6812,"Ġsb":6813,"Ġrepresenting":6814,"arb":6815,"arrow":6816,"Ġreader":6817,"ĠLong":6818,"Ġslight":6819,"require":6820,"Ġcool":6821,"ĠMont":6822,"Ġextensions":6823,"Ġidx":6824,"Many":6825,"qrt":6826,"ĠEmp":6827,"Ġgreater":6828,"Ġopin":6829,"Timeout":6830,"Qt":6831,"pred":6832,"Ġupper":6833,"Pri":6834,"loop":6835,"Ġroll":6836,"Ġreach":6837,"Ġking":6838,"initial":6839,"Pool":6840,"Ġxrange":6841,"rial":6842,"lan":6843,"ĠHouse":6844,"Ġaren":6845,"Ġ2003":6846,"Ġconflic":6847,"export":6848,"SR":6849,"osen":6850,"Ġ196":6851,"mbols":6852,"panel":6853,"term":6854,"ifications":6855,"Ġfeeling":6856,"Flow":6857,"IX":6858,"Ġ${":6859,"Ġeasily":6860,"lym":6861,"imation":6862,"component":6863,";<":6864,"Ġdied":6865,"Ġsegment":6866,"Ġendif":6867,"âĢĵ":6868,"Ġtempfile":6869,"Ġrepresentation":6870,"Ġdigits":6871,"Ġattrs":6872,"FORMAT":6873,"iers":6874,"mf":6875,"enames":6876,"Ġcat":6877,"forms":6878,"rowse":6879,"Ġhands":6880,"ITE":6881,"ĠConvert":6882,"Ġgirls":6883,"Ġstorm":6884,"ĠBra":6885,"Ġflat":6886,"00000000":6887,"EMPL":6888,"Ġmist":6889,"Ġregarding":6890,"85":6891,"=-":6892,"assertAll":6893,"Ġshell":6894,"Ġmostly":6895,"Ġnegative":6896,"Ġsolution":6897,"Ġcollections":6898,"annels":6899,"navList":6900,"Ġindustry":6901,"contents":6902,"90":6903,"Mapping":6904,"Ġdom":6905,"ingle":6906,"Ġsoci":6907,"ĠCONFIG":6908,"Ġship":6909,"Ġlikely":6910,"house":6911,"ĠAnt":6912,"sert":6913,"ĠOper":6914,"Ġaxis":6915,"border":6916,"Ġmulti":6917,"theme":6918,"Ġhappened":6919,"Ġofficials":6920,"erefore":6921,"Ġeditor":6922,"cceed":6923,"Ġdebut":6924,"vironment":6925,"otes":6926,"agma":6927,"ĠMiss":6928,"hidden":6929,"Ġpkg":6930,"java":6931,"Ġfp":6932,"Ġnature":6933,"Ġ500":6934,"separ":6935,"Ġissues":6936,"Ġguys":6937,"AGS":6938,"ĠCanadian":6939,"Ġforced":6940,"apes":6941,"Ġamazing":6942,"ĠYORK":6943,"ĠTests":6944,"Ġcommercial":6945,"ĠLo":6946,"Ġteach":6947,"Network":6948,"high":6949,"sess":6950,"Ġnatural":6951,"ĠHigh":6952,"Ġopened":6953,"åº":6954,"Ġfs":6955,"related":6956,"Handle":6957,"itute":6958,"ounds":6959,"Ġlooked":6960,"Root":6961,"serial":6962,"Ġeduc":6963,"ĠModule":6964,"junit":6965,"Ġfinancial":6966,"bal":6967,"Ġrout":6968,"eff":6969,"ĠGood":6970,"Sl":6971,"XML":6972,"Ġalgorithm":6973,"Ġkiller":6974,"clos":6975,"itation":6976,"ĠSam":6977,"umbn":6978,"Ġmatching":6979,"ĠIndian":6980,"Ġsaved":6981,"Ġcorresponding":6982,"TC":6983,"TABLE":6984,"ĠGreat":6985,"helpers":6986,"Ġtowards":6987,"olf":6988,"CLA":6989,"Ġfear":6990,"Ġintellig":6991,"Ġtasks":6992,"NOT":6993,"aste":6994,"rot":6995,"packages":6996,"clusion":6997,"=$":6998,"aling":6999,"Ġreached":7000,"white":7001,"å¼":7002,"hex":7003,"ĠView":7004,"ampions":7005,"Ġbegins":7006,"brief":7007,"rael":7008,"Ġcontinued":7009,"Ġpairs":7010,"Pack":7011,"URE":7012,"unn":7013,"anguages":7014,"Ġexplicit":7015,"Collections":7016,"Ġinputs":7017,"Ġcle":7018,"Ġnova":7019,"Ġoffice":7020,"FC":7021,"Rect":7022,"Ġ\";":7023,"aby":7024,"ĠGold":7025,"regex":7026,"registry":7027,"verify":7028,"score":7029,"Install":7030,"Ġ^":7031,"esc":7032,"edic":7033,"Ġrock":7034,"Ġexplo":7035,"Ġbind":7036,"ĠBel":7037,"Ġstrugg":7038,"Ġcomponents":7039,"cursor":7040,"Ġclick":7041,"direct":7042,"nother":7043,"ĠDevelop":7044,"MB":7045,"uce":7046,"Ġwer":7047,"ĠReuters":7048,"Fields":7049,"Ġepisodes":7050,"atial":7051,"Ġsuite":7052,"Ġparsed":7053,"Ġprime":7054,"calar":7055,"Ġoptim":7056,"&#":7057,"Ġphone":7058,"supported":7059,"VI":7060,"hetic":7061,"Ġsummary":7062,"Ġcs":7063,"ĠAlex":7064,"chan":7065,"ASH":7066,"Ġextremely":7067,"'),":7068,"Ġshowing":7069,"ĠJapanese":7070,"Ġwild":7071,"ĠPat":7072,"Ġretain":7073,"Ġhighest":7074,"Ġvictory":7075,"oreignKey":7076,"almost":7077,"Ġplans":7078,"Ġgenerally":7079,"ĠMusic":7080,"ano":7081,"Ġnorm":7082,"Ġwall":7083,"udo":7084,"sock":7085,"plus":7086,"Profile":7087,"ĠStringIO":7088,"Ġflo":7089,"ĠTable":7090,"istribution":7091,"Directory":7092,"Ġstored":7093,"Results":7094,"legal":7095,"Ġsquare":7096,"Print":7097,"SY":7098,"ĠDjango":7099,"Items":7100,"Generic":7101,"Ġcontributors":7102,"Ġast":7103,"ĠBack":7104,"Ġremaining":7105,"æī":7106,"ĠTechn":7107,"tabstop":7108,"ĠOrder":7109,"Net":7110,"sync":7111,"ĠGets":7112,"Ġchain":7113,"Ġinternational":7114,"Ġ\"#":7115,"Ġareas":7116,"Ġplain":7117,"ĠMart":7118,"ĠExplanation":7119,"Ġnavigation":7120,"ederal":7121,"Metadata":7122,"och":7123,"otal":7124,"ĠWal":7125,"ancy":7126,"PER":7127,"ĠShow":7128,"Ġtried":7129,"Help":7130,"But":7131,"ĠMax":7132,"ĠMeta":7133,")))":7134,"Ġdoll":7135,"asion":7136,"ĠIts":7137,"boolean":7138,"database":7139,"MAX":7140,"Report":7141,"Ste":7142,"legate":7143,"Ġrepe":7144,"Ġbey":7145,"activ":7146,"Ġ70":7147,"Ġstdout":7148,":'":7149,"kind":7150,"ĠInteger":7151,"incip":7152,"Ġpayload":7153,"57":7154,"Ġtrip":7155,"loyment":7156,"Ġhuge":7157,"Ġ'#":7158,"ä¸į":7159,"utable":7160,"note":7161,">.":7162,"Ġmanagement":7163,"ENTIAL":7164,"radius":7165,"constant":7166,"ĠRuntime":7167,"Ġ------------------------------------------------------------------------":7168,"Ġcart":7169,"Ġmodification":7170,"Ġteen":7171,"cred":7172,"ners":7173,"padding":7174,"asm":7175,"Ġbeat":7176,"Ġdram":7177,"Ġsec":7178,"Ġshock":7179,"shift":7180,"Ġready":7181,"Bytes":7182,"protocol":7183,"Ġtruth":7184,"Ġcentral":7185,"Ġweeks":7186,"Account":7187,"Note":7188,"Äģ":7189,"Ġcontest":7190,"Ġmodified":7191,"Ġowner":7192,"Ġprevent":7193,"onym":7194,"detail":7195,"Ġtour":7196,"bool":7197,"cli":7198,"eq":7199,"ida":7200,"Ġexecution":7201,"Ġridic":7202,"Ġbeyond":7203,"Ġfixed":7204,"amma":7205,"Ġforget":7206,"Ġaltern":7207,"Ġworked":7208,"Tab":7209,"andard":7210,"ĠOut":7211,"------------------------":7212,"AI":7213,"SCR":7214,"Ġreplaced":7215,"){":7216,"pick":7217,"wide":7218,"ĠBer":7219,"provider":7220,"Pr":7221,"Ġreject":7222,"created":7223,"ĠColor":7224,"Ġpure":7225,"ĠPlym":7226,"Ġ27":7227,"SEQU":7228,"Ġminor":7229,"Ġdecor":7230,"Ġsignature":7231,"details":7232,"itution":7233,"Ġmapping":7234,"Ġvim":7235,"ĠRuss":7236,"Show":7237,"services":7238,"Ġpurpose":7239,"echo":7240,"rpc":7241,"Ġtax":7242,"Ġcalling":7243,"Ġhappy":7244,"ĠBank":7245,"emo":7246,"Ġgoal":7247,"```":7248,"Ġrelay":7249,"Debug":7250,"por":7251,"éĢ":7252,"Ġdtype":7253,"ulated":7254,"ĠFort":7255,"Ġspeak":7256,"gis":7257,"tuple":7258,"extra":7259,"Ġminute":7260,"Ġdocuments":7261,"Ġkilling":7262,"Ġrace":7263,"Ġinterpre":7264,"Transform":7265,"Ġcandid":7266,"ashes":7267,"Ġtokens":7268,"Ġcompl":7269,"spath":7270,"Ġpermitted":7271,"Ġclosed":7272,"Ġautomatically":7273,"...<":7274,"each":7275,"{%":7276,"Ġupload":7277,"Ġtroub":7278,"Ġdt":7279,"ELL":7280,"Ġarchitect":7281,"Job":7282,"king":7283,"Ġops":7284,"Ġrating":7285,"ARD":7286,"ĠExamples":7287,"âĢĻ":7288,"merge":7289,"Ġknows":7290,"Ġcompleted":7291,"åĽ":7292,"rece":7293,"81":7294,"GI":7295,"uzz":7296,"variable":7297,"Ġoc":7298,"ĠPeter":7299,"Ġsuit":7300,"Activity":7301,"Ġeye":7302,"lookup":7303,"84":7304,"vents":7305,"erc":7306,"ctx":7307,"Main":7308,"rules":7309,"esome":7310,"ros":7311,"ĠWill":7312,"Ġyourself":7313,"ky":7314,"van":7315,"submit":7316,"switch":7317,"Ġdevices":7318,"Ġsubstant":7319,"ecause":7320,"Ġmeant":7321,"Ġencoded":7322,"Ġconnected":7323,"webkit":7324,"nn":7325,"Ġaward":7326,"ĠDuring":7327,"chemy":7328,"Ġgreatest":7329,"Ġincred":7330,"ĠResource":7331,"Ġanimation":7332,"Ġreprodu":7333,"cember":7334,"__.":7335,"oming":7336,"Ident":7337,"attrs":7338,"Ġreality":7339,"ĠContent":7340,"87":7341,"Now":7342,"Ġbelong":7343,"Obj":7344,"ĠStatus":7345,"ĠDISCLA":7346,"Ġ00":7347,"Ġterror":7348,"ĠACTION":7349,"Proxy":7350,"IDENT":7351,"ĠFrance":7352,"Offset":7353,"eno":7354,"Ġrat":7355,"Ġ):":7356,"Ġdistribute":7357,"ĠProcess":7358,"Ġsystems":7359,"Ġtells":7360,"Ġreviews":7361,"Ġcampaign":7362,"master":7363,"Ġrare":7364,"elebr":7365,"bus":7366,"Ġinn":7367,"ĠRad":7368,"ĠOK":7369,"ĠOb":7370,"Ġdecent":7371,"uit":7372,"Ġdogs":7373,"riginal":7374,"Ġanti":7375,"Ag":7376,"ĠMain":7377,"Remove":7378,"Ġ\"$":7379,"ĠRoman":7380,"Ġproxy":7381,"paths":7382,"AST":7383,"Ġ51":7384,"ĠARE":7385,"upload":7386,"lab":7387,"urg":7388,"Ġfactor":7389,"Repository":7390,"urred":7391,"Ġcri":7392,"iring":7393,"ixin":7394,"Mark":7395,"bra":7396,"mitted":7397,"Ġbillion":7398,"olic":7399,"Ġgrand":7400,"Ġappeared":7401,"Async":7402,"INFO":7403,"Ġhous":7404,"Ġ'\"":7405,"ĠHen":7406,"Ġatmos":7407,"Ġignored":7408,"lg":7409,"izable":7410,"ĠPhil":7411,"Ġess":7412,"ĠClient":7413,"Ġquickly":7414,"hold":7415,"Ð»":7416,"Ġ\"\";":7417,"ĠPage":7418,"Ġsupporting":7419,"Byte":7420,"/'":7421,"_,":7422,"abc":7423,"ĠLeague":7424,"Extension":7425,"ĠDIRECT":7426,"fp":7427,"Ġment":7428,"ĠSto":7429,"pected":7430,"ancing":7431,"Ġinitialize":7432,"final":7433,"ĠCreated":7434,"ĠPC":7435,"Ġplaces":7436,"built":7437,"cm":7438,"cil":7439,"ĠKore":7440,"enchmark":7441,"<<":7442,"Grid":7443,"ĠRock":7444,"->_":7445,"Ġindent":7446,"CODE":7447,"ĠMethod":7448,"Ġflash":7449,"ĠRepublic":7450,"Head":7451,"Op":7452,"dot":7453,"gb":7454,"owers":7455,"Ġfilters":7456,"Ġjs":7457,"well":7458,"allel":7459,"Ġincor":7460,"Ġpropos":7461,"Trace":7462,"Ġopinion":7463,"pages":7464,"Ġ=========":7465,"spring":7466,"Ptr":7467,"hover":7468,"alian":7469,"achment":7470,"collect":7471,"Ġseparate":7472,"oted":7473,"ossible":7474,"EEEE":7475,"Reference":7476,":%":7477,"lik":7478,"Ġusual":7479,"Ġactivity":7480,"Ġbiggest":7481,"Ġremains":7482,"Ġtimestamp":7483,"Ġult":7484,"Ġ|=":7485,"configuration":7486,"Ġfully":7487,"quence":7488,"ĠDecember":7489,"Parent":7490,"uples":7491,"features":7492,"Right":7493,"Body":7494,"ean":7495,"fix":7496,"Ġnumer":7497,"Ġcloud":7498,"Expression":7499,"idx":7500,"\":\"":7501,"Support":7502,"rated":7503,"ĠCourse":7504,"Ġadult":7505,"åľ¨":7506,"Ġappropriate":7507,"equiv":7508,"Has":7509,"heel":7510,"logging":7511,"Ġ2001":7512,"Ġ64":7513,"ĠNS":7514,"Ġolder":7515,">\\":7516,"shared":7517,"Ġsurv":7518,"Ġpreviously":7519,"repo":7520,"batch":7521,"Ġbul":7522,"Ġpartial":7523,"eek":7524,"Ġhorrible":7525,"Ġcaused":7526,"reci":7527,"Ġspent":7528,"ipe":7529,"perm":7530,"setUp":7531,"Ġsklearn":7532,"Ġheavy":7533,"å¯":7534,"Ġmultip":7535,"ĠSearch":7536,"collection":7537,"ĠAustralia":7538,"Ġschedule":7539,"glob":7540,"Ġdelay":7541,"ĠResponse":7542,"Ġsexual":7543,"ĠEarth":7544,"anner":7545,"ĠGP":7546,"ĠIdol":7547,"ECT":7548,"cluster":7549,"ĠEvery":7550,"Engine":7551,"Player":7552,"åį":7553,"ERS":7554,"Ġdisabled":7555,"Ġviewers":7556,"Ġcinemat":7557,"ĠCalif":7558,"Ġpsych":7559,"Ġdefe":7560,"ĠLook":7561,"oser":7562,"Ġcomb":7563,"Adapter":7564,"Ġpackages":7565,"****************************************************************************":7566,"?\"":7567,"Ġfmt":7568,"ads":7569,"obile":7570,"uffix":7571,"blank":7572,"namespace":7573,"Ġsuffix":7574,"UTF":7575,"Ġshowed":7576,"SCRIPT":7577,"mes":7578,"forward":7579,"å¾":7580,"Ġprefer":7581,"Ġdifference":7582,"ĠHttpResponse":7583,"schema":7584,"Ġhers":7585,"Ġnotes":7586,"ĠRet":7587,"Ġselection":7588,"together":7589,"undred":7590,"signal":7591,"Register":7592,"æľī":7593,"ĠSPECIAL":7594,"GB":7595,"tf":7596,"Ġrect":7597,"Common":7598,"lyph":7599,"Ġhear":7600,"links":7601,"Ġsomewhat":7602,"DATA":7603,"Ġnative":7604,"Ġ'';":7605,"ĠSD":7606,"Ġprison":7607,"=\"../../../":7608,"Ġsituation":7609,"96":7610,"ĠCustom":7611,"Ġdecision":7612,"Ġbirth":7613,"ĠRiver":7614,"umbnail":7615,"Float":7616,"SA":7617,"ago":7618,"Ġwouldn":7619,"Ġgenerator":7620,"ĠAttributeError":7621,"ĠIsland":7622,"Ġdetermine":7623,"EEEEFF":7624,"ForeignKey":7625,"bert":7626,"ĠHash":7627,"Display":7628,"pk":7629,"notation":7630,"Ġpromote":7631,"RR":7632,"rend":7633,"rent":7634,"ĠDel":7635,"pip":7636,"Ġrecorded":7637,"Ġprofession":7638,"FT":7639,"uke":7640,"Left":7641,"lor":7642,"INTER":7643,"NavBarFont":7644,"ech":7645,"ipped":7646,"ĠMem":7647,"BAR":7648,"mac":7649,"ĠCup":7650,"Ġpersons":7651,"Ġtraceback":7652,"ĠOptions":7653,"Ġintended":7654,"ashboard":7655,"Ġattempts":7656,"Ġexternal":7657,"Ġtemplates":7658,"Runner":7659,"utation":7660,"filters":7661,"dirname":7662,"partner":7663,"cpu":7664,"Ġknew":7665,"crement":7666,"player":7667,"ĠPlymouth":7668,"MIN":7669,"channel":7670,"ftime":7671,"Ġinvol":7672,"Ġcarry":7673,"ĠServer":7674,"ĠChristian":7675,"Ġfi":7676,"ĠRoy":7677,"deprecated":7678,"Ġleaves":7679,"prop":7680,"Ġfamous":7681,"ĠArrayList":7682,"SEQUENTIAL":7683,"DATE":7684,"browse":7685,"iences":7686,"ĠDict":7687,"Windows":7688,"NECTION":7689,"ĠAUTHORS":7690,"Ġtrigger":7691,"Ġrepr":7692,"Ġbackend":7693,"Ġdistinct":7694,"mc":7695,"Ġprop":7696,"Ġparticip":7697,"ford":7698,"Ġpointer":7699,"room":7700,"ils":7701,"efile":7702,"ĠRussian":7703,"Ġconsists":7704,"ĠConfiguration":7705,"Serializer":7706,"since":7707,"Ġfav":7708,"assets":7709,"ĠGree":7710,"available":7711,"Ġ{};":7712,"memory":7713,"rtype":7714,"uuid":7715,"inherit":7716,"GIN":7717,"Ġsucceed":7718,"Ġtransaction":7719,"Ġsigned":7720,"Av":7721,"Ġpal":7722,"olid":7723,"Unless":7724,"Ġstudio":7725,"Ġsolar":7726,"ĠIndia":7727,"Ġdesigned":7728,"ĠMor":7729,"ledge":7730,"Ġloaded":7731,"smart":7732,"Ġbooks":7733,"Ġfalls":7734,"Ġ----------":7735,"conv":7736,"ĠVis":7737,"Ġpeace":7738,"ĠINDIRECT":7739,"ĠCONSEQUENTIAL":7740,"generator":7741,"Ġcheap":7742,"Ġpowerful":7743,"ĠScott":7744,"Ġpul":7745,"ĠDay":7746,"assertNot":7747,"ĠArch":7748,"Password":7749,"emp":7750,"ĠMat":7751,"acc":7752,"Ġlicenses":7753,"Pattern":7754,"before":7755,"times":7756,"Ġeth":7757,"umed":7758,"ĠInvalid":7759,"timestamp":7760,"Ġguarant":7761,"generated":7762,"ĠTensor":7763,"Ġspan":7764,"LECT":7765,"Ġcommunity":7766,"ornia":7767,"ĠðŁ":7768,"Ġreasons":7769,"Struct":7770,"52":7771,"Ġbur":7772,"Ġthus":7773,"braries":7774,"Ġtransport":7775,"ĠDev":7776,"ä¸Ń":7777,"Import":7778,"tip":7779,"Ġconc":7780,"EY":7781,"SER":7782,"isters":7783,"cluded":7784,"rypto":7785,"dumps":7786,"destroy":7787,"upp":7788,"sect":7789,"toggle":7790,"estore":7791,"striction":7792,"parameter":7793,"REE":7794,"Ġrepresents":7795,"fire":7796,"Ġlists":7797,"Ġids":7798,"ĠQgs":7799,"ĠLove":7800,"Ġmanaged":7801,":\\":7802,"Ke":7803,"Ġcirc":7804,"uman":7805,"Ġviews":7806,"functions":7807,"private":7808,"Ġsubstantial":7809,"ĠEm":7810,"ĠUK":7811,"Ġcolors":7812,"neg":7813,"Ġsteps":7814,"scribe":7815,"Ġdemonstr":7816,"dtype":7817,"Ġplaced":7818,"Ġsubsequ":7819,"background":7820,"Custom":7821,"Ġpen":7822,"Ġreven":7823,"orthern":7824,"ĠWAY":7825,"translate":7826,"Ġtemper":7827,"Ġexports":7828,"Vert":7829,"ulator":7830,"ffic":7831,"Ġgoogle":7832,"Ġcompiler":7833,"Ġsister":7834,"elist":7835,"sem":7836,"raise":7837,"library":7838,"setText":7839,"facts":7840,"publ":7841,"roke":7842,"Ġinj":7843,"ĠPass":7844,"Ġshots":7845,"Ġresulting":7846,"Ġ'$":7847,"berg":7848,"aches":7849,"Ġpossibly":7850,"Ġspl":7851,"Ġinner":7852,"Ġunknown":7853,"DEBUG":7854,"override":7855,"MODE":7856,"Feature":7857,"agon":7858,"Ġcreation":7859,"Ġradio":7860,"}{":7861,"ĠCSS":7862,"ĠBob":7863,"ĠDirect":7864,"Ġdiscuss":7865,"atively":7866,"Ġhilar":7867,"ĠNON":7868,"ĠNAME":7869,"Ġrecently":7870,"Ġcountries":7871,"Ġcreates":7872,"Ġentertainment":7873,"Ġannoying":7874,"Caml":7875,"selected":7876,"ĠSA":7877,"ĠDar":7878,"Ġidentifier":7879,"Ġquestions":7880,"Ġdenoting":7881,"+\"":7882,"Ġ.=":7883,"Ġsha":7884,"Ġreadonly":7885,"Ġsupports":7886,"car":7887,"Ġnarr":7888,"Ġ29":7889,"Ġsock":7890,"organ":7891,"ĠReport":7892,"Before":7893,"Simple":7894,"###":7895,"Ġspo":7896,"Ġenter":7897,"Ġtransfer":7898,"Ġproduce":7899,"SSIB":7900,"jo":7901,"zero":7902,"coming":7903,"bruary":7904,"za":7905,"Ġë":7906,"Ġthou":7907,"Ġshut":7908,"ĠUnion":7909,"Ġproducer":7910,"ĠAbstract":7911,"ĠDocument":7912,"found":7913,"èĢ":7914,"Ġsal":7915,"ĠSl":7916,"integer":7917,"Ġrequested":7918,"Ġprocessing":7919,"Ġintroduced":7920,"/%":7921,"Ġcompared":7922,"Channel":7923,"SSL":7924,"isis":7925,"ĠCOM":7926,"Ġconcert":7927,"osite":7928,"Skip":7929,"Ġherself":7930,"Im":7931,"Socket":7932,"Ġec":7933,"throp":7934,"ander":7935,"DateTime":7936,"Ġsoundtrack":7937,"ĠEVEN":7938,"ato":7939,"Ġdst":7940,"Ġcontr":7941,"ifiers":7942,"ĠAngel":7943,"Ġstated":7944,"ensity":7945,"Ġkeyword":7946,"backend":7947,"________":7948,"ĠFranklin":7949,"43":7950,"WI":7951,"tbody":7952,"Ġwood":7953,"Ġmacro":7954,"Ġ2002":7955,"Policy":7956,":#":7957,"Ġcharg":7958,"Ġchecks":7959,"Ġobviously":7960,"72":7961,"Panel":7962,"bes":7963,"anti":7964,"ĠIOException":7965,"UES":7966,"chain":7967,"Ġforeign":7968,"mission":7969,"ĠInitial":7970,"ĠOtherwise":7971,"Ġlay":7972,"erman":7973,"mean":7974,"Ġlimited":7975,"2014":7976,"SM":7977,"hib":7978,"Ġclic":7979,"Ġmale":7980,"ĠIsrael":7981,"iam":7982,"eds":7983,"Descriptor":7984,"ĠSUCH":7985,"odd":7986,"apps":7987,"ĠManagement":7988,"Generator":7989,"Ġtalking":7990,"Ġfighting":7991,"Ġcelebr":7992,"Ġbomb":7993,"ĠItalian":7994,"Ġownership":7995,"zeros":7996,"Bind":7997,"Ġben":7998,"Ġ$$":7999,"Ġability":8000,"æĿ":8001,"Ġcrim":8002,"Ġmult":8003,"accept":8004,"iano":8005,"Ġblue":8006,"Ġjobs":8007,"seq":8008,"Ġleader":8009,"Ġtwice":8010,"Ġaudio":8011,"ĠPOSSIB":8012,"uing":8013,"ĠDown":8014,"article":8015,"Ġloader":8016,"ĠQuery":8017,"ĠFebruary":8018,"TF":8019,"Ġcrap":8020,"ationError":8021,"ĠBlock":8022,"Ġclim":8023,"Ġseparated":8024,"Ġasked":8025,"labels":8026,"iding":8027,"Ġdefer":8028,"abilities":8029,"Ġstrange":8030,"reshape":8031,"Ġappearance":8032,"Ġpieces":8033,"icate":8034,"ĠLike":8035,"ĠMary":8036,"Ġsoft":8037,"Ġleaving":8038,"Ġtransl":8039,"hostname":8040,"ĠOsc":8041,"izers":8042,"ashion":8043,"nam":8044,"Ġadding":8045,"ĠWho":8046,"zon":8047,"Ġreli":8048,"overn":8049,"2015":8050,"Ġnavbar":8051,"norm":8052,"Ġpub":8053,"abit":8054,"ĠINCIDENT":8055,"OB":8056,"vs":8057,"ĠDatabase":8058,"Ġwinning":8059,"Ġuri":8060,"Bu":8061,"NA":8062,"Ġtargets":8063,"Ġdoubt":8064,"escape":8065,"NING":8066,"Ġwid":8067,"Ġadds":8068,"complete":8069,"Active":8070,"ĠINCIDENTAL":8071,"Role":8072,"cam":8073,"hide":8074,"ĠGr":8075,"Ġspaces":8076,"logo":8077,"Ġclub":8078,"LOW":8079,"builder":8080,"Ġleads":8081,"Ġauthors":8082,"Long":8083,"reader":8084,"Ġdrive":8085,"Ġreproduce":8086,"CRE":8087,"when":8088,"Ġfood":8089,"Ġcompanies":8090,"pa":8091,"ĠDiv":8092,"STR":8093,"runner":8094,"Ġtranslate":8095,"ĠAtl":8096,"ACT":8097,"SV":8098,"cpp":8099,"Ġbrief":8100,"Ġgone":8101,"ouncil":8102,"Ġnuc":8103,"ĠStar":8104,"Ġworkers":8105,"ronic":8106,"collapse":8107,"Dat":8108,"bi":8109,"ĠWhitehead":8110,"ygon":8111,"82":8112,"ĠAnsibleModule":8113,"ĠWilliam":8114,"VISED":8115,"orough":8116,"irs":8117,"Ġoriginally":8118,"anish":8119,"Ġyes":8120,"READ":8121,"Ġgoverned":8122,"ĠADVISED":8123,"Ġcalculate":8124,"ĠPOSSIBILITY":8125,"CU":8126,"ority":8127,"Ġmail":8128,"Ġzomb":8129,"ĠPeople":8130,"Ġtheat":8131,"Ġdocumentary":8132,"Ġartist":8133,"ĠDAMAGE":8134,"ĠCorporation":8135,"gan":8136,"=\"{{":8137,"ĠJim":8138,"price":8139,"Only":8140,"IMED":8141,"ĠAustralian":8142,"Ġbroadcast":8143,"\"`":8144,"LY":8145,"Ġnation":8146,"DD":8147,"repeat":8148,"Ġfurn":8149,"Ġonline":8150,"ĠBush":8151,"extension":8152,"Ġwestern":8153,"AUSED":8154,"erial":8155,"ĠTex":8156,"ĠSTRICT":8157,"Cal":8158,"NN":8159,"yes":8160,"ĠBad":8161,"ipy":8162,"BM":8163,"atar":8164,"ashed":8165,"Ġdetail":8166,"Ġreligious":8167,"Ġindependent":8168,"cfg":8169,"Ġearn":8170,"Ġ}}\"":8171,"single":8172,"byte":8173,"Editor":8174,"ĠCoq":8175,"ĠtearDown":8176,"permissions":8177,"ĠSun":8178,"Ġ'{":8179,"illing":8180,"Runtime":8181,"remote":8182,"HERE":8183,"Ġapplied":8184,"Ġphil":8185,"Ġoccurred":8186,"ĠLibrary":8187,"WEVER":8188,"ĠOptional":8189,"TV":8190,"west":8191,"=\"<?":8192,"Ġexceed":8193,"Ġprotest":8194,"Ġ31":8195,"anks":8196,"Ġexecuted":8197,"Ġmigrations":8198,"fixture":8199,"Ġmm":8200,"ĠIr":8201,"ĠJul":8202,"Ġstreng":8203,"llegal":8204,"ĠSand":8205,"atever":8206,"Ġchurch":8207,"Ġformats":8208,"USER":8209,"ĠNOTICE":8210,"Sw":8211,"Ġsamples":8212,"elli":8213,"Ġresc":8214,"ĠCONNECTION":8215,"Ġhilarious":8216,"ĠMad":8217,"strument":8218,"hosts":8219,"MAP":8220,"isco":8221,"Conf":8222,"ĠParse":8223,"Ġlevels":8224,"Ġ'./":8225,"elements":8226,"ĠHOWEVER":8227,"Ġahead":8228,"ĠNav":8229,"ĠNAV":8230,"Ġqueries":8231,"ospital":8232,"got":8233,"Ġcoin":8234,"entries":8235,"=\"-":8236,"aily":8237,"CHAR":8238,"Ġtwisted":8239,"iddleware":8240,"folder":8241,"pan":8242,"abspath":8243,"41":8244,"loss":8245,"Ġassume":8246,"sha":8247,"\"><!--":8248,"Ġsolve":8249,"delay":8250,"Msg":8251,"double":8252,"fall":8253,"hd":8254,"wall":8255,"Ø§":8256,"Ġæ":8257,"effect":8258,"binary":8259,"Ġalert":8260,"ĠRel":8261,"Ġsetattr":8262,"ictor":8263,"phone":8264,"contains":8265,"Ġappreci":8266,"asket":8267,"iki":8268,"Ġpresence":8269,"ĠDISCLAIMED":8270,"Ġsup":8271,"Ġthous":8272,"Ġcrew":8273,"Ġargparse":8274,"Ġincrease":8275,"ĠMinister":8276,"ees":8277,"rb":8278,"aped":8279,"erves":8280,"Ġeconomic":8281,"Ġcorrectly":8282,"Ġspirit":8283,"ĠMex":8284,"ĠTHEORY":8285,"Ġordered":8286,"uts":8287,"Ġpurch":8288,"Ġassigned":8289,"power":8290,"ĠCAUSED":8291,"ĠFre":8292,"Rece":8293,"Ġindices":8294,"Ġreports":8295,"Opt":8296,"rine":8297,"Ġthreading":8298,"stone":8299,"quare":8300,"ĠPR":8301,"LED":8302,"Ġgoto":8303,"VALID":8304,"Ġhonest":8305,"Ġcrime":8306,"ĠCalifornia":8307,"margin":8308,"Ġsick":8309,"orable":8310,"ĠPower":8311,"keep":8312,"Ġcomic":8313,"Ġattract":8314,"Ġhereby":8315,"Ġdisappointed":8316,"RINGE":8317,"ashington":8318,"Warning":8319,"isher":8320,"Ġmk":8321,"ĠPlay":8322,"Ġplane":8323,"Ġ36":8324,"ĠassertThat":8325,"Ġrepo":8326,"Ġportions":8327,"æĸĩ":8328,"Timer":8329,"RINGEMENT":8330,"watch":8331,"ĠSong":8332,"ERP":8333,"Ġfilmm":8334,"ĠKEY":8335,"Ġdemand":8336,"ĠDescription":8337,"Ġcivil":8338,"ĠAC":8339,"Ġresolve":8340,"Ġ300":8341,"ĠAnn":8342,"fx":8343,"Ġwebsite":8344,"signature":8345,"ĠEXEMPL":8346,"ĠEXEMPLARY":8347,"SU":8348,"Ã£":8349,"updated":8350,"asty":8351,"defaults":8352,"iest":8353,"Ġfresh":8354,"Ġpaper":8355,"Ġ\"'":8356,"Ġvoc":8357,"HEAD":8358,"leton":8359,"Ġvisible":8360,"ä»¥":8361,"ĠRedistribution":8362,"Ġpil":8363,"Ġupdates":8364,"Ġocaml":8365,"Grad":8366,"vest":8367,"Ã¤":8368,"Ġconstruction":8369,"Ġridiculous":8370,"den":8371,"éĩ":8372,"ĠallClasses":8373,"Ġthemes":8374,"Ġpers":8375,"exports":8376,"Ġtypical":8377,"Ġgrowth":8378,"+'":8379,"Ġcities":8380,"Ġrestriction":8381,"usion":8382,"boost":8383,"identifier":8384,"Ġinterested":8385,"ĠĠĠĠ":8386,"Ġdestination":8387,"Ġpermit":8388,"Ġclearly":8389,"Ġfootball":8390,"iliar":8391,"ĠallClassesLink":8392,"Send":8393,"ura":8394,"race":8395,"ĠNet":8396,"Ġkw":8397,"ONG":8398,"Ġserve":8399,"Ġschools":8400,"Ġattacks":8401,"UBLIC":8402,"digest":8403,"Ġmobile":8404,"primary":8405,"ĠTop":8406,"Ġgiant":8407,"ĠMer":8408,"ĠEast":8409,"Ġencode":8410,"Ġcinematography":8411,"Ġ021":8412,"Ġboost":8413,"while":8414,"Append":8415,"Ġslightly":8416,"NG":8417,"Ġdeleted":8418,"eal":8419,"ĠDATA":8420,"ierarch":8421,"ĠTeam":8422,"bro":8423,"verbose":8424,"Ġauthentication":8425,"specific":8426,"Ġcritics":8427,"Ġmagic":8428,"ĠPortugal":8429,"counter":8430,"fast":8431,"Ġendorse":8432,"Ġconstants":8433,"disable":8434,"Ġreferences":8435,"culate":8436,"samples":8437,"oned":8438,"reme":8439,"Ġwrap":8440,"Ġchosen":8441,"Ġ/*!":8442,"Ġpatterns":8443,"Ġantib":8444,"Ġhelper":8445,"74":8446,"ĠMil":8447,"defined":8448,"iteritems":8449,"ita":8450,"editor":8451,"Ġhundred":8452,"ĠOriginal":8453,"modal":8454,"ĠCloud":8455,"Ġchem":8456,"Mo":8457,"Ġboto":8458,"Ġhaven":8459,"ĠMatrix":8460,"Ġarrest":8461,"Ġconfigure":8462,"Ġpickle":8463,"ĠOld":8464,"Ġhex":8465,"Ġpositions":8466,"ĠApplication":8467,"çĽ":8468,"Ġburn":8469,"Ġspot":8470,"ä¼":8471,"Ġbunch":8472,"special":8473,"INFRINGEMENT":8474,"romise":8475,"ĠPL":8476,"Ġfilenames":8477,"Ġwriters":8478,"Ġsurround":8479,"Attributes":8480,"Ġcells":8481,"ĠStep":8482,"Java":8483,"bits":8484,"ali":8485,"ĠSET":8486,"Ġseq":8487,"ĠJew":8488,"Ġdisk":8489,"onymous":8490,"irror":8491,"Ġjokes":8492,"letion":8493,"Ġobtaining":8494,"ä»¶":8495,"ĠGermany":8496,"Ġculture":8497,"Non":8498,"atives":8499,"ĠRout":8500,"Ġsmaller":8501,"Ġnd":8502,"Ġgore":8503,"Exist":8504,"fb":8505,"sim":8506,"validation":8507,"ĠSelect":8508,"Scale":8509,"orrow":8510,"Ġbre":8511,"assistant":8512,"ĠOh":8513,"acts":8514,"ãĢģ":8515,"isc":8516,"Ġcree":8517,"Ġalias":8518,"Ġarm":8519,"ĠAssoci":8520,"Ġromantic":8521,"%\"":8522,"ĠTry":8523,"Ġformatt":8524,"compare":8525,"Ġsnapshot":8526,"Ġserved":8527,"racle":8528,"owner":8529,"transaction":8530,"marker":8531,"ĠFlor":8532,"Ġgod":8533,"strings":8534,"inals":8535,"pm":8536,"Ġdoct":8537,"DES":8538,"rm":8539,"à¸":8540,"Ġpanel":8541,"agger":8542,"Ġhell":8543,"Ġgeneration":8544,"160":8545,"Ġputs":8546,"ĠMAX":8547,"Ret":8548,"edelta":8549,"ĠBus":8550,"ĠGrand":8551,"Ġ<!-->":8552,"ĠSecond":8553,"Comment":8554,".\\":8555,"51":8556,"Game":8557,"enum":8558,"Ġcru":8559,"Ġprofit":8560,"Ġseriously":8561,"ĠNAVBAR":8562,"\"),":8563,"Save":8564,"utron":8565,"seek":8566,"Selection":8567,"Ġts":8568,"Ġfirm":8569,"azz":8570,"ologies":8571,"Ġlarger":8572,"ĠInstead":8573,"inline":8574,"stock":8575,"ĠBOO":8576,"ĠPlace":8577,"Ġideas":8578,"springframework":8579,"åĩ":8580,"progress":8581,"parts":8582,"Temp":8583,"Ġfd":8584,"Ġmix":8585,"Ġgreen":8586,"Ġmanage":8587,"Ġagree":8588,"Ġ400":8589,"Ġidentity":8590,"Ġatmosphere":8591,"cancel":8592,"gui":8593,"ĠBecause":8594,"Ġsmart":8595,"ĠNOTE":8596,"Ġtalks":8597,"Ġagreements":8598,"Li":8599,"Ġlin":8600,"Ġproc":8601,"Ġaccur":8602,"Ġarticle":8603,"abstract":8604,"Ġfilled":8605,"ĠUI":8606,"period":8607,"Ġjournal":8608,"prepare":8609,"pkg":8610,"inated":8611,"Ġstaff":8612,"ĠBond":8613,"ocr":8614,"Ġwaiting":8615,"Ġexperiment":8616,"Ġcapture":8617,"73":8618,"ĠMP":8619,"modified":8620,"processor":8621,"CONT":8622,"vant":8623,"ĠRO":8624,"Ġevidence":8625,"Ġdepends":8626,"ï¼ļ":8627,"Ġsequel":8628,"egger":8629,"history":8630,"83":8631,"bc":8632,"Ġspect":8633,"android":8634,"ĠWashington":8635,"AVE":8636,"Ġcontributor":8637,"ĠSpace":8638,"indices":8639,"ĠItem":8640,"Ġcommunic":8641,"JECT":8642,"sur":8643,"Ðº":8644,"ĠCP":8645,"Ġ35":8646,"Protocol":8647,"warzen":8648,"orry":8649,"icient":8650,"ĠAli":8651,"istory":8652,"ĠChurch":8653,"Ġviewing":8654,"ĠDelete":8655,"cii":8656,"Ġrepresented":8657,">::":8658,"bd":8659,"ktop":8660,"ĠLat":8661,"anda":8662,"Ġauthentic":8663,"ĠCLA":8664,"ĠAdmin":8665,"ìĿ":8666,"Ġera":8667,"shall":8668,"iterator":8669,"Ġkeeps":8670,"=/":8671,"Ġflask":8672,"dirs":8673,"Ġediting":8674,"Ġapproach":8675,"Ġsociety":8676,"github":8677,"named":8678,"Ġha":8679,"Ġdoor":8680,"FIX":8681,"\"}":8682,"Copy":8683,"RY":8684,"sig":8685,"Ġsch":8686,"ĠWay":8687,"Ġrob":8688,"ĠCompany":8689,"standing":8690,"àº":8691,"å¹":8692,"ala":8693,"Ġcrisis":8694,"BE":8695,"VICE":8696,"fore":8697,"walk":8698,"Ġopport":8699,"configure":8700,"Ġsilly":8701,"Abstract":8702,"gregate":8703,"Ġveh":8704,"Ġbenef":8705,"Ġphilos":8706,"warzenegger":8707,"Ġsensor":8708,"isation":8709,"Ġdanger":8710,"ĠThread":8711,"apture":8712,"3456":8713,"timer":8714,"Failed":8715,"Ã¶":8716,"etic":8717,"ĠKar":8718,"ĠGenerated":8719,"ĠCons":8720,"nsure":8721,"missing":8722,"Ġaliases":8723,"Ġphysical":8724,"æį":8725,"Ġsan":8726,"alchemy":8727,"Ġstyles":8728,"ĠFifth":8729,"arks":8730,"Ġlimitation":8731,"Email":8732,"Ġduration":8733,"Ġdecode":8734,"111":8735,"unittest":8736,"Ġrisk":8737,"oked":8738,"eclipse":8739,"airs":8740,"Visible":8741,"mapping":8742,"pdf":8743,"icies":8744,"Ġtools":8745,"ĠDem":8746,"ĠVirtual":8747,"Ġbecoming":8748,"Ġcodecs":8749,"symbol":8750,"=-=-":8751,"spect":8752,"inn":8753,"Ġdomin":8754,"ĠCam":8755,"Ġscience":8756,"Ġcertificate":8757,"Ġprepare":8758,"mount":8759,"endar":8760,"Ġsurprised":8761,"95":8762,"Ġmel":8763,"Ġchief":8764,"Ġplus":8765,"Ġendpoint":8766,"ĠChild":8767,"Ġdimension":8768,"Ġapparently":8769,"otic":8770,"ĠMany":8771,"ĠBit":8772,"udent":8773,"comments":8774,"ĠMaybe":8775,".*;":8776,"aud":8777,"Ġdance":8778,"elly":8779,"ĠLou":8780,"IA":8781,"Ġfiction":8782,"cheme":8783,"Ġfeels":8784,"Ġstoryline":8785,"Ġdelta":8786,"DA":8787,"ĠLinux":8788,"Ġrich":8789,"setdefault":8790,"Ġworker":8791,"Where":8792,"ĠAmericans":8793,"1301":8794,"ĠSchool":8795,"quake":8796,"unpack":8797,"Ġpret":8798,"Ġsuspense":8799,"Identifier":8800,"aration":8801,"Ġimpact":8802,"Ġformed":8803,"Ġbucket":8804,"Validator":8805,"Ġlanguages":8806,"ĠIE":8807,"Ġru":8808,"Ġ02110":8809,"FE":8810,"ya":8811,"Ġ----------------------------------------------------------------":8812,"aming":8813,"Ġalpha":8814,"ups":8815,"ĠYes":8816,"Ġvalidation":8817,"clusive":8818,"basename":8819,"Mapper":8820,"ho":8821,"inja":8822,"Ġhar":8823,"deep":8824,"runtime":8825,"important":8826,"Selector":8827,"throws":8828,"htt":8829,"ushed":8830,"Ġspend":8831,"FP":8832,"riage":8833,"Ġincreased":8834,">';":8835,"Pe":8836,"uted":8837,"ĠSuper":8838,"Ġstrip":8839,"Ġlisted":8840,"Ġplaceholder":8841,"98":8842,"iqu":8843,"yal":8844,"Ġna":8845,"depth":8846,"Ġtrust":8847,"ĠReal":8848,"2013":8849,"Ġsuccessfully":8850,"uplicate":8851,"Ġrepository":8852,"Ġlisten":8853,"Ġimprove":8854,"dc":8855,"Ġpun":8856,"ett":8857,"CLASS":8858,"Events":8859,"Random":8860,"kernel":8861,"icles":8862,"resolve":8863,"ĠJer":8864,"ellow":8865,"Ġwrites":8866,"ĠArmy":8867,"Ġinspect":8868,"ĠDisney":8869,"operator":8870,"CHECK":8871,"upper":8872,"ito":8873,"rier":8874,"Ġgain":8875,"cls":8876,"ĠDEAL":8877,"WISE":8878,"71":8879,"duration":8880,"vc":8881,"Ġaim":8882,"UND":8883,"ĠCanada":8884,"Ġconcern":8885,"-$":8886,"éĹ":8887,"Ġmill":8888,"ANCE":8889,"Ġtopic":8890,"ĠQtGui":8891,"Ġtypename":8892,"65":8893,"ĠSets":8894,"Ġpred":8895,"tabs":8896,"ĠInitialize":8897,"Memory":8898,"Err":8899,"Ġonto":8900,"ĠGames":8901,"uptools":8902,"ĠCLAIM":8903,"permission":8904,"è¦":8905,"ircle":8906,"ĠHAS":8907,"Ġpacket":8908,"UNT":8909,"Ġwide":8910,"Ġuuid":8911,"ĠMal":8912,"iration":8913,"ĠBoth":8914,"Ġclone":8915,"ĠQue":8916,"Ġarrays":8917,"DEFAULT":8918,"Ġrequirements":8919,"Ġhelped":8920,"æĹ¶":8921,",'":8922,"PY":8923,"Ġthy":8924,"ota":8925,"agic":8926,"ĠYear":8927,"suite":8928,"Ġmarried":8929,"Ġexplain":8930,"latex":8931,"Ġapprox":8932,"æ³":8933,"\">&":8934,"Ġcancel":8935,"RAM":8936,"cookie":8937,"ĠResult":8938,"Ġcaught":8939,"Ġcredentials":8940,"ien":8941,"ĠCap":8942,"ĠWars":8943,"Ġproto":8944,"Ġsudden":8945,"ĠFranc":8946,"Ġsoldiers":8947,"ĠAfrican":8948,"91":8949,"Ġ$/":8950,"Iterator":8951,"ibly":8952,"Ġhomeassistant":8953,"ĠALIGN":8954,"Ġdull":8955,"Ġlogic":8956,"uese":8957,"cached":8958,"apsed":8959,"bitr":8960,"FUN":8961,"åĨ":8962,"Ġdot":8963,"ĠTor":8964,"Ġassembly":8965,"Console":8966,"month":8967,"ĠBuddh":8968,"Step":8969,"ĠHenry":8970,"FO":8971,"Scope":8972,"Ġanaly":8973,"ĠRo":8974,"Ġpriv":8975,"Ġedges":8976,"Ġgeometry":8977,"ĠOTHERWISE":8978,"ĠIOError":8979,"Ġmentioned":8980,"nos":8981,"Ġlatter":8982,"rif":8983,"ĠSign":8984,"Ġconcer":8985,"appe":8986,"Ġkick":8987,"Ġscary":8988,"CONFIG":8989,"toBe":8990,"Ġfilmed":8991,"INK":8992,"Ġobser":8993,"rides":8994,"PECT":8995,"interval":8996,"Ġprojects":8997,"ampionship":8998,"fold":8999,"olar":9000,"ĠCELL":9001,"Ġseed":9002,"ĠGenerate":9003,"Ġsurface":9004,"ĠCreates":9005,"TON":9006,"gettext":9007,"ĠEngine":9008,"Flags":9009,"TS":9010,"igate":9011,"Ġimpress":9012,"Ġenjoyable":9013,"Framework":9014,"Operator":9015,"Ġpredictable":9016,"Duration":9017,"El":9018,"Find":9019,"Feed":9020,"vet":9021,"Ġsin":9022,"Ġctypes":9023,"Ġborn":9024,"feature":9025,"Registry":9026,"Success":9027,"Ġrespectively":9028,"TIME":9029,"agers":9030,"ĠWestern":9031,"Ġproperly":9032,"Author":9033,"hÃ©":9034,"æł":9035,"Ġbid":9036,"Ġgang":9037,"ĠAnother":9038,"ĠWall":9039,"Ġtrade":9040,"Ġbuildings":9041,"csv":9042,"Ġoccasion":9043,"Play":9044,"night":9045,"piece":9046,"Ġhide":9047,"Ġreturning":9048,"Ġaddr":9049,"cient":9050,"Renderer":9051,"ĠOscar":9052,"LINE":9053,"Rest":9054,"tz":9055,"Ñĥ":9056,"isfile":9057,"ĠFloor":9058,"Ġrecover":9059,"Ġhosts":9060,"Ġeffective":9061,"patcher":9062,"Services":9063,"Global":9064,"IVE":9065,"Ġsun":9066,"Ġcm":9067,"ĠAre":9068,"ĠPerson":9069,"ĠVideo":9070,"ssl":9071,"Ġcollege":9072,"notify":9073,"suffix":9074,"astype":9075,"Ġ).":9076,"Contains":9077,"Ġguest":9078,"Transaction":9079,"plotlib":9080,"Ġcombined":9081,"ĠLocal":9082,"ĠDEALINGS":9083,"/\"":9084,"Domain":9085,"SO":9086,"cers":9087,"uint":9088,"Ġtuples":9089,"ĠSphinx":9090,"clone":9091,"ĠContext":9092,"ĠNONINFRINGEMENT":9093,"xc":9094,"Ã¥":9095,"Ġbare":9096,"ste":9097,"states":9098,"ĠWood":9099,"ĠOCaml":9100,"Ġfurnished":9101,"FS":9102,"ĠGO":9103,"Ġgeneric":9104,"Ġutter":9105,"BR":9106,"Media":9107,"Ġssl":9108,"itar":9109,"Ġlim":9110,"ĠDest":9111,"ĠGreen":9112,"Ġnine":9113,"Ġeast":9114,"omas":9115,"ĠWhether":9116,"arts":9117,"Ġadvent":9118,"Ġpresented":9119,"Move":9120,"amount":9121,"Ġanalysis":9122,"ĠLogger":9123,"Ġentirely":9124,"vin":9125,"ARG":9126,"refs":9127,"Ġconnections":9128,"67":9129,"Bit":9130,"Ġtale":9131,"expr":9132,"ixels":9133,"Ġlaun":9134,"currency":9135,"agraph":9136,"Ġsees":9137,"console":9138,"ĠUnfortunately":9139,"Ġhate":9140,"Ġweird":9141,"Ġinterval":9142,"Ġinitially":9143,"æŀ":9144,"Ġsync":9145,"Ġnoted":9146,"Ġalloc":9147,"Second":9148,"sgi":9149,"Ġlegal":9150,"Ġaccepted":9151,"Ġsummer":9152,"ND":9153,"mult":9154,"Inv":9155,"crete":9156,"GPL":9157,"SERT":9158,"orer":9159,"ĠWHERE":9160,"TRANS":9161,"ĠCounty":9162,"LD":9163,"pn":9164,"Ġmicro":9165,"Driver":9166,"Ġns":9167,"ĠCONF":9168,"Ġcompetition":9169,"Sn":9170,"Ġwins":9171,"Ġms":9172,"odies":9173,"ĠJane":9174,"Ġdirectories":9175,"Ġurlparse":9176,"ĠShould":9177,"datas":9178,"WORD":9179,"sey":9180,"Ġscan":9181,"Ġfamiliar":9182,"Tensor":9183,"Ġtables":9184,"Ġtheater":9185,"Ġce":9186,"proc":9187,"Suite":9188,"Ġpriority":9189,"Ġresponsible":9190,"Ġeducation":9191,"?>":9192,"ĠSIZE":9193,"ĠAwards":9194,"iffer":9195,"ĠBr":9196,"':'":9197,"Ġmechan":9198,"Ġadm":9199,"Ġapart":9200,"iverse":9201,"Ġoccur":9202,"references":9203,"Ġthriller":9204,"Route":9205,"Ġinspired":9206,"Ã§":9207,"Ġsweet":9208,"Ġcp":9209,"Ġbatt":9210,"seed":9211,"ĠCore":9212,"romium":9213,"Ġdatas":9214,"Ġlocale":9215,"jpg":9216,"esy":9217,"spacing":9218,"URN":9219,"azine":9220,"Ġmedal":9221,"Ġlocations":9222,"ĠHelp":9223,"fake":9224,"Ġteams":9225,"Ġphilosoph":9226,"ki":9227,"iced":9228,"ĠCard":9229,"quis":9230,"ĠLast":9231,"usage":9232,"extensions":9233,"ĠSmith":9234,"EV":9235,"Make":9236,"Ġsed":9237,"Ġsublic":9238,"abe":9239,"ĠFire":9240,"pragma":9241,"Ġefforts":9242,"BL":9243,"Sync":9244,"eng":9245,"ĠIre":9246,"Ġimpossible":9247,"ocial":9248,"REQU":9249,"rollment":9250,"ropical":9251,"404":9252,"ĠRegister":9253,"Ġtroops":9254,"Ġsublicense":9255,"Ġpan":9256,"ĠSil":9257,"LETE":9258,"Ġfragment":9259,"ĠChristmas":9260,"star":9261,"ĠPack":9262,"Ã¼":9263,"ĥ½":9264,"Ġps":9265,"ĠSend":9266,"endor":9267,"ĠBoolean":9268,"ĠWatch":9269,"tee":9270,"Ġ42":9271,"recated":9272,"ĠOpenERP":9273,"Ġjudge":9274,"Ġfro":9275,"allet":9276,"Ġvs":9277,"ĠGET":9278,"icted":9279,"Ġadvert":9280,"NotNull":9281,"Decl":9282,"getElementById":9283,"OURCE":9284,"mfony":9285,"?<":9286,"urd":9287,"Ġgas":9288,"ĠVER":9289,"ĠTestCase":9290,"Ġdecide":9291,"ĠCharles":9292,"Ġachieve":9293,"Ġanthrop":9294,"original":9295,"ĠAfrica":9296,"-+":9297,"avi":9298,"à¶":9299,"orial":9300,"Ġraises":9301,"Does":9302,"ĠVol":9303,"Ġweap":9304,"Ġpassing":9305,"Ġcallable":9306,"Which":9307,"ĠJoe":9308,"$-":9309,"lazy":9310,"ä¿":9311,"Ġfashion":9312,"Ġbird":9313,"ston":9314,"ĠPUBLIC":9315,"typename":9316,"umpt":9317,"Ġhighlight":9318,"ĠBritain":9319,"Look":9320,"rase":9321,"Ġss":9322,"Ġcb":9323,"ĠHurricane":9324,"Ġneither":9325,"Ġcookie":9326,"Selected":9327,"Sequence":9328,"ELD":9329,"Ġestablish":9330,"Ġrepeated":9331,"Ġoccup":9332,"ĠGeo":9333,"ĠclichÃ©":9334,"ishes":9335,"ingu":9336,"Ġmeets":9337,"Ġdrag":9338,"ixtures":9339,"tc":9340,"omen":9341,"osh":9342,"ASK":9343,"running":9344,"ĠVALUES":9345,"ĠUsage":9346,"elcome":9347,"Ġdecimal":9348,"forEach":9349,"Ġemotional":9350,"ĠBOOST":9351,"NET":9352,"rive":9353,"ĠIran":9354,"ĠRy":9355,"Ġhandling":9356,"Ġelem":9357,"/*":9358,"BA":9359,"Dest":9360,"VM":9361,"ufact":9362,"Ġsect":9363,"Ġ'</":9364,"Ġrespond":9365,"Ġextended":9366,"++++++++++++++++":9367,"Ġdramatic":9368,"ĠRussia":9369,"some":9370,"Ġcrow":9371,"Ġinde":9372,"ĠVictor":9373,"Ġfeet":9374,"prev":9375,"128":9376,"IntegerField":9377,"Ġdiscovered":9378,"ĠPortuguese":9379,"quick":9380,"Single":9381,"icago":9382,"Ġrestrict":9383,"Ġgather":9384,"orted":9385,"akistan":9386,"Stop":9387,"Ġregex":9388,"ĠSupport":9389,"adoop":9390,"Ġprofessional":9391,"Language":9392,"kt":9393,"Ġsel":9394,"emit":9395,"ĠUnit":9396,"Ġsurprising":9397,"Ġtherefore":9398,"visit":9399,"Ġregistered":9400,"rum":9401,"alias":9402,"ĠSC":9403,"trl":9404,"Ġscipy":9405,"Ġdesired":9406,"Ġconstraints":9407,"Ġfeat":9408,"Shape":9409,"handlers":9410,"Ġsurprise":9411,"Ġmeeting":9412,"ĠSecurity":9413,"Ġwind":9414,"Ġpaid":9415,"ĠLeg":9416,"ipping":9417,"STATUS":9418,"\"},":9419,"Db":9420,"Fin":9421,"jac":9422,"Ġfle":9423,"Ġlots":9424,"ĠFake":9425,"Ġrm":9426,"Ġrunner":9427,"Ġclaims":9428,"vo":9429,"Ġfault":9430,"itiz":9431,"moz":9432,"2010":9433,"Ġdamage":9434,"=============":9435,"separated":9436,"\\.":9437,"ĠNext":9438,"Ġboot":9439,"Ġtraditional":9440,"secutive":9441,"edge":9442,"++)":9443,"FFFF":9444,"ĠOlympics":9445,"shortcut":9446,"Del":9447,"Ġclock":9448,"alpha":9449,"ĠBO":9450,"ĠHall":9451,"Exit":9452,"ĠStop":9453,"Ġcontained":9454,"Ġminister":9455,"Ġsuperb":9456,"translation":9457,"Failure":9458,"Folder":9459,"æĶ":9460,"Ġluck":9461,"Ġaccident":9462,"Ġsyntax":9463,"Ġcredits":9464,"Ġvertex":9465,"ierarchy":9466,"Some":9467,"fmt":9468,"multi":9469,"ographic":9470,"ĠFIX":9471,"FLAGS":9472,"reverse":9473,"coq":9474,"ILL":9475,"HOD":9476,"ĠNeither":9477,"BASE":9478,"qt":9479,"Ġstderr":9480,"ivalent":9481,"keyword":9482,"ignore":9483,"Ġrouter":9484,"Ġmeasure":9485,"Ġlinear":9486,"Ġmissed":9487,"Ġcompatible":9488,"à·":9489,"ocker":9490,"Ġbroken":9491,"Ġfaith":9492,"Ġscheme":9493,"ĠFILE":9494,"Ġconflict":9495,";\"":9496,"Mixin":9497,"Ġnx":9498,"Ġtoward":9499,"ĠSO":9500,"ĠWil":9501,"Ġlex":9502,"Ġacts":9503,"Ġconsumer":9504,"Ġmatplotlib":9505,"Ġdrink":9506,"ĠSolution":9507,"Ġsouthern":9508,"Ġpag":9509,"Ġhair":9510,"ĠDame":9511,"Ġregistry":9512,"ĠXXX":9513,"ä¸º":9514,"LOC":9515,"ĠSchwarzenegger":9516,"isdir":9517,"Ġcry":9518,"Ġbuff":9519,"ĠBBC":9520,"izard":9521,"ella":9522,"Ġearthquake":9523,"multip":9524,"ffect":9525,"ĠStream":9526,"Ġsubclass":9527,"Ġrealistic":9528,"Ġmajority":9529,"Ġfeatured":9530,"arre":9531,"itespace":9532,"Ġrecommended":9533,"Ġbasically":9534,"=\\\"":9535,"Rad":9536,"pb":9537,"person":9538,"super":9539,"props":9540,"iro":9541,"inet":9542,"Ġ1970":9543,"Ġobserv":9544,"sidebar":9545,"Ġarchive":9546,"Flag":9547,"Vari":9548,"here":9549,"xa":9550,"Ġpiano":9551,"ĠCr":9552,"ĠGovern":9553,"Ġarmy":9554,"Ġmodul":9555,"Ġ59":9556,"ĠWhere":9557,"ĠDEBUG":9558,"Ġrendered":9559,"Ġsitu":9560,"åı¯":9561,")\",":9562,"Vol":9563,"--+":9564,"irmed":9565,"Ġwinner":9566,"AIL":9567,"Func":9568,"GR":9569,"po":9570,"Ġlived":9571,"Ġ\"{{":9572,"ĠSession":9573,"ĠLife":9574,"unes":9575,"><!--":9576,"orest":9577,"Statement":9578,"Ġcoordinates":9579,"Gu":9580,"beta":9581,"dialog":9582,"Ġshouldn":9583,"âĢĿ":9584,"arring":9585,"Ġtrial":9586,"Ġdigit":9587,"Ġholds":9588,"Ġdu":9589,"estival":9590,"Ġquant":9591,"Ġsizeof":9592,"Definition":9593,"jquery":9594,"Ġmouse":9595,"Ġhits":9596,"Ġelection":9597,"idents":9598,"estic":9599,"decl":9600,"allclasses":9601,"Ġquote":9602,"company":9603,"Ġoffers":9604,"Space":9605,"Ã¨":9606,"ulk":9607,"figure":9608,"ĠKong":9609,"Ġmanner":9610,"Ġpartition":9611,"Ġsaf":9612,"Ġoptparse":9613,"Ġaddresses":9614,"Pay":9615,"æĢ":9616,"metric":9617,"Ġmiles":9618,"Ġpoorly":9619,"Ġrevealed":9620,"ĠFlorida":9621,"DIS":9622,"Term":9623,"rovers":9624,"ĠTemple":9625,"riteria":9626,"äºĨ":9627,"ĠKingdom":9628,"Ġfantastic":9629,"Mar":9630,"Ġfoc":9631,"Ġhass":9632,"ĠPop":9633,"Ax":9634,"iber":9635,"Ġconfigured":9636,"Ġconfirm":9637,"Ġseasons":9638,"compatible":9639,"Ġeu":9640,"teen":9641,"Ġlearning":9642,"Ġgrowing":9643,"æİ":9644,"Ġissu":9645,"ailability":9646,"Ġframework":9647,"Ġ=======":9648,"ĠIrish":9649,"hot":9650,"las":9651,"wp":9652,"Ġbed":9653,"Ġemer":9654,"Ġvote":9655,"Ġstick":9656,"ereot":9657,"roc":9658,"ĠFrame":9659,"__,":9660,"Ġoutputs":9661,"Ġreflect":9662,"dataset":9663,"gnore":9664,"Ġcritical":9665,"dk":9666,"ĠCath":9667,"Ġconduct":9668,"ĠGL":9669,"Ġspread":9670,"Ġthrown":9671,"blocks":9672,"ĠOnce":9673,"Ac":9674,"Screen":9675,"selection":9676,"Ġdisp":9677,"country":9678,"Ġcached":9679,"Ġconverted":9680,"Ġeconomy":9681,"Ġindeed":9682,"Ġlif":9683,"ĠMel":9684,"Ġuniversity":9685,"ĠChicago":9686,"loaded":9687,"cludes":9688,"inputs":9689,"Ġdigital":9690,"ndefined":9691,"è¡Į":9692,"secret":9693,"idi":9694,"Ġstreet":9695,"ĠHost":9696,"ĠColumn":9697,"Me":9698,"Ġpd":9699,"Ġhyp":9700,"Ġatom":9701,"ĠVan":9702,"Ġformula":9703,"Ġdistur":9704,"Ġcandidate":9705,"69":9706,"Ġhun":9707,"ĠSur":9708,"Ġkernel":9709,"Ġ1024":9710,"ROOT":9711,"ordering":9712,"ãģ®":9713,"ĠOp":9714,"Ġunexpected":9715,"Geometry":9716,"Agent":9717,"fi":9718,"fra":9719,"Ñı":9720,"Ġcsv":9721,"itled":9722,"Ġvel":9723,"ĠLis":9724,"anta":9725,"Rev":9726,"Ġscripts":9727,"ĠFilter":9728,"ĠReference":9729,"Ġtort":9730,"ĠMa":9731,"Ġ45":9732,"viewport":9733,"docs":9734,"ĠINTO":9735,"Ġnuclear":9736,"ĠServ":9737,"ĠUnder":9738,"Ġarbitr":9739,"distance":9740,"Go":9741,"world":9742,"Ġcategories":9743,"Ġreb":9744,"Ġshop":9745,"ideos":9746,"backends":9747,"ĠConsole":9748,"ĠVerify":9749,"Ġwrapped":9750,"xe":9751,"Ġvir":9752,"ĠLL":9753,"usp":9754,"Ġ02":9755,"ĠSteve":9756,"Ġjoined":9757,"Ġreduce":9758,"Ġhospital":9759,"ĠBasic":9760,"ĠDen":9761,"Ġargv":9762,"ĠBlue":9763,"patterns":9764,"pio":9765,"tables":9766,"Ġunion":9767,"ictures":9768,"Ġweights":9769,"iously":9770,"Ġmetric":9771,"incipal":9772,"Ġguaranteed":9773,"Ġcurs":9774,"Ġmad":9775,"ĠQString":9776,"Ġfinding":9777,"ToString":9778,"ancer":9779,"World":9780,"afe":9781,"audio":9782,"Ġpid":9783,"Ġhack":9784,"ĠNight":9785,"ĠHome":9786,"ookie":9787,"warnings":9788,"ç§":9789,"enate":9790,"ĠCong":9791,"ĠHong":9792,"Ġdeb":9793,"Ġmanual":9794,"Ġtranslation":9795,"Ġmorning":9796,"Security":9797,"Ġcomparison":9798,"rev":9799,"Ġuid":9800,"irq":9801,"liament":9802,"Ġran":9803,"coin":9804,"Ġwebpage":9805,"caption":9806,"Cred":9807,"DT":9808,"Don":9809,"MT":9810,"cases":9811,"onical":9812,"iso":9813,"oses":9814,"aclass":9815,"incing":9816,"Ġfootage":9817,"63":9818,"nost":9819,"Ġvirt":9820,"ows":9821,"Ġrise":9822,"Ġsinging":9823,"Ġmarked":9824,"Ġexplan":9825,"ĠASF":9826,"ĠAuto":9827,"JS":9828,"nce":9829,"Ġtail":9830,"ĠSom":9831,"Ġrealize":9832,"ĠInstall":9833,"ollowing":9834,"Ġ#:":9835,"Ġmonitor":9836,"Ġwitness":9837,"Ġultimately":9838,"WR":9839,"hatt":9840,"åĮ":9841,"HENS":9842,"ĠSovi":9843,"ĠImplement":9844,"ĠWilliams":9845,"Ġmystery":9846,"LIB":9847,"æŃ":9848,"utch":9849,"ĠTABLE":9850,"Ġnotification":9851,"ĠERR":9852,"initialize":9853,"Ġcook":9854,"ĠRuntimeError":9855,"Multi":9856,"ĠNum":9857,"Ġwhatever":9858,"useum":9859,"Ġpoly":9860,"Ġbrings":9861,"Should":9862,"Ġanimals":9863,"ĠDepartment":9864,"Ġclo":9865,"Ġpt":9866,"ĠGPL":9867,"ĠJose":9868,"Ġchecking":9869,"oxy":9870,"Ġdisplayed":9871,"68":9872,"NC":9873,"PH":9874,"Sched":9875,"mi":9876,"xf":9877,"Ġds":9878,"Ġrevision":9879,"ĠLtd":9880,"getInstance":9881,"ĠChange":9882,"Ġbelieved":9883,"Ġvillain":9884,"ĠIreland":9885,"good":9886,"Ġelim":9887,"Cond":9888,"Ġdistutils":9889,"Ð°Ð":9890,"wild":9891,"Ġvalign":9892,"ĠUnicode":9893,"Ġbackup":9894,"Ġ''.":9895,"Ġtimer":9896,"Ġcaptured":9897,"assertIsInstance":9898,"Ġstrength":9899,"https":9900,"shell":9901,"erce":9902,"Ġdynamic":9903,"Ġalter":9904,"ĠHot":9905,"Ġenviron":9906,"BIT":9907,"Ġfloor":9908,"Ġpurs":9909,"Ġbought":9910,"icial":9911,"ĠTR":9912,"ĠFL":9913,"Ġalleg":9914,"Ġsomehow":9915,"recv":9916,"Ġremoves":9917,"ĠChris":9918,"issing":9919,"Ġxmlns":9920,"ĠATHENS":9921,"ç¨":9922,"Ġwire":9923,"Ġnose":9924,"è¦ģ":9925,"mq":9926,"ĠCase":9927,"\",\"":9928,"ifying":9929,"scan":9930,"-%":9931,"bon":9932,"å½":9933,"é¡":9934,"éģ":9935,"Ġrede":9936,"ĠCourt":9937,"ĠPet":9938,"ĠMatt":9939,"ampion":9940,"``.":9941,"Ġbadly":9942,"failed":9943,"Ġpipeline":9944,"EO":9945,"Ġsmo":9946,"rific":9947,"Ġalph":9948,"ĠRog":9949,"ĠOracle":9950,"Ġcontrovers":9951,"ogg":9952,"Ġexplos":9953,"iversal":9954,"Ġremained":9955,"Ġrescue":9956,"reduce":9957,"ĠQT":9958,"ĠConnection":9959,"Ġhostname":9960,"Ġimplemented":9961,"è¿Ļ":9962,"revision":9963,"ĠSing":9964,"Ġcoast":9965,"Ġ?></":9966,"ĠNews":9967,"slug":9968,"Ġstandards":9969,"Ġsounds":9970,"Ġterrit":9971,"pad":9972,"ĠJson":9973,"Ġsymbols":9974,"ĠALL":9975,"seconds":9976,"130":9977,"Double":9978,"rick":9979,"Ġswe":9980,"itan":9981,"ĠCra":9982,"live":9983,"Product":9984,"Ġpygame":9985,"transition":9986,"COMP":9987,"Ġmovement":9988,"Ġbasis":9989,"Ġhistorical":9990,"USE":9991,"rank":9992,"}$":9993,"ĠEnsure":9994,"cles":9995,"share":9996,"Required":9997,"calls":9998,"Ġpremise":9999,"Ã£o":10000,"wra":10001,"Ġtar":10002,"Ġlame":10003,"Ġgtk":10004,"ĠPackage":10005,"poll":10006,"ĠJackson":10007,"%%%%%%%%":10008,"_)":10009,"aver":10010,"sol":10011,"ĠCR":10012,"Ġcomed":10013,"mazon":10014,"Ġfacts":10015,"slice":10016,"inator":10017,"Ġcos":10018,"Ġfasc":10019,"Ġpowers":10020,"ĠSup":10021,"ĠLaw":10022,"Ġconsecutive":10023,"ĠNor":10024,"Ġhumans":10025,"Ġclosing":10026,"||":10027,"å·":10028,"Ġexclude":10029,"Ġrecurs":10030,"Ġentities":10031,"lets":10032,"ippet":10033,"Ġagreement":10034,"Basic":10035,"fly":10036,"trigger":10037,"xE":10038,"units":10039,"Ġrub":10040,"ĠThomas":10041,"bled":10042,"scroll":10043,"Ġmission":10044,"Initial":10045,"variables":10046,"vn":10047,"Ġsoul":10048,"illy":10049,"ĠHor":10050,"ĠJeff":10051,"Ġcompile":10052,"IDTH":10053,"IV":10054,"ders":10055,"Ġ\"{":10056,"unning":10057,"ĠMedia":10058,"aret":10059,"ĠViet":10060,"Almost":10061,"Ã³n":10062,"Ġessential":10063,"97":10064,"è§":10065,"eror":10066,"Ġunable":10067,"Ġcoach":10068,"Ġhandled":10069,"Ġtradition":10070,"Ġestimated":10071,"æį®":10072,"400":10073,"}'":10074,"âī¤":10075,"Ġinstruction":10076,"ĠCenter":10077,"Ġplanned":10078,"Ġmainly":10079,"anna":10080,"Ġguard":10081,"connected":10082,"Ġlegend":10083,"ĠTexas":10084,"Full":10085,"Ġcour":10086,"exe":10087,"ĠMur":10088,"ĠEnum":10089,"ocaml":10090,"undef":10091,"Ġoccurs":10092,"vec":10093,"pective":10094,"Ġdirectors":10095,"ACHE":10096,"Ġmarriage":10097,"Ġangle":10098,"Depend":10099,"Ġcombination":10100,"Prefix":10101,"mouse":10102,"Ġtitles":10103,"inent":10104,"aton":10105,"Ġfaces":10106,"Ġmort":10107,"about":10108,"ĠFall":10109,"ĠOl":10110,"Ġshadow":10111,"ĠUP":10112,"ansion":10113,"ishing":10114,"ĠGeneric":10115,"Ġadjust":10116,"blue":10117,"ourses":10118,"Attr":10119,"500":10120,"DTD":10121,"rust":10122,"ĠScript":10123,"ĠUsed":10124,"linear":10125,"Ġdocs":10126,"Ġ{},":10127,"Desc":10128,"ĠCentral":10129,"ogram":10130,"Ġquiet":10131,"Ġlinked":10132,"ĠSpanish":10133,"Ġbeauty":10134,"Ġcosts":10135,"Ġtrouble":10136,"à¥":10137,"itz":10138,"ĠMing":10139,"Ġ`\"":10140,"Ġtransition":10141,"anny":10142,"devices":10143,"ĠSubtask":10144,"Ġclaimed":10145,"Ġinfluence":10146,"Member":10147,"two":10148,"ĠHE":10149,"shadow":10150,"egin":10151,"ĠRecord":10152,"Ġinvolving":10153,"Ġlaunched":10154,"ĠCOL":10155,"ĠBuffer":10156,"ĠGit":10157,")),":10158,"ĠNotre":10159,"visible":10160,"Cluster":10161,"Ġpractice":10162,"hattan":10163,"Sql":10164,"UC":10165,"Ġpace":10166,"ĠLuc":10167,"external":10168,"ĠBay":10169,"cores":10170,"Ġproducers":10171,"2016":10172,"closed":10173,"xF":10174,"Ġblow":10175,"Ġbother":10176,"Ġimports":10177,"ĠBook":10178,"Ġplant":10179,"Ġretrieve":10180,"ĠBroad":10181,"CA":10182,"Ġmine":10183,"Ġrestore":10184,"generic":10185,"Symbol":10186,"Cor":10187,"Lin":10188,"UST":10189,"Ġ\")":10190,"MPLES":10191,"attery":10192,"Ġinnoc":10193,"Ġcer":10194,"ilation":10195,"ĠDig":10196,"ĠJon":10197,"Ġmanifest":10198,"Bad":10199,"sqrt":10200,"ĠTurn":10201,"Ġsinger":10202,"Ġperfectly":10203,"predict":10204,"Vertex":10205,"¦Ĥ":10206,"ĠSir":10207,"Ġcontemp":10208,"ĠStan":10209,"attach":10210,"Ġminimal":10211,"prise":10212,"ĠINSERT":10213,"Ġremark":10214,"ĠEnvironment":10215,"ĠSTART":10216,"ĠDespite":10217,"tar":10218,"Ġanyway":10219,"Ġpoll":10220,"-+-+":10221,"ç½":10222,"Ġexam":10223,"ĠJob":10224,"Ġmanages":10225,"Ġinterview":10226,"Ġchecked":10227,"disk":10228,"Ġbelievable":10229,"Ġservers":10230,"Auto":10231,"Ġdestroyed":10232,"gz":10233,"Ġbored":10234,"Ġmach":10235,"ĠWin":10236,"ĠJones":10237,"atten":10238,"Ġ1990":10239,"ĠSuite":10240,"ĠFormat":10241,"ĠRoyal":10242,"Direct":10243,"ĠGlobal":10244,"Internal":10245,"Ġexpecting":10246,"Texture":10247,"overview":10248,"ĠCollege":10249,"focus":10250,"gi":10251,"ascii":10252,"Ġban":10253,"Ġinform":10254,"ĠPac":10255,"angular":10256,"management":10257,"Notification":10258,"Ġappeal":10259,"tb":10260,"zure":10261,"alert":10262,"Ġeat":10263,"ateur":10264,"ĠHard":10265,"Ġkm":10266,"Ġappoint":10267,"9999":10268,"locale":10269,"Ġtelling":10270,"Ġcopied":10271,"Ġthreads":10272,"ersistence":10273,"BB":10274,"Ġstores":10275,"ĠTheir":10276,"serialize":10277,"navigation":10278,"opsis":10279,"Ġencounter":10280,"assertAllClose":10281,"hy":10282,"etc":10283,"Ġ#------------------------------------------------------------------------":10284,"ĠSSL":10285,"cha":10286,"ĠGra":10287,"Ġshame":10288,"Ġintent":10289,"Ġcounts":10290,"Ġknowledge":10291,"Ġmetrics":10292,"Ġemit":10293,"ĠEXA":10294,"Navigation":10295,"ĠBrook":10296,"Ġfairly":10297,"Ġfavour":10298,"Keys":10299,"Wait":10300,"hadoop":10301,"ctype":10302,"ading":10303,"Ġvtk":10304,"imize":10305,"ĠGar":10306,"Ġacted":10307,"Ġdescriptor":10308,"movie":10309,"STATE":10310,"Ġattend":10311,"Ġdecides":10312,"ĠDead":10313,"Ġrecording":10314,"Ġcasting":10315,"allowed":10316,"Ġequivalent":10317,"Frames":10318,"Ġcrazy":10319,"cf":10320,"Ġcd":10321,"Ġbrain":10322,"Ġ'&":10323,"ĠBur":10324,"Ġshares":10325,"ĠSoviet":10326,"ĠHat":10327,"Ġtechnical":10328,"Hub":10329,"isions":10330,"Ġbot":10331,"Ġ'*":10332,"Ġprompt":10333,"ORDER":10334,"HOST":10335,"Ġordering":10336,"marks":10337,"xxxx":10338,"ĠSymfony":10339,"Ġchallenge":10340,"ĠTensorFlow":10341,"Total":10342,"Ġtb":10343,"lem":10344,"ĠGraph":10345,"ples":10346,"pons":10347,"Login":10348,"Ġartists":10349,"rypted":10350,"pipe":10351,"Library":10352,"lad":10353,"mys":10354,"Ġdumb":10355,"Ġnomin":10356,"ĠRam":10357,"Ġring":10358,"Extract":10359,"789":10360,"Pop":10361,"ssh":10362,"Ġà¤":10363,"adium":10364,"Ġiterator":10365,"snapshot":10366,"Ġnumerous":10367,"Cert":10368,"Ġtick":10369,"Ġrepeat":10370,"ĠTimes":10371,"ĠSTAT":10372,"Ġmagn":10373,"Ġdimensions":10374,"AF":10375,"sent":10376,"ĠIter":10377,"Ġscores":10378,"Ġexpectations":10379,"Ġmemorable":10380,"Ġkills":10381,"ĠGPIO":10382,"BACK":10383,"FIL":10384,"SI":10385,"scal":10386,"xt":10387,"xFF":10388,"analy":10389,"Ġmaps":10390,"ĠIT":10391,"concat":10392,"Ġcontinues":10393,"ĠImpro":10394,"Ġdrawn":10395,"Ġrival":10396,"Program":10397,"ĠChromium":10398,"ĠForce":10399,"fragment":10400,"Ġfellow":10401,"Html":10402,"Ġlazy":10403,"ĠMed":10404,"ĠUtil":10405,"ĠJay":10406,"Ġtemporary":10407,"frames":10408,"Ġfifth":10409,"ĠStandard":10410,"scripts":10411,"scape":10412,"CEPT":10413,"Ġportrayed":10414,"invoice":10415,"astern":10416,"ĠTag":10417,"thlet":10418,"usters":10419,"perform":10420,"ĠRev":10421,"Ġcoverage":10422,"ĠPrime":10423,"ĠBuddhism":10424,"Ġmaker":10425,"ilies":10426,"ĠGen":10427,"Ġlose":10428,"Ġreply":10429,"Formatter":10430,"relation":10431,"Ġromance":10432,"Ġdegree":10433,"ĠDevelopment":10434,"Ġtur":10435,"atio":10436,"appy":10437,"Ġexpr":10438,"Ġexecutive":10439,"ĠAccount":10440,"ĠOSError":10441,"Ġslice":10442,"ĠPen":10443,"005":10444,"ĠMartin":10445,"Permission":10446,"ruby":10447,"sers":10448,"udd":10449,"ĠSave":10450,"Ġnewsp":10451,"Ġsignals":10452,"Ġ\",)\",":10453,"Ġshooting":10454,"Americ":10455,"Gen":10456,"Ġthee":10457,"Ġsea":10458,"izations":10459,"osity":10460,"contact":10461,"ĠConnect":10462,"placeholder":10463,"layers":10464,"Ġsupplied":10465,"Methods":10466,"Ġimagine":10467,"<>;":10468,">../":10469,"Hand":10470,"igen":10471,"finite":10472,"èĩ":10473,"ĠIm":10474,"Ġcanvas":10475,"arguments":10476,"subscribe":10477,"disabled":10478,"\"\\":10479,"catch":10480,"Ġmac":10481,"ĠCare":10482,"ĠPo":10483,"setting":10484,"Ġfunctionality":10485,"ategor":10486,"Ġscreenplay":10487,"Ġdetermined":10488,"Ġpressure":10489,"Ġrelief":10490,"Ġdub":10491,"ican":10492,"ipment":10493,"phy":10494,"failure":10495,"ĠIntel":10496,"Ġdeclare":10497,"åĪ°":10498,"Processor":10499,"ĠBillboard":10500,"ĠDivision":10501,"ĠFIXME":10502,"Clear":10503,"Ġfold":10504,"Ġpet":10505,"schedule":10506,"ĠKorea":10507,"days":10508,"Ġbright":10509,"ĠSIGN":10510,"owed":10511,"servers":10512,"refresh":10513,"Ġcarried":10514,"Ġserialized":10515,"mkdir":10516,"Ġ\"-//":10517,"Ġclever":10518,"DoesNot":10519,"ĠCD":10520,"allery":10521,"Ġcold":10522,"Ġboys":10523,"Ġextend":10524,"methods":10525,"blockList":10526,"members":10527,"canvas":10528,"Ġholding":10529,"Area":10530,"ĠAssociation":10531,"IRE":10532,"Pair":10533,"rog":10534,"Ġ#!/":10535,"ĠLE":10536,"Ġdesper":10537,"Real":10538,"Ġdirecting":10539,"~~~~~~~~~~~~~~~~":10540,"ĠRadio":10541,"gra":10542,"rical":10543,"âĸ":10544,"tokens":10545,"ĠThree":10546,"ATCH":10547,"Ġsprint":10548,"egration":10549,"Nodes":10550,"åĢ":10551,"Ġld":10552,"ĠPubl":10553,"aph":10554,"ALSE":10555,"Supp":10556,"Ġcultural":10557,"Ġconcerns":10558,"\"&":10559,"Book":10560,"Mac":10561,"nger":10562,"qa":10563,"éĿ":10564,"imet":10565,"0001":10566,"Ġrelationships":10567,"Ġvillage":10568,"RT":10569,"Ġtre":10570,"ĠIBM":10571,"ĠCurrent":10572,"unlink":10573,"Ġmanip":10574,"Ġviolent":10575,"Ġaccompany":10576,"Ġdomestic":10577,"Ġarbitrary":10578,"Cap":10579,"fav":10580,"Ġ-------":10581,"Ġpra":10582,"ĠLord":10583,"Ġasset":10584,"Ġscal":10585,"Ġcolon":10586,"Ġ1980":10587,"communic":10588,"Ġallowing":10589,"going":10590,"VALUE":10591,"Ġdummy":10592,"ĠMount":10593,"ĠRender":10594,"Ġuniform":10595,"Ġscra":10596,"Ġdeploy":10597,"Ġannual":10598,"mut":10599,"ĠHandle":10600,"ensors":10601,"ĠProgram":10602,"statement":10603,"Ġstands":10604,"Ġfooter":10605,"Ġsqlalchemy":10606,"Cursor":10607,"å¸":10608,"íķ":10609,"Ġing":10610,"peed":10611,"ĠRay":10612,"Ġchanging":10613,"...\"":10614,"ä¸Ĭ":10615,"Ġequals":10616,"åŃĺ":10617,"ĠSecret":10618,"Raw":10619,"bear":10620,"clock":10621,"uv":10622,"xC":10623,"router":10624,"ĠMah":10625,"ĠNothing":10626,"acle":10627,"->{":10628,"ĠContribut":10629,"Ġ}}</":10630,"aine":10631,"ARE":10632,"Ids":10633,"Ġvertical":10634,"ĠMexico":10635,"ÙĦ":10636,"Ġta":10637,"eros":10638,"Ġproceed":10639,"Ġ/>\"":10640,"Ġadmit":10641,"Art":10642,"Ġlikes":10643,"Ġvictims":10644,"ĠArgument":10645,"BS":10646,"High":10647,"mine":10648,"arange":10649,"ĠCouncil":10650,"ĠReact":10651,"Short":10652,"CRIPT":10653,"unnel":10654,"Ġcontrast":10655,"Any":10656,"kin":10657,"Ġlady":10658,"Ġyaml":10659,"boy":10660,"aire":10661,"Ġhy":10662,"ĠPY":10663,"ARK":10664,"ĠChannel":10665,"Ġoperating":10666,"ĠSeries":10667,"Ġindicate":10668,"WNER":10669,"LOGGER":10670,"Redirect":10671,"jar":10672,"Ġcas":10673,"Ġsty":10674,"branch":10675,"ĠHas":10676,"listen":10677,"leting":10678,"Ġblank":10679,"transport":10680,"Ġerrno":10681,"ĠCollection":10682,"Ġplanet":10683,"www":10684,"tol":10685,"uting":10686,"Ġnic":10687,"Ġhint":10688,"ĠTre":10689,"ĠCamp":10690,"ĠLight":10691,"unlock":10692,"Ġconcent":10693,"antly":10694,"failUnless":10695,"Clean":10696,"Dr":10697,"adr":10698,"ĠPakistan":10699,"Ġtraffic":10700,"records":10701,"Ġcrash":10702,"CCESS":10703,"Ġorganization":10704,"Ġcovered":10705,"belie":10706,"Ġdry":10707,"ĠMulti":10708,"Ġneutron":10709,"ĠExecut":10710,"Configured":10711,"Ġapplications":10712,"ĠEXPECT":10713,"matches":10714,"ĠEXAMPLES":10715,"./":10716,"cnt":10717,"Ġtm":10718,"eras":10719,"urse":10720,"ĠAward":10721,"ĠRET":10722,"appings":10723,"metrics":10724,"arrass":10725,"Controls":10726,"Ġconstructed":10727,"ellij":10728,"Ġexplanation":10729,"Category":10730,"kl":10731,"atters":10732,"ĠManhattan":10733,"Python":10734,"have":10735,"Ġtd":10736,"abet":10737,"ĠGal":10738,"intellij":10739,"Ġrd":10740,"Ġ\\\\":10741,"ĠStew":10742,"ĠCommon":10743,"Ġbuiltin":10744,"Ġvertices":10745,"Ġtemperature":10746,"Lib":10747,"ĠÎ":10748,"Ġblo":10749,"Ġinject":10750,"Ġinher":10751,"ĠRandom":10752,"viation":10753,"Ġaband":10754,"Ġrelations":10755,"condition":10756,"Ġurls":10757,"formats":10758,"sym":10759,"61":10760,"rst":10761,"inity":10762,"Ġnest":10763,"ĠTree":10764,"ĠOP":10765,"ATOR":10766,"Setup":10767,"ajax":10768,"2017":10769,"Ġtwist":10770,"Ġlighting":10771,"sparse":10772,"uated":10773,"Ġwp":10774,"etween":10775,"Ġnested":10776,"opher":10777,"Errors":10778,"Ġadvance":10779,"ä¹ĭ":10780,"Ġbalance":10781,"Ġproposed":10782,"--+--+":10783,"Bound":10784,"Pick":10785,"heless":10786,"andy":10787,"Ġrobot":10788,"Prop":10789,"Resolver":10790,"æĸ¹":10791,"ĠTibetan":10792,"101":10793,"Ġstereot":10794,"ustr":10795,"ĠVir":10796,"Ġtrash":10797,"Ġsympy":10798,"pipeline":10799,"Ãł":10800,"Ġgrew":10801,"ifer":10802,"cribe":10803,"series":10804,"Ġruntime":10805,"Ġspeech":10806,"Ġlaughs":10807,"itutions":10808,"arbage":10809,"å¯¹":10810,"irc":10811,"Ġprops":10812,"istributed":10813,"Progress":10814,"ummer":10815,"Ġflight":10816,"Ġoffered":10817,"bird":10818,"xb":10819,"reens":10820,"changes":10821,"ĠMove":10822,"Ġworldwide":10823,"openstack":10824,"ĠAthens":10825,"Ġfigures":10826,"Ġguns":10827,"EC":10828,"Ne":10829,"Ġsale":10830,"Ġinstrument":10831,"ulp":10832,"Ġ//-->":10833,"ĠEv":10834,"Elements":10835,"Ġwindows":10836,"Ġsites":10837,"Constants":10838,"62":10839,"Eval":10840,"cmp":10841,"yaml":10842,"ä¾":10843,"Ġmx":10844,"ĠLock":10845,"ĠURI":10846,"Ġrose":10847,"Ġreplacement":10848,"ADDR":10849,"CUMENT":10850,"Ġopportunity":10851,"tl":10852,"cean":10853,"ĠSn":10854,"aylor":10855,"Ġscored":10856,"worker":10857,"OPT":10858,"Ġloading":10859,"Bean":10860,"ĠComment":10861,"ç¨ĭ":10862,"DY":10863,"tor":10864,"Ġsparse":10865,"eful":10866,"estion":10867,"Ġ*=":10868,"ĠHal":10869,"Ġ600":10870,"å®ļ":10871,"Ġthousands":10872,"Card":10873,"Ġriver":10874,"resize":10875,"notes":10876,"uffle":10877,"Ġlongest":10878,"Ġvariety":10879,"ersistent":10880,"Rate":10881,"Sort":10882,"paces":10883,"Ġcodes":10884,"Ġpitch":10885,"Ġboss":10886,"ĠTur":10887,"Ġexpert":10888,"ĠNic":10889,"ĠJes":10890,"fff":10891,"Ġmeas":10892,"Ġ'/'":10893,"Execution":10894,"Ġaspects":10895,"Ġantibiot":10896,"bg":10897,"xs":10898,"Ġcraft":10899,"ĠSal":10900,"Ġjoke":10901,"Ġunn":10902,"Ġopam":10903,"ĠControl":10904,"Ġtwenty":10905,"Ġembarrass":10906,"Cre":10907,"Cam":10908,"Creat":10909,"Public":10910,"gar":10911,"xA":10912,"ĠTony":10913,"ĠThough":10914,"strftime":10915,"ocity":10916,"Ġparallel":10917,"Ġprocessed":10918,"absent":10919,"Dry":10920,"Limit":10921,"Ġfname":10922,"elastic":10923,"Ġmotion":10924,"Ġunset":10925,"STRING":10926,"UPPORT":10927,"ĠIraqi":10928,"Ġhelps":10929,"origin":10930,"ä¸Ģä¸ª":10931,"Ġcartoon":10932,"stage":10933,"thur":10934,"UTE":10935,"complex":10936,"Ġlargely":10937,"threads":10938,"gres":10939,"aters":10940,"ĠLib":10941,"ĠLittle":10942,"ĠMigration":10943,"Ġyounger":10944,"choice":10945,"descriptor":10946,"Ġtypically":10947,"Ġexistence":10948,"\"'":10949,"cop":10950,"gd":10951,"nic":10952,"Ġvo":10953,"Ġven":10954,"plays":10955,"Ġbackwards":10956,"ROUP":10957,"ĠNotes":10958,"mtree":10959,"PI":10960,"Ġsending":10961,"Ġsides":10962,"Ġcurl":10963,"Ġpad":10964,"ĠAst":10965,"ĠUsing":10966,"Ġattached":10967,"NAM":10968,"jax":10969,"sup":10970,"Ġvec":10971,"Ġplenty":10972,"Ġsetuptools":10973,"Ġfilming":10974,"ocide":10975,"periment":10976,"ATED":10977,"SELECT":10978,"Ġ1950":10979,"poses":10980,"Ġiniti":10981,"findall":10982,"Ġsolo":10983,"Ġgirlfriend":10984,"Ġindicating":10985,"Optional":10986,"////////////////////////////////////////////////////////////////":10987,">\";":10988,"AK":10989,"Zone":10990,"mul":10991,"Ġcash":10992,"Ġbold":10993,"oking":10994,"udan":10995,"Ġscroll":10996,"Ġintel":10997,"Ġdeserves":10998,"bucket":10999,"Regex":11000,"Ġmagazine":11001,"Ġsuspect":11002,"Ġconversion":11003,"Execute":11004,"ruit":11005,"tagon":11006,"Ġfalling":11007,"ĠDisplay":11008,"ĠValidationError":11009,"speed":11010,"AlmostEqual":11011,"Messages":11012,"gba":11013,"à¯":11014,"utdown":11015,"oly":11016,"ĠFox":11017,"Ġcompatibility":11018,"Scroll":11019,"Video":11020,"}</":11021,"Ð¼":11022,"lopen":11023,"ĠConstruct":11024,"InputStream":11025,"Ġstrike":11026,"Ġorders":11027,"Ġ****":11028,"ĠGram":11029,"Ġ330":11030,"Explanation":11031,"Ġlistener":11032,"123":11033,"graphics":11034,"operation":11035,"æķ°æį®":11036,"Word":11037,"maked":11038,"ĠMic":11039,"ĠRoad":11040,"akefile":11041,"question":11042,"Ġprograms":11043,"Ġproviding":11044,"Dev":11045,"Ġhashlib":11046,"Ġhopes":11047,"Cmd":11048,"HS":11049,"Home":11050,"Ġsport":11051,"Ġ=================================":11052,"Ġgay":11053,"ĠClear":11054,"Ġ1999":11055,"Resources":11056,"tected":11057,"ĠSerial":11058,"Ġtalented":11059,"edding":11060,"Ġarchitecture":11061,"Counter":11062,"cost":11063,"touch":11064,"ç«":11065,"çĲ":11066,"ador":11067,"ĠArab":11068,"Ġmanufact":11069,"Ġhandles":11070,"Ġlicensed":11071,"Ġanswers":11072,"Ġreduced":11073,"Encoder":11074,"ĠCHAR":11075,"Day":11076,"NON":11077,"Ġfly":11078,"Ġtow":11079,"iger":11080,"except":11081,"Ġconclusion":11082,"ĠPlugin":11083,"charset":11084,"Ġreligion":11085,"ĠMontana":11086,"AIN":11087,"Push":11088,"Ġfixture":11089,"Ġfederal":11090,"Ġwound":11091,"chor":11092,"union":11093,"ĠPut":11094,"ĠBru":11095,"program":11096,"Ġrough":11097,"While":11098,"Objects":11099,"Ġconsidering":11100,"fghan":11101,"Ġfantasy":11102,"Ġcreepy":11103,"Ġbasket":11104,"ĠToken":11105,"ensitive":11106,"ĠKelly":11107,"structure":11108,"Stats":11109,"Ġsuggested":11110,"DULE":11111,"ĠOrdered":11112,"DoesNotExist":11113,"cos":11114,"ko":11115,"ĠAlice":11116,"exer":11117,"ĠNull":11118,"2012":11119,"Ġqueryset":11120,"ĠPlan":11121,"gradient":11122,"ĠDictionary":11123,"CM":11124,"è¾":11125,"Ġcc":11126,"Ġtough":11127,".%":11128,"LIST":11129,"fur":11130,"native":11131,"Ġsen":11132,"Ġpit":11133,"Ġbiz":11134,"ĠFull":11135,"ensure":11136,"perly":11137,"Deprecated":11138,"Usage":11139,"92":11140,"wan":11141,"Ġdns":11142,"Ġbreed":11143,"ĠLater":11144,"ĠHa":11145,"activity":11146,"Ġunus":11147,"Ġremind":11148,"Ġangular":11149,"ĠSkip":11150,"Fragment":11151,"94":11152,"CF":11153,"zilla":11154,"entle":11155,"ĠMike":11156,"Ġexerc":11157,"ĠDim":11158,"ĠRaises":11159,"prob":11160,"Ġpeak":11161,"Ġmonster":11162,"Ġabsent":11163,"Ġlatex":11164,"payload":11165,"Ġneighbor":11166,"Ġincredibly":11167,"Mer":11168,"Missing":11169,"oes":11170,"repository":11171,"Ġdedic":11172,"ĠOWNER":11173,"ĠQU":11174,"ĠProduct":11175,"Ġremake":11176,"åıĸ":11177,"Bo":11178,"ademy":11179,"ĠDam":11180,"Ġseg":11181,"Ġdoctor":11182,"URI":11183,"Details":11184,"Ġaffected":11185,"ĠDaniel":11186,"WIN":11187,"sr":11188,"Ġnud":11189,"ĠTaylor":11190,"ĠCache":11191,"Ġimpl":11192,"Ġalive":11193,"ĠRUN":11194,"ĠAndrew":11195,"ĠShell":11196,"precision":11197,"Ġarrived":11198,"Ġdegrees":11199,"qs":11200,"Ġcpu":11201,"Ġ':":11202,"ĠCast":11203,"Ġvul":11204,"endl":11205,"ĠBefore":11206,"Insert":11207,"Ġphase":11208,"Ġsynchron":11209,"Ġhouses":11210,"'))":11211,"DL":11212,"cpy":11213,"ĠLos":11214,"Ġkata":11215,"Ġweather":11216,"Ġvars":11217,"week":11218,"logs":11219,"ENER":11220,"aze":11221,"Ġdepending":11222,"Platform":11223,"Ġhardly":11224,"/.":11225,"Dim":11226,"inating":11227,"Ġdraft":11228,"Ġpin":11229,"Ġbg":11230,"Ġ\"\">":11231,"Ġ'../":11232,"ĠJean":11233,"ddy":11234,"inks":11235,"Ġwarm":11236,"Compat":11237,"autiful":11238,"metaclass":11239,"Ġauthorities":11240,"Ġpicked":11241,"Pointer":11242,"pus":11243,"ycle":11244,"icip":11245,"getName":11246,"uda":11247,"ynchron":11248,"ä¸ĭ":11249,"legend":11250,"Ġnormalize":11251,"same":11252,"Ġsports":11253,"ĠMajor":11254,"ĠBas":11255,"Ġanimal":11256,"athan":11257,"APP":11258,"Users":11259,"Ġteacher":11260,"Ok":11261,"pending":11262,"xB":11263,"á»":11264,"Ġbes":11265,"imator":11266,"ĠMid":11267,"Ġliber":11268,"Ġlowercase":11269,"negative":11270,"Other":11271,"Popen":11272,"Ġtrim":11273,"incess":11274,"enger":11275,"Ġdise":11276,"Ġly":11277,"ĠRome":11278,"Ġ2018":11279,"ski":11280,"ĠÂ©":11281,"Ġintelligence":11282,"Gradient":11283,"Linq":11284,"Ġmesh":11285,"icide":11286,"ĠSite":11287,"Ġextr":11288,"ĠBal":11289,"Ġmood":11290,"nov":11291,"Ġcuts":11292,"Ġearned":11293,"GIS":11294,"codes":11295,"hemat":11296,"Ġ#################":11297,"arest":11298,"Ġlets":11299,"Ġapps":11300,"Ġdelight":11301,"Ġradius":11302,"æĪĲ":11303,"hour":11304,"Ġdies":11305,"icious":11306,"sep":11307,"Ġbear":11308,"orders":11309,"ĠInsert":11310,"ĠStud":11311,"UTO":11312,"ĠWhich":11313,"Ġexpressed":11314,"Ġcheesy":11315,"Ġsentence":11316,"Ġincreasing":11317,"Ġjourney":11318,"Ġcrowd":11319,"Ang":11320,"ÂĤ":11321,"onic":11322,"ums":11323,"ifference":11324,"ĠEr":11325,"','":11326,"Ġspin":11327,"Ġdeclared":11328,"ĠCatholic":11329,"ĠStewart":11330,"Mask":11331,"æĮ":11332,"Ġproof":11333,"Ġlibraries":11334,"written":11335,"Verify":11336,"Ġsituations":11337,"ih":11338,"uries":11339,"Ġham":11340,"othes":11341,"owl":11342,"Ġregions":11343,"MPLE":11344,"Ġgrade":11345,"choices":11346,"Ġprocesses":11347,"Ġhorse":11348,"MAIN":11349,"Normal":11350,"ç®":11351,"Ġbaby":11352,"Ġfunn":11353,"axes":11354,"ĠConf":11355,"Ġretrie":11356,"Ġindicates":11357,"highlight":11358,"ji":11359,"vanced":11360,"Ġforgot":11361,"iry":11362,"ryption":11363,"Ġseek":11364,"NUM":11365,"NULL":11366,"bean":11367,"Ġnullable":11368,"Unknown":11369,"partition":11370,"Ġaccounts":11371,"Ġstopped":11372,"Ġanimated":11373,"Ġ==============================================================================":11374,"kes":11375,"ye":11376,"Ġrevers":11377,"Ġnorthern":11378,"Ġdefines":11379,"unities":11380,"ĠMass":11381,"ĠWS":11382,"Ġmouth":11383,"Ġparsing":11384,"Ġunderlying":11385,"ĠQueue":11386,"pring":11387,"Compiler":11388,"OFF":11389,"Ġweekend":11390,"Constraint":11391,"Initialize":11392,"ä½ľ":11393,"Ġranked":11394,"favicon":11395,"DR":11396,"Kit":11397,"Person":11398,"Prim":11399,"sources":11400,"Ġpixel":11401,"ppy":11402,"ĠHead":11403,"Ġencour":11404,"Ġrefresh":11405,"constants":11406,"Ġmasterpiece":11407,"ĠParty":11408,"PREFIX":11409,"æ³ķ":11410,"Binary":11411,"EP":11412,"dns":11413,"Ġsle":11414,"Ġdates":11415,"urations":11416,"Ġlord":11417,"ĠAFP":11418,"ĠNY":11419,"Ġships":11420,"awesome":11421,"identity":11422,"Ġcauses":11423,"ĠTransitional":11424,"ĠLatin":11425,"Free":11426,"Material":11427,"iat":11428,"must":11429,"multiple":11430,"tail":11431,"éĻ":11432,"ðĳ":11433,"ora":11434,"Ġcref":11435,"Ġgem":11436,"ĠCRE":11437,"chdir":11438,"Ġconvention":11439,"Ġoverflow":11440,"Env":11441,"ĠCommission":11442,"ĠMovie":11443,"ylan":11444,"today":11445,"Sm":11446,"freq":11447,"Ġaware":11448,"Ġgenu":11449,"ĠjQuery":11450,"ĠYoung":11451,"Ġchecksum":11452,"Ġdecade":11453,"interfaces":11454,"Ġvisited":11455,"covery":11456,"Cloud":11457,"Ġsorry":11458,"Ġfre":11459,"Ġdancing":11460,"eler":11461,"Ġthreshold":11462,"ĠLady":11463,"Ġancient":11464,"Ġresolution":11465,"Ġscr":11466,"ucture":11467,"readline":11468,"Ġdepart":11469,"ova":11470,"Ġslowly":11471,"ĠFilm":11472,"dropdown":11473,"METHOD":11474,"Ġfeaturing":11475,"`:":11476,"Ġtrees":11477,"Ġsac":11478,"oral":11479,"Ġ\"_":11480,"ĠTRA":11481,"ĠFour":11482,"><?":11483,"Ġscream":11484,"Ġreads":11485,"3456789":11486,"makedirs":11487,"TT":11488,"virt":11489,"Ġfreed":11490,"ctools":11491,"udes":11492,"Ġstatements":11493,"Ġslug":11494,"Region":11495,"annotations":11496,"Prev":11497,"=)":11498,"Section":11499,"ibr":11500,"ĠSat":11501,"Ġ<-":11502,"ĠPan":11503,"ĠFeder":11504,"ĠWrit":11505,"ĠEL":11506,"beat":11507,"Ġmatched":11508,"Ġforest":11509,"ĠJohnson":11510,"Ġofficer":11511,"Ġeastern":11512,"Ġadvanced":11513,"Ġdropped":11514,"çĲĨ":11515,"BY":11516,"Diff":11517,"Sur":11518,"Watch":11519,"\\'":11520,"oved":11521,"Ġgarbage":11522,"ola":11523,"ĠMS":11524,"osing":11525,"ighter":11526,"ĠApi":11527,"Ġskin":11528,"ĠCompute":11529,"Ġportrayal":11530,"çİ":11531,"staff":11532,"ĠTarget":11533,"ĠAWS":11534,"coh":11535,"Ġoffering":11536,"Ġintelligent":11537,"?'":11538,"LATE":11539,"Ġtrib":11540,"effic":11541,"ĠAmazon":11542,"Ġwealth":11543,"Track":11544,"äºº":11545,"Ġnormally":11546,"Ġdecorator":11547,"builtin":11548,"Power":11549,"demo":11550,"ĴĮ":11551,"Ġtension":11552,"react":11553,"anke":11554,"sters":11555,"ĠTiny":11556,"ĠAccess":11557,"Ġimported":11558,"ĠBrown":11559,"OTT":11560,"ĠDOCUMENT":11561,"Ġtreatment":11562,"assertAllEqual":11563,"Ġrejected":11564,"Ġaccompanying":11565,"Ġtreated":11566,"road":11567,"Ġnb":11568,"Ġgross":11569,"andas":11570,"ĠEC":11571,"allclose":11572,"problem":11573,"StringIO":11574,"Ġamb":11575,"ArrayList":11576,"Ġsmallest":11577,"Ġpromise":11578,"Ġcleanup":11579,"writel":11580,"93":11581,"diag":11582,"life":11583,"Ġtend":11584,"ĠTerm":11585,"ĠIII":11586,"ĠAfghan":11587,"ertools":11588,"ĠDouble":11589,"Extra":11590,"Ġsecure":11591,"Ġrevenge":11592,"Ġimpressive":11593,"Ġintellect":11594,"RC":11595,"èĥ½":11596,"eto":11597,"ĠFederal":11598,"ĠVM":11599,"Exists":11600,"ĠStill":11601,"Ġrecip":11602,"standard":11603,"ĠDoes":11604,"Accept":11605,"Big":11606,"Summary":11607,"dn":11608,"Ġsizes":11609,"ĠBol":11610,"ĠDOM":11611,"brand":11612,"=====":11613,"Ġdeprecated":11614,"Ġ48":11615,"need":11616,"heading":11617,"Ġprocessor":11618,"ĠPerform":11619,"Signature":11620,"Ġcycle":11621,"ĠDirector":11622,"ĠAtlantic":11623,"DP":11624,"Microsoft":11625,"Named":11626,"pat":11627,"press":11628,"tm":11629,"atile":11630,"=\"%":11631,"Ġunlike":11632,"acher":11633,"Ġaccused":11634,"steps":11635,"Ġprepared":11636,"Scalar":11637,"Ð´":11638,"Ġvan":11639,"Ġwasted":11640,"ITLE":11641,"ernet":11642,"ĠTele":11643,"ĠOrgan":11644,"Namespace":11645,"ĠAgain":11646,"Ġsubsequent":11647,"CENT":11648,"ĠNon":11649,"emic":11650,"ĠYet":11651,"Ġsubmit":11652,"notations":11653,"Uses":11654,"kins":11655,"ville":11656,"Ġundefined":11657,"ĠHit":11658,"Ġcaller":11659,"Arch":11660,"Ġcorner":11661,"Ġslot":11662,"ĠArguments":11663,"Ġsomewhere":11664,"+=":11665,"Bus":11666,"hard":11667,"nx":11668,"pin":11669,"Ġ****************************************************************************":11670,"Ġcipher":11671,"that":11672,"ĠFur":11673,"locked":11674,"ĠAlan":11675,"unknown":11676,"Ġcellpadding":11677,"Ġattempted":11678,"Copyright":11679,"fw":11680,"pal":11681,"vg":11682,"erable":11683,"ĠSY":11684,"ĠIMD":11685,"ulations":11686,"ĠLu":11687,"Ġcomposed":11688,"environment":11689,"LOAD":11690,"Environment":11691,"Ġcontrols":11692,"Ġtenant":11693,"Mesh":11694,"iac":11695,"migr":11696,"ĠIll":11697,"abb":11698,"ĠBrian":11699,"Ġnewly":11700,"addClass":11701,"Ġaccent":11702,"ILD":11703,"Ġadjac":11704,"versions":11705,"ĠSettings":11706,"Ġkeeping":11707,"Ġtxt":11708,"activate":11709,"vy":11710,"å¿":11711,"ilers":11712,"ĠSchema":11713,"andid":11714,"Ġupgrade":11715,"Ġbrut":11716,"EventListener":11717,"requires":11718,"correct":11719,"Edge":11720,"Ġincorrect":11721,"ĠWarsaw":11722,"erred":11723,"Ġaria":11724,"Ġtheory":11725,"ĠRa":11726,"Ġbeta":11727,"Ġadopt":11728,"lands":11729,"Ġcurr":11730,"front":11731,"Ġsuffered":11732,"åĪĨ":11733,"ĠDateTime":11734,"ĠLouis":11735,"dro":11736,"Ġtorn":11737,"Ġdress":11738,"Ġrecon":11739,"Ġretry":11740,"Ġug":11741,"Ġasks":11742,"very":11743,"ĠRest":11744,"Ġknock":11745,"ĠInstitute":11746,"Div":11747,"ĠTYPE":11748,"ĠAsian":11749,"omial":11750,"ĠPay":11751,"checkbox":11752,"tsd":11753,"Align":11754,"Ġgrace":11755,"Ġsuddenly":11756,"Ġbarely":11757,"GP":11758,"Ġaid":11759,"Ġselling":11760,"Ġsqrt":11761,"Ġbridge":11762,"Ġreaction":11763,"ĠTOP":11764,"thumbnail":11765,"Ġstructures":11766,"authentic":11767,"Ġopens":11768,"Ġexciting":11769,"Ġcommented":11770,"CONF":11771,"Ġdrugs":11772,"Ġexplicitly":11773,"Ġfilmmakers":11774,"city":11775,"lap":11776,"material":11777,"Ð²":11778,"Ġsr":11779,"lett":11780,"Ġpictures":11781,"Ġtourn":11782,"otions":11783,"ĠMaster":11784,"ivation":11785,"ĠWARNING":11786,"party":11787,"Checker":11788,"ĠEnter":11789,"Ġdiag":11790,"ĠLocation":11791,"è¡¨":11792,"arian":11793,"Ġ'':":11794,"ĠBat":11795,"ĠBrad":11796,"eman":11797,"osv":11798,"assertAlmostEqual":11799,"arden":11800,"Ġleague":11801,"Ġhasn":11802,"Ġcellspacing":11803,"cleanup":11804,"ĠPOST":11805,"ĠHarry":11806,"Ãº":11807,"iser":11808,"Ġunfortunately":11809,"archive":11810,"Ġhandlers":11811,"OTO":11812,"Ġexpressions":11813,"Ġleaders":11814,"Ġverb":11815,"Ġconvincing":11816,"Ġprecision":11817,"TYP":11818,"1307":11819,"bold":11820,"hou":11821,"çī":11822,"owell":11823,"Ġexchange":11824,"Ġintrig":11825,"ĠStyle":11826,"lists":11827,"absolute":11828,"Ġinvestig":11829,"Ġresponses":11830,"expandtab":11831,"Scan":11832,"bidden":11833,"ioc":11834,"pub":11835,"xD":11836,"you":11837,"åī":11838,"inject":11839,"isl":11840,"Ġcars":11841,"oti":11842,"ĠDark":11843,"Ġunpack":11844,"Stub":11845,"Ġlogs":11846,"ĠZend":11847,"Ġformatted":11848,"1000":11849,"Dto":11850,"Hook":11851,"Tools":11852,"ĠtoString":11853,"Ġhomes":11854,"ĠSar":11855,"Ġextent":11856,"Ġauthority":11857,"ĠActive":11858,"ç±":11859,"Ġinherit":11860,"ĠDraw":11861,"ĠRose":11862,"Ġchannels":11863,"arded":11864,"Ġunbelie":11865,"Export":11866,"Transport":11867,"ĠCommit":11868,"priority":11869,"Points":11870,"Ġhoping":11871,"Ġweren":11872,"ĠJewish":11873,"ĠDemocr":11874,"Ġpod":11875,"Ġbond":11876,"enth":11877,"Ġeg":11878,"Ġ}).":11879,"ĠGl":11880,"Ġrates":11881,"Ġtested":11882,"INST":11883,"Overview":11884,"payment":11885,"Ġcomplain":11886,"Light":11887,"Wrap":11888,"æ¯":11889,"Ġease":11890,"Ġga":11891,"endo":11892,"oped":11893,"ĠDu":11894,"getitem":11895,"ĠWH":11896,"Ġlosing":11897,"lector":11898,"Ġinterfaces":11899,"backs":11900,"Ġturning":11901,"Static":11902,"FIELD":11903,"ĠTypeScript":11904,"finish":11905,"åŃĹ":11906,"ijing":11907,"ona":11908,"Ġinvent":11909,"ctrl":11910,"Ġloud":11911,"Ġgc":11912,"moves":11913,"Ġsubscription":11914,"Ġshel":11915,"Ġamateur":11916,"Ġmerely":11917,"Ġexplained":11918,"ãĥ¼":11919,"shiftwidth":11920,"Ġissued":11921,"LP":11922,"machine":11923,"Ñĭ":11924,"ÑĮ":11925,"Ġcards":11926,"channels":11927,"Ġitertools":11928,"uniform":11929,"Ġpara":11930,"outputs":11931,"Ġvictim":11932,"Ġhotel":11933,"Ġrecognized":11934,"perlyConfigured":11935,"Browser":11936,"YY":11937,"{\\":11938,"ĠNames":11939,"ĠJS":11940,"ĠVar":11941,"Ġattach":11942,"olutions":11943,"flat":11944,"IOException":11945,"instances":11946,"ĠMaria":11947,"rich":11948,"sheet":11949,"Ġwinds":11950,"asher":11951,"uling":11952,"angers":11953,"ĠHill":11954,"Ġdisappe":11955,"Contents":11956,"Ġphoto":11957,"Ġmiddleware":11958,"Ġconsisting":11959,"Ġexpanded":11960,"Ġdollar":11961,"ĠGreece":11962,"Ġarrested":11963,"Rot":11964,"ras":11965,"Ġawards":11966,"ĠRow":11967,"Ġproved":11968,"Ġchair":11969,"Testing":11970,"preview":11971,"FileName":11972,"ĠAdam":11973,"Ġpurposes":11974,"ORMAL":11975,"Backend":11976,"Ġ02111":11977,"ĠIMDb":11978,"bf":11979,"seen":11980,"ĠTool":11981,"ĠMen":11982,"ĠRES":11983,"ĠWait":11984,"Ġdecre":11985,"Addr":11986,"Place":11987,"Ġaudiences":11988,"ÑģÑĤ":11989,"Ġmyster":11990,"existing":11991,"Ġsubtle":11992,"Ġappreciate":11993,"ĠImproperlyConfigured":11994,"dating":11995,"tics":11996,"ĠBrig":11997,"ĠDer":11998,"Ġ//------------------------------------------------------------------------":11999,"Ġprotests":12000,"Ġsharp":12001,"Ġ_.":12002,"Reset":12003,"ĠProperty":12004,"Ġcustomers":12005,"ĠDOCUMENTATION":12006,"$',":12007,"Two":12008,"å±":12009,"Ġfo":12010,"Ġ\"--":12011,"ests":12012,"Ġ./":12013,"ĠNick":12014,"001":12015,"ĠHy":12016,"arters":12017,"listdir":12018,"createElement":12019,"ĠAllen":12020,"Ġheads":12021,"Animation":12022,"relative":12023,"rupted":12024,"ĠEntity":12025,"Headers":12026,"=>":12027,"VAR":12028,"Ġ************************************************************************":12029,"Ġtone":12030,"Ġsitting":12031,"Ġbill":12032,"ĠTy":12033,"ĠSol":12034,"Ġjoint":12035,"Ġcomposer":12036,"Ġrapid":12037,"contain":12038,"ĠSpain":12039,"zeug":12040,"Ġaircraft":12041,"Ġsuffering":12042,"mmutable":12043,"Ġsections":12044,"Mouse":12045,"esis":12046,"endregion":12047,"getValue":12048,"Ġcompiled":12049,"Ġdisaster":12050,"Ġfinale":12051,"Ġrelevant":12052,"Ġserializer":12053,"Ġprimarily":12054,"Ġincredible":12055,"ĠFrancisco":12056,"'%":12057,"Well":12058,"fixed":12059,"é¢":12060,"isms":12061,"Ġflex":12062,"lec":12063,"ĠOil":12064,"liest":12065,"Ġ//#":12066,"Ġstrategy":12067,"Ġgoals":12068,"Ġ!==":12069,"Ġentered":12070,"ĠProdu":12071,"aza":12072,"Ġthinks":12073,"selector":12074,"softtabstop":12075,"Ġtimedelta":12076,"Ġsemi":12077,"ĠPalest":12078,"REQUEST":12079,"Ġbizarre":12080,"pointer":12081,"Ġdaily":12082,"Ġlies":12083,"ĠClose":12084,"racy":12085,"ĠPAR":12086,"ĠDylan":12087,"Ġprote":12088,"everal":12089,"Upload":12090,"Ġincorpor":12091,"American":12092,"Distance":12093,"Split":12094,"heast":12095,"ckets":12096,"Ġchampion":12097,"Ġtimezone":12098,"without":12099,"Forms":12100,"COUNT":12101,"TeX":12102,"3333":12103,"Ġlaughing":12104,"dimension":12105,"Ġwidely":12106,"Ġnudity":12107,"Batch":12108,"Shell":12109,"cest":12110,"dashboard":12111,"Ġcute":12112,"Ġfat":12113,"Ġlon":12114,"ĠTake":12115,"Ġimpression":12116,"Ġplugins":12117,"Ġ38":12118,"ounce":12119,"Plan":12120,"confirm":12121,"Ġglad":12122,"monitor":12123,"Syntax":12124,"chen":12125,"ĠPress":12126,"Ġrail":12127,"Ġterminal":12128,"slam":12129,"ĠCarol":12130,"åĲį":12131,"Ġdiscovery":12132,"Ġanthropology":12133,"Ġweapons":12134,"Axis":12135,"mysql":12136,"sin":12137,"Ġapt":12138,"aron":12139,"Ġnom":12140,"ĠTer":12141,"shal":12142,"Props":12143,"Ġflaw":12144,"DOM":12145,"Ġgenius":12146,"Ġgenocide":12147,"Ġidentify":12148,"Span":12149,"Ġconcerned":12150,"rink":12151,"ç¬":12152,"Ġlab":12153,"addWidget":12154,"pher":12155,"ĠStorage":12156,"calc":12157,"Setting":12158,"Ġreferred":12159,"Ġcompletion":12160,"ĠEdward":12161,"Ġcollapse":12162,"ĠSimon":12163,"Ġbelongs":12164,"Ġzombie":12165,"Ġchemistry":12166,"Lookup":12167,"Volume":12168,"cross":12169,"åĴĮ":12170,"cked":12171,"Ġintention":12172,"Ġpygments":12173,"Ġputting":12174,"expression":12175,"ĠAbout":12176,"Ġbuttons":12177,"IFY":12178,"Ġkidn":12179,"Ġapproximately":12180,"Google":12181,"inos":12182,"retry":12183,"ĠTown":12184,"ipv":12185,"Ġuns":12186,"IGIT":12187,"Ġpointless":12188,"ĠDefine":12189,"ĠEnc":12190,"Ġfrozen":12191,"Same":12192,"Ġfab":12193,"Ġvamp":12194,"Ġrecall":12195,"errno":12196,"Ġquotes":12197,"NOOP":12198,"ĠPolish":12199,"Detail":12200,"=\"../../../../../../../":12201,"Ġelectric":12202,"Converter":12203,"smartindent":12204,"kzeug":12205,"tax":12206,"Ġpg":12207,"Ġbb":12208,"Ġstarring":12209,"licated":12210,"geometry":12211,"Ġ1960":12212,"maps":12213,"ĠExtract":12214,"ĠScience":12215,"300":12216,"HR":12217,"health":12218,"Ġspark":12219,"rift":12220,"ĠCopy":12221,"ĠNeed":12222,"vies":12223,"Ġflush":12224,"Ġdescribes":12225,"Generated":12226,"hello":12227,"Ġlegacy":12228,"Ġvehicle":12229,"Bool":12230,"Dig":12231,"Rules":12232,"adies":12233,"ĠEli":12234,"Ġsevent":12235,"Ġdeals":12236,"ificates":12237,"ESSAGE":12238,"DEV":12239,"Ġincrement":12240,"cdn":12241,"LI":12242,"tv":12243,"Ġclip":12244,"Ġfatal":12245,"Ġstret":12246,"Ġassets":12247,"ĠMong":12248,"ĠDoug":12249,"\">{{":12250,"ĠStringBuilder":12251,"Ġretail":12252,"Ġbelief":12253,"ĠÐ¿":12254,"uppet":12255,"IUS":12256,"Mail":12257,"Sto":12258,"eb":12259,"even":12260,"ym":12261,"å¦Ĥ":12262,"Ġamp":12263,"Ġpref":12264,"astr":12265,"Ġbodies":12266,"Ġtoler":12267,"Ġconven":12268,"Ġwilling":12269,"Ġpasses":12270,"Ġrelatively":12271,"previous":12272,"Compar":12273,"Ġopacity":12274,"ajaf":12275,"ĠSetup":12276,"ĠAdditional":12277,"Ġfrag":12278,"Ġgradient":12279,"ĠPrivate":12280,"EQ":12281,"wsgi":12282,"ĠLin":12283,"vive":12284,"apers":12285,"runk":12286,"Shared":12287,"metic":12288,"Ġstanding":12289,"Algorithm":12290,"COMM":12291,"ĠCharlie":12292,"Ġboundary":12293,"Ġdefinitions":12294,"Ġnarrative":12295,"TX":12296,"Uri":12297,"both":12298,"ëĭ":12299,"iner":12300,"Ġoh":12301,"Ġ\"+":12302,"Ġheat":12303,"acer":12304,"Inject":12305,"Ġlie":12306,"``,":12307,"rollers":12308,"Complete":12309,"Ġfiltered":12310,"svg":12311,"jobs":12312,"ĠVirgin":12313,"^^":12314,"dp":12315,"Ġtropical":12316,"Ġhat":12317,"Ġ')":12318,"Ġyouth":12319,"ells":12320,"rigin":12321,"INIT":12322,"012":12323,"ĠDebug":12324,"ĠâĢľ":12325,"black":12326,"ĠGeorg":12327,"Ð½Ð¸":12328,"Ġopposite":12329,"Ġscheduled":12330,"TRANSLATE":12331,"OTTOM":12332,"DAT":12333,"Kind":12334,"Ùħ":12335,"ĠSouthern":12336,"ĠIM":12337,"Ġprove":12338,"Ġrh":12339,"Ġloves":12340,"eps":12341,"Ġnoqa":12342,"ĠStory":12343,"Ġsubs":12344,"Ġthanks":12345,"ĠINST":12346,"Ġ------------------------------------------------":12347,"Ġfocused":12348,"Car":12349,"cwd":12350,"rmtree":12351,"Ġpixels":12352,"Ġbom":12353,"roles":12354,"chunk":12355,"ĠMenu":12356,"setAttribute":12357,"Ġamusing":12358,"ĠTOK":12359,"Ġemphas":12360,"Ġutility":12361,"Ġcoordinate":12362,"Ġinterpret":12363,"cremental":12364,"umption":12365,"Diag":12366,"GA":12367,"aui":12368,"cod":12369,"Ġporn":12370,"Ġoct":12371,"ubble":12372,"ĠBU":12373,"ĠBoy":12374,"Ġpropag":12375,"Ġrand":12376,"sph":12377,"Models":12378,"509":12379,"Ġexecutable":12380,"Ġbounds":12381,"Ġinfluenced":12382,"bank":12383,"Ġinh":12384,"ĠTod":12385,"otor":12386,"ĠCross":12387,"Ġvent":12388,"ĠLabor":12389,"templates":12390,"Ġdesert":12391,"website":12392,"anye":12393,"XXXX":12394,"ĠTrace":12395,"Ġsoldier":12396,"Ġmoral":12397,"Ġjudges":12398,"ĠSpecial":12399,"Ġwarned":12400,"zil":12401,"reason":12402,"isible":12403,"Ġinfect":12404,"oment":12405,"Ġvision":12406,"ulf":12407,"ldots":12408,"ARGET":12409,"Ġassumed":12410,"Examples":12411,"Ġnums":12412,"filer":12413,"Ġinstanti":12414,"Identity":12415,"gypt":12416,"targets":12417,"ĠIndexError":12418,"decorators":12419,"Private":12420,"Fetch":12421,"fol":12422,"Ġtaste":12423,"Ġ=================":12424,"Ġblob":12425,"Ġmakers":12426,"Ġinventory":12427,"stable":12428,"ĠIvan":12429,"Ġsuicide":12430,"amps":12431,"loading":12432,"Ġinstitutions":12433,"TERN":12434,"Ġwalking":12435,"Ġlearned":12436,"ĠDeterm":12437,"Ġmistake":12438,"ĠTechnology":12439,"Ġcontestants":12440,"FOR":12441,"GLO":12442,"åİ":12443,"Ġtz":12444,"Ġ=\"":12445,"Ġod":12446,"stub":12447,"ĠSudan":12448,"=='":12449,"Ġ$\\":12450,"ĠUt":12451,"Ġoutstanding":12452,"eller":12453,"ĠVAR":12454,"Ġfamilies":12455,"OutputStream":12456,"Ġsilent":12457,"ä½¿":12458,"CUR":12459,"Ġmp":12460,"Ġnecess":12461,"ilight":12462,"Ġnotify":12463,"Ġdocker":12464,"Ġsole":12465,"answer":12466,"urllib":12467,"ĠHealth":12468,"Ġperforming":12469,"Ġports":12470,"Ġmedical":12471,"egg":12472,"IBLE":12473,"Ġlowest":12474,"Ġdirs":12475,"priv":12476,"Ġunderstanding":12477,";...":12478,"Called":12479,"uer":12480,"Ġcss":12481,"Ġcitiz":12482,"Ġfif":12483,"Ġ33":12484,"Ġ39":12485,"Constructor":12486,"resentation":12487,"Ġscenario":12488,"Ġinsult":12489,"ĠDavis":12490,"Ġalien":12491,"Ġadaptation":12492,"direction":12493,"mgr":12494,"mobile":12495,"Î±":12496,"ĠFoot":12497,"fox":12498,"Ġ1930":12499,"Ġchildhood":12500,"Ġtracks":12501,"Ġadvant":12502,"edded":12503,"Ġadventure":12504,"ĠJoseph":12505,"anches":12506,"edges":12507,"ctl":12508,"Ġtou":12509,"entities":12510,"aded":12511,"iders":12512,"ĠCF":12513,"ĠFont":12514,"Ġcharm":12515,"velope":12516,"Release":12517,"ENC":12518,"ajik":12519,"Ġqs":12520,"Ġrestaur":12521,"Ġ'.'":12522,"Ġaccepts":12523,"Tasks":12524,"Ġstruggle":12525,"ç±»":12526,"Center":12527,"XY":12528,"nan":12529,"virtual":12530,"Ġic":12531,"heart":12532,"Ġfired":12533,"Ġpk":12534,"Ġ\"</":12535,"Standard":12536,"ordered":12537,"dispatch":12538,"Ġsupply":12539,"Ġcapacity":12540,"Ġequally":12541,"Ġlocked":12542,"ĠPrince":12543,"Ġconstantly":12544,"todo":12545,"Ġsuitable":12546,"making":12547,"Ġfaster":12548,"Ġhall":12549,"Ġ';":12550,"ĠNaz":12551,"ĠRon":12552,"setValue":12553,"udge":12554,"Ġxb":12555,"START":12556,"INGTON":12557,"ĠAlbert":12558,"Ġcentre":12559,"Ġbroke":12560,"QUE":12561,"ĠRobin":12562,"ordinate":12563,"sen":12564,"tex":12565,"ĠSpect":12566,"Ġanal":12567,"team":12568,"Ġarts":12569,"Ġbreaks":12570,"ĠShort":12571,"Ġinvolve":12572,"Ġdependency":12573,"Ġdiam":12574,"Ġdelivered":12575,"Ġlayers":12576,"stein":12577,"La":12578,"Win":12579,"nil":12580,"intern":12581,"onna":12582,"reports":12583,"ĠKhan":12584,"Ġportion":12585,"2011":12586,"ãĤĴ":12587,"Ġpaint":12588,"Ġpipe":12589,";...&":12590,"SUB":12591,"dst":12592,"een":12593,"lon":12594,"rele":12595,"Ġ34":12596,"ĠAsia":12597,"swarm":12598,"Ġdescribing":12599,"Ġescaped":12600,"ArgumentException":12601,"Canvas":12602,"EVENT":12603,"RPC":12604,"hh":12605,"ĠStore":12606,"ĠGi":12607,"ĠUInt":12608,"enerated":12609,"ĠItaly":12610,"DEX":12611,"Ġstudies":12612,"Ġepic":12613,"Analysis":12614,"Ġfeelings":12615,"Ġeasier":12616,"TEMPL":12617,"ĠEmpire":12618,"Ġadults":12619,"ĠAngeles":12620,"CALL":12621,"Effect":12622,"Fixture":12623,"scheme":12624,"}'.":12625,"Ġmigration":12626,"Ġhip":12627,"ĠPlayer":12628,"essor":12629,"ĠDNS":12630,"ĠEric":12631,"ocation":12632,"ĠAndy":12633,"Ġskill":12634,"ãģĻ":12635,"ĠRETURN":12636,"Ġtile":12637,"Ġflying":12638,"Ġ101":12639,"ĠDES":12640,"ĠRFC":12641,"ĠKh":12642,"ĠAdding":12643,"Ġetree":12644,"Dictionary":12645,"Ġtouching":12646,"Ġactivities":12647,"Ġdreams":12648,"Ġroutine":12649,"Ġcharges":12650,"History":12651,"rstrip":12652,"Ġsight":12653,"Ġ#{":12654,"omer":12655,"ĠRight":12656,"Ġ//////////////////////////////////////////////////////////////////":12657,"ĠKill":12658,"Ġnoise":12659,"Ġlisting":12660,"covers":12661,"CKET":12662,"poly":12663,"ĠENV":12664,";\\":12665,"VIE":12666,"Ġble":12667,"Ġintr":12668,"Ġ/****************************************************************************":12669,"ĠIllegal":12670,"ĠCro":12671,"cher":12672,"ĠLand":12673,"ĠMiddle":12674,"Ġdelegate":12675,"away":12676,"Ġkeywords":12677,"ENS":12678,"encing":12679,"Ġapartment":12680,"ĠTech":12681,"ĠComponent":12682,"Hello":12683,"Ġdigest":12684,"ggreg":12685,"ĠBuddha":12686,"Ġstocks":12687,"Servlet":12688,"solr":12689,"Warnings":12690,"mond":12691,"Ġride":12692,"Ġglyph":12693,"Ġstunning":12694,"Ġconcat":12695,"=\"//":12696,"ĠFix":12697,"ĠHave":12698,"percent":12699,"ENCE":12700,"ĠLaTeX":12701,"elasticsearch":12702,"ĠOrderedDict":12703,"GM":12704,"href":12705,"Ġ----------------":12706,"ribly":12707,"Ġjustice":12708,"checked":12709,"Ġawesome":12710,"Ġ**_":12711,"requency":12712,"Ġtrading":12713,"Ġinvestors":12714,"ĠSky":12715,"Ġpleas":12716,"åĩº":12717,"Tw":12718,"Tags":12719,"alg":12720,"Ġmi":12721,"Ġ#####":12722,"uming":12723,"ĠNajaf":12724,"ĠGer":12725,"ĠWIDTH":12726,"Produ":12727,"Ġcomfort":12728,"\"><?":12729,"Ġtexture":12730,"commons":12731,"Ġdivided":12732,"Groups":12733,"ĠCOPYING":12734,"ĠAssertion":12735,"å¤§":12736,"AAAA":12737,"bian":12738,"mu":12739,"Ġreactor":12740,"ilty":12741,"ĠIslam":12742,"Ġstub":12743,"quant":12744,"via":12745,"ĠJO":12746,"ĠInformation":12747,"ĠCONT":12748,"6666":12749,"factor":12750,"StackTrace":12751,"ĠSUMM":12752,"æīĢ":12753,"Ġalternative":12754,"bash":12755,"Ãª":12756,"ĠGreg":12757,"ĠVariable":12758,"facebook":12759,"Ġsecondary":12760,"ĠRespond":12761,"Remote":12762,"Background":12763,"ĠEmperor":12764,"Ġcriminal":12765,"Ġintellectual":12766,"burg":12767,"student":12768,"ceived":12769,"opam":12770,"ĠEmail":12771,"asters":12772,"æĸ°":12773,"follow":12774,"kw":12775,"Ġhyper":12776,"ĠGE":12777,"lications":12778,"ĠHop":12779,"ĠUTF":12780,"parsed":12781,"ĠInv":12782,"ĠInfo":12783,"ĠKn":12784,"Ġknowing":12785,"ĠHashMap":12786,"Ġtp":12787,"Ġfish":12788,"unist":12789,"aren":12790,"plain":12791,"ĠJr":12792,"Ġcolour":12793,"Coll":12794,"Ġmerged":12795,"Ġpercentage":12796,"Metrics":12797,"Ġdangerous":12798,"Sim":12799,"Ġtk":12800,"Ġiron":12801,"ĠSCons":12802,"ĠThrough":12803,"appro":12804,"implement":12805,"Ġviewed":12806,"Ġ***":12807,"Ġskills":12808,"Ġcontrolled":12809,"Ġnetworks":12810,"Ġ255":12811,"Ġheavily":12812,"hooks":12813,"ati":12814,"Ġcab":12815,"Ġmirror":12816,"embed":12817,"Expr":12818,"ĠProp":12819,"topic":12820,"transl":12821,"splitlines":12822,"Ġframes":12823,"mediate":12824,"ĠInterface":12825,"Ġdisappointing":12826,"ĠBusiness":12827,"Ġcontemporary":12828,"PM":12829,"hw":12830,"imm":12831,"ĠLen":12832,"ĠMust":12833,"Ġrpc":12834,"plane":12835,"Information":12836,"Ġ\\\"":12837,"Ġpossess":12838,"ASSERT":12839,"Ġmysql":12840,"ä¼ļ":12841,"ĠRoute":12842,"CESS":12843,"^{":12844,"ea":12845,"green":12846,"saved":12847,"yer":12848,"Ġdut":12849,"Ġbenchmark":12850,"**:":12851,"examples":12852,"ĠMD":12853,"endpoint":12854,"Ġ150":12855,"ĠVari":12856,"Ġabort":12857,"ysical":12858,"Ġtrailing":12859,"Ġrefused":12860,"Ġhappening":12861,"Ġannounce":12862,"Ġintegration":12863,"ĠDarfur":12864,"Ġcloser":12865,"Audio":12866,"Cookie":12867,"SW":12868,"ront":12869,"sBy":12870,"esting":12871,"Ġprotagon":12872,"Ġrgba":12873,"setEqual":12874,"assertQuery":12875,"Ġrain":12876,"Ġvals":12877,"ologist":12878,"Annotation":12879,"assertIsNone":12880,",,,,":12881,"Ġachieved":12882,"Ġscientists":12883,"ĠGreek":12884,"ĠGovernment":12885,"Ġredeem":12886,"Ġadjacent":12887,"AUTH":12888,"PA":12889,"dem":12890,"Ġè":12891,"Ġtight":12892,"Ġssh":12893,"Ġcatalog":12894,"Ġwave":12895,"ĠASC":12896,"Ġ//!":12897,"Ġjoy":12898,"appendChild":12899,"Ġforecast":12900,"è¿ĩ":12901,"åĲİ":12902,"Ġokay":12903,"Ġsettlement":12904,"Ġpulled":12905,"assertQuerysetEqual":12906,":\",":12907,"DON":12908,"Rob":12909,"Ġsand":12910,"Ġwheel":12911,"Ġ\"../":12912,"ĠLabel":12913,"ĠRos":12914,"paramet":12915,"Ġpreced":12916,"ĠConstructor":12917,"general":12918,"FAIL":12919,"Ġgraphics":12920,"Scene":12921,"ĠAcademy":12922,"Ġcircum":12923,"budget":12924,"dog":12925,"hyper":12926,"rict":12927,"uf":12928,"hew":12929,"Ġpp":12930,"ĠNAS":12931,"notification":12932,"viders":12933,"posed":12934,"Ġdepartment":12935,"ĠResDef":12936,"documentation":12937,"Dataset":12938,"Ġdisturbing":12939,"èĩª":12940,"\"/":12941,">{{":12942,"_%":12943,"kill":12944,"ruct":12945,"ÅĤ":12946,"edly":12947,"Ġ'--":12948,"ether":12949,"ĠSox":12950,"subject":12951,"ĠByte":12952,"Ġ1995":12953,"Ġadministration":12954,"ĠOffice":12955,"ĠConstraints":12956,"ĠIsraeli":12957,"Ġpraised":12958,"ned":12959,"Îµ":12960,"Ġack":12961,"atype":12962,"ĠSon":12963,"Ġisol":12964,"Ġseat":12965,"deleted":12966,"ĠChampionship":12967,"Ġtrunc":12968,"iana":12969,"Ġobtained":12970,"Ġforever":12971,"Ġinstallation":12972,"Ġaffili":12973,"Ġassignment":12974,"Ġdelivery":12975,"publish":12976,"TEMPLATE":12977,"Cast":12978,"Cancel":12979,"Pred":12980,"æĽ":12981,"Ġê":12982,"Ġdyn":12983,"Ġhurricane":12984,"ĠOur":12985,"Ġ\"\"\")":12986,"Ġrac":12987,"ysics":12988,"Ġcharming":12989,"ĠResearch":12990,"Ġperman":12991,"Ġserves":12992,"Ġserving":12993,"Ġ1997":12994,"Ġ1998":12995,"Ġgeo":12996,"ĠBuddhist":12997,"Ġdollars":12998,"SERVER":12999,"ĠCongress":13000,",\\":13001,"bor":13002,"sentry":13003,"yc":13004,"çŃ":13005,"itable":13006,"ĠMos":13007,"Ġ10000":13008,"ĠFace":13009,"ĠButton":13010,"Ġpark":13011,"Ġ47":13012,"Ġclf":13013,"Ġ75":13014,"sf":13015,"som":13016,"Âĥ":13017,"Ġtmpl":13018,"erialize":13019,"Ġgamma":13020,"threshold":13021,"ĠNations":13022,"acl":13023,"Ġouter":13024,"Ġprepar":13025,"backup":13026,"Constant":13027,"Authentication":13028,"Ġmysterious":13029,"Dist":13030,"curs":13031,"lig":13032,"Ġlabor":13033,"lyn":13034,"lover":13035,"ialect":13036,"Ġ___":13037,"validator":13038,"SCHE":13039,"Ġsqlite":13040,"Ġrotation":13041,"ifferent":13042,"Ignore":13043,"reload":13044,"Ġdd":13045,"Ġconvers":13046,"ĠGirl":13047,"Ġatomic":13048,"serif":13049,"ĠKanye":13050,"ĠYanke":13051,"Ġaggregate":13052,"Ġdepict":13053,"ĠPerhaps":13054,"ĠSyntax":13055,"Endpoint":13056,"Ġdefeat":13057,"Actor":13058,"Clos":13059,"rance":13060,"tick":13061,"windows":13062,"}\".":13063,"Ġmart":13064,"Ġgift":13065,"inalg":13066,"Ġtrick":13067,"ĠScot":13068,"Ġfrequently":13069,"ASHINGTON":13070,"BI":13071,"Ctrl":13072,"analysis":13073,"Ġthin":13074,"Ġdisg":13075,"vely":13076,"ĠAddress":13077,"ADDING":13078,"Ġliterally":13079,"ĠScient":13080,"BLOCK":13081,"blob":13082,"pres":13083,"xd":13084,"Â·":13085,"Ġtv":13086,"onder":13087,"Ġsalt":13088,"Ġpending":13089,"ĠBOTTOM":13090,"ĠDream":13091,"ĠDrop":13092,"Ġsci":13093,"Ġdispatch":13094,"pretty":13095,"ĠZeal":13096,"Ġconfirmed":13097,"Ġcapable":13098,"Children":13099,"åħ¥":13100,"Ġbanks":13101,"acterial":13102,"Ġmountain":13103,"circle":13104,"trim":13105,"Ġsaving":13106,"Ġhabit":13107,"ĠTen":13108,"ĠLive":13109,"ĠWord":13110,"izon":13111,"Ġtestcase":13112,"ĠStack":13113,"ENABLE":13114,"Ġfounded":13115,"ĠSystems":13116,"otted":13117,"Ġcustomer":13118,"Ġequipment":13119,"Ġcircle":13120,"Ġindividuals":13121,"å¼ı":13122,"ĠVietnam":13123,"ĠOliv":13124,"Ġunusual":13125,"sphinx":13126,"ĠSUMMARY":13127,">`":13128,"ifact":13129,"ĠDIGIT":13130,"Ġchip":13131,"ĠThus":13132,"compress":13133,"ESSION":13134,"Ġhardware":13135,"Ġrenderer":13136,"Ġexperi":13137,"ĠClasses":13138,"Ġgeom":13139,"Ġfriendship":13140,"operations":13141,"widgets":13142,"Ġfrequency":13143,"Available":13144,"Ġpurchase":13145,"During":13146,"Migration":13147,"oauth":13148,"Ġticket":13149,"Ġsurre":13150,"lee":13151,"chrome":13152,"ithmetic":13153,"termin":13154,"ĠNorm":13155,"ĠDat":13156,"ĠDick":13157,"ĠWASHINGTON":13158,"Ġ//$":13159,"udson":13160,"Ġkeyboard":13161,"encrypt":13162,"scene":13163,"splitext":13164,"Ġfailures":13165,"Generate":13166,"controls":13167,"havior":13168,"ĠMagic":13169,"noscript":13170,"Ġnewspaper":13171,"AX":13172,"Fi":13173,"Git":13174,"Lines":13175,"PAGE":13176,"middleware":13177,"çĤ":13178,"Ġsends":13179,"estring":13180,"ĠCapt":13181,"chart":13182,"ĠPromise":13183,"Ġorient":13184,"ctions":13185,"ĠHarr":13186,"too":13187,"modul":13188,"Ġanywhere":13189,"mox":13190,"Ġtransparent":13191,"ĠAdds":13192,"ĠBeijing":13193,"Ġpermutation":13194,"ournal":13195,"ĠQtCore":13196,"æĿ¥":13197,"Ġterritory":13198,"mg":13199,"Ġcrypt":13200,"ĠSen":13201,"ĠCub":13202,"ĠDa":13203,"Ġhence":13204,"ante":13205,"Ġdetailed":13206,"MPTY":13207,"Ġaxes":13208,"MSearch":13209,"åŃĲ":13210,"Ġmassive":13211,"variance":13212,"oggle":13213,"TYPES":13214,":<":13215,"Pane":13216,"UCT":13217,"will":13218,"wind":13219,"æµ":13220,"ĠØ":13221,"alion":13222,"Ġduplicate":13223,"Ġwinter":13224,"Ġmapper":13225,"urer":13226,"ctrine":13227,"irty":13228,"Ġwithdraw":13229,"Ġsegments":13230,"Ġlogged":13231,"Ġinitialized":13232,"Ġbigger":13233,"æĸĩä»¶":13234,"*.":13235,"Then":13236,"æı":13237,"ĠMatch":13238,"ĠNative":13239,"ESP":13240,"weights":13241,"apters":13242,"Ġinvoice":13243,"ĠFran":13244,"servable":13245,"Ġcreative":13246,"Ġutterly":13247,"Drop":13248,"don":13249,"Ñĩ":13250,"Ġcro":13251,"ilog":13252,"ĠAM":13253,"unused":13254,"ĠDog":13255,"ĠHaw":13256,"ulture":13257,"Ġchr":13258,"ĠKenn":13259,"Ġenemy":13260,"IDE":13261,"letter":13262,"Ġdeployment":13263,"ĠClub":13264,"Actions":13265,"MAIL":13266,"Ġimproved":13267,"Course":13268,"Gr":13269,"LINK":13270,"UX":13271,"distribution":13272,"{\"":13273,"**/":13274,"imizer":13275,"verb":13276,"ĠHand":13277,"athy":13278,"ordan":13279,"Ġopera":13280,"Ġfactors":13281,"Ġurban":13282,"destination":13283,"ĠCREATE":13284,"Kernel":13285,"Ġtip":13286,"atom":13287,"Ġrelying":13288,"Ġlift":13289,"ĠAv":13290,"constructor":13291,"ugs":13292,"ĠTherefore":13293,"Ġosv":13294,"Ġpassion":13295,"Ġemotions":13296,"Ġcrude":13297,"SPAN":13298,"Phone":13299,"di":13300,"Ġtiny":13301,"Ġpdf":13302,"Ġ#*":13303,"Ġgro":13304,"ritical":13305,"Ġtrailer":13306,"Ġsuperior":13307,"Ġcorpor":13308,"Enable":13309,"Ġperspective":13310,"shaller":13311,"Jo":13312,"hem":13313,"ĠBORDER":13314,"ĠEgypt":13315,"ĠProperties":13316,"~~~":13317,"CLI":13318,"ĠPlatform":13319,"WriteLine":13320,"ĠSwed":13321,"Black":13322,"Ġratings":13323,"Ġhundreds":13324,"Ġinnocent":13325,"Great":13326,"May":13327,"NORMAL":13328,"cn":13329,"scalar":13330,"Ġtc":13331,"around":13332,"ĠTro":13333,"ĠHo":13334,"Ġtypeof":13335,"ĠXml":13336,"cedure":13337,"Although":13338,"ĠClark":13339,"Ġnearby":13340,"ĠKeyword":13341,"2009":13342,"Ġselector":13343,"DEFINE":13344,"Condition":13345,"ĠCarey":13346,"Ġtournament":13347,"Abs":13348,"hat":13349,"har":13350,"ple":13351,"tri":13352,"worth":13353,"ione":13354,"ĠTajik":13355,"ĠCHECK":13356,"enders":13357,"resol":13358,"Ġranges":13359,"outs":13360,"Ġarc":13361,"rawler":13362,"ï¼Ī":13363,"Ġhumour":13364,"firstrow":13365,"Strategy":13366,"ĠChristopher":13367,"ĠRefer":13368,"Ġsessions":13369,"ĠZealand":13370,"MAC":13371,"Sensor":13372,"macro":13373,"yo":13374,"áº":13375,"Ġlu":13376,"ĠScal":13377,"igi":13378,"aki":13379,"Ġ37":13380,"Ġspring":13381,"ockey":13382,"ï¼ī":13383,"slider":13384,"partial":13385,"Ġsuppose":13386,"ĠSpatial":13387,"Linear":13388,"Ġspeaking":13389,"Ġsixth":13390,"Ġiteration":13391,"evin":13392,"Ġdisappointment":13393,"Matcher":13394,"æĪĳ":13395,"oxygen":13396,"lambda":13397,"pixel":13398,"eral":13399,"Ġfee":13400,"ĠBron":13401,"asts":13402,"Replace":13403,"colors":13404,"Ġconstraint":13405,"Ġserialize":13406,"arness":13407,"TextField":13408,"processing":13409,"Ġconfused":13410,"ĠâĶ":13411,"Ġtechnique":13412,"finished":13413,"Ġmkdir":13414,"abstractmethod":13415,"Holder":13416,"eah":13417,"ni":13418,"six":13419,"Ġcurrency":13420,"ĠAri":13421,"ĠFord":13422,"shutdown":13423,"Ġanymore":13424,"Ġmanually":13425,"Ġ--></":13426,"Ġlogical":13427,"Ġswap":13428,"Ġdemo":13429,"Ġlosses":13430,"According":13431,"Combo":13432,":/":13433,"BIN":13434,"KING":13435,"rices":13436,"łģ":13437,"asp":13438,"ĠSize":13439,"ĠPa":13440,"ĠDal":13441,"Ġchose":13442,"Ġarms":13443,"prompt":13444,"Ġextreme":13445,"subclass":13446,"noframe":13447,"Ġnowhere":13448,"Ġcausing":13449,"Loop":13450,"Decoder":13451,"ĠNavy":13452,"Ġbenefit":13453,"Ġsprintf":13454,"GINE":13455,"Writ":13456,"categories":13457,"dri":13458,"Ġghost":13459,"Ġaside":13460,"=\"'":13461,"Ġresidents":13462,"Ġdesire":13463,"Ġthank":13464,"vides":13465,"1111":13466,"Ġslasher":13467,"ĠParser":13468,"digit":13469,"Ġphotography":13470,"Finder":13471,"bundle":13472,"clip":13473,"Ġthorough":13474,"ĠFoo":13475,"ĠNorthern":13476,"iph":13477,"Ġspending":13478,"Ġaccum":13479,"Ġcontinu":13480,"Ġ];":13481,"icons":13482,"Ġbrothers":13483,"TagName":13484,"Ġdamaged":13485,"ANGU":13486,"Img":13487,"512":13488,"Created":13489,"PADDING":13490,"tile":13491,"Ġvotes":13492,"Ġunlik":13493,"Ġcompelling":13494,"issue":13495,"Ġadvice":13496,"supp":13497,"iko":13498,"Ġaccesskey":13499,"Ġofficers":13500,"Ġpayment":13501,"Worker":13502,"Begin":13503,"bp":13504,"uj":13505,"rename":13506,"ĠABC":13507,"ĠVert":13508,"Ġwearing":13509,"igned":13510,"Expected":13511,"ssue":13512,"Contact":13513,"checks":13514,"Ġpersonality":13515,"CLK":13516,"ierce":13517,"ographer":13518,"Ġdeclaration":13519,"Ġincident":13520,"Ġpathetic":13521,"Ġsatisfied":13522,"åĽŀ":13523,"ĠVisual":13524,"Ġzombies":13525,"Ġlimits":13526,"TL":13527,"bish":13528,"Ġrestart":13529,"Ġnick":13530,"ĠToo":13531,"Ġhelic":13532,"ĠInternal":13533,"Ġfunctools":13534,"ĠStone":13535,"Ġxmodule":13536,"ĠFiles":13537,"Ġinserted":13538,"ĠFinally":13539,"blog":13540,"catalog":13541,"zo":13542,"Ġfraction":13543,"ĠTP":13544,"ĠDistributed":13545,"ERN":13546,"Ġ49":13547,"creation":13548,"ĠArthur":13549,"Ġmarks":13550,"ampling":13551,"ĠPrincess":13552,"evaluate":13553,"invoke":13554,"ĠEntry":13555,"More":13556,"yy":13557,"zed":13558,"ç´":13559,"Ġpile":13560,"ĠCy":13561,"ĠRaw":13562,"ĠKim":13563,"Ġroutes":13564,"Ġ&#":13565,"awt":13566,"manage":13567,"lessly":13568,"Ġreleases":13569,"Ġalbums":13570,"Ġpreferred":13571,"MASK":13572,"vtk":13573,"Ġpray":13574,"elled":13575,"Ġtower":13576,"ridden":13577,"Ġagency":13578,"Ġdecades":13579,"optional":13580,"metry":13581,"äºİ":13582,"ArgumentParser":13583,"Consumer":13584,"ĠTechnologies":13585,"Ġunnecessary":13586,"\".<":13587,"CACHE":13588,"GC":13589,"creat":13590,"dater":13591,"ti":13592,"ĠDomin":13593,"ĠOs":13594,"ĠHero":13595,"ĠEst":13596,"Ġcompre":13597,"Ġdismiss":13598,"Ġpreview":13599,"Ġwhenever":13600,"colLast":13601,"MEM":13602,"Chain":13603,"imiter":13604,"Ġ...,":13605,"Lic":13606,"Site":13607,"Year":13608,"dynamic":13609,"Ġtired":13610,"ilton":13611,"ido":13612,"Ġdefense":13613,"than":13614,"ĠJason":13615,"Ġreceiving":13616,"Ġdifferences":13617,"swing":13618,"Ġhelpers":13619,"ĠLeon":13620,"projects":13621,"Ġdealing":13622,"Ġstreets":13623,"stocks":13624,"vetica":13625,"Ġxbmc":13626,"Br":13627,"Like":13628,"Tip":13629,"è¨":13630,"Ġhurt":13631,"ĠCA":13632,"exclude":13633,"ĠMachine":13634,"ectors":13635,"ĠWalk":13636,"INPUT":13637,"Ġoslo":13638,"Ġblind":13639,"Ġconfidence":13640,"Ġdevelopers":13641,"Commands":13642,"ĠKeep":13643,"Ġordinary":13644,"Ġdedicated":13645,"BAL":13646,"Ġws":13647,"Ġpa":13648,"Ġovert":13649,"ĠTri":13650,"ĠTai":13651,"Ġgithub":13652,"Ġexcess":13653,"Ġheap":13654,"okia":13655,"ĠKen":13656,"Ġdefaultdict":13657,"venio":13658,"Ġ128":13659,"restore":13660,"Executor":13661,"Ġfloating":13662,"ĠPalestin":13663,"cout":13664,"wt":13665,"¿½":13666,"ç¤":13667,"orph":13668,"ĠSER":13669,"olas":13670,"ĠCred":13671,"ewis":13672,"Ġrated":13673,"Ġkil":13674,"ichuan":13675,"Ġevening":13676,"ĠAnderson":13677,"Ġconfront":13678,"Ġposted":13679,"Filename":13680,"ĠBeautiful":13681,"Ġattacked":13682,"æľ¬":13683,"TODO":13684,"Ġlacks":13685,"getElementsBy":13686,"Ġhelicopt":13687,"#{":13688,"Est":13689,"delta":13690,"lot":13691,"Ġtribute":13692,"itors":13693,"Ġpandas":13694,"ĠSus":13695,"Ġstroke":13696,"ptime":13697,"setter":13698,"ĠJac":13699,"enery":13700,"shop":13701,"Ġtrag":13702,"geom":13703,"akespe":13704,"Why":13705,"ĠJourn":13706,"signals":13707,"urrence":13708,"Ġsuggests":13709,"Monitor":13710,"Ġphilosophy":13711,"Ġbasketball":13712,"Done":13713,"inventory":13714,"Ġcout":13715,"arc":13716,"segment":13717,"Ġgpio":13718,"aga":13719,"Ġimpressed":13720,"ĠFle":13721,"ressions":13722,"colFirst":13723,"ĠRequired":13724,"Ġawarded":13725,"å¾Ĺ":13726,"ĠPassword":13727,"Ġadvantage":13728,"RST":13729,"Score":13730,"lb":13731,"aser":13732,"ropy":13733,"Ġsear":13734,"Ġresolved":13735,"Ġroyal":13736,"Ġcolspan":13737,"Ġflaws":13738,"ĠAndroid":13739,"Ġbaseball":13740,"fullquote":13741,"SHA":13742,"Ġtears":13743,"âĢĶâĢĶ":13744,"latest":13745,"Ġaccurate":13746,"quickinfo":13747,"Lat":13748,"nie":13749,"pull":13750,"Ġinfer":13751,"Ġvac":13752,"___":13753,"ĠDid":13754,"ĠHart":13755,"ĠJenn":13756,"ĠVery":13757,"Ġstatistics":13758,"ICK":13759,"checker":13760,"THON":13761,"ĠMySQL":13762,"ĠIPv":13763,"ĠMean":13764,"Ġ========":13765,"ĠBrazil":13766,"writeln":13767,">);":13768,"ded":13769,"numpy":13770,"uent":13771,"Ļ¨":13772,"Ġtied":13773,"ĠTIME":13774,"ĠBag":13775,"emony":13776,"ĠDutch":13777,"Ġintense":13778,"Ġ44":13779,"ĠDevice":13780,"ĠTemp":13781,"DEFIN":13782,"ĠAssertionError":13783,"Lower":13784,"PASS":13785,"Since":13786,"WORK":13787,"thead":13788,"Ġslo":13789,"etter":13790,"Ġgentle":13791,"ĠSimp":13792,"ĠCalled":13793,"ĠMi":13794,"ĠBatt":13795,"ĠEc":13796,"pline":13797,"ĠThose":13798,"libs":13799,"Ġlaws":13800,"Ġsym":13801,"Ġeffectively":13802,"Interval":13803,"Ġidentified":13804,"Functions":13805,"Ġderiv":13806,"Ġcriticism":13807,"Ġrotate":13808,"Ġmental":13809,"Ġcombat":13810,"Ġclimax":13811,"Ġpilot":13812,"Focus":13813,"Mat":13814,"hu":13815,"pet":13816,"Ġrevol":13817,"rize":13818,"ĠLar":13819,"ĠBL":13820,"ĠBon":13821,"ĠHew":13822,"ĠJam":13823,"Ġrape":13824,"ENV":13825,"Ġamid":13826,"Ġopenstack":13827,"counts":13828,"DECL":13829,"tenant":13830,"requests":13831,"normalize":13832,"TEXT":13833,"bles":13834,"ez":13835,"xff":13836,"}\\":13837,"è½":13838,"Ġfuel":13839,"itches":13840,"Ġpc":13841,"asingly":13842,"ĠFollowing":13843,"Ġcreator":13844,"Ġsimpl":13845,"Ġfriendly":13846,"Ġ###############################################################################":13847,"scriber":13848,"Ġsafety":13849,">',":13850,"nis":13851,"pis":13852,"Ġathlet":13853,"Ġredis":13854,"Ġearnings":13855,"ĠCre":13856,"Ġvideos":13857,"ĠDAT":13858,"Ġ$;":13859,"keywords":13860,"Ġoverwrite":13861,"Ġtransformation":13862,"ĠHoward":13863,"ĠPlot":13864,"ĠSwitch":13865,"Ġ----------------------------------------":13866,"Ġscientific":13867,"Ġsurrounding":13868,"iques":13869,"crypto":13870,"icator":13871,"Ġil":13872,"Ġnarrow":13873,"ĠSquare":13874,"Ġconsequ":13875,"Ġpromp":13876,"Ġ01":13877,"usted":13878,"Ġassault":13879,"Ġdiss":13880,"imited":13881,"ACING":13882,"Ġindexes":13883,"Ġpainful":13884,"Ġangry":13885,"çĶŁ":13886,"ĠTwilight":13887,"ĠQueen":13888,"Ġunbelievable":13889,"\"))":13890,"Middleware":13891,"Yes":13892,"åĻ¨":13893,"Ġsd":13894,"Ġdynam":13895,"Ġmongo":13896,"ĠFloat":13897,"ĠFestival":13898,"Ġrs":13899,"ocomp":13900,"achel":13901,"Ġpolicies":13902,"Ġmedium":13903,"Ġ?>\"":13904,"reply":13905,"Processing":13906,"ĠÃł":13907,"OBJECT":13908,"Ġalphabet":13909,"!=":13910,"PHP":13911,"given":13912,"Ġtill":13913,"Ġstone":13914,"ĠPORT":13915,"__)":13916,"Ġexposed":13917,"neighb":13918,"interpre":13919,"Ġsexy":13920,"Ġqueen":13921,"Ġdriving":13922,"Ġplatforms":13923,"Ġelev":13924,"BooleanField":13925,"assertNotEqual":13926,"æŀľ":13927,"Ip":13928,"Just":13929,"eness":13930,"eli":13931,"ĠSV":13932,"techn":13933,"protected":13934,"Chart":13935,"Ġcalc":13936,"Ġsingles":13937,"Ġcostumes":13938,"Ġgrab":13939,"Ġopposition":13940,"ĠRoger":13941,"Ġnominated":13942,"Bal":13943,"Direction":13944,"MC":13945,"Virtual":13946,"_->":13947,"gpu":13948,"gateway":13949,"âĶ":13950,"Ġpse":13951,"Ġmu":13952,"estone":13953,"throw":13954,"ĠDummy":13955,"Ġunderst":13956,"Ġnobody":13957,"ĠRevision":13958,"Ġoldest":13959,"Ġexcuse":13960,"Ġtwists":13961,"Ġdeaths":13962,"Ġdirname":13963,"ĠHelper":13964,"Ġdeeply":13965,"HashMap":13966,"Ġsurprisingly":13967,"wildfly":13968,"éĿ¢":13969,"ðĳ£":13970,"Join":13971,"Ġtack":13972,"Ġmimet":13973,"ĠSW":13974,"ĠDie":13975,"getvalue":13976,"Ġstruck":13977,"Ġcollected":13978,"Changes":13979,"POS":13980,"Ġrealized":13981,"Ġgrat":13982,"printStackTrace":13983,"Ġalongside":13984,"Ġmetal":13985,"Ġvolatile":13986,"Ġcinematic":13987,"randint":13988,"About":13989,"Signal":13990,"Drawing":13991,"Packet":13992,"Ġinjured":13993,"Switch":13994,"ĠPacific":13995,"Fac":13996,"çº":13997,"Ġholes":13998,"Ġ'../../":13999,"ĠAB":14000,"chat":14001,"ĠPrem":14002,"ĠFar":14003,"Ġwhitespace":14004,"ĠRom":14005,"ddie":14006,"Ġ==>":14007,"ftp":14008,"readlines":14009,"ĠChief":14010,"Ġpartners":14011,"cols":14012,"conditions":14013,"Separ":14014,"Ġmarkets":14015,"Checked":14016,"Ġsentiment":14017,"Ġcharged":14018,"Ġappointed":14019,"Ġsenior":14020,".',":14021,"CMD":14022,"dummy":14023,"mx":14024,"qty":14025,"ç¼":14026,"ĠTour":14027,"Ġstuck":14028,"quires":14029,"Ġarmed":14030,"Ġscenery":14031,"Theme":14032,"Ġsigns":14033,"Operations":14034,"Ġsilver":14035,"Decimal":14036,"ç½®":14037,"FILES":14038,"Factor":14039,"Press":14040,"iscal":14041,"Ġpm":14042,"ilst":14043,"Ġgri":14044,"chars":14045,"ĠMs":14046,"Ġannotation":14047,"ĠGrid":14048,"Ġyards":14049,"Ġspecifies":14050,"vertical":14051,"formatter":14052,"Ġterrific":14053,"ĠPolice":14054,"Ġrarely":14055,"Ġhaun":14056,"FUNCTION":14057,"æİ¥":14058,"Ali":14059,"nate":14060,"pic":14061,"Ġsir":14062,"Ġft":14063,"Ġdad":14064,"Ġrend":14065,"Ġharm":14066,"ĠTalk":14067,"ĠSR":14068,"Ġugettext":14069,"Ġvary":14070,"abases":14071,"codec":14072,"manifest":14073,"Modified":14074,"mega":14075,"Ġcommitted":14076,"disconnect":14077,"Classifier":14078,"Ġartistic":14079,"ĠManager":14080,"Running":14081,"={'":14082,"ĠVALIGN":14083,"Extractor":14084,"Ġugly":14085,"!'":14086,"Break":14087,"gre":14088,"Ġcourses":14089,"utter":14090,"Ġthumbnail":14091,"ĠRh":14092,"ĠOw":14093,"ensing":14094,"creens":14095,"Ġmini":14096,"ĠXP":14097,"Ġsurvive":14098,"Ġbelieves":14099,"åıĳ":14100,"ĠSTATE":14101,"ĠTransform":14102,"ĠDefaults":14103,"Observer":14104,"ĠExtension":14105,"Ġbringing":14106,"Ġscalar":14107,"akespeare":14108,"/{":14109,">%":14110,"CAL":14111,"vendor":14112,"æĬ":14113,"Ġtie":14114,"Ġancest":14115,"Ġ-&":14116,"ĠOk":14117,"ĠElect":14118,"concurrent":14119,"Ġlover":14120,"okies":14121,"ĠKevin":14122,"RAN":14123,"ĠGenerator":14124,"Ġoffensive":14125,"azel":14126,"ika":14127,"removeClass":14128,"CCC":14129,"Ġinvestment":14130,"Ġbinding":14131,"ĠDestiny":14132,"Lexer":14133,"Mult":14134,"TIM":14135,"joint":14136,"eda":14137,"Ġbundle":14138,"ĠSeveral":14139,"ĠRule":14140,"ĠWeek":14141,"Ġelseif":14142,"attrib":14143,"ObjectName":14144,"Ġpersonally":14145,"Ġ120":14146,"Ġinitialization":14147,"ĠComputer":14148,"Interrupt":14149,"ãĤĭ":14150,"Ġaffair":14151,"ĠRecords":14152,"Ġliteral":14153,"globals":14154,"Ġcomedies":14155,"Delta":14156,"Ra":14157,"cv":14158,"hint":14159,"het":14160,"elines":14161,"Ġma":14162,"utc":14163,"ppers":14164,"Ġ2019":14165,"Ġclothes":14166,"measure":14167,"Ġsurvey":14168,"Ġposts":14169,"repare":14170,"ĠÐ²":14171,"Ġincreasingly":14172,"Ġstrongly":14173,"dependencies":14174,"existent":14175,"SUCCESS":14176,"Ġdisease":14177,"ĠDouglas":14178,"jb":14179,"vide":14180,"erator":14181,"Ġsi":14182,"Ġbow":14183,"Ġreput":14184,"Ġthick":14185,"ĠSure":14186,"ifts":14187,"ĠBASE":14188,"ĠWindow":14189,"ĠWales":14190,"acquire":14191,"Ġoutfile":14192,"Ġ56":14193,"************************":14194,"ĠForces":14195,"Ġretval":14196,"Delegate":14197,"Ġconfusing":14198,"Ġloads":14199,"ĠEnable":14200,"Ġ256":14201,"ĠSymbol":14202,"ĠCalculate":14203,"decoration":14204,"=-=-=-=-":14205,"ĠBruce":14206,"aux":14207,"Ġsid":14208,"Ġdread":14209,"igan":14210,"quad":14211,"quarters":14212,"ĠMIN":14213,"ĠREST":14214,"angles":14215,"ĠHuman":14216,"..\">":14217,"Ġchase":14218,"prog":14219,"ICH":14220,"letes":14221,"Ġregistration":14222,"Ġdelivers":14223,"ĠReserve":14224,"Asset":14225,"installed":14226,"SPACING":14227,"gorithms":14228,"Tr":14229,"Zero":14230,"zab":14231,"Ġcable":14232,"ĠEmpty":14233,"develop":14234,"ITS":14235,"stron":14236,"Ġdistingu":14237,"Ġpoem":14238,"ĠÂ°":14239,"Ġplanning":14240,"urtle":14241,"ĠDecimal":14242,"Ġratio":14243,"ĠKorean":14244,"oliday":14245,"ĠRyan":14246,"Multiple":14247,"Na":14248,"Pal":14249,"istor":14250,"ĠFred":14251,"Ġnotable":14252,"ĠDirectory":14253,"ĠGrant":14254,"Ġloses":14255,"parsers":14256,"ellite":14257,"Ġunivers":14258,"Ġwear":14259,"rawl":14260,"POINT":14261,"Ġedited":14262,"what":14263,"ĠBytes":14264,"Ġeconom":14265,"Ġpresidential":14266,"MBER":14267,"Price":14268,"Ġaimed":14269,"Ġfavourite":14270,"ĠPublished":14271,"Ġexercise":14272,"ä½¿çĶ¨":14273,"Sys":14274,"tle":14275,"vv":14276,"éĺ":14277,"Ġfh":14278,"Ġfut":14279,"Ġfright":14280,"algorithm":14281,"Ġgar":14282,"ĠCould":14283,"Ġunused":14284,"ixmap":14285,"ĠChanges":14286,"subNav":14287,"ĠAndre":14288,"Ġtriangle":14289,"Ġofficially":14290,"Weight":14291,"Ġcreature":14292,"certificate":14293,"Ġbeautifully":14294,"Ġtranslated":14295,"ĠWSGI":14296,"Fill":14297,"maker":14298,"æ¨":14299,"Ġinfinite":14300,"Ġ\"&":14301,"Ġglass":14302,"Ġstations":14303,"uls":14304,"ĠDanny":14305,"Ġpeer":14306,".\")":14307,"news":14308,"Regexp":14309,"ĠÂ£":14310,"Ġwondering":14311,"ĠCommunic":14312,"untu":14313,"Rows":14314,"Timestamp":14315,"'\"},":14316,"parametrize":14317,":**":14318,"Foundation":14319,"GROUP":14320,"nl":14321,"inel":14322,"Ġcou":14323,"Ġfra":14324,"Ġfprintf":14325,"Ġasc":14326,"ĠFALSE":14327,"Ġinterrupt":14328,"fluid":14329,"Ġlocals":14330,"Ġabsurd":14331,"Encode":14332,"sections":14333,"Ġidentical":14334,"Ġsidebar":14335,"ĠArticle":14336,"Ġmotor":14337,"________________":14338,"Cleanup":14339,"Ġabandoned":14340,"ĠYankees":14341,"800":14342,">:":14343,"NL":14344,"TK":14345,"mid":14346,"vance":14347,"water":14348,"Ł¥":14349,"Ġske":14350,"Ġsav":14351,"Ġsans":14352,"Ġsudo":14353,"enium":14354,"Ġpuzz":14355,"Ġips":14356,"ĠPsi":14357,"ĠMC":14358,"ordon":14359,"ĠassertTrue":14360,"Ġworkflow":14361,"Ġ1996":14362,"Ġevaluate":14363,"Ġpleasure":14364,"ĠForti":14365,"receive":14366,"ĠTRUE":14367,"Ġacknow":14368,"]))":14369,"may":14370,"social":14371,"Ġcf":14372,"Ġwides":14373,"Ġwelcome":14374,"olves":14375,"ĠChen":14376,"ĠOAuth":14377,"acters":14378,"Ġplants":14379,"Ġhomepage":14380,"Ġsearching":14381,"loyee":14382,"Ġdaemon":14383,"ĠLOGGER":14384,"ĠSmart":14385,"å°±":14386,"ĠOperation":14387,"SYS":14388,"ĠStock":14389,"Ġinstructions":14390,"'+":14391,"çľ":14392,"olph":14393,"ĠHold":14394,"deps":14395,"Ġunf":14396,"Ġquit":14397,"Ġspawn":14398,"uality":14399,"Ġprogramming":14400,"ĠSHA":14401,"TOK":14402,"Ġasking":14403,"ĠCELLPADDING":14404,"ĠCELLSPACING":14405,"getElementsByTagName":14406,"HD":14407,"aque":14408,"bec":14409,"zan":14410,"Ġ><":14411,"Ġsf":14412,"Ġforth":14413,"Ġgulp":14414,"ĠSSH":14415,"ĠLyn":14416,"=\"./":14417,"Ġimportance":14418,"ĠMicro":14419,"ĠRol":14420,"Ġrt":14421,"mlink":14422,"External":14423,"Ġsubset":14424,"Ġearliest":14425,"Ġhighway":14426,"Ġlaughable":14427,"ĠOverall":14428,"ĠSPRL":14429,"ĠAlexander":14430,"ĠStephen":14431,"ĠFederer":14432,"Bounds":14433,"Face":14434,"oop":14435,"Ġpushed":14436,"Ġhang":14437,"ĠSem":14438,"aggregate":14439,"ĠNa":14440,"ĠJen":14441,"criptors":14442,"Ġbreaking":14443,"Ġseemingly":14444,"FLAG":14445,"ĠAirport":14446,"Ġpremier":14447,"Ġobserved":14448,"mal":14449,"atia":14450,"Ġnu":14451,"ĠSaint":14452,"irk":14453,"Ġjar":14454,"apple":14455,"Ġ404":14456,"vertheless":14457,"Ġguilty":14458,"ADATA":14459,"Ġbrand":14460,"Ġmonkey":14461,"COM":14462,"Analy":14463,"ä»£":14464,"Ġdecline":14465,"ä½ł":14466,"ĠAccept":14467,"ĠConsider":14468,"600":14469,"GS":14470,"GUI":14471,"persistence":14472,"squ":14473,"å»":14474,"Ġí":14475,"alter":14476,"Ġdated":14477,"ela":14478,"amaz":14479,"Ġ\"\".":14480,"adjust":14481,"efully":14482,"ĠSoci":14483,"ĠAk":14484,"irms":14485,"ĠBurn":14486,"ĠBox":14487,"reek":14488,"Ġ65":14489,"Ġprincipal":14490,"Ġinvestigation":14491,"Ġimagination":14492,"Ġwooden":14493,"Ġtragedy":14494,"ĠJennifer":14495,"PP":14496,"large":14497,"Ġaux":14498,"urb":14499,"Ġthrew":14500,"Ġll":14501,"ĠSound":14502,"ĠFactory":14503,"ĠRod":14504,"toEqual":14505,"Ġintensity":14506,"ĠAnth":14507,"ĠSetting":14508,"Ġrefers":14509,"packet":14510,"ĠBeat":14511,"anchor":14512,"Nullable":14513,"semble":14514,"communicate":14515,"æĥ":14516,"Ġsink":14517,"Ġmyth":14518,"ĠTyp":14519,"ĠSin":14520,"Ġva":14521,"ĠLead":14522,"iframe":14523,"ĠGtk":14524,"ĠJordan":14525,"ĠChrome":14526,"Ġtexts":14527,"rence":14528,"DOWN":14529,"Series":14530,"specs":14531,"constraint":14532,"Ġnegoti":14533,"å¤ļ":14534,"Decode":14535,"ĠValidate":14536,"Ġhousing":14537,"Ġantibiotics":14538,"Based":14539,"YR":14540,"mess":14541,"zi":14542,"Ġdp":14543,"Ġnaked":14544,"ĠTk":14545,"igs":14546,"iments":14547,"ĠNUM":14548,"ĠDi":14549,"ddt":14550,"::$":14551,"Ġ1940":14552,"DEL":14553,"ĠRemarks":14554,"Ġrespective":14555,"Ġboyfriend":14556,"Ġfunds":14557,"Month":14558,"See":14559,"easy":14560,"ĠÑģ":14561,"Ġful":14562,"Ġgn":14563,"Ġgateway":14564,"Ġans":14565,"Ġ////":14566,"ĠKerry":14567,"Ġdisplays":14568,"Ġmetres":14569,"Paths":14570,"Ġpopulate":14571,"255":14572,"Ġlanding":14573,"Ġscientist":14574,"Binding":14575,"NGTH":14576,"ĠFramework":14577,"bre":14578,"dup":14579,"fixtures":14580,"jet":14581,"alo":14582,"Ġdy":14583,"Ġdying":14584,"Ġbs":14585,"Ġrein":14586,"Ġln":14587,"Ġles":14588,"umbs":14589,"through":14590,"ĠDist":14591,"Ġhearing":14592,"ccer":14593,"modify":14594,"ĠExecute":14595,"workers":14596,"White":14597,"ĠShakespeare":14598,"999":14599,"character":14600,"radio":14601,"=\"../..\">":14602,"è¿Ľ":14603,"Geo":14604,"Ġresponsib":14605,"Ġconsistent":14606,"èĢħ":14607,"jor":14608,"journal":14609,"lights":14610,"Ġreaching":14611,"Ġhired":14612,"Ġbeer":14613,"ĠBern":14614,"getattr":14615,"ipeline":14616,"Errorf":14617,"Ġreceives":14618,"arrays":14619,"Segment":14620,"renderer":14621,
[...]
