{"<PAD>":0,"<UNK>":1,"<START>":2,"<END>":3,"!":4,"\"":5,"#":6,"$":7,"%":8,"&":9,"'":10,"(":11,")":12,"*":13,"+":14,",":15,"-":16,".":17,"/":18,"0":19,"1":20,"2":21,"3":22,"4":23,"5":24,"6":25,"7":26,"8":27,"9":28,":":29,";":30,"<":31,"=":32,">":33,"?":34,"@":35,"A":36,"B":37,"C":38,"D":39,"E":40,"F":41,"G":42,"H":43,"I":44,"J":45,"K":46,"L":47,"M":48,"N":49,"O":50,"P":51,"Q":52,"R":53,"S":54,"T":55,"U":56,"V":57,"W":58,"X":59,"Y":60,"Z":61,"[":62,"\\":63,"]":64,"^":65,"_":66,"`":67,"a":68,"b":69,"c":70,"d":71,"e":72,"f":73,"g":74,"h":75,"i":76,"j":77,"k":78,"l":79,"m":80,"n":81,"o":82,"p":83,"q":84,"r":85,"s":86,"t":87,"u":88,"v":89,"w":90,"x":91,"y":92,"z":93,"{":94,"|":95,"}":96,"~":97,"¡":98,"¢":99,"£":100,"¤":101,"¥":102,"¦":103,"§":104,"¨":105,"©":106,"ª":107,"«":108,"¬":109,"®":110,"¯":111,"°":112,"±":113,"²":114,"³":115,"´":116,"µ":117,"¶":118,"·":119,"¸":120,"¹":121,"º":122,"»":123,"¼":124,"½":125,"¾":126,"¿":127,"À":128,"Á":129,"Â":130,"Ã":131,"Ä":132,"Å":133,"Æ":134,"Ç":135,"È":136,"É":137,"Ê":138,"Ë":139,"Ì":140,"Í":141,"Î":142,"Ï":143,"Ð":144,"Ñ":145,"Ò":146,"Ó":147,"Ô":148,"Õ":149,"Ö":150,"×":151,"Ø":152,"Ù":153,"Ú":154,"Û":155,"Ü":156,"Ý":157,"Þ":158,"ß":159,"à":160,"á":161,"â":162,"ã":163,"ä":164,"å":165,"æ":166,"ç":167,"è":168,"é":169,"ê":170,"ë":171,"ì":172,"í":173,"î":174,"ï":175,"ð":176,"ñ":177,"ò":178,"ó":179,"ô":180,"õ":181,"ö":182,"÷":183,"ø":184,"ù":185,"ú":186,"û":187,"ü":188,"ý":189,"þ":190,"ÿ":191,"Ā":192,"ā":193,"Ă":194,"ă":195,"Ą":196,"ą":197,"Ć":198,"ć":199,"Ĉ":200,"ĉ":201,"Ċ":202,"ċ":203,"Č":204,"č":205,"Ď":206,"ď":207,"Đ":208,"đ":209,"Ē":210,"ē":211,"Ĕ":212,"ĕ":213,"Ė":214,"ė":215,"Ę":216,"ę":217,"Ě":218,"ě":219,"Ĝ":220,"ĝ":221,"Ğ":222,"ğ":223,"Ġ":224,"ġ":225,"Ģ":226,"ģ":227,"Ĥ":228,"ĥ":229,"Ħ":230,"ħ":231,"Ĩ":232,"ĩ":233,"Ī":234,"ī":235,"Ĭ":236,"ĭ":237,"Į":238,"į":239,"İ":240,"ı":241,"Ĳ":242,"ĳ":243,"Ĵ":244,"ĵ":245,"Ķ":246,"ķ":247,"ĸ":248,"Ĺ":249,"ĺ":250,"Ļ":251,"ļ":252,"Ľ":253,"ľ":254,"Ŀ":255,"ŀ":256,"Ł":257,"ł":258,"Ń":259,"in":260,"er":261,"Ġt":262,"on":263,"re":264,"at":265,"se":266,"st":267,"or":268,"Ġa":269,"en":270,"he":271,"Ġc":272,"le":273,"Ġi":274,"al":275,"de":276,"an":277,"ar":278,"Ġ=":279,"Ġf":280,"ion":281,"it":282,"Ġthe":283,"Ġp":284,"me":285,"ct":286,"ou":287,"Ġs":288,"ing":289,"ic":290,"--":291,"ss":292,"ge":293,"ro":294,"Ġre":295,"Ġw":296,"Ġo":297,"Ġb":298,"Ġin":299,"ed":300,"Ġn":301,"ent":302,"Ġm":303,"ce":304,"is":305,"mp":306,"la":307,"Ġ'":308,"sel":309,"nd":310,"self":311,"ur":312,"Ġ\"":313,"ut":314,"lo":315,"Ġ#":316,"Ġd":317,"Ġe":318,"Ġ*":319,"Ġ<":320,"il":321,"ri":322,"Ġ(":323,"es":324,");":325,"Ġto":326,"Ġ{":327,"Ġth":328,"ame":329,"**":330,"Ġof":331,"ad":332,"id":333,"Ġh":334,"li":335,"ue":336,"Ġ}":337,"ot":338,"Ġde":339,"ĠT":340,"ate":341,"pe":342,"ol":343,"ra":344,"ĠS":345,"()":346,"Ġv":347,"=\"":348,"th":349,"Ġ/":350,"Ġand":351,"ul":352,"ch":353,"Ġself":354,"Ġu":355,"te":356,"ation":357,"ort":358,"----":359,"ck":360,"pt":361,"ĠC":362,"el":363,"as":364,"##":365,"Ġst":366,"ĠA":367,"Ġis":368,"==":369,"Ġif":370,"ig":371,"get":372,"urn":373,"Ġfor":374,"',":375,"turn":376,"ĠI":377,"age":378,"ode":379,"ter":380,"iv":381,"un":382,"om":383,"):":384,"et":385,"ction":386,"Ġcon":387,"um":388,"od":389,"lass":390,"Ġreturn":391,"ver":392,"ile":393,"Ġ1":394,"ĠL":395,"xt":396,"Ġdef":397,"ab":398,"Ġg":399,"ĠP":400,"ub":401,"</":402,"nt":403,"Ġ0":404,"Ġimp":405,"ith":406,"ist":407,"ap":408,"qu":409,"ers":410,"00":411,"ly":412,"con":413,"ht":414,"ew":415,"set":416,"ir":417,"op":418,"tr":419,"av":420,"Ġ[":421,"sp":422,"\">":423,"ype":424,"Ġbe":425,"am":426,"ĠM":427,"rom":428,"ĠF":429,"ĠN":430,"ke":431,"ow":432,"end":433,"Ġ-":434,"ata":435,"Ġ//":436,"****":437,"ert":438,"if":439,"us":440,"Ġimport":441,"__":442,"Ġclass":443,"ect":444,"and":445,"ĠR":446,"one":447,"Ġ$":448,"Ġl":449,"ment":450,"('":451,"est":452,"int":453,"ult":454,"out":455,"\",":456,"Ġthat":457,"name":458,"lic":459,"Ġit":460,"),":461,"iz":462,"ption":463,"ĠB":464,"\"\"":465,"ĠD":466,"ine":467,"Ġex":468,"Ġ2":469,"--------":470,"ase":471,"ĠG":472,"Ġor":473,"our":474,"Ġfrom":475,"Ġy":476,"Ġwith":477,"ay":478,"Ġthis":479,"(\"":480,"..":481,"####":482,"ath":483,"able":484,"ore":485,"====":486,"ĠO":487,"Ġon":488,"Ġnot":489,"Ġwh":490,"Ġpro":491,"->":492,"':":493,"))":494,"Ġse":495,"ĠThe":496,"ta":497,"Ġas":498,"Ġ+":499,"ĠH":500,"art":501,"ime":502,"alue":503,"Ġr":504,"ĠE":505,"ĠW":506,"Ġan":507,"orm":508,"im":509,"em":510,"sc":511,"Ġ@":512,"up":513,"omp":514,"ser":515,"ack":516,"ject":517,"Ġal":518,"ure":519,"all":520,"rue":521,"ass":522,"ror":523,"to":524,"')":525,"str":526,"ang":527,"are":528,"ire":529,"Ġlo":530,"sh":531,"ublic":532,"In":533,"']":534,"Ġ</":535,"ac":536,"ord":537,"Ġ:":538,"ity":539,"ER":540,"ip":541,"ld":542,"Ġme":543,"ost":544,"gs":545,"os":546,"Ġli":547,"lu":548,"Ġ\"\"\"":549,"ff":550,"ize":551,"::":552,"Ġ.":553,"ma":554,"put":555,"iel":556,"Ġch":557,"Ġby":558,"ve":559,"ial":560,"oc":561,"ON":562,"ield":563,"par":564,"rou":565,"ĠU":566,"Ġname":567,"ere":568,"pro":569,"['":570,"text":571,"//":572,"IN":573,"ance":574,"que":575,"Ġ%":576,"Ġ==":577,"ry":578,"rib":579,"ind":580,"key":581,"ref":582,"Re":583,"Con":584,"Ġ_":585,"ext":586,"fa":587,"ense":588,"UR":589,"../":590,"ex":591,"Ġat":592,"ml":593,"Ġsh":594,"ice":595,"********":596,"oo":597,"form":598,"ill":599,"Ġstr":600,"Ġ*/":601,"unction":602,"bject":603,"div":604,"Ġnew":605,"ies":606,"ant":607,"();":608,"Ġj":609,"Ġma":610,"ule":611,"Ġpublic":612,"odel":613,"fig":614,"dd":615,"ite":616,"._":617,"pp":618,"omm":619,"Ġar":620,"'s":621,"\")":622,"Ġhe":623,"vi":624,"icense":625,"AR":626,"Ġget":627,"Ġso":628,"ive":629,"ory":630,"ght":631,"Ġare":632,"ble":633,"ft":634,"ary":635,"ave":636,"alse":637,"lay":638,"Ġwas":639,"IT":640,"ated":641,"Ġtest":642,"file":643,"app":644,"ount":645,"Ġ`":646,"ag":647,"type":648,"Ġres":649,"><":650,"Ġuse":651,"ES":652,"ource":653,"ener":654,"tring":655,"ise":656,"data":657,"br":658,"Ġ&":659,"add":660,"port":661,"Ġfile":662,"Ġel":663,"ribut":664,"Ġint":665,"ild":666,"ans":667,"St":668,"path":669,"cess":670,"ray":671,"########":672,"ĠV":673,"ard":674,"OR":675,"ĠJ":676,"ĠTh":677,"ange":678,"quest":679,"ull":680,"ign":681,"ll":682,"Ġset":683,"low":684,"Ġk":685,"ition":686,"ould":687,"----------------":688,"ust":689,"Ġelse":690,"Ġyou":691,"oid":692,").":693,"val":694,"pre":695,"ĠIn":696,"],":697,"ĠLicense":698,"act":699,"URL":700,"ork":701,"ph":702,"uct":703,"clu":704,"Ġle":705,"ree":706,"========":707,"row":708,"01":709,"vent":710,"atch":711,"IL":712,"ber":713,"test":714,"res":715,"Ġ3":716,"dex":717,"qual":718,"di":719,"ong":720,"AT":721,"fo":722,"Ġun":723,"ript":724,"code":725,"Ġdata":726,"odule":727,"rint":728,"assert":729,"rror":730,"ms":731,"ssion":732,"></":733,"per":734,"Ġfunction":735,"EN":736,"ink":737,"ded":738,"ens":739,"ight":740,"ec":741,"Ġ)":742,"Ġcomp":743,"amp":744,"='":745,"che":746,"MA":747,"../../":748,"opy":749,"nder":750,"Error":751,"Ġdo":752,"param":753,"url":754,"Ġcan":755,"Ġout":756,"Ġtype":757,"Name":758,"ator":759,"cre":760,"bu":761,"lement":762,"right":763,"ssage":764,"html":765,"vice":766,"yp":767,"angu":768,"this":769,"anguage":770,"ĠNone":771,"Ġass":772,"Ex":773,"Ġwe":774,"ix":775,"ne":776,"ain":777,"bo":778,"\":":779,"ound":780,"Ġstat":781,"tent":782,"pec":783,"col":784,"ument":785,"Ġen":786,"gin":787,"Ġne":788,"time":789,"Ġ__":790,"Ġla":791,"error":792,"Ġvoid":793,"date":794,"def":795,"ast":796,"ception":797,"lock":798,"roup":799,"Ġvalue":800,"ence":801,"Ġ\\":802,"Ġhref":803,"Ġhave":804,"Pro":805,"Ġvar":806,"Ġ!":807,"span":808,"SE":809,"Ġ,":810,"ak":811,"own":812,"ob":813,"Ġx":814,"AN":815,"ther":816,"ings":817,"so":818,"ep":819,"Ġtrue":820,"clude":821,"Ġhas":822,"Ġpar":823,"ĠK":824,"read":825,"uth":826,"ery":827,"ST":828,"cted":829,"itle":830,"Ġ/*":831,"gg":832,"thod":833,"ersion":834,"Ġ|":835,"list":836,"value":837,"Ġbut":838,"Type":839,"inal":840,"AL":841,"Ġconst":842,"mo":843,"td":844,"ache":845,"ich":846,"ader":847,"po":848,"ace":849,"Ġ>":850,"ome":851,"RE":852,"onse":853,"tain":854,"Ġend":855,"ations":856,"ail":857,"Ġtime":858,"ual":859,"urre":860,"stance":861,"Ġwill":862,"String":863,"Ġsc":864,"les":865,"ĠRe":866,"ĠThis":867,"args":868,"user":869,"Ġall":870,"quire":871,"Ġid":872,"Ġ=>":873,"yst":874,"line":875,"Ġcol":876,"ide":877,"Ġ--":878,"UT":879,"Ġpre":880,"Ġ/**":881,"])":882,"Ġup":883,"ID":884,"Ġmo":885,"eng":886,"Ġper":887,"rit":888,"Ġpri":889,"arch":890,"Ġresult":891,"lient":892,"ware":893,"ys":894,"Ġ4":895,"TI":896,"use":897,"Ġus":898,"Ġassert":899,"Equal":900,"min":901,"tern":902,"util":903,"log":904,"True":905,"////":906,"ystem":907,"Id":908,"Ġfil":909,"son":910,"Ġrel":911,"class":912,"der":913,"gra":914,"cept":915,"Test":916,"size":917,"****************":918,"ava":919,"irst":920,"cc":921,"List":922,"Ġprint":923,"ĠY":924,"\");":925,"led":926,"ommand":927,"($":928,"ool":929,"Ġra":930,"AS":931,"tt":932,"emp":933,"Ġbu":934,"ark":935,"model":936,"Ġser":937,"ptions":938,"ell":939,"over":940,"ask":941,"ia":942,"Ġval":943,"urrent":944,"umber":945,"ĠLanguage":946,"'t":947,"pert":948,"LE":949,"Ġunder":950,"ical":951,"istribut":952,"32":953,"Ġlist":954,"rite":955,"mb":956,"ok":957,"comp":958,"Ġ**":959,"Res":960,"we":961,"Ġdis":962,"string":963,"ues":964,"Ġadd":965,"ont":966,"Ch":967,"db":968,"Ġent":969,"ress":970,"heck":971,"ach":972,"fer":973,"Ġstatic":974,"rc":975,"Ġcre":976,"UL":977,"Ġab":978,"ength":979,"Ġsu":980,"ates":981,"vate":982,"init":983,"dir":984,"irect":985,"ns":986,"ific":987,"field":988,"Ġone":989,"fault":990,"Ġ5":991,"Ġwhich":992,"load":993,"config":994,"lect":995,"ĠSt":996,"arget":997,"Ġ!=":998,"back":999,"loc":1000,"mit":1001,"Ġkey":1002,"Ġchar":1003,"ous":1004,"De":1005,"Ġstring":1006,"Ġnull":1007,"gh":1008,"iven":1009,"ftware":1010,"include":1011,"Ġapp":1012,"late":1013,"yth":1014,"imp":1015,"idth":1016,"sed":1017,"tem":1018,"ses":1019,"iew":1020,"Ġtry":1021,"ault":1022,"Se":1023,"og":1024,"Ġsup":1025,"sponse":1026,"oin":1027,"10":1028,"word":1029,"work":1030,"ton":1031,"bel":1032,"Ġversion":1033,"stat":1034,"ription":1035,"\"><":1036,"script":1037,"ifi":1038,"not":1039,"item":1040,"Data":1041,"Ġmore":1042,"mage":1043,"Ġos":1044,"ME":1045,"Field":1046,"ors":1047,"adi":1048,"index":1049,"DE":1050,"nc":1051,"ning":1052,"ie":1053,"err":1054,"Ġno":1055,"().":1056,"################":1057,"rame":1058,"ick":1059,"any":1060,"ĠSe":1061,"ackage":1062,"loat":1063,"Ġsub":1064,"Ġspec":1065,"].":1066,"ey":1067,"Ġcont":1068,"assertEqual":1069,"())":1070,"px":1071,"Ġro":1072,"None":1073,"ify":1074,"ook":1075,"EMA":1076,"Ġrequire":1077,"Ġdefault":1078,"Ġprivate":1079,"append":1080,"info":1081,"Ġtr":1082,"Ġhis":1083,"Ser":1084,"object":1085,"ca":1086,"Ġ/>":1087,"new":1088,"her":1089,"RO":1090,"ear":1091,"ody":1092,"Ġover":1093,"Ġuser":1094,"File":1095,"ĠQ":1096,"ream":1097,"Ġshould":1098,"pen":1099,"ĠString":1100,"Set":1101,"ĠCh":1102,"Ġpart":1103,"Ġany":1104,"play":1105,"EMAIL":1106,"vers":1107,"12":1108,"md":1109,"Ġqu":1110,"lace":1111,"ature":1112,"Ġform":1113,"AB":1114,"(),":1115,"yle":1116,"fil":1117,"64":1118,"Col":1119,"Ġsome":1120,"du":1121,"ater":1122,"ĠAN":1123,"ng":1124,"opyright":1125,"fe":1126,"ccess":1127,"Exception":1128,"ible":1129,"Ġother":1130,"ler":1131,"([":1132,"Ġsp":1133,"ters":1134,"ocument":1135,"ĠIf":1136,"Ġ('":1137,"CH":1138,"Ġexcept":1139,"oint":1140,"fter":1141,"Ġag":1142,"lete":1143,"no":1144,"Ar":1145,"mi":1146,"Pre":1147,"Ġext":1148,"Value":1149,"Ġorg":1150,"ĠTrue":1151,"ish":1152,"================":1153,"ute":1154,"Ġwhen":1155,"view":1156,"Ġobject":1157,"count":1158,"Ġmodule":1159,"Ġcom":1160,"Ġmay":1161,"face":1162,"Ġinter":1163,"Ġmodel":1164,"io":1165,"Ġob":1166,"ices":1167,"eneral":1168,"day":1169,"ample":1170,"nb":1171,"ython":1172,"scription":1173,"Ġits":1174,"'),":1175,"define":1176,"CT":1177,"sub":1178,"ship":1179,"vel":1180,"unc":1181,"arent":1182,"ved":1183,"__(":1184,"lean":1185,"ven":1186,"perty":1187,"Ġfalse":1188,"ĠCon":1189,"Ġfinal":1190,"Ġcase":1191,"ions":1192,"ED":1193,"Ġyour":1194,"\"\"\"":1195,"ET":1196,"Ġusing":1197,"ING":1198,"Me":1199,"mary":1200,"by":1201,"Ġgo":1202,"Par":1203,"Ġ},":1204,"pos":1205,"To":1206,"Ġ201":1207,"Ġ///":1208,"ango":1209,"Ġline":1210,"Ġ?":1211,"ffer":1212,"Ġerror":1213,"return":1214,"Ġ19":1215,"ud":1216,"ner":1217,"base":1218,"ash":1219,"``":1220,"Ġact":1221,"sum":1222,"ty":1223,"module":1224,"--------------------------------":1225,"...":1226,"hes":1227,"IS":1228,"Ġfirst":1229,"Ġad":1230,"0000":1231,"enc":1232,"lib":1233,"lan":1234,"Ġpath":1235,"gist":1236,"indow":1237,"jango":1238,"IG":1239,"old":1240,"CO":1241,"lection":1242,"Ġrec":1243,"Ġconfig":1244,"Ġrequest":1245,"Ġraise":1246,"Ġdistribut":1247,"Ġthey":1248,"start":1249,"link":1250,"Ġwere":1251,"ename":1252,"ict":1253,"Ġ200":1254,"arg":1255,"temp":1256,"Bu":1257,"format":1258,"round":1259,"bar":1260,"let":1261,"ax":1262,"sent":1263,"nbsp":1264,"Ġback":1265,"Ġrun":1266,"Ġarray":1267,"');":1268,"ock":1269,"hed":1270,"its":1271,"Ġfield":1272,"Ġcode":1273,"ĠFalse":1274,"Ġbase":1275,"Ġused":1276,"ĠIt":1277,"space":1278,"():":1279,"ager":1280,"wo":1281,"NU":1282,"sign":1283,"group":1284,"ĠUn":1285,"default":1286,"cl":1287,"struct":1288,"ian":1289,"Ġ+=":1290,"dict":1291,"IC":1292,"com":1293,"create":1294,"cond":1295,"Ġtra":1296,"));":1297,"Ġstart":1298,"node":1299,"ĠIN":1300,"ps":1301,"Ġwork":1302,"max":1303,"Object":1304,"man":1305,"var":1306,"onent":1307,"Ġ[]":1308,"Ġz":1309,"map":1310,"ape":1311,"ĠOR":1312,"cal":1313,"of":1314,"cript":1315,"Ġonly":1316,"ĠDe":1317,"The":1318,"state":1319,"title":1320,"Ġrelation":1321,"pect":1322,"ĠEx":1323,"Ġstate":1324,"Ġ&&":1325,"for":1326,"table":1327,"py":1328,"39":1329,"Ġwho":1330,"TR":1331,"Ġsa":1332,"ypes":1333,"result":1334,"input":1335,"16":1336,"be":1337,"\";":1338,"valid":1339,"Ġsize":1340,"Th":1341,"gger":1342,"Ġpass":1343,"dis":1344,"tings":1345,"[\"":1346,"ics":1347,"nection":1348,"Ġ);":1349,"Get":1350,"Ġ{'":1351,"Ġoff":1352,"top":1353,"Ġstruct":1354,"length":1355,"ĠOF":1356,"order":1357,".,":1358,"++":1359,"lit":1360,"Ġtheir":1361,"PE":1362,"action":1363,"Ġrelationship":1364,"ake":1365,"Ġlen":1366,"lp":1367,"image":1368,"ride":1369,"Ġinto":1370,"Ġtext":1371,"ract":1372,"ION":1373,"gram":1374,"pected":1375,"Ġ10":1376,"OT":1377,"run":1378,"25":1379,"reak":1380,"Ġmethod":1381,"Key":1382,"js":1383,"ote":1384,"lat":1385,"False":1386,"ider":1387,"lose":1388,"Ġcheck":1389,"ines":1390,"auth":1391,"elation":1392,"request":1393,"nel":1394,"Ġurl":1395,"AD":1396,"11":1397,"ful":1398,"ĠGeneral":1399,"Ġ/><":1400,"ox":1401,"Ġtitle":1402,"the":1403,"raw":1404,"label":1405,"Ġ6":1406,"lob":1407,"ĠPublic":1408,"ib":1409,"hesis":1410,"ale":1411,"mise":1412,"ils":1413,"Ġinst":1414,"Time":1415,"ĠYou":1416,"ments":1417,"AP":1418,"ypot":1419,"Ġap":1420,"Ġarg":1421,"fore":1422,"Ġmod":1423,"MP":1424,"Ġ{}":1425,"tro":1426,"las":1427,"utton":1428,"Ġ''":1429,"Text":1430,"000":1431,"Given":1432,"content":1433,"\"></":1434,"ĠRelation":1435,"ML":1436,"check":1437,"ope":1438,"ĠGNU":1439,"ypothesis":1440,"pr":1441,"Ġtemp":1442,"message":1443,"ken":1444,"andler":1445,"());":1446,"Premise":1447,"num":1448,"ĠHypothesis":1449,"Ġnode":1450,"uration":1451,"ENT":1452,"move":1453,"HE":1454,"write":1455,"Ġcontent":1456,"lif":1457,"nav":1458,"igh":1459,"HO":1460,"Ġ8":1461,"Ġcopy":1462,"Ġsee":1463,"Ġabout":1464,"ector":1465,"Comp":1466,"Ġcall":1467,"vie":1468,"ĠPro":1469,"AC":1470,"////////":1471,"Ġfol":1472,"PO":1473,"!--":1474,"\"]":1475,"20":1476,"Ġ->":1477,"ĠX":1478,"net":1479,"ĠSo":1480,"ĠCopyright":1481,"Ġoutput":1482,"Ġ};":1483,"Ġdistributed":1484,"api":1485,"Un":1486,"Ġcurrent":1487,"âĢ":1488,"mission":1489,"ined":1490,"json":1491,"Ġbeen":1492,"Ġlike":1493,"Ġhad":1494,"models":1495,"Ġnumber":1496,"Ġerr":1497,"ESS":1498,"Ġman":1499,"inter":1500,"instance":1501,"head":1502,"Ġafter":1503,"ative":1504,"Ġsource":1505,"teg":1506,"Ġ:=":1507,"version":1508,"Ġmessage":1509,"utils":1510,"join":1511,"umn":1512,"array":1513,"Ġnp":1514,"Ġthere":1515,"Ġresponse":1516,"Ġthan":1517,"lot":1518,"ribute":1519,"const":1520,"},":1521,"context":1522,"len":1523,"Config":1524,"Ġter":1525,"LO":1526,"Wh":1527,"block":1528,"ommon":1529,"attr":1530,"from":1531,"lease":1532,"way":1533,"Ġcontext":1534,"Ġevent":1535,"Ġfilm":1536,"View":1537,"];":1538,"rid":1539,"TY":1540,"ating":1541,"Ġmovie":1542,"cho":1543,"ateg":1544,"ĠANY":1545,"lt":1546,"Ġmy":1547,"search":1548,"ĠCON":1549,"main":1550,"ĠAr":1551,"client":1552,"php":1553,"Ġsrc":1554,"Ġtarget":1555,"function":1556,"RAN":1557,"Ġfe":1558,"Ġdirect":1559,"tra":1560,"Ġsoftware":1561,"FF":1562,"Ġlog":1563,"status":1564,"Ġbreak":1565,"with":1566,"ral":1567,".__":1568,"ither":1569,"'],":1570,"Ġjava":1571,"Ġalso":1572,"cent":1573,"now":1574,"Ġ['":1575,"Class":1576,"Ġ```":1577,"Ġread":1578,"red":1579,"mer":1580,"Ġmake":1581,"Ġwhile":1582,"Ġdoes":1583,"ĠSee":1584,"att":1585,"By":1586,"host":1587,"Ġcreate":1588,"Ġ});":1589,"Ġinput":1590,"Lo":1591,"Add":1592,"Ġimage":1593,"page":1594,"ified":1595,"body":1596,"';":1597,"Ġelif":1598,"fields":1599,"place":1600,"Ġher":1601,"ouble":1602,"ush":1603,"params":1604,"lugin":1605,"ists":1606,"Ġmin":1607,"ster":1608,"Ġpos":1609,"Event":1610,"Ġbet":1611,"gn":1612,"tainer":1613,"ait":1614,"Path":1615,"Ġacc":1616,"ally":1617,"Node":1618,"wargs":1619,"Ġchange":1620,"ĠWAR":1621,"uto":1622,"oolean":1623,"sy":1624,"Ġyear":1625,"Ġwould":1626,"ized":1627,"iable":1628,"ends":1629,"Ġwhat":1630,"ished":1631,"Ġtwo":1632,"Form":1633,"Ġwar":1634,"Ġrequired":1635,".<":1636,"pri":1637,"Ġjust":1638,"Ġwithout":1639,"((":1640,"orld":1641,"lable":1642,"andle":1643,"Ġtrans":1644,"Ġinstance":1645,"point":1646,"Ġte":1647,"cur":1648,"bug":1649,"Model":1650,"ls":1651,"Ġfollow":1652,"Ġright":1653,"ULL":1654,"Ġmax":1655,"va":1656,"Ġ7":1657,"method":1658,"less":1659,"duct":1660,"Element":1661,"env":1662,"ins":1663,"Ġcal":1664,".?":1665,"Ġpe":1666,"Man":1667,"Ġcount":1668,"ume":1669,"Ġlong":1670,"vert":1671,"ql":1672,"Ġthen":1673,"Ġexp":1674,"ular":1675,"ision":1676,"trans":1677,"nect":1678,"Ġpackage":1679,"Ġsys":1680,"=\"../../":1681,"ĠWARRAN":1682,"AG":1683,"State":1684,"ams":1685,"da":1686,"obj":1687,"box":1688,"Ġ<!--":1689,"event":1690,"core":1691,"Ġwrit":1692,"ward":1693,"Ġbool":1694,"Ġopen":1695,"lear":1696,"ustom":1697,"ĠTest":1698,"US":1699,"Ġstd":1700,"Ġcommand":1701,"sg":1702,"width":1703,"lication":1704,"print":1705,"ran":1706,"ternal":1707,"gister":1708,"Sh":1709,"Ġgroup":1710,"lied":1711,"Info":1712,"Ġargs":1713,"andom":1714,"my":1715,"Up":1716,"wh":1717,"Ġaction":1718,"co":1719,"CL":1720,"oding":1721,"Ġinit":1722,"Ġreg":1723,"********************************":1724,"DO":1725,"ĠWIT":1726,"Item":1727,"Ġ<<":1728,"spec":1729,"Ġeven":1730,"DI":1731,"ities":1732,"ITY":1733,"[]":1734,"rows":1735,"Request":1736,"Ġeither":1737,"Ġ-->":1738,"options":1739,"layer":1740,"Ġprogram":1741,"Not":1742,"Ġbuild":1743,"output":1744,"update":1745,"source":1746,"tes":1747,"Ġmust":1748,"enu":1749,"bin":1750,"Ġdocument":1751,"dt":1752,"Ġnum":1753,"Message":1754,"à¤":1755,"Ġthem":1756,"quot":1757,"reate":1758,"ting":1759,"ameters":1760,"PI":1761,"30":1762,"iled":1763,"parse":1764,"summary":1765,"Ġdescription":1766,"ility":1767,"ren":1768,"call":1769,"ĠSoftware":1770,"css":1771,"50":1772,"Ġrange":1773,"Ġfloat":1774,"ump":1775,"User":1776,"ts":1777,"Ġcontr":1778,"'}":1779,"Ġ||":1780,"Ġindex":1781,"ons":1782,"ĠGet":1783,"Ġdif":1784,"reg":1785,"UN":1786,"\"),":1787,"OP":1788,"Over":1789,"Ġshow":1790,"Ġoptions":1791,"Ġwhere":1792,"Ġ]":1793,"ĠWe":1794,"ced":1795,"Ġcontradi":1796,"Ġcolor":1797,"down":1798,"He":1799,"Ġcontradiction":1800,"ubl":1801,"query":1802,"Ġfound":1803,"ä¸":1804,"current":1805,"Size":1806,"ĠSystem":1807,"orre":1808,"ground":1809,"response":1810,"color":1811,"ourse":1812,"lobal":1813,"air":1814,"Ġneed":1815,"][":1816,"Ġlast":1817,"aw":1818,"Ġoption":1819,"formation":1820,"Ġitem":1821,"ference":1822,"Index":1823,"Ġvalues":1824,"Ġsuper":1825,"oth":1826,"idd":1827,"post":1828,"Context":1829,"ceiv":1830,".\"\"\"":1831,"AME":1832,"201":1833,"ough":1834,"ru":1835,"msg":1836,"part":1837,"ution":1838,"Ġfiles":1839,"ui":1840,"HT":1841,"ĠWh":1842,"omain":1843,"olic":1844,"Map":1845,"Ġpage":1846,"annel":1847,"Ġhelp":1848,"other":1849,"Ġmost":1850,"iter":1851,"ants":1852,"Ġgener":1853,"Ġdid":1854,"ott":1855,"lasses":1856,"Ġmain":1857,"ident":1858,"Ġoper":1859,"Ġ9":1860,"ose":1861,"TER":1862,"django":1863,"cket":1864,"off":1865,"Service":1866,"Ġ###":1867,"server":1868,"ization":1869,"Ġentail":1870,"Ġsupport":1871,"sk":1872,"({":1873,"Ġentailment":1874,"ttp":1875,"ĠTHE":1876,"ince":1877,"\".":1878,"lick":1879,"Ġ(!":1880,"Ġpoint":1881,"char":1882,"EX":1883,"refix":1884,"'])":1885,"itor":1886,"meta":1887,"ensor":1888,"ci":1889,"build":1890,"dev":1891,"ople":1892,"Ġport":1893,"abled":1894,"Ġret":1895,"rough":1896,"find":1897,"ek":1898,"itions":1899,"option":1900,"Ġneut":1901,"change":1902,"teger":1903,"ĠSet":1904,"atab":1905,"Ġco":1906,"Ġever":1907,"mark":1908,"Ġauth":1909,"TH":1910,"Stat":1911,"Ġblock":1912,"oun":1913,"CON":1914,"Base":1915,"Ġprovi":1916,"ameter":1917,"df":1918,"gle":1919,"Ã¡":1920,"Ã©":1921,"equal":1922,"idget":1923,"Qu":1924,"Ġdate":1925,"ASS":1926,"rap":1927,"iron":1928,"Manager":1929,"open":1930,"ched":1931,"signed":1932,"Array":1933,"Ġhow":1934,"ene":1935,"irt":1936,"split":1937,"ĠJava":1938,"section":1939,"CE":1940,"Ġfind":1941,"Ġview":1942,"Ġeach":1943,"ĠHT":1944,"ves":1945,"Ġpy":1946,"=\"[":1947,"ten":1948,"rans":1949,"mem":1950,"ATE":1951,"ĠIS":1952,"Result":1953,"filter":1954,"su":1955,"ĠNULL":1956,"atabase":1957,"ponse":1958,"process":1959,"15":1960,"ormal":1961,"uring":1962,"vol":1963,"tails":1964,"header":1965,"cs":1966,"24":1967,"ower":1968,"SS":1969,"Inter":1970,"ension":1971,"Ġwidth":1972,"Ġbefore":1973,"Ġshe":1974,"Ġhost":1975,"Ġneutral":1976,"gging":1977,"Ġsign":1978,"Ġcent":1979,"mat":1980,"Ġsystem":1981,"ĠReturn":1982,"true":1983,"HOUT":1984,"'))":1985,"80":1986,"Ġsy":1987,"Val":1988,"org":1989,"ĠAn":1990,"EST":1991,"Ġcontin":1992,"lex":1993,"doc":1994,"tp":1995,"ĠWITHOUT":1996,"Ġexpected":1997,"99":1998,"frame":1999,"au":2000,"ILITY":2001,"actory":2002,"Ġgover":2003,"Code":2004,"mod":2005,"TD":2006,"gt":2007,"last":2008,"Ġhere":2009,"Ġcharact":2010,"Ġelement":2011,"import":2012,"Ġed":2013,"cause":2014,"IP":2015,"Ġinclude":2016,"Ġmat":2017,"ops":2018,"'.":2019,"ĠFor":2020,"Ġcould":2021,"ween":2022,"Ent":2023,"pass":2024,"float":2025,"ason":2026,"ĠSh":2027,"Ġatt":2028,"Ġpo":2029,"ond":2030,"Ġfunc":2031,"14":2032,"ared":2033,"Ġlanguage":2034,"ited":2035,"Ġcontain":2036,"Ġ[],":2037,"Ġgiven":2038,"En":2039,"button":2040,"als":2041,"Ġlook":2042,"cache":2043,"kwargs":2044,"oot":2045,"gest":2046,"Ġprocess":2047,"Ġdep":2048,"Ġac":2049,"void":2050,"Ġbecause":2051,"reat":2052,"Ġlocal":2053,"Ġvalid":2054,"ĠLe":2055,"Ġtable":2056,"ĠAl":2057,"raph":2058,"ces":2059,"present":2060,"ĠZ":2061,"ĠFOR":2062,"Ġfree":2063,"Ġspecific":2064,"lags":2065,"ifier":2066,"ĠNew":2067,"mail":2068,"ĠHe":2069,"Ġlimit":2070,"cord":2071,"wit":2072,"Case":2073,"TAB":2074,"ouse":2075,"store":2076,"Ġnet":2077,"Ġmatch":2078,"flow":2079,"ily":2080,"Ġimplied":2081,"Ġfollowing":2082,"################################":2083,"04":2084,"App":2085,"land":2086,"Des":2087,"rix":2088,">>":2089,"Ġnamespace":2090,"Ġformat":2091,"iss":2092,"stri":2093,"urs":2094,"ingle":2095,"Ġ'''":2096,"command":2097,"Ġprote":2098,"nown":2099,"VER":2100,"style":2101,"Out":2102,"Ġnext":2103,"\\\\":2104,"Ġclient":2105,"ling":2106,"Ġstyle":2107,"ely":2108,"TION":2109,"EL":2110,"Ġenv":2111,"Ġthrough":2112,"Ġtri":2113,"target":2114,"sol":2115,"oundation":2116,"velo":2117,"Ġobj":2118,"ï¼":2119,"Ġsuch":2120,"Ġph":2121,"ient":2122,"utf":2123,"erson":2124,"Ġred":2125,"shape":2126,"IO":2127,"opt":2128,"Ġsame":2129,".\"":2130,"Color":2131,"Ġagain":2132,"Ġdec":2133,"adata":2134,"Ġplay":2135,"ĠRes":2136,"close":2137,"wn":2138,"ffect":2139,"imple":2140,"ron":2141,"Ġmany":2142,"vider":2143,"ller":2144,"Ġorig":2145,"Override":2146,"apt":2147,"Ġam":2148,"Ġserver":2149,"lin":2150,"Ġdict":2151,"pi":2152,"Ġexec":2153,"On":2154,"oogle":2155,"OL":2156,"Ġdon":2157,"xml":2158,"').":2159,"ĠUS":2160,"Ġallow":2161,"Le":2162,"13":2163,"Ġmem":2164,"Ġecho":2165,"=\"../../../../":2166,"std":2167,"Ġ12":2168,"Ġpeople":2169,"ches":2170,"Image":2171,"izer":2172,"ational":2173,"do":2174,"mt":2175,"18":2176,"src":2177,"Ġknow":2178,"Response":2179,"Ġlater":2180,"ilable":2181,"19":2182,"Ġparent":2183,"ĠAll":2184,"Date":2185,"tag":2186,"ually":2187,"Ġwell":2188,"Ġsecond":2189,"mpty":2190,"az":2191,"LI":2192,"Ġ20":2193,"Build":2194,"Ġsaid":2195,"perties":2196,"graph":2197,"(_":2198,"pper":2199,"ĠFoundation":2200,"55":2201,"Ġtop":2202,"xy":2203,"~~":2204,"Ġargument":2205,"Int":2206,"attern":2207,"Ġwant":2208,"Ġdown":2209,"Ġhead":2210,"Ġcomm":2211,"Ġbetween":2212,"100":2213,"rop":2214,"Ġinclu":2215,"Ġnow":2216,"Ġpr":2217,"light":2218,"uid":2219,"cp":2220,"=\"#":2221,"Client":2222,"ceived":2223,"Ġq":2224,"Ġinformation":2225,"uture":2226,"Ġmar":2227,"Ġproject":2228,"orage":2229,"Ġorder":2230,"ank":2231,"has":2232,"mall":2233,"TO":2234,"Ġ##":2235,"Ġgood":2236,"next":2237,"brary":2238,"})":2239,"rant":2240,"mode":2241,"olicy":2242,"Content":2243,"side":2244,"Ġlabel":2245,"parent":2246,"Ġexpre":2247,"older":2248,"ultip":2249,"Handler":2250,"uch":2251,"ification":2252,"ributes":2253,"FA":2254,"files":2255,"items":2256,"unk":2257,"Ġver":2258,"ays":2259,"33":2260,"Ġpubl":2261,"endif":2262,"template":2263,"left":2264,";</":2265,"ottom":2266,"Ġop":2267,"Char":2268,"lected":2269,"Ġimplement":2270,"war":2271,"Ġmsg":2272,"exec":2273,"TP":2274,"Ġthese":2275,"ries":2276,"Is":2277,"Of":2278,"Ġ18":2279,"REF":2280,"Ġold":2281,"Ġlink":2282,"null":2283,"ategory":2284,"Ġresource":2285,"package":2286,"Ġterms":2287,"ids":2288,"web":2289,"Ut":2290,"For":2291,"================================":2292,"Ġchild":2293,"Group":2294,"root":2295,"[:":2296,"values":2297,"rag":2298,"Ġmark":2299,"foo":2300,"ux":2301,"Table":2302,"Al":2303,"irtual":2304,"Contro":2305,"latform":2306,"Ġpermission":2307,"Att":2308,"Ġdetails":2309,"filename":2310,"Ġhim":2311,"ĠList":2312,"types":2313,"ãģ":2314,"An":2315,"ov":2316,"Ġlet":2317,"Count":2318,"Ġstatus":2319,"match":2320,"Ġ($":2321,"Loc":2322,"Ġref":2323,"show":2324,"34":2325,"ĠFree":2326,"property":2327,"Ġcontro":2328,"All":2329,"adding":2330,"Factory":2331,"ĠAs":2332,"ern":2333,"task":2334,"22":2335,"bit":2336,"Ġfa":2337,"Ġupdate":2338,"img":2339,"ĠComp":2340,"Stream":2341,"Box":2342,"Ġind":2343,"ious":2344,"med":2345,"CK":2346,">&":2347,"Be":2348,"python":2349,"Bar":2350,"quence":2351,"ures":2352,"river":2353,"ĠAdd":2354,"Ġquery":2355,"Script":2356,"Ġbeing":2357,"Ġmon":2358,"lag":2359,"Ġleft":2360,"token":2361,"ĠLI":2362,"200":2363,"tot":2364,"Ġ100":2365,"Ġdjango":2366,"unit":2367,"Command":2368,"AM":2369,"Ġopt":2370,"description":2371,"icon":2372,"session":2373,"vices":2374,"ically":2375,"ged":2376,"stream":2377,"device":2378,"gr":2379,"Ġdouble":2380,"ather":2381,"Ġmodels":2382,"Ġinitial":2383,"Ġdisplay":2384,"Ġtemplate":2385,"Ġdb":2386,"FT":2387,"Ġcons":2388,"und":2389,"upport":2390,"UP":2391,"yn":2392,"Ġvery":2393,"yles":2394,"Action":2395,"CHAN":2396,"ĠInc":2397,"Ġdist":2398,"ĠCL":2399,"tab":2400,"Ġenc":2401,"Ġjson":2402,"Page":2403,"(&":2404,"Ġlaw":2405,"ĠPar":2406,"Nav":2407,"Ġnil":2408,"entry":2409,"ĠÐ":2410,"Ġloc":2411,"With":2412,"ration":2413,"Ġload":2414,"dep":2415,"settings":2416,"amples":2417,"Ġrecord":2418,"Ġreport":2419,"Ġcorre":2420,"Ġprotected":2421,"Ġmade":2422,"Ġmodify":2423,"scrib":2424,"'):":2425,"author":2426,"Ġsk":2427,"ĠPAR":2428,"func":2429,"Ġwrite":2430,"Ġ(\"":2431,"heet":2432,"resource":2433,"ood":2434,"Ġali":2435,"itional":2436,"ah":2437,"Ġpost":2438,";&":2439,"pc":2440,"ĠTO":2441,"ORT":2442,"Ġworld":2443,"Ġdi":2444,"*-":2445,"fs":2446,"Or":2447,"oci":2448,"){":2449,"Line":2450,"Ġresults":2451,"ique":2452,"ĠSer":2453,"KE":2454,"Property":2455,"velop":2456,"ars":2457,"TIES":2458,"common":2459,"Query":2460,"What":2461,"ric":2462,"debug":2463,"ug":2464,"Ġ<?":2465,"Ġbackground":2466,"Dis":2467,"SI":2468,"TIC":2469,"Ġisinstance":2470,"delete":2471,"select":2472,"active":2473,"level":2474,"Ġcond":2475,"gener":2476,"child":2477,"Ġhigh":2478,"project":2479,"cont":2480,"Ġalong":2481,"Ġreal":2482,"17":2483,"Ġ((":2484,"apache":2485,"Ġfields":2486,"Input":2487,"Return":2488,"ik":2489,"Ġuint":2490,"Ġmap":2491,"60":2492,"Ġpol":2493,"ĠCol":2494,"Imp":2495,"Ġtask":2496,"EE":2497,"Fil":2498,"remove":2499,"ĠWARRANTIES":2500,"try":2501,"Ġfont":2502,"Ġ-*-":2503,"Lay":2504,"stall":2505,"MO":2506,"alk":2507,"Run":2508,"Ġheight":2509,"Ġear":2510,"Frame":2511,"ync":2512,"ĠAp":2513,"number":2514,"contro":2515,"np":2516,"No":2517,"sole":2518,"ding":2519,"Ġexist":2520,"Ġway":2521,"avas":2522,"ols":2523,"ĠHTML":2524,"reen":2525,"////////////////":2526,"ĠOn":2527,"ready":2528,"element":2529,"Ġboolean":2530,"sets":2531,"Status":2532,"ency":2533,"avascript":2534,"Ġexpect":2535,".</":2536,"tack":2537,"At":2538,"QU":2539,"Ġthrow":2540,"udi":2541,"Ġparams":2542,"height":2543,"PL":2544,"Ġvis":2545,"Ġ$(":2546,"vo":2547,"vailable":2548,"rel":2549,"require":2550,"NAME":2551,"witch":2552,"first":2553,"ONT":2554,"Ġparser":2555,"\"))":2556,"Ġ...":2557,"atures":2558,"fact":2559,"tml":2560,"Pos":2561,"Ġservice":2562,"Ġpop":2563,"Ġsol":2564,"Ġ'/":2565,"refer":2566,"ender":2567,"Ġconf":2568,"local":2569,"Ġborder":2570,"leg":2571,"Ġlicense":2572,"Sp":2573,"conf":2574,"ĠException":2575,"riter":2576,"objects":2577,"Ġexample":2578,"reed":2579,"ĠNOT":2580,"Met":2581,"cmd":2582,"Ġcalled":2583,"Ġmak":2584,"Check":2585,"can":2586,"çļ":2587,"ĠReturns":2588,"Ġnon":2589,"Ġcontinue":2590,"service":2591,"lang":2592,"={":2593,"ises":2594,"ironment":2595,"Ġ16":2596,"ĠVersion":2597,"SON":2598,"Ġsuccess":2599,"SC":2600,"BU":2601,"çļĦ":2602,"ĠPython":2603,"Sub":2604,"ials":2605,"Ġinstall":2606,"Ġreceived":2607,"dia":2608,"Ġconnection":2609,"40":2610,"Ġdirectory":2611,"ĠFile":2612,"abel":2613,"Ġmuch":2614,"Ġaccess":2615,"Ġdiv":2616,"rie":2617,"meric":2618,"cast":2619,"Ġdest":2620,"exp":2621,"Instance":2622,"queue":2623,"ferent":2624,"imer":2625,"orth":2626,"mon":2627,"resh":2628,"irection":2629,"address":2630,"password":2631,"Ġ'.":2632,"keys":2633,"From":2634,"ĠMe":2635,"ret":2636,"range":2637,"Ġvariable":2638,"We":2639,"rl":2640,"Ġ'\\":2641,"DB":2642,"vis":2643,"Ġstore":2644,"Ġmode":2645,"tocol":2646,"mm":2647,"ialog":2648,"ĠIs":2649,"Ð¾":2650,"','":2651,"replace":2652,"des":2653,"bs":2654,"NESS":2655,"vious":2656,"\").":2657,"pack":2658,"creen":2659,"ptr":2660,"lank":2661,"icode":2662,"56":2663,"ories":2664,"POSE":2665,"ĠDE":2666,"ted":2667,"Ġ>=":2668,"Method":2669,"http":2670,")]":2671,"ULAR":2672,"Trans":2673,"board":2674,"tal":2675,"Ġdisc":2676,"Ġ()":2677,"ĠTo":2678,"ĠFIT":2679,"Hel":2680,"Ġfilename":2681,"connect":2682,"tems":2683,"ane":2684,"iod":2685,"Ġ',":2686,"ĠEX":2687,"ĠMER":2688,"icle":2689,"tn":2690,"Ð°":2691,"Ġposition":2692,"loy":2693,"oken":2694,"location":2695,"ĠPUR":2696,"Ġyears":2697,"ĠFITNESS":2698,"ever":2699,"Ġhand":2700,"CHANTAB":2701,"Ġplace":2702,"Ġpublished":2703,"ABLE":2704,"ĠPARTIC":2705,"javascript":2706,"ĠMERCHANTAB":2707,"Resource":2708,"ĠPURPOSE":2709,"wer":2710,"Ġbo":2711,"mock":2712,"ove":2713,"era":2714,"WAR":2715,"Ġcl":2716,"ĠPARTICULAR":2717,"NO":2718,"icro":2719,"Ġsur":2720,"Ġword":2721,"Ġexception":2722,"New":2723,"Ġown":2724,"tadata":2725,"Ġboth":2726,"Ġduring":2727,"Point":2728,"ĠAND":2729,"Ġobtain":2730,"cul":2731,")))":2732,"02":2733,"Ġbody":2734,"Ġ?>":2735,"fail":2736,"ĠMERCHANTABILITY":2737,"etch":2738,"Ġsession":2739,"dl":2740,"IND":2741,"uple":2742,"TYPE":2743,"Per":2744,"Tra":2745,"FONT":2746,"Ġrender":2747,"Ġperform":2748,"ds":2749,"CC":2750,"Ġmock":2751,"Ġ'%":2752,"buf":2753,"Ġdevice":2754,"container":2755,"ause":2756,"anel":2757,"TE":2758,"Ġsearch":2759,"Ġunsigned":2760,"SP":2761,"oh":2762,"ving":2763,"Change":2764,"ĠNot":2765,"ways":2766,"Ġbec":2767,"Ġrule":2768,"wait":2769,"Module":2770,"cr":2771,"Ġsettings":2772,"go":2773,"save":2774,"TestCase":2775,"roll":2776,"req":2777,"Source":2778,"Ġ})":2779,"patch":2780,"tx":2781,"Ġprodu":2782,"Ġlar":2783,"Log":2784,"Ġroot":2785,"iler":2786,"Window":2787,"email":2788,"ross":2789,"send":2790,"Ġlevel":2791,"Ġscript":2792,"ĠValue":2793,"admin":2794,"af":2795,"ĠApache":2796,"tree":2797,"andard":2798,"ï¼Į":2799,"Ed":2800,"display":2801,"Ġextends":2802,"ĠAmeric":2803,"ĠThere":2804,"Ðµ":2805,"Ġ;":2806,"Version":2807,"istory":2808,"asic":2809,"lines":2810,"Ġrow":2811,">(":2812,"cle":2813,"Auth":2814,"Ġfilter":2815,"Ġdifferent":2816,"font":2817,"addr":2818,"ULT":2819,"ĠBu":2820,"make":2821,"ero":2822,"ents":2823,"ĠOpen":2824,"Ġavailable":2825,"ges":2826,"86":2827,"Ext":2828,"oto":2829,"Ġinterface":2830,"Ġunit":2831,"ĠID":2832,"fin":2833,"Ġgr":2834,"Format":2835,"Ġ),":2836,"Builder":2837,"Ġgame":2838,"Ġlength":2839,"Act":2840,"âĶ":2841,"RL":2842,"exception":2843,"sys":2844,"Ġcache":2845,"Ġfail":2846,"png":2847,"oud":2848,"ators":2849,"ideo":2850,"Ġcome":2851,"Ġuseful":2852,"hash":2853,"Server":2854,"ĠAnd":2855,"FIL":2856,"Ġtoken":2857,"Ġcmd":2858,"ALL":2859,"Call":2860,"Ġthink":2861,"Ġinfo":2862,"gen":2863,"ãĥ":2864,"Ġlogging":2865,"Button":2866,"ERR":2867,"illion":2868,"roid":2869,"ĠApp":2870,"'}),":2871,"Ġwriting":2872,"bottom":2873,"mbda":2874,"/>":2875,"ĠCLASS":2876,"Ġframe":2877,"++)":2878,"ounter":2879,"navbar":2880,"names":2881,"Ġreally":2882,"Ġoriginal":2883,"Ġ15":2884,"Ġapplic":2885,"UD":2886,"=\"../":2887,"Ġhope":2888,"Ġvol":2889,"step":2890,"Attribute":2891,"liance":2892,"tri":2893,"This":2894,"ãĤ":2895,"Ġrelease":2896,"false":2897,"Link":2898,"rapper":2899,"inary":2900,"stract":2901,"ixel":2902,"MS":2903,"Number":2904,"styles":2905,"ending":2906,"Component":2907,"aml":2908,"Str":2909,"Ġaddress":2910,"only":2911,"mar":2912,"ÃŃ":2913,"ixed":2914,")),":2915,"HP":2916,"COL":2917,"ialize":2918,"Ġprovided":2919,"88":2920,"tle":2921,"ZE":2922,"Ġfore":2923,"Ġspecified":2924,"copy":2925,"ring":2926,"ee":2927,"umb":2928,"âĢĵ":2929,"Ġtoo":2930,"Ġ>>>":2931,"ives":2932,"66":2933,"Create":2934,"dec":2935,"argument":2936,"(*":2937,"ading":2938,"\",\"":2939,"Ġevery":2940,"ĠSO":2941,"UM":2942,"amily":2943,"Ġins":2944,"'\\":2945,"window":2946,"Ġident":2947,"Ġnames":2948,"ilt":2949,"Ġthree":2950,"Ġtak":2951,"ĠWARRANTY":2952,"thing":2953,"ivity":2954,"Ġparse":2955,"UB":2956,"AV":2957,"Ġmargin":2958,"Gener":2959,"Ġentry":2960,"apping":2961,"plugin":2962,"ĠType":2963,"orp":2964,"DIR":2965,"Ġ``":2966,"'re":2967,"ole":2968,"XX":2969,"book":2970,"Ġstill":2971,"rypt":2972,"ĠSp":2973,"Ġwindow":2974,"ead":2975,"Ġour":2976,"Ġheader":2977,"Ġrepresent":2978,"Start":2979,"Ġshort":2980,"Ġhome":2981,"Ġsince":2982,"expected":2983,"QL":2984,"Ġsort":2985,"ba":2986,"Ġiter":2987,"Ġsum":2988,"----------------------------------------------------------------":2989,"Ġfull":2990,"lip":2991,"Ġstep":2992,"INT":2993,"ports":2994,"Ġke":2995,"cer":2996,"pop":2997,"ĠAPI":2998,"Ġpl":2999,"Ġpassword":3000,"ĠCreate":3001,"ĠLo":3002,"dest":3003,"IONS":3004,"Ġ===":3005,"stamp":3006,"{{":3007,"prec":3008,"buffer":3009,"Ġtag":3010,"Ġdevelop":3011,"EM":3012,"ier":3013,"Ġcell":3014,"Ġbased":3015,"ĠImp":3016,"ATA":3017,"account":3018,"Ġ@-":3019,"ĠHREF":3020,"Ġiss":3021,"iff":3022,"ĠAss":3023,"verse":3024,"Ġresp":3025,"Ġglobal":3026,"prefix":3027,"ness":3028,"pk":3029,"Filter":3030,"txt":3031,"ĠObject":3032,"75":3033,"Ġinv":3034,"Ġdone":3035,"Block":3036,"Default":3037,"uri":3038,"Ġpermissions":3039,"21":3040,"Ġax":3041,"Ġ@-@":3042,"''":3043,"ĠRed":3044,"ured":3045,"sa":3046,"AY":3047,"ulti":3048,"Var":3049,"Ġcharacter":3050,"register":3051,"Ġrights":3052,"tmp":3053,"ended":3054,"Ġim":3055,"lack":3056,"Ġfin":3057,"dist":3058,"ĠNo":3059,"Valid":3060,"Cell":3061,"rowser":3062,"Ġremove":3063,"ights":3064,"Ġsend":3065,"ism":3066,"jor":3067,"Ġbest":3068,"Ġhtml":3069,"36":3070,"Ġgovern":3071,"system":3072,"Ġtotal":3073,"bove":3074,"idden":3075,"PRO":3076,"cat":3077,"usr":3078,"Buffer":3079,"Ġrandom":3080,"PR":3081,"eded":3082,"aded":3083,"imal":3084,"\\\"":3085,"soft":3086,"Ġreturned":3087,"strong":3088,"Ġjob":3089,"Ġcreated":3090,"uro":3091,"Ġdefined":3092,"ĠKIND":3093,"component":3094,"chema":3095,"bl":3096,"IB":3097,"And":3098,"Ad":3099,"uters":3100,"Ġtake":3101,"Output":3102,"connection":3103,"Ġredistribut":3104,"Ġthread":3105,"served":3106,"ift":3107,"Temp":3108,"35":3109,"iddle":3110,"entic":3111,"IGN":3112,"ensions":3113,"Ġans":3114,"Ġbad":3115,"vision":3116,"Ġcity":3117,"ony":3118,"Ġest":3119,"Ġstream":3120,"Ġincluding":3121,"End":3122,"Ġalready":3123,"Ġappro":3124,"As":3125,"ĠData":3126,"ãĢ":3127,"alled":3128,"OS":3129,"aa":3130,"angle":3131,"Ġagreed":3132,"Ġ}}":3133,"Ġcomponent":3134,"ATH":3135,"ĠCheck":3136,"outh":3137,"irectory":3138,"DIT":3139,"ury":3140,"Token":3141,"FL":3142,"logy":3143,"Ġsingle":3144,"Ð¸":3145,"comm":3146,"username":3147,"Ġagainst":3148,"static":3149,"`,":3150,"ĠUser":3151,"Ġabove":3152,"ctions":3153,"Ġ<=":3154,"Ġproperty":3155,"pol":3156,"usic":3157,"lie":3158,"System":3159,"umns":3160,"Ġexpress":3161,"ird":3162,"stop":3163,"gress":3164,"itu":3165,"Ġvirtual":3166,"Ġanother":3167,"License":3168,"åı":3169,"LL":3170,"Ġaut":3171,"ired":3172,"offset":3173,"Ġstory":3174,"Ġdoesn":3175,"Options":3176,"Ġart":3177,"Ġge":3178,"VAL":3179,"Ġauto":3180,"strip":3181,"ĠLicensed":3182,"classes":3183,"Ġcatch":3184,"fn":3185,"Label":3186,"Ġgu":3187,"Ġbit":3188,"domain":3189,"05":3190,"position":3191,"structor":3192,"umpy":3193,"27":3194,"Ġpadding":3195,"Ġfact":3196,"Ġaccount":3197,"Ġthrows":3198,"Dir":3199,"fg":3200,"hel":3201,"`.":3202,"gnore":3203,"ural":3204,"*/":3205,"Ġ'[":3206,"exit":3207,"Ġcustom":3208,"CONF":3209,"Ġredistribute":3210,"Desc":3211,"ĠName":3212,"Search":3213,"Ġhandle":3214,"rate":3215,"=[":3216,"ker":3217,"Ġwatch":3218,"Ġ[\"":3219,"Ġthose":3220,"imum":3221,"encode":3222,"Connection":3223,"ä»":3224,"ATION":3225,"Ġ\"%":3226,"GET":3227,"render":3228,"stack":3229,"Ġwarrant":3230,"sql":3231,"ital":3232,"menu":3233,"Ġcar":3234,"curity":3235,"EC":3236,"ze":3237,"most":3238,"nap":3239,"Ġdel":3240,"sing":3241,"center":3242,"Sc":3243,"Ġlogger":3244,"Ġrole":3245,"}}":3246,"03":3247,"Task":3248,"ctionary":3249,"posit":3250,"document":3251,"Ġsure":3252,"empty":3253,"solute":3254,"layout":3255,"Ġreturns":3256,"handle":3257,"course":3258,"oder":3259,"Ġcopyright":3260,"reference":3261,"Ġperson":3262,"ĠMan":3263,"limit":3264,"dated":3265,"ĠLO":3266,"Ġappe":3267,"ĠBe":3268,"Ġproduct":3269,"Ġyield":3270,"oper":3271,"Ġnetwork":3272,"ĠPRO":3273,"thread":3274,"Ġhttp":3275,"interface":3276,"Ã½":3277,"ination":3278,"ĠAt":3279,"Ġparameters":3280,"used":3281,"sm":3282,"semb":3283,"Column":3284,"orn":3285,"Ġcap":3286,"gex":3287,"aly":3288,"stylesheet":3289,"tact":3290,"sync":3291,"CI":3292,"clear":3293,"oy":3294,"network":3295,"tail":3296,"Ġstud":3297,"]([":3298,"fit":3299,"exists":3300,"ÑĤ":3301,"Ġauthor":3302,"Ġpython":3303,"ĠInd":3304,"ining":3305,"Ġposs":3306,"Ġdelete":3307,"pl":3308,"help":3309,"DS":3310,"Ġattr":3311,"ultiple":3312,"Ġput":3313,"ything":3314,"aut":3315,"UE":3316,"78":3317,"Ġcert":3318,"Ġtests":3319,"Ġwarranty":3320,"ĠUp":3321,"Ġ\"/":3322,"Ġ::":3323,"{}":3324,"ĠAd":3325,"sort":3326,"ivers":3327,"Ġnever":3328,"WARE":3329,"FAULT":3330,"Function":3331,"na":3332,"cy":3333,"KEY":3334,"Ġdoc":3335,"cls":3336,"Parser":3337,"Ġ%}":3338,"Ġlines":3339,"alt":3340,"Ġlibrary":3341,"Ġday":3342,"click":3343,"fd":3344,"Ġwin":3345,"defined":3346,"23":3347,"tests":3348,"mbol":3349,"ina":3350,"push":3351,"Ġocc":3352,"Ġconfiguration":3353,"hether":3354,"Read":3355,"SD":3356,"ets":3357,"vas":3358,"xx":3359,"rule":3360,"lation":3361,"contrib":3362,"Ġbuffer":3363,"random":3364,"HER":3365,"ĠEng":3366,"Mem":3367,"future":3368,"Ġscreen":3369,"GE":3370,"Ġapplicable":3371,"STR":3372,"Process":3373,"pression":3374,"Dec":3375,"Ġcompliance":3376,"FOR":3377,"Ġ\"\\":3378,"sl":3379,"record":3380,"Ġconditions":3381,"44":3382,"Ġlimitations":3383,"Ġpas":3384,"]:":3385,"sv":3386,"leted":3387,"aving":3388,"Ġsay":3389,"assertTrue":3390,"ĠPer":3391,"Oper":3392,"Ġincre":3393,"CP":3394,"ĠNO":3395,"Ġproble":3396,"column":3397,"Mode":3398,"Ġeffect":3399,"DER":3400,"Ġcontrol":3401,"Ġgoverning":3402,"ĠBy":3403,"Ġclose":3404,"Ġweb":3405,"Ġcourse":3406,".*":3407,"ĠST":3408,"Ġgreat":3409,"mote":3410,"cell":3411,"udio":3412,"Ġaround":3413,"Ġcommon":3414,"Ġcorrect":3415,"Ref":3416,"del":3417,"ĠEn":3418,"Ġspace":3419,"Ġcur":3420,"Ġhash":3421,"Ġtensor":3422,"blank":3423,"ĠBAS":3424,"Ġalways":3425,"Ġsmall":3426,"Ġmove":3427,"GL":3428,"Collection":3429,"Ġ'<":3430,"gument":3431,"Interface":3432,"ites":3433,"tach":3434,"access":3435,"IGHT":3436,"bose":3437,"Ġrep":3438,"Ġoverride":3439,"IX":3440,"images":3441,"ior":3442,"ACK":3443,"lap":3444,"gor":3445,"tc":3446,"skip":3447,"DITIONS":3448,"ĠUnless":3449,"Ġunt":3450,"ĠOr":3451,"radi":3452,"---":3453,"Ġenum":3454,"Ġweek":3455,"('/":3456,"ĠBASIS":3457,"agement":3458,"see":3459,"SH":3460,"ought":3461,"Ġpay":3462,"ĠMon":3463,"ĠCONDITIONS":3464,"ĠHow":3465,"Ġdatabase":3466,"ulation":3467,"Ġ],":3468,"amera":3469,"Select":3470,"Row":3471,"Ġcharacters":3472,"]);":3473,"ied":3474,"ĠURL":3475,"Ġempty":3476,"Ġdir":3477,"sen":3478,"Length":3479,"igation":3480,"annot":3481,"second":3482,"Ġplan":3483,"Ġbegin":3484,"ohn":3485,"Tree":3486,"Ġmer":3487,"tel":3488,"scale":3489,"Ġwon":3490,"Url":3491,"Ġstri":3492,"site":3493,"Ġ{\"":3494,"ially":3495,"Ġobjects":3496,"uint":3497,"Ġtf":3498,"EXT":3499,"70":3500,"ags":3501,"Ġoffset":3502,"scope":3503,"**:":3504,"Ġinf":3505,"ĠUnited":3506,"member":3507,"Ġpresent":3508,"ĠAuth":3509,"90":3510,"FO":3511,"MIT":3512,"Ð½":3513,"dim":3514,"tex":3515,"ĠValueError":3516,"AI":3517,"Ġ14":3518,"Provider":3519,"Fe":3520,"Ġtypes":3521,"Ġbro":3522,"bind":3523,"pu":3524,"inc":3525,"Ġ\"[":3526,"Ġspe":3527,"ittle":3528,"FTWARE":3529,"nings":3530,"shot":3531,"full":3532,"peri":3533,"]]":3534,"Update":3535,"login":3536,"entity":3537,"Ġselect":3538,"ND":3539,"omic":3540,"Ġreq":3541,"derr":3542,"ately":3543,"product":3544,"ffic":3545,"Integer":3546,"sembly":3547,"Ġdescrib":3548,"ĠRun":3549,"ndle":3550,"à¸":3551,"Ġnav":3552,"OK":3553,"nsible":3554,"Ġcallback":3555,"results":3556,"ansp":3557,"ASE":3558,"chool":3559,"ĠSOFTWARE":3560,"ART":3561,"Ġwait":3562,"stru":3563,"Cache":3564,"serv":3565,"Ġcls":3566,"Net":3567,"Entry":3568,"Ġnotice":3569,"Ġnormal":3570,"77":3571,"orig":3572,"Max":3573,"vm":3574,"pha":3575,")(":3576,"pository":3577,"Ġdatetime":3578,"Ġpartic":3579,"Ġparameter":3580,"Ġitems":3581,"alf":3582,"wise":3583,"CharField":3584,"SER":3585,"Ġbig":3586,"win":3587,"NavBar":3588,"26":3589,"BO":3590,"install":3591,"COLOR":3592,"ctx":3593,"ĠTime":3594,"28":3595,"Ġfun":3596,"Ġpower":3597,"valu":3598,"urope":3599,"Listener":3600,"ĠThey":3601,"Ġbyte":3602,"aises":3603,"Tag":3604,"manager":3605,"ĠBut":3606,"Ġmight":3607,"Ġbytes":3608,"gy":3609,"Ġcolumn":3610,"Ġextra":3611,"ĠKey":3612,"Ġbox":3613,"Ġattribute":3614,"Ġinstead":3615,"required":3616,"Ġwithin":3617,"Entity":3618,"ĠBrit":3619,"UI":3620,"ai":3621,"('.":3622,"Ġarguments":3623,"Ġexport":3624,"pool":3625,"API":3626,"Ġquot":3627,"Init":3628,"rt":3629,"gorith":3630,"Back":3631,"PC":3632,"desc":3633,"term":3634,"rand":3635,"lar":3636,"rec":3637,"Ġkeep":3638,"Ġsim":3639,"tk":3640,"Ġsave":3641,"Width":3642,"Ġutf":3643,"case":3644,"\"],":3645,"DR":3646,"Ġchanged":3647,"ones":3648,"Controller":3649,"Ġfailed":3650,"Ġlife":3651,"headers":3652,"=(":3653,"Ġregister":3654,"Address":3655,"parser":3656,"âĶĢ":3657,"lash":3658,"Ġgen":3659,"Null":3660,"uff":3661,"29":3662,"ĠBase":3663,"widget":3664,"ĠTH":3665,"should":3666,"alth":3667,"Ġconvert":3668,"ĠJavaScript":3669,"Ġfour":3670,"raft":3671,"Ġ30":3672,"Ġsample":3673,"ĠRE":3674,"bytes":3675,"Ġbeh":3676,"Ġxml":3677,"']['":3678,"(__":3679,"Const":3680,"channel":3681,"Ġexecut":3682,"æľ":3683,"rep":3684,"Ġshape":3685,"cd":3686,"handler":3687,"AGE":3688,"ĠTe":3689,"flags":3690,"Store":3691,"CR":3692,"lower":3693,"je":3694,"Ġconnect":3695,"INE":3696,"ordin":3697,"ROM":3698,"Ġlate":3699,"Ġsomething":3700,":\"":3701,"IR":3702,"Ġcoding":3703,"Ġplot":3704,"gistry":3705,"ny":3706,"vid":3707,"execute":3708,"ks":3709,"irm":3710,"åĪ":3711,"Ġrunning":3712,"Layout":3713,"Ġarch":3714,"Ġconsider":3715,"Ġbetter":3716,"Utils":3717,"38":3718,"Ġ\"\"":3719,"unch":3720,"ipe":3721,"Ġuntil":3722,"java":3723,"auto":3724,"job":3725,"Ġcompany":3726,"ursor":3727,"mbers":3728,"Ġkwargs":3729,"Rem":3730,"Ġtyp":3731,"Session":3732,"Ġerrors":3733,"Child":3734,"Ġmethods":3735,"Widget":3736,"Ġmean":3737,"icrosoft":3738,"roy":3739,"ializer":3740,"ibility":3741,"PATH":3742,"ĠMar":3743,"Ġclo":3744,"ĠMark":3745,"ointer":3746,"Thread":3747,"bool":3748,"Ġknown":3749,"luster":3750,"Option":3751,"nodes":3752,"Ġturn":3753,"ali":3754,"Ġplugin":3755,"ĠGener":3756,"total":3757,"MM":3758,"ÑĢ":3759,"ĠClass":3760,"ĠArray":3761,"Header":3762,"support":3763,"sche":3764,"ording":3765,"ned":3766,"argv":3767,"idx":3768,"Ġvideo":3769,"Ġhapp":3770,"Ġswitch":3771,"ERROR":3772,"ably":3773,"ĠUse":3774,"SION":3775,"Vector":3776,"Ġhum":3777,"ĠPHP":3778,"encies":3779,"long":3780,"ounds":3781,"Ġapplication":3782,"Ġreserved":3783,"Ġlarge":3784,"Record":3785,"Ġcollection":3786,"Configuration":3787,"Ġperformance":3788,"sw":3789,"Ġsent":3790,"SET":3791,"insert":3792,"ĠCan":3793,"lab":3794,"06":3795,"${":3796,"resident":3797,"words":3798,"Ġstop":3799,"Ġchannel":3800,"Part":3801,"ĠDis":3802,"itive":3803,"ium":3804,"ively":3805,"bers":3806,"ĠEurope":3807,"google":3808,"ado":3809,"Ġgraph":3810,"]))":3811,"ithub":3812,"ĠMA":3813,"Ġlittle":3814,"iness":3815,"FILE":3816,"Ġseen":3817,"Ġleg":3818,"plot":3819,"leep":3820,"Ġoffic":3821,"foot":3822,"Ġmillion":3823,"raint":3824,"Ġdocumentation":3825,"[-":3826,"changed":3827,"Ġmajor":3828,"Ġfew":3829,"Down":3830,"Ob":3831,"pped":3832,"Ġ11":3833,"~~~~":3834,"Ġalign":3835,"Ġreference":3836,"Ġconsole":3837,"Ġleast":3838,"Ġassoci":3839,"Mat":3840,"year":3841,"edit":3842,"Ãº":3843,"'].":3844,"ln":3845,"lice":3846,"cing":3847,"Ġclear":3848,"urch":3849,",\"":3850,"Ġ---":3851,"home":3852,"non":3853,"PORT":3854,"(-":3855,"Ġprevious":3856,"comment":3857,"Ġnone":3858,"Spec":3859,"card":3860,"Ġgot":3861,"datetime":3862,"Ġray":3863,"ws":3864,"ĠWhen":3865,"Ġlight":3866,"ĠQu":3867,"Ġtree":3868,"Ġinterest":3869,"atal":3870,"Ġheaders":3871,"äº":3872,"oman":3873,"Font":3874,"ĠPh":3875,"Ġmusic":3876,"Ġmonth":3877,"Ġuid":3878,"Ass":3879,"Ġapi":3880,"NS":3881,"ixt":3882,")/":3883,"vector":3884,"Ġperiod":3885,"Ġbus":3886,"SIZE":3887,"Ġlocation":3888,"Ġcomplete":3889,"ront":3890,"ability":3891,"DF":3892,"ometry":3893,"ĠAnsible":3894,"batch":3895,"ĠConfig":3896,"control":3897,"Ġsever":3898,"final":3899,"category":3900,"Ġ\".":3901,"lish":3902,"Ġbinary":3903,"Open":3904,"zone":3905,"Ġdomain":3906,"****************************************************************":3907,"Ġside":3908,"08":3909,"Ġtimes":3910,"Ġ'-":3911,"Ġuh":3912,"Parameter":3913,"custom":3914,"metadata":3915,"ggle":3916,"verage":3917,"Ġgra":3918,"Write":3919,"ĠVector":3920,"cert":3921,"Ġtmp":3922,"Style":3923,"ouch":3924,"timeout":3925,"Ġtimeout":3926,"Document":3927,"ĠGer":3928,"rist":3929,"Ġri":3930,"byte":3931,"Ġcenter":3932,"Exec":3933,"ĠDes":3934,"align":3935,"aint":3936,"Ġcr":3937,"Ġgovernment":3938,"ĠShe":3939,"ĠCo":3940,"Ġseem":3941,"=\"/":3942,"Mod":3943,"Ġneeded":3944,"assertEquals":3945,"48":3946,"ĠJohn":3947,"vide":3948,"issing":3949,"ĠAR":3950,"Com":3951,"Ġann":3952,"ocus":3953,"game":3954,"ynam":3955,"ĠIP":3956,"Ġfeature":3957,"aterial":3958,"âĶĢâĶĢ":3959,"Ġsetup":3960,"Logger":3961,"Ġbar":3962,"ĠAmerican":3963,"weight":3964,"END":3965,"wd":3966,"errors":3967,"AA":3968,"Ġwhether":3969,"\"/>":3970,"Ġhard":3971,"96":3972,"Ab":3973,"aries":3974,"Ñģ":3975,"Ġsubject":3976,"Web":3977,"tains":3978,"WOR":3979,"Unit":3980,"dump":3981,"Port":3982,"CLUD":3983,"kit":3984,"Ġcho":3985,"Types":3986,"255":3987,"Ġprefix":3988,"layers":3989,"Ð¾Ð":3990,"Ġ17":3991,"dom":3992,"callback":3993,"Ġexit":3994,"Ġenvironment":3995,"37":3996,"____":3997,"Ġless":3998,"Core":3999,"Ġfunctions":4000,"ority":4001,"VE":4002,"modules":4003,"Ġtech":4004,"TEST":4005,"lig":4006,"oute":4007,"Off":4008,"ĠMy":4009,"ookie":4010,"hing":4011,"'ve":4012,"just":4013,"mask":4014,"à¥":4015,"Ġip":4016,"Ġignore":4017,".'":4018,"Ġinline":4019,"conn":4020,"Ġadded":4021,"Ġmemory":4022,"like":4023,"ison":4024,"Ġsite":4025,"duce":4026,"acy":4027,"utes":4028,"Ġbutton":4029,"Ġcountry":4030,"cb":4031,"Ġ..":4032,"Height":4033,"Ġens":4034,"Ġair":4035,"Ġpossible":4036,"ĠCal":4037,"Äį":4038,"Container":4039,"lem":4040,"ĠTra":4041,"sec":4042,"ICEN":4043,"zz":4044,"Ġdraw":4045,"RES":4046,"assertR":4047,"Ġregion":4048,"cial":4049,"stats":4050,"Ġemail":4051,"Ġcontains":4052,"ĠVal":4053,"Ġbook":4054,"ARY":4055,"Position":4056,"tags":4057,"Ġcomment":4058,"nes":4059,"Ġkind":4060,"boot":4061,"Ġactual":4062,"btn":4063,"45":4064,"none":4065,"Ġlead":4066,"Que":4067,"Ġdefine":4068,"Mock":4069,"Ġcop":4070,"Ġlib":4071,"'>":4072,"screen":4073,"Ġnumpy":4074,"application":4075,"Min":4076,"ĠGe":4077,"profile":4078,"CLUDING":4079,"Ġflags":4080,"Ġchanges":4081,"global":4082,"Ġrest":4083,"Menu":4084,"ade":4085,"Ġpassed":4086,"Invalid":4087,"gment":4088,"Vis":4089,"cret":4090,"gan":4091,"known":4092,"uc":4093,"Ġep":4094,"Ġsequence":4095,"MD":4096,")\"":4097,"Target":4098,"olve":4099,"<?":4100,"Reuters":4101,"grid":4102,"ilar":4103,"Ġ####":4104,"wards":4105,"Ġprom":4106,"precated":4107,"Ġstandard":4108,"ĠBG":4109,"arm":4110,"Device":4111,"Ġpattern":4112,"Pass":4113,"rest":4114,"Ġlow":4115,"rs":4116,"Ġ50":4117,"If":4118,"Ġ'',":4119,"Ġ<[":4120,"Pri":4121,"real":4122,"()->":4123,"ĠDo":4124,"YPE":4125,"ICENSE":4126,"tty":4127,"depend":4128,"setup":4129,"assertRaises":4130,"Ġdiff":4131,"related":4132,"starts":4133,"Ġcla":4134,"draw":4135,"Ġremo":4136,"bb":4137,"eder":4138,"POST":4139,"Ġ\"-":4140,"!/":4141,"95":4142,"Ġevents":4143,"train":4144,"platform":4145,"ench":4146,"ounc":4147,"Ġsix":4148,"ãĢĤ":4149,"Ġonce":4150,"Ġeng":4151,"ats":4152,"oriz":4153,"Ġ{%":4154,"Settings":4155,"Ġbecome":4156,"medi":4157,"ĠRem":4158,"Ġelements":4159,"åħ":4160,"ĠSte":4161,"tool":4162,"double":4163,"ww":4164,"ĠEV":4165,"Ġsection":4166,"CS":4167,"=\"../../../../../":4168,"Ġgoing":4169,"framework":4170,"ĠInter":4171,"Level":4172,"Ġtrack":4173,"ĠPy":4174,"eta":4175,"loader":4176,"allow":4177,"ools":4178,"Ġforce":4179,"math":4180,"Ġarea":4181,"ĠUSE":4182,"points":4183,"'m":4184,"Ġcare":4185,"Ġface":4186,"Http":4187,"_(":4188,"Template":4189,"Ġraw":4190,"alloc":4191,"Ġdtype":4192,"illi":4193,"ĠDate":4194,"Ġearly":4195,"rupt":4196,"'ll":4197,"Ġ'__":4198,"reet":4199,"Ġpoints":4200,"gorithm":4201,"Ġcause":4202,"lain":4203,"zer":4204,"tools":4205,"Ġnear":4206,"compile":4207,"CODE":4208,"VIC":4209,"Ġdim":4210,"ĠIO":4211,":%":4212,"report":4213,"Ver":4214,"ours":4215,"ORS":4216,"success":4217,"Equals":4218,"ancel":4219,"Ġdepend":4220,"Last":4221,"Ġsimple":4222,"ETTER":4223,"Ġmet":4224,"âĢĻ":4225,"ĠÃ":4226,"Ġpercent":4227,"THER":4228,"ential":4229,"ĠSc":4230,"MAX":4231,"Ġemp":4232,"free":4233,"åĲ":4234,"ĠCre":4235,"%%":4236,"Ġcost":4237,"çĶ":4238,"adow":4239,"SO":4240,"Description":4241,"napshot":4242,"ĠLETTER":4243,"public":4244,"ĠCONTR":4245,"Ġcontainer":4246,"ĠTODO":4247,"ĠFROM":4248,"logger":4249,"256":4250,"ĠCOP":4251,"Ġseries":4252,"Ġprob":4253,"los":4254,"\"));":4255,"ĠWorld":4256,"ĠJSON":4257,"istic":4258,"ĠDefault":4259,"è¿":4260,"Access":4261,"Ġencoding":4262,"BUG":4263,"van":4264,"OO":4265,"Ġusers":4266,"arning":4267,"Ġà¤":4268,"Ġteam":4269,"Su":4270,"EW":4271,"Ġparam":4272,"Ġusername":4273,"Empty":4274,"acity":4275,"ĠCOPY":4276,"ĠStates":4277,"Sy":4278,"ĠCar":4279,")</":4280,"Range":4281,"Ġtw":4282,"Ġcover":4283,"curs":4284,"ĠWeb":4285,"ĠNe":4286,"Ġincluded":4287,"Ġgeneral":4288,"Ġadmin":4289,"pose":4290,"ĠMin":4291,"Ġinc":4292,"groups":4293,"Å¾":4294,"uss":4295,"------------":4296,"(?":4297,"Acc":4298,"ĠSome":4299,"Host":4300,"ĠBGCOLOR":4301,"Ġkeys":4302,"Ġhandler":4303,"Ġalt":4304,"\":\"":4305,"ley":4306,"volume":4307,"licit":4308,"Ġclean":4309,"lug":4310,"Ġmov":4311,",'":4312,"Ġplt":4313,"iant":4314,"76":4315,"æĸ":4316,"decode":4317,"Render":4318,"Hash":4319,"ger":4320,"pid":4321,"=%":4322,"Next":4323,"Ġwritten":4324,"ĠDO":4325,">'":4326,"izes":4327,"ĠOTHER":4328,"Ġseason":4329,"ä½":4330,"ilit":4331,"Ġgenerate":4332,"ĠAssert":4333,"enter":4334,"ailed":4335,"linux":4336,"Reader":4337,"sd":4338,"Ġ\",":4339,"LOG":4340,")[":4341,"09":4342,"Stack":4343,"Argument":4344,"Ġ13":4345,"socket":4346,"normal":4347,"ued":4348,"Work":4349,"Ġinternal":4350,"driver":4351,"]['":4352,"ilities":4353,"utable":4354,"rank":4355,"zip":4356,"å®":4357,"ĠAP":4358,"Ġscale":4359,"Meta":4360,"aster":4361,"Ġpack":4362,"views":4363,"42":4364,"Tests":4365,"Ġlayer":4366,"footer":4367,"ĠCO":4368,"ĠÂ":4369,"uper":4370,"Dep":4371,"Ġbuilt":4372,"Json":4373,"ball":4374,"ACE":4375,"=\"_":4376,"unic":4377,"ĠWest":4378,"Ġattemp":4379,"Ġquest":4380,"CA":4381,"Ġindic":4382,"pg":4383,"Dict":4384,"Ġthings":4385,"aved":4386,"Graph":4387,"etail":4388,"FLAG":4389,"Ġseveral":4390,"language":4391,"ands":4392,"Ġterm":4393,"actions":4394,"pay":4395,"ases":4396,"engine":4397,"AND":4398,"Ġtypedef":4399,"Num":4400,"One":4401,"short":4402,"_.":4403,"aj":4404,"Ġabsolute":4405,"pdf":4406,"Ġreason":4407,"]+":4408,"GR":4409,"HTTP":4410,"ression":4411,"tric":4412,"Ġ~":4413,"OUT":4414,"FI":4415,"Ġorgan":4416,"Current":4417,"oup":4418,"Ġlambda":4419,"ragment":4420,"Ġchildren":4421,"59":4422,"cap":4423,"Cre":4424,"pattern":4425,"Ġasync":4426,"=\"../../../../../../":4427,"MPL":4428,"fc":4429,"ĠTrans":4430,"Ġsepar":4431,"Ġmedia":4432,"Ġbelie":4433,"variable":4434,"Ġsw":4435,"culate":4436,"Ġadditional":4437,")):":4438,"Ġcannot":4439,"Ġcred":4440,"Ġexisting":4441,"Helper":4442,"Ġaccept":4443,"UID":4444,"region":4445,"returns":4446,"ĠError":4447,"ĠPe":4448,"Ġ++":4449,"Ġspecial":4450,"Ġscore":4451,"Ġcontribut":4452,"Ġstack":4453,"Ġdev":4454,"times":4455,"where":4456,"Ġconn":4457,"Title":4458,"hip":4459,".\")":4460,"Reg":4461,"Callback":4462,"(:":4463,"Co":4464,"Ġmultiple":4465,"ping":4466,"Ġgenerated":4467,"ĠImport":4468,"atter":4469,"31":4470,"MB":4471,"ĠAb":4472,"arr":4473,"Ġctx":4474,"Click":4475,"Us":4476,"CTION":4477,"ĠAct":4478,"reset":4479,"urity":4480,"attributes":4481,"Ġutil":4482,"%;":4483,"Ġsql":4484,"Ġextern":4485,"oom":4486,"ntax":4487,"actor":4488,"struction":4489,"Ġ25":4490,"JSON":4491,"PAR":4492,"Ġexists":4493,"DD":4494,"outer":4495,"aff":4496,"transform":4497,"alys":4498,"oney":4499,"First":4500,"ndef":4501,"98":4502,"Plugin":4503,"equals":4504,"CONFIG":4505,"Ġbuf":4506,"PS":4507,"ĠSy":4508,"RIGHT":4509,"ĠCONF":4510,"Tri":4511,"isode":4512,"abs":4513,"look":4514,"Location":4515,"Ġ#################################":4516,"entication":4517,"(\"%":4518,"Ġplayer":4519,"ersist":4520,"clean":4521,"ĠTemp":4522,"mes":4523,"Ġplatform":4524,"alysis":4525,"Ġschool":4526,"Control":4527,"Ġhold":4528,"ĠInit":4529,"Ġtuple":4530,"Ġ\"<":4531,"Ġoperation":4532,"Ġsizeof":4533,"ĠIntern":4534,"Ġide":4535,"Ġmakes":4536,"begin":4537,"Ġdue":4538,"Params":4539,"ped":4540,"Ġmath":4541,"Project":4542,"Ġscope":4543,"Ġattributes":4544,"Å¡":4545,"HTML":4546,"Order":4547,"ĠThese":4548,"Ġcentury":4549,":`":4550,"users":4551,"stdout":4552,"Ġeas":4553,"Ġ>>":4554,"zy":4555,"Ġfinally":4556,"unt":4557,"DATA":4558,"holder":4559,"extra":4560,"Rule":4561,"Ġexperi":4562,"Ġthough":4563,"ĠIMP":4564,"Ġesc":4565,"Ġsocket":4566,"Ġskip":4567,"[$":4568,"Ġcomput":4569,"cale":4570,"Writer":4571,"Application":4572,"Ġparts":4573,"otion":4574,"small":4575,"tect":4576,"Dialog":4577,"ae":4578,"AMA":4579,"though":4580,"ĠImage":4581,"fully":4582,"Ġbl":4583,"Boolean":4584,"Ġsel":4585,"ĠLICENSE":4586,"rong":4587,"\"):":4588,"validate":4589,"lates":4590,"Ġvolume":4591,"Ġ\\$":4592,"Ph":4593,"00000000":4594,"drop":4595,"Ġoften":4596,"ĠHTTP":4597,"ĠSH":4598,"Ġfri":4599,"imation":4600,"lier":4601,"Ġvariables":4602,"Ġgive":4603,"ernel":4604,"Ġassociated":4605,"ĠOut":4606,"SL":4607,"media":4608,"startswith":4609,"Ġdesc":4610,"Ġscene":4611,"attribute":4612,"Ġhig":4613,"LECT":4614,"ently":4615,"Ġfeel":4616,"Ġhistory":4617,"ĠWith":4618,"Ġunittest":4619,"Ġpick":4620,"Ġdirection":4621,"iversity":4622,"ĠMap":4623,"CHE":4624,"Ġ24":4625,"dat":4626,"]),":4627,"Ġflag":4628,"Post":4629,"Ġ(*":4630,"uby":4631,"ĠCorp":4632,"Ġ*)":4633,"sample":4634,"Ġexc":4635,"======":4636,"Sec":4637,"æķ":4638,"']:":4639,"Ġactually":4640,"vars":4641,"ACT":4642,"oration":4643,"Ġfar":4644,"IM":4645,"SY":4646,"ĠCont":4647,"Ġtensorflow":4648,"dr":4649,"Ġthing":4650,"Iter":4651,"fl":4652,"Ġandroid":4653,"Ġche":4654,"RECT":4655,"PER":4656,"alle":4657,"ĠCode":4658,"Ġequal":4659,"Ġunique":4660,"primary":4661,"Ġ32":4662,"Ġdistribution":4663,"ĠLOG":4664,"Ġunicode":4665,"Draw":4666,"ĠNet":4667,"Ġio":4668,"Ġdeal":4669,"Ġ2015":4670,"Ġnothing":4671,"Ġreplace":4672,"example":4673,"Ġ2014":4674,"git":4675,"ifndef":4676,"Ġ2013":4677,"ĠGoogle":4678,"ĠMay":4679,"Ġhit":4680,"Ġnamed":4681,"07":4682,"mitted":4683,"ĠAfter":4684,"Found":4685,"press":4686,"track":4687,"ĠStat":4688,"Ġthird":4689,"FORM":4690,"ocket":4691,"illa":4692,"Ġsupported":4693,"å¤":4694,"dates":4695,"omb":4696,"GB":4697,"Ġdri":4698,"raq":4699,"Ġworks":4700,"VERSION":4701,"46":4702,"hs":4703,"ocial":4704,"ĠNote":4705,"stand":4706,"Ġgl":4707,"ĠForm":4708,"rr":4709,"force":4710,"UTH":4711,">,":4712,"diff":4713,"Ġdidn":4714,"sect":4715,"totype":4716,"Ġlot":4717,"Args":4718,"bor":4719,"\"}":4720,"score":4721,"rf":4722,"stderr":4723,"ads":4724,"Ġbecame":4725,"ĠLi":4726,"gether":4727,"ĠOne":4728,"Sk":4729,"ĠComm":4730,"__)":4731,"policy":4732,"storage":4733,"Ġparticular":4734,"ĠOption":4735,"Ġmessages":4736,"ncy":4737,"uuid":4738,"Ġtoday":4739,"ĠText":4740,"ĠâĢĵ":4741,"Auto":4742,"posed":4743,"toString":4744,"Ġmatrix":4745,"kens":4746,"Bundle":4747,"ĠYork":4748,"rench":4749,"(['":4750,"Ġfig":4751,"ourn":4752,"Ġtags":4753,"Fore":4754,"thers":4755,"itude":4756,"SQL":4757,"&#":4758,"ĠWindow":4759,"strap":4760,"Ġ'--":4761,"Ġder":4762,"bum":4763,"using":4764,"else":4765,"Ġproblem":4766,"$(":4767,"Ġyet":4768,"github":4769,"messages":4770,"ĠBritish":4771,"Ġawait":4772,"ĠAL":4773,"Ge":4774,"mac":4775,"Enum":4776,"Ġgrow":4777,"idual":4778,"STAT":4779,"Ġfeatures":4780,"Ġfamily":4781,"-->":4782,"printf":4783,";<":4784,"Package":4785,"Ġactive":4786,"cpu":4787,"Ġpixel":4788,"USER":4789,"Ġprovide":4790,"Ġproperties":4791,"Ġfall":4792,"Ġentity":4793,"ĠExt":4794,"Ġgetattr":4795,"rew":4796,"Ġforeach":4797,"fetch":4798,"è¯":4799,"(){":4800,"'d":4801,"æĺ":4802,"ĠMicrosoft":4803,"ĠEd":4804,"rief":4805,"edia":4806,"Ġdebug":4807,"ĠPre":4808,"igr":4809,"Ġremain":4810,"rb":4811,"Ġ{{":4812,"îĪ":4813,"entials":4814,"ĠWar":4815,"ĠMake":4816,":</":4817,"lambda":4818,"Ġ'_":4819,"many":4820,"obile":4821,"ĠRep":4822,"Sign":4823,"dirname":4824,"Print":4825,"video":4826,"Ġ[[":4827,"Ġradi":4828,"LIED":4829,"Parameters":4830,"Match":4831,"ians":4832,"SED":4833,"matrix":4834,"Ġinteger":4835,"97":4836,"Ġuses":4837,"requ":4838,"->_":4839,"Ġpolicy":4840,"Ġnodes":4841,"cover":4842,"chine":4843,"dy":4844,"Ġcursor":4845,"ĠLog":4846,"arter":4847,"ĠSub":4848,"++;":4849,"Ġjavax":4850,"Ġassign":4851,"=['":4852,"player":4853,"Ġkill":4854,"Ġrelative":4855,"inner":4856,"Ġlock":4857,"Ġcast":4858,"Ġvector":4859,"ĠAS":4860,"Ġthought":4861,"internal":4862,"ĠLIMIT":4863,":**":4864,"bot":4865,"ĠHowever":4866,"Param":4867,"Do":4868,"ITE":4869,"ico":4870,"quiv":4871,"iet":4872,"Ġfuture":4873,"Ġmembers":4874,"dtype":4875,"ages":4876,"namespace":4877,"VID":4878,"ĠIMPLIED":4879,"axis":4880,"Ġimages":4881,"Top":4882,"Ġallowed":4883,"Ġbound":4884,"ĠPri":4885,"acing":4886,"si":4887,"85":4888,"Ġpur":4889,"ffix":4890,"Bytes":4891,"ĠâĢ":4892,"47":4893,"Ptr":4894,"Ġmaking":4895,"children":4896,"Ġ2012":4897,"Ġamount":4898,"Ġgroups":4899,"parameters":4900,"role":4901,"ĠDAMA":4902,"unity":4903,"high":4904,"Ġenough":4905,"Util":4906,"Ġbatch":4907,"ranch":4908,"ffff":4909,"////////////////////////////////":4910,"aper":4911,"Ġserial":4912,"oston":4913,"Ġvia":4914,"Ġexpression":4915,"ros":4916,"Ġwor":4917,"************************************************************************":4918,"Ġcommands":4919,"#!/":4920,"orizont":4921,"Ġdefin":4922,"Ġmovies":4923,"REG":4924,"termin":4925,"Ġansible":4926,"opts":4927,"Ġinstalled":4928,"Ġdictionary":4929,"Local":4930,"ĠBE":4931,"Ġmetadata":4932,"Ġforms":4933,"FR":4934,"dic":4935,"Ġicon":4936,"reshold":4937,"ummy":4938,"Storage":4939,"omat":4940,"Ġant":4941,"Float":4942,"ho":4943,"ECT":4944,"Ġselected":4945,"ĠBUT":4946,"ĠBuild":4947,"ONE":4948,"encoding":4949,"Ġscen":4950,"hook":4951,"Ġ<!":4952,"ĠQt":4953,"Properties":4954,"Ġfmt":4955,"\"])":4956,"quare":4957,"ming":4958,").__":4959,"aring":4960,"ĠState":4961,"'},":4962,"directory":4963,"Ġstrings":4964,"Ġqual":4965,"extend":4966,"Edit":4967,"olution":4968,"ĠCl":4969,"ĠPO":4970,"sumer":4971,"Ġdisable":4972,"some":4973,"Failed":4974,"Ġfn":4975,"()))":4976,">();":4977,"Ġtool":4978,"ĠAtt":4979,"ĠInt":4980,"Ġsecurity":4981,"Values":4982,"arn":4983,"TA":4984,"Exp":4985,"ĠLAT":4986,"ĠAf":4987,"ĠHttp":4988,"Ġremote":4989,"WN":4990,"release":4991,"apter":4992,"ynamic":4993,"properties":4994,"ising":4995,"ĠIraq":4996,"hidden":4997,"enable":4998,"lim":4999,"ceive":5000,"Close":5001,"ister":5002,"Ġpat":5003,"Ġsimp":5004,"Ġimplementation":5005,"Ġtab":5006,"unique":5007,"Ġ255":5008,"Ġ$_":5009,"attle":5010,"clus":5011,"coded":5012,"Enc":5013,"ao":5014,"](":5015,"Red":5016,"Ġcontaining":5017,"airs":5018,"mut":5019,"Ġlik":5020,"ressed":5021,"Ġhor":5022,"Variable":5023,"orizontal":5024,"ĠVAL":5025,"ĠLess":5026,"ĠFe":5027,"urther":5028,"asure":5029,"ĠAcc":5030,"aps":5031,"Ġdays":5032,"ABILITY":5033,"unittest":5034,"Use":5035,"quote":5036,"Layer":5037,"Ġneeds":5038,"Ġlove":5039,"tensor":5040,"Ġoperator":5041,"Ġsplit":5042,"yes":5043,"('#":5044,"ube":5045,"safe":5046,"exc":5047,"tf":5048,"seq":5049,"igration":5050,"ios":5051,"Ġloop":5052,"ById":5053,"urrency":5054,"ĠLATIN":5055,"Env":5056,"ogn":5057,"Ġattack":5058,"Rect":5059,"Ġshare":5060,"ips":5061,"compiler":5062,"Ġagree":5063,"Ġensure":5064,"Icon":5065,"after":5066,"gb":5067,"ka":5068,"components":5069,"Files":5070,"Ġhalf":5071,"events":5072,"Ġcapt":5073,"ĠEvent":5074,"Loader":5075,"Ġimg":5076,"lers":5077,"Tool":5078,"Ġapply":5079,"Ġmask":5080,"tic":5081,"cut":5082,"Changed":5083,"ORY":5084,"aged":5085,"ĠRec":5086,"inst":5087,"grade":5088,"hr":5089,"Ġlinks":5090,"Ġå":5091,"Classes":5092,"une":5093,"gent":5094,"ĠLIMITED":5095,"Ġvisit":5096,"Ġmen":5097,"=-":5098,"ixture":5099,"Ġisn":5100,"Ġjoin":5101,"ifdef":5102,"(\"/":5103,"Ġlang":5104,"Ġaxis":5105,"Ġrelated":5106,"Ġloss":5107,"DEFAULT":5108,"gu":5109,"collection":5110,"PUT":5111,"Ġactiv":5112,"ĠFri":5113,"Ġissue":5114,"pare":5115,"liver":5116,"mpt":5117,"MODE":5118,"(!":5119,"Ġnight":5120,"peat":5121,"ĠNode":5122,"spond":5123,"eval":5124,"selected":5125,"inux":5126,"enabled":5127,"TABLE":5128,"TIME":5129,"environ":5130,"Ġaway":5131,"Ġdeath":5132,"Ġcommit":5133,"ĠGu":5134,"inder":5135,"Ġrequests":5136,"Ġenable":5137,"Ġfilms":5138,"BC":5139,"URE":5140,"ĠGroup":5141,"Ġrate":5142,"Ste":5143,"AF":5144,"area":5145,"ulate":5146,"ived":5147,"ĠBoston":5148,"Ġsetting":5149,"ĠCity":5150,"ested":5151,"Ġ2011":5152,"bal":5153,"æĪ":5154,"Ġwords":5155,"READ":5156,"Ġclasses":5157,"Ġinvalid":5158,"oring":5159,"ificate":5160,"Can":5161,"Ġtransform":5162,"loads":5163,"Ġcamp":5164,">\\":5165,"WE":5166,"ĠON":5167,"delta":5168,"Ġoptional":5169,"_;":5170,"eds":5171,"Admin":5172,"Ġ40":5173,"Ġreleased":5174,"NavBarCell":5175,"ife":5176,"ustr":5177,"Ġlower":5178,".')":5179,"DateTime":5180,"ĠRedistribut":5181,"ĠLIABILITY":5182,"Ġcharset":5183,"Ġrc":5184,"done":5185,"iddleware":5186,"Ġ${":5187,"apper":5188,"Ġecon":5189,"irc":5190,"Ġimportant":5191,"Pr":5192,"INFO":5193,"DL":5194,"uary":5195,"aven":5196,"ards":5197,"Left":5198,";/":5199,"ĠTHIS":5200,"Ġok":5201,"aging":5202,"49":5203,"radius":5204,"Ġmis":5205,"Ġverbose":5206,"Ġmanager":5207,"ffero":5208,"Ġcut":5209,"ĠAffero":5210,"ĠHere":5211,"Ġchunk":5212,"Ġmeans":5213,"olver":5214,"Ġ#################################################################":5215,"folder":5216,"WS":5217,"avior":5218,"ana":5219,"Ġanything":5220,"scal":5221,"ada":5222,"Ġstructure":5223,"Api":5224,"Ġtele":5225,"65":5226,"thern":5227,"ĠChar":5228,"Ġtransp":5229,"Ġtakes":5230,"Di":5231,"cessary":5232,"ised":5233,"Ġengine":5234,"writ":5235,"Ġsm":5236,"DU":5237,"Ġrefer":5238,"Ġtell":5239,"ĠFrench":5240,"wner":5241,"Ġfoot":5242,"rain":5243,"Ġpolit":5244,"Ġev":5245,"Ġdes":5246,"wrap":5247,"ĠSec":5248,"Mon":5249,"trace":5250,"Ġimplements":5251,"GER":5252,"ategy":5253,"proxy":5254,"white":5255,"Ġbelow":5256,"Schema":5257,"unsigned":5258,"Names":5259,"ĠSouth":5260,"Ġable":5261,"sig":5262,"Ġinvol":5263,"Ġmilit":5264,"*)":5265,"Ġopp":5266,"flag":5267,"__,":5268,"ĠPort":5269,"kw":5270,"Ġextension":5271,"dapt":5272,"formed":5273,"ula":5274,"oose":5275,"IBUT":5276,"Ġinsert":5277,"Channel":5278,"000000":5279,"panel":5280,"detail":5281,"anch":5282,"schema":5283,"gl":5284,"uck":5285,"rees":5286,"illed":5287,"Custom":5288,"Ġfive":5289,"created":5290,"ram":5291,"ĠThat":5292,"rome":5293,"Ġ2010":5294,"rat":5295,"fill":5296,"Ġwhite":5297,"Ġtalk":5298,"hand":5299,"hell":5300,"proto":5301,"ev":5302,"Implement":5303,"cloud":5304,"Xml":5305,"lav":5306,"ĠModel":5307,"Matrix":5308,"Ġpk":5309,"Ġ%(":5310,":]":5311,"Ġitself":5312,"ĠPol":5313,"ĠMarkdown":5314,"Handle":5315,"omen":5316,"Detail":5317,"ĠRequest":5318,"LOCK":5319,"ĠFunction":5320,"_,":5321,"Ġsex":5322,"Ġoperations":5323,"rm":5324,"ĠReser":5325,"testing":5326,"Byte":5327,"__':":5328,"ĠOUT":5329,"Ġâ":5330,"So":5331,"security":5332,"Ġcame":5333,"once":5334,"ĠQue":5335,"Ġrather":5336,"Ġupdated":5337,"PU":5338,"ĠSource":5339,"Ġgit":5340,"Load":5341,"Ġem":5342,"Ġvi":5343,"Ġopts":5344,"sequence":5345,"samples":5346,"ua":5347,"Ġqueue":5348,"pm":5349,"(\"\\":5350,"Ġmeta":5351,"Ġinvest":5352,"price":5353,"ridge":5354,"ĠWITH":5355,"getElement":5356,"Enabled":5357,"Å¥":5358,"factory":5359,"ĠLesser":5360,"Ġì":5361,"IF":5362,"Ġworking":5363,"boolean":5364,"Ġotherwise":5365,"Ġedit":5366,"ission":5367,"SR":5368,"ague":5369,"ĠGo":5370,"Ġcrit":5371,"rigin":5372,"Ã³":5373,"columns":5374,"invalid":5375,"ĠEnd":5376,"Ġbr":5377,"Ġstorage":5378,"Reference":5379,"BR":5380,"Ġwhy":5381,"Ġdesign":5382,"dio":5383,"Ġ60":5384,"Ġ----------------------------------------------------------------":5385,"ĠUpdate":5386,"Offset":5387,"ĠUN":5388,"Ġsimilar":5389,"compute":5390,"Ġmenu":5391,"ĠSk":5392,"ĠWH":5393,"Qt":5394,"bed":5395,"eno":5396,"Ġhasattr":5397,"controller":5398,"Ġneg":5399,"compat":5400,"prototype":5401,"Ġmarket":5402,"acter":5403,"ĠCOPYRIGHT":5404,"ĠVer":5405,"Queue":5406,"}\"":5407,"Ġmember":5408,"Obj":5409,"ĠMo":5410,"ords":5411,"Ġstates":5412,"Py":5413,"Ð»":5414,"Ġ_,":5415,"Ġhaving":5416,"initial":5417,"Ġ2004":5418,"features":5419,"Ġentire":5420,"Ġoffer":5421,"rad":5422,"database":5423,"Ġ=========":5424,"Ġmom":5425,"DATE":5426,"ĠassertEquals":5427,"spe":5428,"Pool":5429,"Panel":5430,"Ġdevelopment":5431,"Ġblack":5432,"timestamp":5433,"ĠHel":5434,"cfg":5435,"Ġcategory":5436,"Ġinteg":5437,"Ġseems":5438,"dot":5439,"'];":5440,"MIN":5441,"OF":5442,"-%":5443,"IPT":5444,"Ġdistance":5445,"missions":5446,"ĠLoc":5447,"ignKey":5448,"Ġcult":5449,"Network":5450,"Ġmissing":5451,"Ind":5452,"erate":5453,"ĠMat":5454,"Ġask":5455,"Ġsen":5456,"protocol":5457,"resources":5458,"padding":5459,"ica":5460,"sur":5461,"WI":5462,"Ġservices":5463,"Ġavoid":5464,"Impl":5465,"Ġhuman":5466,"Ġmd":5467,"fp":5468,"================================================================":5469,"ederal":5470,"Ġcore":5471,"Ali":5472,"}/":5473,"letion":5474,"ggest":5475,"shared":5476,"Ġstrong":5477,"rance":5478,"ĠWindows":5479,"ĠWed":5480,"Ġusage":5481,"prop":5482,")).":5483,"Expression":5484,"ĠCH":5485,"Ġsupp":5486,"labels":5487,"ii":5488,"mk":5489,"wrapper":5490,"feature":5491,"chron":5492,"Ġwhole":5493,"orrect":5494,"loop":5495,"Ġcompat":5496,"()),":5497,"kind":5498,"OB":5499,"ha":5500,"\\.":5501,"ä¸Ģ":5502,"assign":5503,"resses":5504,"Policy":5505,"Tab":5506,"sq":5507,"ĠBar":5508,"serial":5509,"agent":5510,"ategories":5511,"provider":5512,"ĠMonday":5513,"inf":5514,"impl":5515,"pb":5516,"Ġlabels":5517,"Ġgets":5518,"Ġsolid":5519,"DEBUG":5520,"128":5521,"Descript":5522,"Ġeq":5523,"identifier":5524,"ĠNorth":5525,"ĠsetUp":5526,"ales":5527,"Ġ1000":5528,"private":5529,"åŃ":5530,"ĠOS":5531,"Ġaccording":5532,"Ġintern":5533,"stant":5534,"Te":5535,"herit":5536,"Ġcertain":5537,"plan":5538,"Ġson":5539,"Ġvalidate":5540,"andid":5541,"ĠIndex":5542,"loor":5543,"Job":5544,"Ġacting":5545,"Ġce":5546,"istance":5547,"LS":5548,"hi":5549,"quired":5550,"laced":5551,"itect":5552,"lies":5553,"Ġaverage":5554,"############":5555,"ĠCommand":5556,"Ġhappen":5557,"Ġpool":5558,"unicode":5559,"Ġhist":5560,"stit":5561,"Password":5562,"CRE":5563,"My":5564,"Ġtrain":5565,"warning":5566,"Delete":5567,"Ġnor":5568,"Ġimpro":5569,"Ġlogin":5570,"WORD":5571,"Ġlargest":5572,"çĶ¨":5573,"89":5574,"iles":5575,"Ġhouse":5576,"ung":5577,"CTYPE":5578,"Metadata":5579,"ester":5580,"ĠProject":5581,"HERE":5582,"Eng":5583,"utor":5584,"Ġdig":5585,"/%":5586,"Ġamong":5587,"Ġfill":5588,"cred":5589,"87":5590,"VI":5591,"pa":5592,"Account":5593,"ased":5594,"ims":5595,"Ġdirectly":5596,"Ġ'#":5597,"enum":5598,"Ġrout":5599,"basic":5600,"Ġprofile":5601,"ĠSQL":5602,"('\\":5603,"Ġpretty":5604,"è®":5605,"Ġprintf":5606,"Ġetc":5607,"ĠPr":5608,"commit":5609,";}":5610,"sph":5611,"Ġpast":5612,"sens":5613,"----------":5614,"ality":5615,"Ġemb":5616,"uesday":5617,"ĠJap":5618,"Display":5619,"Root":5620,"Ġpointer":5621,"Ġ64":5622,"WR":5623,"activ":5624,"route":5625,"NULL":5626,"Ġmatches":5627,"Database":5628,"chain":5629,"Ġtook":5630,"\">&":5631,"^^":5632,"ĠAD":5633,"lor":5634,"contents":5635,"memory":5636,"added":5637,"Ġalmost":5638,"Operation":5639,"Ġhel":5640,"ĠNumber":5641,"Ġfire":5642,"Ġye":5643,"Ġresources":5644,"Ġchoices":5645,"Ġstarted":5646,"istics":5647,"convert":5648,"'})":5649,"åĬ":5650,"()[":5651,"ney":5652,"Ġtraining":5653,"Ġsorted":5654,"bound":5655,"Ġve":5656,"ili":5657,"Are":5658,"Mark":5659,"trics":5660,"TC":5661,"Ġothers":5662,"ames":5663,"Ġedge":5664,"iece":5665,"Ġpaths":5666,"family":5667,"Ġyoung":5668,".\",":5669,"Def":5670,"IST":5671,"loaded":5672,"vant":5673,"ament":5674,"ĠMac":5675,"Ġcamera":5676,"Ġ\"\",":5677,"uler":5678,"NOT":5679,"gp":5680,"ĠMessage":5681,"åľ":5682,"based":5683,"miss":5684,"II":5685,"chedule":5686,"://":5687,"omin":5688,"Ġschema":5689,"Ġprobably":5690,"bad":5691,"nesday":5692,"COMP":5693,"bi":5694,"cel":5695,"cursor":5696,"Ġpot":5697,"Ġvarious":5698,"nology":5699,"Ġdescribe":5700,"Ġ2008":5701,"mean":5702,"Parent":5703,"ERT":5704,"submit":5705,"Fields":5706,"izing":5707,"oss":5708,"Has":5709,"Ġfav":5710,"Ġcour":5711,"Ġenter":5712,"uk":5713,"Right":5714,"Ġcalls":5715,"chan":5716,"VICE":5717,"Grid":5718,"SELECT":5719,"Ġcontents":5720,"Adapt":5721,"GES":5722,"84":5723,"Lock":5724,"Ġids":5725,"<<":5726,"orary":5727,"Ġng":5728,"Parse":5729,"Ġnumbers":5730,"fficient":5731,"pet":5732,"async":5733,"Ġtrace":5734,"ggreg":5735,"joy":5736,"RI":5737,"Ġcomplex":5738,"translation":5739,"Long":5740,"Ġcluster":5741,"Ġutils":5742,"Ġfurther":5743,"=\"../../../":5744,"ĠField":5745,"ĠRead":5746,"Ġestab":5747,"enchmark":5748,"Ġ!==":5749,"Ġ\"'":5750,"uess":5751,"({'":5752,"Ġcy":5753,"Timeout":5754,"Many":5755,"Ġdivision":5756,"XML":5757,"Ġdataset":5758,"Ġcopies":5759,"ĠEND":5760,"Ident":5761,"Results":5762,"filters":5763,"then":5764,"ograph":5765,"Ġnote":5766,"Ġseconds":5767,"asing":5768,"Ġur":5769,"Ġindiv":5770,"Ġexecute":5771,"ĠTuesday":5772,"hy":5773,"cluster":5774,"Profile":5775,"println":5776,"Ġacross":5777,"Ġzip":5778,"cessed":5779,"ignore":5780,"Ġsn":5781,"regex":5782,">\"":5783,"Ġrows":5784,"ĠDef":5785,"Ġprotocol":5786,"160":5787,"ifest":5788,"ĠIF":5789,"Player":5790,"keyword":5791,"ĠPresident":5792,".)":5793,"Li":5794,"Ġ\"$":5795,"How":5796,"ĠUSA":5797,"ateway":5798,"Ġrules":5799,"sched":5800,".$":5801,"Ġappear":5802,"Ġland":5803,"details":5804,"imate":5805,"Ġsays":5806,"ursday":5807,"Ġpopulation":5808,"Msg":5809,"Ġbuilder":5810,"ForeignKey":5811,"Ġcorrespond":5812,"Ġfix":5813,"resp":5814,"Ġcor":5815,"lapse":5816,"Ġten":5817,"ban":5818,"ĠEVENT":5819,"cm":5820,"INTER":5821,"toggle":5822,"ensive":5823,"Ġvec":5824,"before":5825,"cpp":5826,"54":5827,"bus":5828,"Ġsens":5829,"direction":5830,"expr":5831,"ĠArgs":5832,"Ġbusiness":5833,"theme":5834,"Ġfi":5835,"Ġmoney":5836,"ĠChrist":5837,"Ġ2016":5838,"Ġproduction":5839,"Ġspecify":5840,":\\":5841,"ĠDEFAULT":5842,"ĠMem":5843,"ummary":5844,"Descriptor":5845,"TS":5846,"Ġconstant":5847,"BASE":5848,"]*":5849,"otal":5850,"ĠPart":5851,"}.":5852,"æķ°":5853,"FLAGS":5854,"fmt":5855,"lying":5856,"Ġbegan":5857,"export":5858,"master":5859,"dst":5860,"Ġlayout":5861,"Ġprovides":5862,"Ġ'\"":5863,"ĠWednesday":5864,"Ġ([":5865,"ĠMock":5866,"ournal":5867,"Op":5868,"57":5869,"Ke":5870,"contains":5871,"plugins":5872,"æĺ¯":5873,"cks":5874,"Ġremoved":5875,"DOCTYPE":5876,"Ġgrid":5877,"come":5878,"Flow":5879,"Ġenabled":5880,"Ġbrowser":5881,"generate":5882,"Ġoptim":5883,"()).":5884,"Ġvict":5885,"ĠOver":5886,"SCR":5887,"Body":5888,"Ġsignal":5889,"lint":5890,"logging":5891,"ANG":5892,"ventory":5893,"Ġtrying":5894,"Ġreset":5895,"Ġinside":5896,"iny":5897,"Ġir":5898,"Ġdst":5899,"ĠValid":5900,"Ã¤":5901,"67":5902,"Ne":5903,"Directory":5904,"Main":5905,"hover":5906,"eric":5907,"Ġcolumns":5908,"ixin":5909,"Ġmaster":5910,"Ġgir":5911,"Struct":5912,"itch":5913,"angles":5914,"Proxy":5915,"note":5916,"igrations":5917,"ĠBY":5918,"rd":5919,"ĠUniversity":5920,"ustral":5921,"Show":5922,"alpha":5923,"rot":5924,"ni":5925,"scriptor":5926,"browser":5927,"Ġ2009":5928,"Ġgrant":5929,"typ":5930,"MENT":5931,"Ġtogether":5932,"ĠNational":5933,"uly":5934,"Assert":5935,")\",":5936,"pag":5937,"orch":5938,"It":5939,"exceptions":5940,"fb":5941,"vs":5942,"Ġprovider":5943,"pkg":5944,"Ġappend":5945,"ĠImportError":5946,"Ġdownload":5947,"EY":5948,"eries":5949,"Ġminutes":5950,"repo":5951,"license":5952,"ĠChina":5953,"abc":5954,"ĠOther":5955,"Ġwriter":5956,"Ġcoordin":5957,"Socket":5958,"LIC":5959,"wild":5960,"Active":5961,"nn":5962,"Returns":5963,"ĠInteger":5964,")\\":5965,"EV":5966,"Ġdriver":5967,"ĠPost":5968,"Ġmerge":5969,"mount":5970,"Ġsaw":5971,"Ġverify":5972,"iform":5973,"finition":5974,"prev":5975,"ĠEuropean":5976,"erm":5977,"Ġidx":5978,"Ġ\"--":5979,"1000":5980,"ĠResource":5981,"Ġbtn":5982,"ĠDB":5983,"Ġwidget":5984,"ĠEN":5985,"Ġchain":5986,"94":5987,"Ġconsidered":5988,"ĠId":5989,"ĠThursday":5990,"Ġorigin":5991,"month":5992,"oooo":5993,"When":5994,"Ġmut":5995,"ĠEnglish":5996,"ership":5997,"legate":5998,"sleep":5999,"ĠService":6000,"ĠRuss":6001,"forms":6002,")*":6003,"pipe":6004,"duction":6005,"apply":6006,"called":6007,"bootstrap":6008,"Bit":6009,"vals":6010,"Ġfam":6011,"craft":6012,"SK":6013,"expect":6014,"Ġyeah":6015,"Fail":6016,"ĠStreet":6017,"MET":6018,"EMENT":6019,"ĠBo":6020,"inding":6021,"ja":6022,"Items":6023,"UTF":6024,"Ġui":6025,"xc":6026,"Ġepisode":6027,"repr":6028,"atur":6029,"Simple":6030,"ç»":6031,"blockList":6032,"ĠGerman":6033,"ĠJan":6034,"ä¹":6035,"seconds":6036,"border":6037,"dc":6038,"background":6039,"yg":6040,"Ġsets":6041,"download":6042,"ĠFriday":6043,"Ġscal":6044,"lookup":6045,"hex":6046,"ino":6047,"TEXT":6048,"legal":6049,"Cal":6050,"upp":6051,"Ġ=======":6052,"ĠExample":6053,":'":6054,"endar":6055,"Ġcra":6056,"Ġenjoy":6057,"oll":6058,"ĠSpec":6059,"annotation":6060,"cade":6061,"Ġindividual":6062,"Ġfetch":6063,"ĠGL":6064,"icks":6065,"Ġsubprocess":6066,"Ġscenes":6067,"loss":6068,"SU":6069,"']))":6070,"};":6071,"HEAD":6072,"(**":6073,"Ġnecessary":6074,"Ġbasic":6075,"lg":6076,"Ġwater":6077,"verter":6078,"special":6079,"{\"":6080,"aves":6081,"icket":6082,"Help":6083,"\"].":6084,"exist":6085,"LEN":6086,"oms":6087,"ircle":6088,"rol":6089,"attrs":6090,"voke":6091,"inx":6092,"MAP":6093,"Ġcases":6094,"Debug":6095,"CHAR":6096,"gistration":6097,"duced":6098,"brief":6099,"Ġaff":6100,"Ġintro":6101,"ondon":6102,"webkit":6103,"ĠOct":6104,"FC":6105,"paths":6106,"Ġautomat":6107,"hpp":6108,"(\\":6109,"bt":6110,"PRESS":6111,"csv":6112,"ĠXML":6113,"Ġ-=":6114,"iterator":6115,"amb":6116,"Ġ2006":6117,"serve":6118,"Ġproper":6119,"ĠStart":6120,"oice":6121,"SA":6122,"Ġcli":6123,"Ġformer":6124,"Ġquestion":6125,"logical":6126,"68":6127,"ĠEast":6128,"iver":6129,"Ġfolder":6130,"Ġtx":6131,"Ġ_(\"":6132,"Ġmag":6133,"ĠWhat":6134,"Ġtesting":6135,"ĠMath":6136,"Ġled":6137,"ELL":6138,"ssl":6139,"\")]":6140,"Ġsuggest":6141,"ĠDI":6142,"owner":6143,"NotFound":6144,"PT":6145,"Ġvm":6146,"uplic":6147,"Ġweight":6148,"ĠRights":6149,"Ġheld":6150,"Game":6151,"Ġfoo":6152,"ĠSu":6153,"links":6154,"Ġzero":6155,"Ġcounter":6156,"OLDER":6157,"share":6158,"Ġmac":6159,"Ġstdout":6160,"AU":6161,"PY":6162,"Ġ'')":6163,"CUR":6164,"Wrapper":6165,"ĠRob":6166,"ety":6167,"indent":6168,"remote":6169,"ullable":6170,"ario":6171,"Ġ(_":6172,"Ð°Ð":6173,"FFFF":6174,"ORE":6175,"Ġquite":6176,"Ġproducts":6177,"getName":6178,"ounded":6179,"Ġmaint":6180,"backend":6181,"Ġtrad":6182,"eq":6183,"'][":6184,".',":6185,"You":6186,"Ġ21":6187,"Ġbuilding":6188,"Ġbal":6189,"ĠLa":6190,"ĠKing":6191,"bash":6192,"Ġrestri":6193,"MALL":6194,"ongo":6195,"Ġexact":6196,"icker":6197,"ĠMO":6198,"ga":6199,"adient":6200,"Adapter":6201,"ILD":6202,"Ġreverse":6203,"Ġversions":6204,"Track":6205,"'^":6206,"Pack":6207,"omy":6208,"Ġprimary":6209,"Ġrot":6210,"Ġaddr":6211,"coming":6212,"mc":6213,"Ġplease":6214,"BAR":6215,"Ġdem":6216,"Ġlive":6217,"mf":6218,"ention":6219,"Ġprice":6220,"Ġdialog":6221,"ĠInput":6222,"[:,":6223,"Extension":6224,"ĠReserved":6225,"vec":6226,"ĠColor":6227,"Doc":6228,"DES":6229,"53":6230,"assertFalse":6231,"Ġpopular":6232,"Cl":6233,"upload":6234,"ounced":6235,"ollow":6236,"Ġregard":6237,"reater":6238,"ĠKEY":6239,"ĠNAME":6240,"article":6241,"Only":6242,"Windows":6243,"fix":6244,"ying":6245,"ĠUs":6246,"ĠDec":6247,"aws":6248,"origin":6249,"58":6250,"single":6251,"ĠPoint":6252,"Ġextract":6253,"ĠAfric":6254,"esterday":6255,"transp":6256,"ĠMethod":6257,"Ġevalu":6258,"Ġwarnings":6259,"Product":6260,"builder":6261,"helper":6262,"Ġwrong":6263,"cape":6264,"ĠFirst":6265,"rieve":6266,"ITS":6267,"aled":6268,"band":6269,"Ġwx":6270,"Ġprior":6271,"Support":6272,"Ġkernel":6273,"attach":6274,"mag":6275,"Ġmeet":6276,"ĠDocument":6277,"Ġ2005":6278,"PRE":6279,"scribe":6280,"Ġdead":6281,"adcast":6282,"Ġreported":6283,"('<":6284,"Import":6285,"Ġbank":6286,"found":6287,"Ġshows":6288,"commands":6289,"echo":6290,"è¡":6291,"ĠCom":6292,"ĠCONFIG":6293,"configuration":6294,"lide":6295,"cmp":6296,"ĠQString":6297,"Ġfeed":6298,"ĠGree":6299,"('%":6300,"navList":6301,"ĠView":6302,"feed":6303,"LOW":6304,"Ġhigher":6305,"ria":6306,"Ġvert":6307,"cli":6308,"uda":6309,"ipher":6310,"proc":6311,"JECT":6312,"Ġrank":6313,"Ġeverything":6314,"inese":6315,"DEF":6316,"./":6317,"shadow":6318,"rpc":6319,"sn":6320,"74":6321,"href":6322,"Mapping":6323,"PIO":6324,"tip":6325,"Ġredirect":6326,"Ġcfg":6327,"cons":6328,"Ġlost":6329,"Implemented":6330,"CD":6331,"Ġpatch":6332,"Ġdepth":6333,"Ġpush":6334,"Ġincludes":6335,"Ġdiscover":6336,"Ġattrs":6337,"liter":6338,"æĹ":6339,"EEEE":6340,"Transform":6341,"fake":6342,"simple":6343,"ĠTask":6344,"enced":6345,"Ġcurrently":6346,"Ġissues":6347,"Ġmid":6348,"laimer":6349,"escape":6350,"lict":6351,"ĠWHERE":6352,"Ġalbum":6353,"icture":6354,"Ġje":6355,"amount":6356,"ĠDep":6357,"Ġlooking":6358,"raises":6359,"assets":6360,"fort":6361,"('-":6362,"ĠDon":6363,"Ġpract":6364,"specially":6365,".\\":6366,"verbose":6367,"Ġ22":6368,"'));":6369,"lipse":6370,"500":6371,"Ġreader":6372,"iling":6373,"classmethod":6374,"Ġplayed":6375,"LINE":6376,"'''":6377,"history":6378,"Ġpages":6379,"82":6380,"AVE":6381,"ificant":6382,"coq":6383,"nail":6384,"Ġinflu":6385,")'":6386,"Ġord":6387,")',":6388,"Ġliter":6389,"ĠDAMAGES":6390,"braries":6391,"Ġallows":6392,"ĠPROVID":6393,"anded":6394,"ĠLondon":6395,"ĠAustral":6396,"wood":6397,"bc":6398,"allclasses":6399,"each":6400,"Ġviol":6401,"ĠDesc":6402,"ĠStatus":6403,"ASH":6404,"Ġhowever":6405,"Engine":6406,"ĠSund":6407,"Opt":6408,"isk":6409,"ĠDav":6410,"Ġdrop":6411,"uses":6412,"Warning":6413,"energy":6414,"Ġinstanceof":6415,"\"},":6416,"Report":6417,"72":6418,"ĠINCLUDING":6419,"Ġentries":6420,"Activity":6421,"clo":6422,"REQU":6423,"Ġstatement":6424,"ham":6425,"Ġcomb":6426,"termine":6427,"After":6428,"ĠSPE":6429,"mak":6430,"Ġstrict":6431,"+\"":6432,"emon":6433,"Common":6434,"Ġabstract":6435,"Ġrequires":6436,"Ġoutside":6437,"VALID":6438,"Space":6439,"ADDR":6440,"umbnail":6441,"Ġmaterial":6442,"Ġkilled":6443,"Generic":6444,"ences":6445,"pages":6446,"ĠCall":6447,"Ġactions":6448,"Ġna":6449,"lector":6450,"Editor":6451,"Gui":6452,"car":6453,"depth":6454,"93":6455,"CF":6456,"xf":6457,"ĠAir":6458,"allel":6459,"ena":6460,"edge":6461,"aterials":6462,"Role":6463,"ĠPath":6464,"ĠSan":6465,"voice":6466,"ached":6467,"construct":6468,"Ġwomen":6469,"osition":6470,"ĠNetwork":6471,"tod":6472,"ology":6473,"strument":6474,"ETHER":6475,"Who":6476,"loyment":6477,"extension":6478,"52":6479,"Ġconstructor":6480,"Remove":6481,"92":6482,"aign":6483,"isted":6484,"more":6485,"apped":6486,"parts":6487,"Feature":6488,"Ġresearch":6489,"hold":6490,"external":6491,"Attributes":6492,"ĠAug":6493,"ifies":6494,"Ġfit":6495,"Ġblocks":6496,"interval":6497,"EEEEFF":6498,"Ġyesterday":6499,"Ġwent":6500,"ifications":6501,"acc":6502,"Ġdf":6503,"Ġdependencies":6504,"'=":6505,"Generator":6506,"Ġden":6507,"but":6508,"Ġproxy":6509,"Ġdisclaimer":6510,"{%":6511,"vey":6512,"Ġsteps":6513,"ĠEngland":6514,"éĢ":6515,"Ġcompute":6516,"Email":6517,"Ġunderstand":6518,"Ġmilitary":6519,"Ġpers":6520,"400":6521,"Ġoil":6522,"LOC":6523,"ĠNow":6524,"Ġsig":6525,"Memory":6526,"shift":6527,"ĠStr":6528,"Ġbranch":6529,"ĠPROVIDED":6530,"volution":6531,"Ġsil":6532,"lyph":6533,"Install":6534,"urls":6535,"disabled":6536,"modal":6537,"Ġtaken":6538,"Ġsound":6539,"INCLUDING":6540,"Func":6541,"erry":6542,"ef":6543,"Ġreview":6544,"SCRIPT":6545,"»¿":6546,"Ġflow":6547,"Ġround":6548,"ĠTV":6549,"ij":6550,"Ġshared":6551,"Step":6552,"ĠNov":6553,"Ġ(`":6554,"ISING":6555,"FS":6556,"ĠEnt":6557,";\">":6558,"()));":6559,"Ġï":6560,"udent":6561,"Ġstats":6562,"Ġusually":6563,"CLASS":6564,"Ġsystems":6565,"inger":6566,"iving":6567,"Ġprogress":6568,"Ġpresident":6569,"ĠSHALL":6570,"Ġmachine":6571,"ä¸ª":6572,"Ġul":6573,"ĠSE":6574,"Protocol":6575,"=\\\"":6576,"secret":6577,"\"><!--":6578,"Ġrecomm":6579,"LIN":6580,"IZE":6581,"Ñĥ":6582,"stry":6583,"agg":6584,"Ġdefinition":6585,"Ġdirector":6586,"Ġcontroller":6587,"=_":6588,"Normal":6589,"Ġanswer":6590,"Ġespecially":6591,"ĠChange":6592,"rules":6593,"Ġvalign":6594,"Domain":6595,"tected":6596,"Ġclick":6597,"atory":6598,"(\"#":6599,"AST":6600,"ĠTEST":6601,"Ġstar":6602,"43":6603,"ides":6604,"DT":6605,"nost":6606,"Ġbottom":6607,"Ġassume":6608,"Serial":6609,"NET":6610,"Ġ2007":6611,"ĠSunday":6612,"ĠLIABLE":6613,"Ġmount":6614,"Register":6615,"Rest":6616,"Ġwide":6617,"Ġconstruct":6618,"sert":6619,"Double":6620,"Ġ\"#":6621,"redirect":6622,"Ġmodern":6623,"parameter":6624,"jection":6625,"sha":6626,"ĠCAP":6627,"ĠMich":6628,"Ġ23":6629,"sess":6630,"Ġ80":6631,"Ġproblems":6632,"anger":6633,"Ġmodules":6634,"ĠARISING":6635,"maz":6636,"Ġcomes":6637,"ĠEXPRESS":6638,"Ġfast":6639,"NavBarFont":6640,"copyright":6641,"ires":6642,"Ġtimestamp":6643,"bd":6644,"Ġpipe":6645,"ysql":6646,"Ġtheme":6647,"Ġfac":6648,"asm":6649,"blue":6650,"power":6651,"Ġdecl":6652,"signal":6653,"inline":6654,"ĠAC":6655,"Ġcomments":6656,"hostname":6657,"services":6658,"Skip":6659,"41":6660,"Async":6661,"gments":6662,"Ġscan":6663,"Definition":6664,"$',":6665,"atural":6666,"irq":6667,"Ġ):":6668,"Ġ\"__":6669,"Ġsafe":6670,":(":6671,"COM":6672,"ensity":6673,"ĠTypeError":6674,"Ġmaximum":6675,"CHECK":6676,"direct":6677,"ĠSMALL":6678,"Ġprices":6679,"ari":6680,"ael":6681,"generator":6682,"ĠCount":6683,"Ġcomponents":6684,"NING":6685,"bits":6686,"Ġcross":6687,"ĠWork":6688,"ĠCONTRACT":6689,"Ġ#############################################################################":6690,"publ":6691,"anies":6692,"Selection":6693,"ills":6694,"ertain":6695,"expand":6696,"{'":6697,"alent":6698,"']),":6699,"boost":6700,"cesses":6701,"Mar":6702,"available":6703,"Ġfake":6704,"nsure":6705,"ĠWHETHER":6706,"Ġsyn":6707,"å°":6708,"alias":6709,"PH":6710,"%(":6711,"ĠPlease":6712,"Ġshot":6713,"Ġcreating":6714,"Ġdt":6715,"Ġcalcul":6716,"kernel":6717,"FORMAT":6718,"ĠFil":6719,"Ġdifference":6720,"Ġfriend":6721,"ĠAttribute":6722,"That":6723,"Ġregular":6724,"Abstract":6725,")}":6726,"ĠCSS":6727,"ffort":6728,"Ġenumerate":6729,"getLogger":6730,"ITAL":6731,"cii":6732,"ĠParameters":6733,"arp":6734,"Ġbits":6735,"Ġtreat":6736,"incip":6737,"Ġlookup":6738,"uest":6739,"Ġï»¿":6740,"Ġav":6741,"Ġpayload":6742,"Ġlooks":6743,"ceiver":6744,"editor":6745,"ocker":6746,"jo":6747,"Ġbackend":6748,"Ġmanagement":6749,"~~~~~~~~":6750,"Ġexternal":6751,"Ġdoing":6752,"ĠReg":6753,"ctor":6754,"Ġfailure":6755,"wp":6756,"Ġpub":6757,"LD":6758,"Ġ--------------------------------":6759,"gba":6760,"Category":6761,"warn":6762,"`)":6763,"Ġstarting":6764,"Ġhidden":6765,"ances":6766,"Ġwatching":6767,"Ġage":6768,"ĠTri":6769,"Flags":6770,"reader":6771,"Ġer":6772,"Ġsummary":6773,"Ġforward":6774,"writer":6775,"mental":6776,"ĠIsra":6777,"raints":6778,"Ġca":6779,"spath":6780,"ĠSimple":6781,"Ġpress":6782,"Ġshell":6783,"vc":6784,"ĠMc":6785,"Global":6786,"Java":6787,"Ġmapping":6788,"inputs":6789,"Ġdie":6790,"tbody":6791,"aders":6792,"indices":6793,"ĠFrance":6794,"conv":6795,"usage":6796,"mis":6797,"binary":6798,"cheme":6799,"optional":6800,"Ġworth":6801,"ĠChinese":6802,"Scope":6803,"ðŁ":6804,"integer":6805,"ĠDATA":6806,")));":6807,"Trace":6808,"ĠOutput":6809,"')),":6810,"iful":6811,"Non":6812,"Ġsaved":6813,"ashboard":6814,"Ġinstances":6815,"Ġnavigation":6816,"79":6817,"Ġrecords":6818,"chunk":6819,"Ġcanvas":6820,"Ġdefer":6821,"Ġpolitical":6822,"123":6823,"'\"":6824,"*.":6825,"since":6826,"Ġbin":6827,"Ġendif":6828,"WISE":6829,"contact":6830,"extract":6831,"Ġtax":6832,"props":6833,"horizontal":6834,"Ġfront":6835,"ĠHash":6836,"Ġbehavior":6837,"lastic":6838,"Ġattempt":6839,"rict":6840,"counter":6841,"Repository":6842,"Ġsimply":6843,"lask":6844,"delay":6845,"lue":6846,"xs":6847,"Copy":6848,"ILE":6849,"ĠConvert":6850,"xa":6851,"Ġcompare":6852,"Bound":6853,"å¼":6854,"jpg":6855,"ĠBSD":6856,"VALUE":6857,"merge":6858,"ĠServer":6859,"Ġnational":6860,"chie":6861,"Ġintersection":6862,"ĠAuthors":6863,"tuple":6864,"åº":6865,"Ġdra":6866,"Ġstored":6867,"DIS":6868,"yy":6869,"Ġsong":6870,"Ġdelay":6871,"Ġgoto":6872,"failed":6873,"Ġsecret":6874,"tz":6875,"hide":6876,"Nodes":6877,"åĽ":6878,"Ġelect":6879,"Ġtre":6880,"Ġgetting":6881,"ĠJew":6882,"runtime":6883,"Save":6884,"ĠFrank":6885,"ĠCONTRIBUT":6886,"zero":6887,">::":6888,"ried":6889,"ables":6890,"Ġsb":6891,"Ġuri":6892,"ĠTech":6893,"Ġfel":6894,"Ġslow":6895,"ĠSep":6896,"BL":6897,"Ġsignificant":6898,"Ġcorrectly":6899,"Ġestim":6900,"bucket":6901,"dp":6902,"llegal":6903,"rect":6904,"ĠMAX":6905,"Ġsat":6906,"antic":6907,"ĠOTHERWISE":6908,"ĠModule":6909,"ĠHol":6910,"ĠNotImplemented":6911,"=\"\">":6912,"Ġsources":6913,"****************************************************************************":6914,"itation":6915,"Ġprevent":6916,"IE":6917,"reme":6918,"Runtime":6919,"Ġowner":6920,"timer":6921,"margin":6922,"Ġdecla":6923,"Ġrespect":6924,"ko":6925,"phone":6926,"ĠTORT":6927,"dataset":6928,"dig":6929,"Ġcontact":6930,"']);":6931,"Ġurllib":6932,"junit":6933,"Ġindent":6934,"ris":6935,"Ġmor":6936,"Ġdat":6937,"ĠTR":6938,"aste":6939,"1234":6940,"Author":6941,"Ġes":6942,"ADD":6943,"Ret":6944,"ĠRedistributions":6945,"STATUS":6946,"ĠCONTRIBUTORS":6947,"assembly":6948,"ĠAT":6949,"Ġreadonly":6950,"Ġcondition":6951,"sidebar":6952,"ĠRemove":6953,"Ġphys":6954,"ĠLoad":6955,"urred":6956,"tabs":6957,"Ġleading":6958,"Ġ500":6959,"Ġstock":6960,"requency":6961,"akes":6962,"rapped":6963,"ĠHis":6964,"icult":6965,"Ġcapital":6966,"Ġ(%":6967,"disable":6968,"ĠIOException":6969,"Ġroute":6970,"={'":6971,"packages":6972,"51":6973,"abilities":6974,"(\"[":6975,"Ġrepository":6976,"Ġannounced":6977,"Ġlatest":6978,"xe":6979,"Ac":6980,"Ġprev":6981,"Ġboard":6982,"Ġappropri":6983,"Ġbas":6984,"Ġmaintain":6985,"isset":6986,"spring":6987,"Ġidea":6988,"pair":6989,"canvas":6990,">.":6991,"endor":6992,"ifiers":6993,"Ġcv":6994,"Ġalthough":6995,"UTE":6996,"LETE":6997,"arguments":6998,"sym":6999,"Ġlonger":7000,"Ġdefaults":7001,"ky":7002,"Ġalgorithm":7003,"ENCE":7004,"Ġwhose":7005,"Ġsuccessful":7006,"assertIs":7007,"ĠExec":7008,"DIRECT":7009,"Ġfactory":7010,"freq":7011,"Ġ_('":7012,"zen":7013,"Ġsupports":7014,"ĠSER":7015,"ctype":7016,"sock":7017,"Ġflat":7018,"istribution":7019,"Ġdisk":7020,"big":7021,"hw":7022,"hd":7023,"entries":7024,"Ġhours":7025,"generated":7026,"91":7027,"Ġinputs":7028,"STRING":7029,"Ġalloc":7030,"Ġtown":7031,"Ġste":7032,"olume":7033,"âĶĢâĶĢâĶĢâĶĢ":7034,"Send":7035,"Ġactors":7036,"æī":7037,"defaults":7038,"ĠNS":7039,"Ġ[(":7040,"Ġsec":7041,"Sequence":7042,"ĠEmp":7043,"constant":7044,"Ġshown":7045,"Ġtasks":7046,"dk":7047,"dumps":7048,"Ġmulti":7049,"Ġaddition":7050,"notation":7051,"asons":7052,")->":7053,"Pol":7054,"Ø§":7055,"Ġmultip":7056,"ĠFrom":7057,"Ġzone":7058,"URCE":7059,"ĠGame":7060,"translate":7061,"lam":7062,"subject":7063,"ĠClient":7064,"ĠContent":7065,"Ġ----":7066,"rown":7067,"rier":7068,"Ġquarter":7069,"GIN":7070,"Selected":7071,"Dest":7072,"lished":7073,"ulator":7074,"=\"<?":7075,"gree":7076,"Ġ2000":7077,"flush":7078,"ĠAuthor":7079,"(\"\"":7080,"pace":7081,"ĠOper":7082,"scan":7083,"Ġcoq":7084,"multi":7085,"ĠCELL":7086,"tember":7087,"Ġperf":7088,"ugh":7089,"ĠHOLDER":7090,"ĠDi":7091,"elements":7092,"lymp":7093,"Ġexplicit":7094,"Ġdump":7095,"Ġpackages":7096,"VM":7097,"61":7098,"Ġrecogn":7099,"ancial":7100,"allen":7101,"Serializer":7102,"Ġsouth":7103,"ĠAmerica":7104,"parator":7105,"ĠRuby":7106,"73":7107,"Ġeffort":7108,"Ġaccomp":7109,"Single":7110,"Ġhy":7111,"complete":7112,"Security":7113,"Ġpublish":7114,"Ġlocated":7115,"Ġbeginning":7116,"inv":7117,"Ġgoes":7118,"BE":7119,"Mixin":7120,"compare":7121,"ĠArrayList":7122,"Ġtrade":7123,"Conf":7124,"ĠAssembly":7125,"grams":7126,"ĠThen":7127,"Ġsell":7128,"ĠCAPITAL":7129,"fx":7130,"tw":7131,"iki":7132,"super":7133,"Media":7134,"Driver":7135,"Ñı":7136,"ĠCustom":7137,"signature":7138,"Ġfp":7139,"ĠBro":7140,"original":7141,"ĠWrite":7142,"Ġsense":7143,"========================================================================":7144,"Ġcoup":7145,"ARD":7146,"Ġparsed":7147,"ĠDIS":7148,"ransp":7149,"Ġdr":7150,"ĠInternet":7151,"Ġmatching":7152,"Each":7153,"Ġfan":7154,"Ġretain":7155,"chart":7156,"Ġpylint":7157,"switch":7158,"mbols":7159,"81":7160,"Ġhistor":7161,"PREF":7162,"Ġrecent":7163,"Ġfund":7164,"wall":7165,"Ġarchitect":7166,"Ġwarning":7167,"Ġ];":7168,"Ġmail":7169,"locale":7170,"ROOT":7171,"ELD":7172,"Ġviews":7173,"ann":7174,"verify":7175,"Ġpair":7176,"Ġdesp":7177,"2014":7178,"åį":7179,"lood":7180,"rappe":7181,"za":7182,"Ġhot":7183,"Ġquick":7184,"Keys":7185,".%":7186,"oe":7187,"hest":7188,"pping":7189,"Ġ|=":7190,"operator":7191,"Ġautomatically":7192,"69":7193,"accept":7194,"Ġagent":7195,"atched":7196,"Ġcard":7197,"learn":7198,"ĠSTR":7199,"Identifier":7200,"equiv":7201,"arrow":7202,"tor":7203,"ĠMa":7204,"Ġmodified":7205,"Login":7206,"]],":7207,"met":7208,"mapping":7209,"rust":7210,"IDTH":7211,"Ġfilters":7212,"Ġwest":7213,"71":7214,"aker":7215,"ĠSearch":7216,"vanced":7217,"Pe":7218,"Ġgain":7219,"Ġfixed":7220,"Ġalpha":7221,"Ġwoman":7222,"ĠMet":7223,"Ġmass":7224,"('--":7225,"dirs":7226,"pixel":7227,"izable":7228,"âĢĶ":7229,"Ġtransaction":7230,"=$":7231,"Ġpa":7232,"ictor":7233,"autiful":7234,"Ġsocial":7235,"ĠAction":7236,"break":7237,"Ġhimself":7238,"Ġcri":7239,"references":7240,"Ġbillion":7241,"Ġofficial":7242,"Ġbelieve":7243,"nan":7244,"asy":7245,"ĠProcess":7246,"OM":7247,"Ġtrigger":7248,"Ġspan":7249,"Ġselection":7250,"Ġstudy":7251,"cf":7252,"ĠAUTH":7253,"shall":7254,"WIN":7255,"Success":7256,"period":7257,"fra":7258,"ENTI":7259,"Ġcomputer":7260,"Ġundefined":7261,"partner":7262,"arison":7263,"Ġresolve":7264,"tv":7265,"Ġmaterials":7266,"Ġdisabled":7267,"63":7268,"Ġunless":7269,"ito":7270,"Ġnu":7271,"warm":7272,"destroy":7273,"Ðº":7274,"anging":7275,"ival":7276,"Ġago":7277,"Ġpull":7278,"FUN":7279,"ĠOrder":7280,"Ġsamples":7281,"MAIN":7282,"Ġequ":7283,"=\"\"":7284,"SSL":7285,"sence":7286,"RR":7287,"scroll":7288,"ALSE":7289,"AMES":7290,"Wait":7291,"mn":7292,"aching":7293,"serialize":7294,"fire":7295,"selves":7296,"updated":7297,"Ġpoor":7298,"Ġisland":7299,"Ġblank":7300,"Ġindepend":7301,"Ġinteresting":7302,"zeros":7303,"country":7304,"witter":7305,"Ġstand":7306,"functions":7307,"________":7308,"spacing":7309,"Iterator":7310,"ĠRuntime":7311,"getElementById":7312,"Ġforces":7313,"FP":7314,"Timer":7315,"Ġdeveloped":7316,"lative":7317,"Ġfight":7318,"001":7319,"Attr":7320,"Ġrespons":7321,"ĠLine":7322,"Ġprocessing":7323,"fly":7324,"Pointer":7325,"Ġstuff":7326,"etc":7327,"Ġwalk":7328,"runner":7329,"ĠMIT":7330,"Ġhealth":7331,"sid":7332,"Ġ).":7333,"lots":7334,"Bean":7335,"deprecated":7336,"ston":7337,"Ġsymbol":7338,"Ġeditor":7339,"ye":7340,"Program":7341,"Pattern":7342,"ĠVar":7343,"ĠAlso":7344,"roke":7345,"Ġthroughout":7346,"Ġdevices":7347,"Ġmonths":7348,"/'":7349,"bra":7350,"dget":7351,"progress":7352,"OFF":7353,"ĠLong":7354,"USE":7355,"Connect":7356,"slug":7357,"irth":7358,"symbol":7359,"Ġtools":7360,"uel":7361,"Ġcountries":7362,"Ġspeed":7363,"ida":7364,"ĠOptional":7365,"Cont":7366,"Ġ'';":7367,"å¯":7368,"ama":7369,"ĠOnly":7370,"Ġfunny":7371,"gui":7372,"pn":7373,"sep":7374,"Ġpdf":7375,"ATTR":7376,"pytest":7377,"orator":7378,"ä¸Ń":7379,"awn":7380,"Ġmind":7381,"ĠKe":7382,"ira":7383,"Constants":7384,"ĠBack":7385,"orge":7386,"avy":7387,"Ġdru":7388,"Screen":7389,"ĠSP":7390,"ĠItem":7391,"ToString":7392,"ĠSPECI":7393,"mber":7394,"which":7395,"Ġprop":7396,"STATE":7397,"Ġinitialize":7398,"sim":7399,"Ġut":7400,"FAIL":7401,"Validator":7402,"duration":7403,"rem":7404,"atio":7405,"ampion":7406,"Ġneigh":7407,"YY":7408,"flat":7409,"romise":7410,"Ġquality":7411,"Ġcpu":7412,"SV":7413,"Transaction":7414,"dialog":7415,"Ġheart":7416,"LY":7417,"ĠNEW":7418,"Ġareas":7419,"Collections":7420,"GRO":7421,"Db":7422,"amma":7423,"ĠTable":7424,"Ġdelta":7425,"Ġtouch":7426,"Ġgranted":7427,"Registry":7428,"Ġreceive":7429,"Ġwhom":7430,"rypto":7431,"Ġemploy":7432,"Comm":7433,"Ġrepo":7434,"cos":7435,"ONG":7436,"UES":7437,"Ġ[];":7438,"fast":7439,"Ġfather":7440,"Ġmed":7441,"kes":7442,"ĠAnt":7443,"ĠJust":7444,"INGS":7445,"Total":7446,"æł":7447,"norm":7448,"Move":7449,"Ġruns":7450,"aturday":7451,"Prefix":7452,"utions":7453,"Ġpytest":7454,"Ġfl":7455,"ober":7456,"anese":7457,"Ġloaded":7458,"Ġunits":7459,"HOST":7460,"blocks":7461,"ĠIndia":7462,"mouse":7463,"Folder":7464,"Ġimmedi":7465,"INST":7466,"Ġeffects":7467,"DA":7468,"upt":7469,"Scal":7470,"Ġfs":7471,"upper":7472,"built":7473,"Ä¾":7474,"Internal":7475,"Ġ2017":7476,"Ġcolors":7477,"Ġ.=":7478,"ĠSch":7479,"Ġguess":7480,"HOD":7481,"Ġmarker":7482,"payload":7483,"Ġcompet":7484,"ĠAny":7485,"supported":7486,"Ġinterval":7487,"ĠResponse":7488,"Multi":7489,"BUILD":7490,"ini":7491,"sr":7492,"library":7493,"istant":7494,"Ġ\\\"":7495,"ValueError":7496,"Ġfd":7497,"ifth":7498,"override":7499,"person":7500,"Ġdestroy":7501,"Visible":7502,"ĠNAV":7503,"och":7504,"android":7505,"Ġexplo":7506,"Ġidentifier":7507,"Ġaw":7508,"Scale":7509,"tasks":7510,"logo":7511,"priv":7512,"ubs":7513,"DULE":7514,"kt":7515,"Language":7516,"Ġaffect":7517,"metric":7518,"ĠMod":7519,"Stop":7520,"Ġfocus":7521,"REE":7522,"RC":7523,"Ġspo":7524,"Ġ$('#":7525,"ĠLink":7526,"slice":7527,"ĠRoman":7528,"hello":7529,"elf":7530,"Ġgames":7531,"Ġlegal":7532,"Ġhook":7533,"Ġpacket":7534,"riteria":7535,"Ġque":7536,"Ġdeliver":7537,"ief":7538,"pad":7539,"ĠIE":7540,"83":7541,"selection":7542,"Ġexecution":7543,"IntegerField":7544,"Ġwonder":7545,"utdown":7546,"jquery":7547,"setting":7548,"Random":7549,"forward":7550,"sem":7551,"ĠMax":7552,"Ġcorresponding":7553,"ĠSeptember":7554,"RGB":7555,"ĠHO":7556,"Cond":7557,"docs":7558,"Ġexceptions":7559,"Ġelection":7560,"matic":7561,"Ġ'$":7562,"adoop":7563,"Ġdetermin":7564,"Ġtechnology":7565,"ĠBig":7566,"lio":7567,"Ġ[])":7568,"currency":7569,"ulk":7570,"mas":7571,"00000":7572,"tokens":7573,"Ġlikely":7574,"lege":7575,"eff":7576,"ĠJanuary":7577,"repeat":7578,"Ġcharge":7579,"comments":7580,"Ġgirl":7581,"ĠOP":7582,"onym":7583,"states":7584,"Ġdeep":7585,"Ġ51":7586,"ĠInternational":7587,"Ġderived":7588,"Ġdam":7589,"ĠHar":7590,"SM":7591,"Make":7592,"Ġindu":7593,":\",":7594,"Err":7595,"apps":7596,".\");":7597,"atar":7598,"Ġtokens":7599,"ĠEl":7600,"Ġnews":7601,"mg":7602,",$":7603,"ĠOlymp":7604,"Ġns":7605,"ragma":7606,"Ġ\"_":7607,"2015":7608,"antity":7609,"ĠTemplate":7610,"ectors":7611,"ĠUI":7612,"Ġbuy":7613,"ivil":7614,"%\"":7615,"zure":7616,"CONT":7617,"Ġbel":7618,"áĥ":7619,"ANCE":7620,"afe":7621,"Ġund":7622,"BS":7623,"trl":7624,"sters":7625,"Ġpredi":7626,"Ġ{},":7627,"}{":7628,"Ġadjust":7629,"NN":7630,"achine":7631,"atomic":7632,"ĠElement":7633,"distance":7634,"Member":7635,"trigger":7636,"Ġ28":7637,"expression":7638,"scripts":7639,"effect":7640,"alert":7641,"ORK":7642,"UNT":7643,"NA":7644,"Selector":7645,"Ġgave":7646,"Ġendpoint":7647,"NotNull":7648,"ĠGets":7649,"registry":7650,"ìĿ":7651,"grad":7652,"Ġcalling":7653,"servation":7654,"***":7655,"vention":7656,"ĠallClasses":7657,"ä¸į":7658,"ĠNotImplementedError":7659,"Ġaudi":7660,"ington":7661,"Ġnorth":7662,"Ġwrapper":7663,"ĠBlock":7664,"when":7665,"Ġupon":7666,"caption":7667,"abspath":7668,"ĠallClassesLink":7669,"typeof":7670,"esh":7671,"Ġshift":7672,"cu":7673,"Ġmoment":7674,"ience":7675,"voc":7676,"allet":7677,"UBLIC":7678,"Rel":7679,"ĠSw":7680,"Rep":7681,"Ġbehind":7682,"æľī":7683,"audio":7684,"Ġnative":7685,"Ġstre":7686,"__.":7687,"ĠOff":7688,"alog":7689,"ECTION":7690,"Find":7691,"JS":7692,"Ġboost":7693,"analy":7694,"Ġstderr":7695,"wide":7696,"Ġdot":7697,"men":7698,"ĠPDF":7699,"atalog":7700,"lapsed":7701,"throws":7702,"ssh":7703,"Ġ\")":7704,"Ġ31":7705,"\\'":7706,"ĠEnsure":7707,"Ġeasy":7708,"Ġdescribed":7709,"rab":7710,"Ġraised":7711,"Ġclosed":7712,"branch":7713,"Events":7714,"ĠNAVBAR":7715,"=\"-":7716,"Ġrv":7717,")])":7718,"hood":7719,"ember":7720,"cnt":7721,"vlet":7722,"Ġsales":7723,"Ġbene":7724,">',":7725,"bsite":7726,"ĠPage":7727,"Before":7728,"ERS":7729,"ĠVictor":7730,"Ġcontract":7731,"cookie":7732,"ascii":7733,"à¤¾":7734,"Ġ90":7735,"uge":7736,"validation":7737,"Ġones":7738,"cpy":7739,"Ġindustry":7740,"stock":7741,"suffix":7742,"VD":7743,"URI":7744,"Ax":7745,"ĠDescription":7746,"(%":7747,"+'":7748,"åľ¨":7749,"ĠArgument":7750,"ceed":7751,"console":7752,"Ġful":7753,"ĠSaturday":7754,"Ġlisten":7755,"hosts":7756,"Ġrepresentation":7757,"Ġfinished":7758,"erature":7759,"Ġgenerator":7760,"pub":7761,"åĩ":7762,"Ġtro":7763,"apes":7764,"Comment":7765,"coin":7766,"ĠðŁ":7767,"Ġsitu":7768,"tl":7769,"sequ":7770,"fits":7771,"('[":7772,"Ġgeometry":7773,"ĠTABLE":7774,"Ġcompanies":7775,"Ġreading":7776,"Ġrelig":7777,"Ġproc":7778,"Ġgrad":7779,"ĠEach":7780,"Ġwasn":7781,"topic":7782,"ĠQgs":7783,"Ġnorm":7784,"Duration":7785,"gpu":7786,"Ġenergy":7787,"house":7788,"Ġshall":7789,"collapse":7790,"ĠAugust":7791,"dn":7792,"Ġlaunch":7793,"Ġrequirements":7794,"Ġencoded":7795,"ĠHOLDERS":7796,"ORDER":7797,"pointer":7798,"Details":7799,"Ġfavor":7800,"world":7801,"Renderer":7802,"blem":7803,"Second":7804,"Route":7805,"icles":7806,"cancel":7807,"aaaa":7808,"ano":7809,"Ġregex":7810,"Ġsignature":7811,"PP":7812,"ĠHer":7813,"native":7814,"Ġmaybe":7815,"Ġcollections":7816,"linear":7817,"variables":7818,"62":7819,"Sync":7820,"Ġum":7821,"Validation":7822,"ĠWhile":7823,"reverse":7824,"beta":7825,"Ġeast":7826,"Runner":7827,"UMM":7828,"ĠAbstract":7829,"ocaml":7830,"transaction":7831,"Ġë":7832,"Ġ])":7833,"Ġidentity":7834,"Ġappropriate":7835,"!!":7836,"ĠBOO":7837,"Ġjud":7838,"PREFIX":7839,"Ġ'./":7840,"SERT":7841,"rive":7842,"Ġwanted":7843,"Ġdestination":7844,"Lim":7845,"bg":7846,"Ġachie":7847,"ĠNE":7848,"organ":7849,"numpy":7850,"Ġcat":7851,"fession":7852,"AIL":7853,"neg":7854,"PECT":7855,"Ġstage":7856,"Ġsegment":7857,"ĠFind":7858,"Ġcompiler":7859,"ĠSim":7860,"Tensor":7861,"ĠLinux":7862,"ulated":7863,"UND":7864,"missing":7865,"TF":7866,"stone":7867,"ufact":7868,"Ġescape":7869,"ARG":7870,"uter":7871,"atial":7872,"Len":7873,"Ġroom":7874,"ercial":7875,"days":7876,"Ġrect":7877,"rev":7878,"Ġstudent":7879,"ĠCent":7880,"Ġpen":7881,"ATOR":7882,"Sort":7883,"Ġmiddle":7884,"Ġho":7885,"Ġleave":7886,"Ã¶":7887,"modified":7888,"Ġgives":7889,"Ġsoon":7890,"uous":7891,"ĠTensor":7892,"imed":7893,"()]":7894,"Ġschedule":7895,"Ġsync":7896,"($_":7897,"Ġpi":7898,"Ġregarding":7899,"resolve":7900,"Ġindices":7901,"ĠEar":7902,"ĠMichael":7903,"istan":7904,"watch":7905,"Ġsou":7906,"Ġjs":7907,"Unknown":7908,"Users":7909,"Ġaudio":7910,"Ġsomeone":7911,"atives":7912,"Ġbug":7913,"Stats":7914,"ĠKeyError":7915,"Pay":7916,"ĠWilli":7917,"andidate":7918,"Ġtransport":7919,"tar":7920,"Ġsuite":7921,"Ġlat":7922,"strings":7923,"endswith":7924,">[":7925,"Ġaltern":7926,"Ġbucket":7927,"ĠSU":7928,"ĠII":7929,"biten":7930,"=-=-":7931,"ĠSUB":7932,"MEM":7933,"Ġbind":7934,"ĠThread":7935,"basename":7936,"marks":7937,"ĠConfiguration":7938,"Ġtorch":7939,"Ġending":7940,"ĠOctober":7941,"Ġupper":7942,"Ġabs":7943,"processor":7944,"Ġ\"\";":7945,"very":7946,"Ġupload":7947,"seed":7948,"aul":7949,"rout":7950,"Ġbi":7951,"Ġrequested":7952,"factor":7953,"Agent":7954,"Resources":7955,"Ġet":7956,"ĠFrame":7957,"moz":7958,"viders":7959,"BACK":7960,"Sample":7961,"ĠMer":7962,"Ġchart":7963,"Ñĭ":7964,"GPL":7965,"Ġsurface":7966,"members":7967,"Ġproto":7968,"Div":7969,"tention":7970,"Ġseparate":7971,"Ġlayers":7972,"series":7973,"ĠBoolean":7974,"Ġvisible":7975,"BY":7976,"æĸĩ":7977,"çĽ":7978,"(\"-":7979,"Ġalias":7980,"Ġtypename":7981,"à®":7982,"condition":7983,"MC":7984,"important":7985,"Ġfactor":7986,"AutoField":7987,"sqrt":7988,"MT":7989,"Ġcirc":7990,"Ġinternational":7991,"ctl":7992,"Ġsuffix":7993,"}\\":7994,"Section":7995,"Ġfederal":7996,"Ġts":7997,"Ġanim":7998,"ĠUt":7999,"Price":8000,"World":8001,"xb":8002,"rought":8003,"ĠKore":8004,"strict":8005,"units":8006,"ĠPC":8007,"Ġstarts":8008,"ored":8009,"Ġsometimes":8010,"Full":8011,"svg":8012,"router":8013,"Ġ400":8014,"Ġseq":8015,"ĠLet":8016,"ĠMad":8017,"atively":8018,"ĠLeague":8019,"iso":8020,"Ġdetermine":8021,"Ġrgba":8022,"inct":8023,"tection":8024,"shell":8025,"Ġground":8026,"ĠRegister":8027,"www":8028,"%%%%":8029,"Shape":8030,"Region":8031,"Flag":8032,"Ġband":8033,"ĠSET":8034,"izers":8035,"å¾":8036,"Ġmixed":8037,"week":8038,"checked":8039,"servers":8040,"den":8041,"__\":":8042,"park":8043,"Spe":8044,"Ġargv":8045,"han":8046,"ĠSIZE":8047,"?:":8048,"Ġexpand":8049,"Ġremember":8050,"extensions":8051,"ookup":8052,"Ġestablished":8053,"focus":8054,"Ġmedi":8055,"ĠVis":8056,"/.":8057,"Ġentertain":8058,"ĠApple":8059,"refs":8060,"Ġextensions":8061,"Ġphone":8062,"ĠInvalid":8063,"ipient":8064,"Ġweak":8065,"ĠSince":8066,"ĠAccording":8067,"Uri":8068,"Texture":8069,"suite":8070,"visible":8071,"300":8072,"snapshot":8073,"Ġ27":8074,"Ġ{};":8075,"Ġpositive":8076,"ĠApplication":8077,":',":8078,"=====":8079,"bon":8080,"Ġmodification":8081,"ygon":8082,"/\"":8083,"absolute":8084,"Ġactivity":8085,"ĠMain":8086,"Ġmoved":8087,"Ġfollowed":8088,"Cred":8089,"Ġcreation":8090,"ĠSecurity":8091,"Ġstay":8092,"æĿ":8093,"clone":8094,"Ġpartial":8095,"Ġcompletely":8096,"Ġfigure":8097,"operation":8098,"GI":8099,"relative":8100,"what":8101,"ners":8102,"ĠCOL":8103,"configure":8104,"ounce":8105,"cost":8106,"Ġthemselves":8107,"rase":8108,"exe":8109,"Ġlin":8110,"Ġalert":8111,"TON":8112,"Ġspeak":8113,"ĠSun":8114,"Ġsuccessfully":8115,"ĠDavid":8116,"Ġdesigned":8117,"structure":8118,"Ġinterpre":8119,"Ġvalidation":8120,"éĩ":8121,"ĠCup":8122,"Ã¥":8123,"Ġcs":8124,"ENABLE":8125,"Ġpkg":8126,"Ġast":8127,"':'":8128,"Ġupdates":8129,"Video":8130,"ATCH":8131,"FE":8132,"ĠCreated":8133,"fri":8134,"lus":8135,"ĠArt":8136,"springframework":8137,"Ġimplemented":8138,"marker":8139,"matches":8140,"Ġdifficult":8141,"Ġhour":8142,"Ġship":8143,"pat":8144,"under":8145,"Area":8146,"rote":8147,"notify":8148,"Ġchecks":8149,"unknown":8150,"vet":8151,"Ġcb":8152,"ledge":8153,"([[":8154,"artment":8155,"404":8156,"ĠPrint":8157,"Symbol":8158,"REQUEST":8159,"rip":8160,"ĠPermission":8161,"Ids":8162,"El":8163,"Ġproduced":8164,"Ġfrappe":8165,"Ġmother":8166,"west":8167,"virtual":8168,"Ġignored":8169,"Ġsleep":8170,"sf":8171,"Ġintel":8172,"worker":8173,"Ġmigrations":8174,"arger":8175,"BA":8176,"LIST":8177,"Ġhar":8178,"Ġcalculate":8179,"templates":8180,"Ġprec":8181,"pin":8182,"Cert":8183,"cached":8184,"riginal":8185,"aur":8186,"Ġsit":8187,"Ġspecies":8188,"ĠDatabase":8189,"Now":8190,"Ġconsist":8191,"sb":8192,"steps":8193,"poll":8194,"Ġ'{":8195,"Ġdeleted":8196,"complex":8197,"Ġplans":8198,"Ġincrease":8199,"APP":8200,"ĠShow":8201,"Ġplaceholder":8202,"heel":8203,"specific":8204,"Ð¼":8205,"MI":8206,"ĠQuery":8207,"Mouse":8208,"Ġattach":8209,"disk":8210,"ĠRet":8211,"Ġpid":8212,"START":8213,"Ġgrowth":8214,"Ġ(-":8215,"ĠWhite":8216,"ä»¥":8217,"getValue":8218,"question":8219,"Dim":8220,"Mac":8221,"Ġtaking":8222,"anish":8223,"Ġthreat":8224,"ifact":8225,"crete":8226,"Ġradius":8227,"ĠGit":8228,"Art":8229,"Ġready":8230,"ĠResult":8231,"Formatter":8232,"AUTH":8233,"xd":8234,"_)":8235,"orpor":8236,"exports":8237,"SERVER":8238,"Ġnegative":8239,"Mo":8240,"named":8241,"osite":8242,"Exist":8243,"åĨ":8244,"ĠPass":8245,"generic":8246,"ĠSets":8247,"Ġdocuments":8248,"staticmethod":8249,"Ġpolice":8250,"Math":8251,"eg":8252,"Required":8253,"haps":8254,"defin":8255,"UST":8256,"ĠJu":8257,"colors":8258,"Ġ26":8259,"Ġimm":8260,"ierarch":8261,"ĠGraph":8262,"Ġseed":8263,"green":8264,"Ġinner":8265,"osed":8266,"typename":8267,"Ġang":8268,"ï¼ļ":8269,"pick":8270,"ĠBit":8271,"raction":8272,"ä»¶":8273,"Ġflex":8274,"Ġexamples":8275,"MASK":8276,"company":8277,"Ġtargets":8278,"Export":8279,"ering":8280,"Ġtranslate":8281,"bro":8282,"Ġ42":8283,"ENTIAL":8284,"\"\\":8285,"Plan":8286,"Ġimprove":8287,"LIB":8288,"Ġpriv":8289,"2013":8290,"Ġstudents":8291,"ĠHigh":8292,"ä¼":8293,"\"`":8294,"fw":8295,"Framework":8296,"Ġfinish":8297,"]',":8298,"Ġcp":8299,"Ġ\"+":8300,"ĠLibrary":8301,"ĠPark":8302,"IA":8303,"Ġ))":8304,"=\"{{":8305,",-":8306,"TL":8307,"Ġofficials":8308,"DC":8309,"ĠMag":8310,"phere":8311,"running":8312,"Ġearlier":8313,"Ġanyone":8314,"Suite":8315,"Bad":8316,"Ġclock":8317,"]])":8318,"Ġwife":8319,"swarm":8320,"Ġtransfer":8321,"mu":8322,"Ġlanguages":8323,"Ġ300":8324,"Ġmouse":8325,"permissions":8326,"111":8327,"Ġ128":8328,"ĠHouse":8329,"venue":8330,"uplicate":8331,"Ġps":8332,"Ġgold":8333,"assertIn":8334,"Ġ')":8335,"Ġfem":8336,"usion":8337,"Arg":8338,"ĠLogger":8339,"hadoop":8340,"Services":8341,"cha":8342,"overn":8343,"')[":8344,"LOAD":8345,"Ġtransition":8346,"AW":8347,"irected":8348,"Cmd":8349,"æ³":8350,"ĠPackage":8351,"ĠUnion":8352,"highlight":8353,"sin":8354,"ARE":8355,"ookies":8356,"Ġpanel":8357,"Ġopened":8358,"Ġopener":8359,"Ġconflict":8360,"gz":8361,"erc":8362,"ĠLocal":8363,"racle":8364,"Hand":8365,"Ġops":8366,"Ġ1024":8367,"Ġeduc":8368,"Face":8369,"FIELD":8370,"inherit":8371,"oped":8372,"packet":8373,"Ġ----------":8374,"chemy":8375,"Ġ'</":8376,"Ġ\"(":8377,"ĠApr":8378,"Environment":8379,"Ġvictory":8380,"Ġrepro":8381,"ĠReuters":8382,"Ġforeign":8383,"Ġ^":8384,"Ġgun":8385,"Rec":8386,"CCESS":8387,"ĠSTART":8388,"EMPL":8389,"ĠSm":8390,"Pair":8391,"SEQU":8392,"dispatch":8393,"BooleanField":8394,"ĠBOOST":8395,"orse":8396,"Summary":8397,"XXXX":8398,"Ġfinancial":8399,"Ġvot":8400,"ato":8401,"Ġaccur":8402,"NUM":8403,"Ã´":8404,"Ġunknown":8405,"Ġsha":8406,"indexOf":8407,"VAR":8408,"helpers":8409,"===":8410,"ĠOb":8411,"Ġsender":8412,"HR":8413,"Ġhighlight":8414,"Operator":8415,"unlock":8416,"Vertex":8417,"gis":8418,"ĠFran":8419,"Ġlinear":8420,"itespace":8421,"Ġlearning":8422,"Ġlicenses":8423,"Ġnice":8424,"loading":8425,"Ġgreater":8426,".*;":8427,"TX":8428,"rowse":8429,"Notification":8430,"ĠSign":8431,"ago":8432,"Ġmatter":8433,"Ġletter":8434,"Ġlack":8435,"Ã£":8436,"ATED":8437,"ghter":8438,"absent":8439,"Ġmeaning":8440,"Ġreached":8441,"tax":8442,"ĠReference":8443,"Ġplaying":8444,"actual":8445,"channels":8446,")?":8447,"Ġanaly":8448,"Play":8449,"Ġmus":8450,"Book":8451,"Ġsett":8452,"Ġadding":8453,"Ġcourt":8454,"=',":8455,"refresh":8456,"weet":8457,"ĠInitialize":8458,"opes":8459,"UTO":8460,"vari":8461,"Ġparty":8462,"udit":8463,"MSG":8464,"Ġlists":8465,"adio":8466,"'\",":8467,"Ġtear":8468,"Ã§":8469,"erce":8470,">';":8471,"eclipse":8472,"Cap":8473,"]).":8474,"Ġcontinued":8475,"ĠJapan":8476,"Lib":8477,"2012":8478,"ĠMeta":8479,"Fin":8480,"ĠMore":8481,"vance":8482,"Ġshutil":8483,"Ġcompleted":8484,"ĠCollection":8485,"spar":8486,"tached":8487,"TICE":8488,"There":8489,"Real":8490,"Ġsquare":8491,"alls":8492,"InputStream":8493,"æŀ":8494,"Ġsusp":8495,"Hello":8496,"nic":8497,"Ġduration":8498,"ieces":8499,"Ġpersonal":8500,"ransport":8501,"Ġconv":8502,"rible":8503,"Ġdecision":8504,"Note":8505,"gradient":8506,"Ġpermitted":8507,"Ġactor":8508,"SUB":8509,"Allow":8510,"Ġvisual":8511,"Ġpriority":8512,"prise":8513,"ĠPR":8514,"velopment":8515,"spect":8516,"TRAN":8517,"Pod":8518,"mult":8519,"Ġgoogle":8520,"ĠColumn":8521,"(/":8522,"Mapper":8523,"Volume":8524,"lon":8525,"ography":8526,"bf":8527,"FileName":8528,"Processor":8529,"Ġmur":8530,"Ġ/*!":8531,"DateTimeField":8532,"Kind":8533,"ald":8534,"BIT":8535,"two":8536,"xff":8537,"stic":8538,"setText":8539,"endpoint":8540,"dropdown":8541,"isher":8542,"Namespace":8543,"overview":8544,"Ġking":8545,"Ġlaugh":8546,"ĠINTO":8547,"Ġoccurred":8548,"ĠAc":8549,"Ġapproach":8550,"Could":8551,"ĠMost":8552,"Cluster":8553,"Ġcredentials":8554,"bert":8555,"Ġnation":8556,"osity":8557,"Progress":8558,"Statement":8559,"Ġban":8560,"percent":8561,"Raw":8562,"Ġloader":8563,"2016":8564,"imately":8565,"program":8566,"Ġserious":8567,"Person":8568,"Ġsl":8569,"Ġopening":8570,"Ġfails":8571,"Ġchoice":8572,"about":8573,"Ġpaint":8574,"Ġtold":8575,"ĠComponent":8576,"records":8577,"Ġparticularly":8578,"Ġperfect":8579,"Ġpiece":8580,"Ġworst":8581,">../":8582,"Ġsla":8583,"Ġdetect":8584,"]):":8585,"EP":8586,"ftime":8587,"Ġboot":8588,"multip":8589,"rial":8590,"raz":8591,"Ġtermin":8592,"Ġonline":8593,"Ġstores":8594,"><!--":8595,"Ġconstants":8596,"âĸ":8597,"Card":8598,"Mask":8599,"ĠJuly":8600,"Ġworker":8601,"fun":8602,"ĠSci":8603,"wildfly":8604,"Ġreject":8605,"environment":8606,":#":8607,"Ġhorror":8608,",)":8609,"hist":8610,"ĠRich":8611,"Ġvari":8612,"methods":8613,"NECTION":8614,"Ġsnapshot":8615,"student":8616,"Ġplayers":8617,"Align":8618,"Ġxrange":8619,"Ġda":8620,"ĠGenerated":8621,"Python":8622,"lavor":8623,"Ġstra":8624,"urchase":8625,"rics":8626,"Points":8627,"dicate":8628,"agnost":8629,"æİ":8630,"ĠLL":8631,"Ġdro":8632,"Ġrepresents":8633,"ĠRO":8634,"ti":8635,"ened":8636,"Should":8637,"avi":8638,"izard":8639,"Permission":8640,"Ġrestore":8641,"Cons":8642,"balance":8643,"Ġinvolved":8644,"glob":8645,"Ġelem":8646,"Ġcontributors":8647,"ĠFILE":8648,"Ġsock":8649,"èĢ":8650,"collect":8651,"Ġcommunic":8652,"ĠIsland":8653,"atin":8654,"Ġencode":8655,"Html":8656,"ging":8657,"elem":8658,"Ġmk":8659,";\"":8660,"BB":8661,"ä¿":8662,"Ġlocale":8663,"Ġcollect":8664,"choice":8665,"IOException":8666,"nx":8667,"Ġconnected":8668,"ĠMex":8669,"Ġ2003":8670,"Ġkm":8671,"ĠStream":8672,"Ġhandling":8673,"ĠInstall":8674,"obs":8675,"Ġcoordinates":8676,"ilo":8677,"(',":8678,"Ġauthentication":8679,"enn":8680,"Ġcookie":8681,"Ġ[-":8682,"Ġsuc":8683,"METHOD":8684,"dx":8685,"æį":8686,"Ġrm":8687,"Scroll":8688,"constants":8689,"ĠACTION":8690,"Ġtopic":8691,"ĠBritain":8692,"ĠRepublic":8693,"mic":8694,"è¦":8695,"transport":8696,"preview":8697,"Ġweights":8698,"Ġsigned":8699,"5678":8700,"mal":8701,"Ġpip":8702,"Ġcampaign":8703,"Rate":8704,"ongs":8705,"sizeof":8706,"ech":8707,"ĠCommon":8708,"Ġkeyword":8709,"Ġblue":8710,"Home":8711,"Ġapplied":8712,"Ġguy":8713,"\\-":8714,"Ġconfigure":8715,"ĠCorporation":8716,"mitive":8717,"VH":8718,"Ġrepresenting":8719,"checkbox":8720,"Ġbring":8721,"Ġdimension":8722,"Ġadminist":8723,"Pixel":8724,"###":8725,"Ġpotential":8726,"(\"\"\"":8727,"Ġjobs":8728,"0001":8729,"htt":8730,"rey":8731,"ĠSY":8732,"Conn":8733,"facts":8734,"yaml":8735,"ots":8736,"ĠINC":8737,"Failure":8738,"Ġsing":8739,"EVENT":8740,"eth":8741,"hib":8742,"ĠJune":8743,"Ġownership":8744,"clock":8745,"Ġcentral":8746,"fav":8747,"ille":8748,"Ġuuid":8749,"Distance":8750,"Ġbrought":8751,"Ġbg":8752,"Where":8753,"EO":8754,"keras":8755,"Ġeconomic":8756,"fixed":8757,"ĠOptions":8758,"ided":8759,"ENS":8760,"Ġdark":8761,"URN":8762,"ĠINTER":8763,"ĠGreek":8764,"ĠPlace":8765,"walk":8766,"Ġleader":8767,"Ġcam":8768,"ingBox":8769,"schedule":8770,"Ġreports":8771,"}'.":8772,"Ġlogic":8773,"AX":8774,"Ġanalysis":8775,"Ġnearly":8776,"Ġcine":8777,"Ġaspect":8778,"ĠDraw":8779,"Ġexports":8780,"ĠGeorge":8781,"Some":8782,"GEN":8783,"dden":8784,"Gen":8785,"ÑĮ":8786,"iting":8787,"ÐµÐ½":8788,"ĠImplement":8789,"ĠJson":8790,"ĠNovember":8791,"æĶ":8792,"ered":8793,"ĠYORK":8794,"ĠAttributeError":8795,"ĠAlex":8796,"??":8797,"Sql":8798,"Ġexactly":8799,"cla":8800,"priority":8801,"ĠTests":8802,"ceeded":8803,"irror":8804,"Ġtimer":8805,"Ġwrote":8806,"Ġbeautiful":8807,"Ġexperience":8808,"INIT":8809,"ARCH":8810,"oph":8811,"uples":8812,"Ġfriends":8813,"rtype":8814,"tsd":8815,"clusive":8816,"Ġproperly":8817,"Ġdecode":8818,"onymous":8819,"ipy":8820,"ç½":8821,"aily":8822,"ESSION":8823,"9999":8824,"olved":8825,"ibly":8826,"ĠGermany":8827,"nam":8828,"ĠAg":8829,"izations":8830,"ĠParse":8831,"Ġsolution":8832,"ashington":8833,"Ġmult":8834,"ĠAm":8835,"digest":8836,"Ġreplaced":8837,"Direct":8838,"ĠYour":8839,"Ð´":8840,"Arch":8841,"++++":8842,"persist":8843,"LINK":8844,"rian":8845,"urt":8846,"archive":8847,"TAG":8848,"ĠBush":8849,"Ġchose":8850,"same":8851,"ante":8852,"lette":8853,"ĠIndian":8854,"Go":8855,"TextField":8856,"metrics":8857,"folio":8858,"Bus":8859,"Depend":8860,"literals":8861,"cluded":8862,"room":8863,"ĠTex":8864,"ĠDjango":8865,"fname":8866,"Geometry":8867,"Ġstyles":8868,"Packet":8869,"smart":8870,"ĠTop":8871,"prob":8872,"Ġcommunity":8873,".[":8874,"getInstance":8875,"Ġscient":8876,"aggreg":8877,"LED":8878,"Ġruntime":8879,"Feed":8880,"PASS":8881,"ĠDem":8882,"Word":8883,"xFF":8884,"Ġpsy":8885,"ĠMarch":8886,"Ġframework":8887,"Audio":8888,"ĠÐ¿":8889,"ĠALIGN":8890,"identity":8891,"seek":8892,"CLAI":8893,"ĠâĢĶ":8894,"ĠDIRECT":8895,"Basic":8896,"udo":8897,"intel":8898,"olicies":8899,"Ġtelevision":8900,"Ġhelper":8901,"MAN":8902,"Ġgoal":8903,"Ġhighest":8904,"=/":8905,"CESS":8906,"Ġ$.":8907,"Ġrema":8908,"ĠEnv":8909,"ctrl":8910,"fff":8911,"Ġsudo":8912,"Contains":8913,"Ġcouldn":8914,"Methods":8915,"ĠFranklin":8916,"hu":8917,"ple":8918,"Ġformatt":8919,"130":8920,"Ġexpr":8921,"ĠJames":8922,"camera":8923,"Ġmot":8924,"ĠNor":8925,"locity":8926,"ĠExp":8927,"king":8928,"Ġgp":8929,"Ġgenerally":8930,"Ġbattle":8931,"CUM":8932,"Ġmm":8933,"Public":8934,"ĠReport":8935,"Ġexecuted":8936,"Ġoc":8937,"ores":8938,"Convert":8939,"Ġdistribute":8940,"Ġds":8941,"Regex":8942,"IDENT":8943,"ociation":8944,"Ġminimum":8945,"Ġcomedy":8946,"VICES":8947,"bat":8948,"ĠPUBLIC":8949,"qt":8950,"reason":8951,"plus":8952,"512":8953,"**/":8954,"_->":8955,"Ġfine":8956,"Ġsq":8957,"ĠIter":8958,"Ġnavbar":8959,"Ġdesired":8960,"Ġrev":8961,"permission":8962,"Ġbudget":8963,"Ġ?></":8964,"ĠCourse":8965,"Ġworkers":8966,"Interval":8967,"åı¯":8968,"ĠApril":8969,"previous":8970,"wers":8971,"allery":8972,"useum":8973,"icons":8974,"Ġregistered":8975,"Free":8976,"uted":8977,"å¹":8978,"Usage":8979,"DP":8980,"([\"":8981,"lanation":8982,"ä¸º":8983,"RUP":8984,"poch":8985,"ãĢģ":8986,"speed":8987,"tb":8988,"agraph":8989,"ICT":8990,"ques":8991,"Ġnatural":8992,"pan":8993,"samp":8994,"ollar":8995,"ami":8996,"embed":8997,"Ġ70":8998,"EQ":8999,"Ġaggreg":9000,"flu":9001,"UMMARY":9002,"ĠLay":9003,"Ġcoming":9004,"idence":9005,"resize":9006,"});":9007,"raise":9008,"iller":9009,"Loop":9010,"optim":9011,"Ġthreads":9012,"Ġ}}</":9013,"emit":9014,"Ġimmediately":9015,"Ġaudience":9016,"Errors":9017,"600":9018,"jar":9019,"oon":9020,"ĠOK":9021,"Ġglob":9022,"ĠassertThat":9023,"Ġpartner":9024,"oxy":9025,"Frames":9026,"black":9027,"MED":9028,"wt":9029,"ĠFin":9030,"Ġec":9031,"ĠAustralia":9032,"ĠDISCLAI":9033,"TIM":9034,"KER":9035,"ĠTwo":9036,"Console":9037,"Ġeval":9038,"aught":9039,"Ignore":9040,"tics":9041,"ĠChurch":9042,"devices":9043,"Ġremaining":9044,"ki":9045,"{$":9046,"isEmpty":9047,"Ġplays":9048,"Ġ2001":9049,"anti":9050,"Missing":9051,"Ġmention":9052,"Rev":9053,"Ġ##############################################################################":9054,"Exists":9055,"Pop":9056,"iming":9057,"adian":9058,"127":9059,"esome":9060,"Ġcombin":9061,"rx":9062,"Short":9063,"dm":9064,"Ġkw":9065,"MODULE":9066,"IV":9067,"Ġprograms":9068,"umpt":9069,"OPTION":9070,"Ġdepends":9071,"ansible":9072,"Ġturned":9073,"Batch":9074,"enty":9075,"cker":9076,"Ġtechn":9077,"ĠDefine":9078,")+":9079,"Addr":9080,"ĠMinister":9081,"Ġcc":9082,"ssed":9083,"ĠInitial":9084,"ĠDelete":9085,"ĠVALUES":9086,"Ġpartition":9087,"Objects":9088,"ĠRay":9089,"Ġoutputs":9090,"ike":9091,"Ġfood":9092,"Ġdetail":9093,"Ġwebsite":9094,")-":9095,"star":9096,"ĠCompany":9097,"Score":9098,"Ġms":9099,"scheme":9100,"Ġsess":9101,"partition":9102,"Enter":9103,"*(":9104,"}\".":9105,"Exit":9106,"Endpoint":9107,"Ġdemon":9108,"getId":9109,"Authentication":9110,"å½":9111,"ĠEXPECT":9112,"DTD":9113,"Vec":9114,"front":9115,"Ġdescriptor":9116,"Bo":9117,"Ġtemplates":9118,"ÑģÑĤ":9119,"!=":9120,"cember":9121,"cheduler":9122,"mfony":9123,"ĠSave":9124,"ĠBlack":9125,"IVE":9126,"pragma":9127,"activity":9128,"Ġeveryone":9129,"Microsoft":9130,"Ġlarger":9131,"ĠBO":9132,"Ġmetric":9133,"Ġchoose":9134,"PM":9135,"ĠBey":9136,"Ġ{})":9137,"cÃ©":9138,"undefined":9139,"\"'":9140,"Ð²":9141,"Ġ\"\")":9142,"Ġmetrics":9143,"Expected":9144,"Ġsubstant":9145,"Shader":9146,"[:-":9147,"Binary":9148,"ĠJack":9149,"Ġapplications":9150,"Ġslice":9151,"Ġauthors":9152,"Ġsyntax":9153,"_%":9154,"Ġreduce":9155,"assertAll":9156,"listen":9157,"Scan":9158,"Ġemit":9159,"Ġsmaller":9160,"Ġdied":9161,"Ġdespite":9162,"Ġdepart":9163,"ĠERR":9164,"ĠGOO":9165,"imator":9166,"Cursor":9167,"ĠInst":9168,"ĠCR":9169,"Ġhex":9170,"DEX":9171,"Ġcouple":9172,"?>":9173,"bour":9174,"Ġtraceback":9175,"gettext":9176,"Servlet":9177,"Big":9178,"Ġtriangle":9179,"Ġwants":9180,"Direction":9181,"Ġconnections":9182,"Ġcellpadding":9183,"viewport":9184,"ixtures":9185,"reduce":9186,"Ġprofit":9187,"Ġtd":9188,"Ġmonitor":9189,"Platform":9190,"Ġele":9191,"ĠPeople":9192,"herited":9193,"ĠContext":9194,"veloper":9195,"quick":9196,"iring":9197,")\">":9198,"Ġ@.":9199,"Append":9200,"Cloud":9201,"Ġaliases":9202,"trim":9203,"-+":9204,"ĠToken":9205,"ĠAdmin":9206,"choices":9207,"prepare":9208,"Ġpygame":9209,"Remote":9210,"dns":9211,"placeholder":9212,"management":9213,"Ġdimensions":9214,"ĠAuto":9215,"TOM":9216,"illing":9217,"rum":9218,"repository":9219,"Backend":9220,"!\"":9221,"fi":9222,"ĠQueen":9223,"Ġcommercial":9224,"Ġ@.@":9225,"ara":9226,"ctr":9227,"ĠRobert":9228,"ĠSend":9229,"(\"<":9230,"vidence":9231,"concat":9232,"Ġconfigured":9233,"Ġiterator":9234,"clusion":9235,"Ġfelt":9236,"Ġeth":9237,"Ġrock":9238,"structions":9239,"Ġexclude":9240,"MAL":9241,"Groups":9242,"uj":9243,"onia":9244,"ajax":9245,"æŃ":9246,"utch":9247,"ĠDown":9248,"__()":9249,"/',":9250,"Ġlevels":9251,"IZ":9252,"cided":9253,"TEGER":9254,"pw":9255,"Ġ29":9256,"Ġconcept":9257,"ander":9258,"onical":9259,"Ġparents":9260,"ĠFore":9261,"Ġ256":9262,"Ġfort":9263,"Ġ*,":9264,"ĠIsrael":9265,"Ġproduce":9266,"Ġpreviously":9267,"Ġclone":9268,"Ġ//!":9269,"Ġphoto":9270,"CPU":9271,"High":9272,"|&":9273,"keep":9274,"Ġsaying":9275,"è¡Į":9276,"best":9277,"Example":9278,"Ġperformed":9279,"Elements":9280,"Insert":9281,"TypeError":9282,"ĠUsage":9283,"Ġpaper":9284,"Ġdefe":9285,"Navigation":9286,"Axis":9287,"formance":9288,"Ġsupposed":9289,"Ġclub":9290,"GROUP":9291,"ĠDan":9292,"ĠVictoria":9293,"ously":9294,"Ġweeks":9295,"valuate":9296,"Ġorganization":9297,"oauth":9298,"è§":9299,"Ġseven":9300,"GTH":9301,"Ġmi":9302,"Ġloading":9303,"wb":9304,"Ġrouter":9305,"Ġangle":9306,"Ġarr":9307,"navigation":9308,"CMD":9309,"Messages":9310,"Ġpatterns":9311,"Ġagreements":9312,"Ġsexual":9313,"gi":9314,"nil":9315,"Ġ\\\\":9316,"Ġcreates":9317,"ãģ®":9318,"Ġpositions":9319,"ĠNOTICE":9320,"Ġlistener":9321,"éĹ":9322,"ĠTw":9323,"Unable":9324,"jobs":9325,"ĠSPECIAL":9326,"ĠîĪ":9327,"Ġfla":9328,"ĠPal":9329,"integ":9330,"Ġamp":9331,":-":9332,"TT":9333,"ĠFL":9334,"Fragment":9335,"bur":9336,"sil":9337,"revision":9338,"ARGET":9339,"é¡":9340,"lah":9341,"riptions":9342,"Ġnova":9343,"logs":9344,"logies":9345,"DED":9346,"heading":9347,"Zone":9348,"Ġ\";":9349,"ĠIntel":9350,"Sur":9351,"}'":9352,"ĠGra":9353,"`:":9354,"Ġprefer":9355,"ĠWIDTH":9356,"Optional":9357,"ĠRussian":9358,"Ġscheme":9359,"Ġmobile":9360,"uzz":9361,"rift":9362,"Foo":9363,"ota":9364,"ecause":9365,"nÃ©":9366,"Ġwrap":9367,"Bind":9368,"WIT":9369,"ĠGET":9370,"Ġtables":9371,"cols":9372,"æĹ¶":9373,"2017":9374,"tm":9375,"Ġpurpose":9376,"Ġrepr":9377,"allenge":9378,"wx":9379,"chor":9380,"ĠPL":9381,"Ġsymp":9382,"XY":9383,"'+":9384,"BM":9385,"Ġbra":9386,"ĠSIGN":9387,"Ġnumer":9388,"Library":9389,"Ġpermit":9390,"deep":9391,"isf":9392,"Light":9393,"Ġreward":9394,"stitute":9395,"ura":9396,"team":9397,"asc":9398,"Ġfully":9399,">()":9400,"ĠARE":9401,"ĠJapanese":9402,"lebr":9403,"Ġxmlns":9404,"PA":9405,"osv":9406,"Ġbroadcast":9407,"Ġsoft":9408,"mid":9409,"ĠMS":9410,"ĠGenerate":9411,"ierarchy":9412,"ociety":9413,"Ġradio":9414,"codes":9415,"Ġadapt":9416,"800":9417,"Counter":9418,"Resolver":9419,"Aut":9420,"_{":9421,"Ġrid":9422,"Ġ=========================================================================":9423,"almost":9424,"SPAN":9425,"Initial":9426,"Ġquestions":9427,"igen":9428,"Ġappears":9429,"uje":9430,"ĠTry":9431,"ĠCla":9432,"^^^^":9433,"ĠConnection":9434,"tables":9435,"demo":9436,"ĠSUMMARY":9437,"ĠMed":9438,"abstract":9439,"Ġarrays":9440,"Ġcellspacing":9441,"ĠRender":9442,"appoint":9443,"COUNT":9444,"Ġtypeof":9445,"ĠArch":9446,"Ġ[('":9447,"Ġgeneric":9448,"Enable":9449,"Ġembed":9450,"Ġcivil":9451,"lik":9452,"Ġcached":9453,"Ġcertificate":9454,"ĠAUTHORS":9455,"mutex":9456,"constructor":9457,"Ġpairs":9458,"lywood":9459,"ĠMedia":9460,"Ġpredict":9461,"sources":9462,"Ġpod":9463,"ĠMany":9464,"orded":9465,"ffers":9466,"ĠManagement":9467,"/*":9468,"Ġ021":9469,"ĠDVD":9470,"ouncil":9471,"ĠSupport":9472,"Browser":9473,"cid":9474,"isation":9475,"Ġprofession":9476,"Ġchecked":9477,"Ġsurv":9478,"åĮ":9479,"Ġ();":9480,"scape":9481,"Ġarticle":9482,"Ġthreshold":9483,"visit":9484,"Ġparticip":9485,"Ġlimited":9486,"ĠHttpResponse":9487,"SUP":9488,"fixture":9489,"Ġctypes":9490,"Ġliving":9491,"cor":9492,"threshold":9493,"SEQUENTIAL":9494,"Ġwatched":9495,"Ġbackup":9496,"Ġdrive":9497,"Ġgreen":9498,"Ġrecommend":9499,"ilab":9500,"Ġresulting":9501,"backup":9502,"elta":9503,"Ġoffice":9504,"calls":9505,"ĠMatrix":9506,"&&":9507,"Clear":9508,"threads":9509,"[^":9510,"Ġregistry":9511,"')->":9512,"Ġcallable":9513,"Ġhostname":9514,"ĠCalculate":9515,"allowed":9516,"Ġcontributor":9517,"https":9518,"circle":9519,"decl":9520,"Machine":9521,"ĠDouble":9522,"charset":9523,"CM":9524,"vest":9525,"Ġfprintf":9526,"Ġarri":9527,"FN":9528,"Ġ2002":9529,"regs":9530,"------":9531,"Ġtempfile":9532,"Ġcareer":9533,"ĠCreates":9534,"Private":9535,"NEL":9536,"Converter":9537,"Intersection":9538,"Google":9539,")],":9540,"NE":9541,"ĠPower":9542,"Release":9543,"ä¸ĭ":9544,"Ġnotification":9545,"Ġscroll":9546,"Ġanti":9547,"Ġç":9548,"Ġflash":9549,"reshape":9550,"Ġsv":9551,"ĠGod":9552,"ialect":9553,"machine":9554,"ĠCONSEQUENTIAL":9555,"Ġboy":9556,"ssian":9557,"ĠNON":9558,"ITLE":9559,";|&":9560,"ste":9561,"ĠRo":9562,"statement":9563,"shal":9564,"Ġcloud":9565,"ĠUK":9566,"Ġcaused":9567,"ĠGO":9568,"Limit":9569,"ngth":9570,"quis":9571,"Ġpoll":9572,"IAL":9573,"hass":9574,"Ġways":9575,"ĠINDIRECT":9576,"Ġmanage":9577,"ĠParis":9578,"Ġopenerp":9579,"Ġculture":9580,"-------------":9581,"Ãł":9582,"ĠBuffer":9583,"ora":9584,"Edge":9585,"rv":9586,"descriptor":9587,"ĥ½":9588,"SHA":9589,"ĠSol":9590,"weights":9591,"how":9592,"Ġcd":9593,"ĠChe":9594,"Ġformats":9595,"reply":9596,"Ġsensor":9597,"city":9598,"Ġsuit":9599,"Ġpromote":9600,"rouble":9601,"failure":9602,"ĠPhil":9603,"Ġprepare":9604,"Ġpersons":9605,"Ġjump":9606,"Ġstation":9607,"Ġsan":9608,"selector":9609,"ĠBer":9610,"||":9611,"Execution":9612,"andra":9613,"Ġcosts":9614,"Ġcapture":9615,"ĠReal":9616,"Ġmoving":9617,"got":9618,"rypted":9619,"ĠCore":9620,"Ġ59":9621,"transition":9622,"à¤°":9623,"Ġdecided":9624,"Ġended":9625,"Ġcredit":9626,"Decimal":9627,"untu":9628,"ĠCong":9629,"ĠVER":9630,"xF":9631,"capt":9632,"Static":9633,"ĠCloud":9634,"234":9635,"frames":9636,"ycle":9637,"Ġeight":9638,"Ġpeace":9639,"Ġmostly":9640,"ĠAlthough":9641,"ĠRoy":9642,"Ġchannels":9643,"Hub":9644,"ĠSuper":9645,"ulture":9646,"Ġnullptr":9647,"å·":9648,"undred":9649,"Split":9650,"Ġreach":9651,"Ġ\");":9652,"Ġarm":9653,"à¥į":9654,"SPE":9655,"ANT":9656,"Ġphi":9657,"fr":9658,"tcp":9659,"sender":9660,"TRY":9661,"connected":9662,"nother":9663,"Join":9664,"bosity":9665,"Deprecated":9666,"Ġ}}\"":9667,"asset":9668,"ĠPROF":9669,"History":9670,"NONE":9671,"Ġmp":9672,"Ġserve":9673,"blog":9674,"Ġgiving":9675,"Ġroll":9676,"Ġapprox":9677,"ĠDecember":9678,"Ġhosts":9679,"ĠWashington":9680,"Ġroles":9681,"thumbnail":9682,"ĠStringIO":9683,"sely":9684,"IBILITY":9685,"ĠBUS":9686,"changes":9687,"æĢ":9688,"atom":9689,"Ġreflect":9690,"Ġconfirm":9691,"Ġpd":9692,"ulp":9693,"ĠBill":9694,"Ġmeasure":9695,"incipal":9696,"Factor":9697,"Ġcategories":9698,"Ġrele":9699,"Ġrepe":9700,"uman":9701,"ĠPat":9702,"middleware":9703,"Setup":9704,"\"+":9705,"RED":9706,"101":9707,"ĠLab":9708,"outputs":9709,"ĠREG":9710,"uation":9711,"Ġvim":9712,"ĠPo":9713,"Ġfragment":9714,"destination":9715,"aped":9716,"Constructor":9717,"Ġbecomes":9718,"Ġpin":9719,"Term":9720,"ĠNOTE":9721,"slot":9722,"Ġbid":9723,"ĠDisplay":9724,"ellow":9725,"Ġ----------------":9726,"iversal":9727,"Ġcompile":9728,"isco":9729,"ĠItal":9730,"hit":9731,"acl":9732,"ĠStandard":9733,"ĠLOSS":9734,"ĠSelect":9735,",))":9736,"Ġbomb":9737,"errno":9738,"Ġolder":9739,"KEN":9740,"Please":9741,"Ġcompatible":9742,"STIT":9743,"ĠSession":9744,"ĠPROFITS":9745,"alest":9746,"ientation":9747,"Ġlibraries":9748,"Ġincreased":9749,"Setting":9750,"LOB":9751,"ĠCalif":9752,"ArgumentException":9753,"Mesh":9754,"NC":9755,"Ġunion":9756,"Ġobvious":9757,"Extract":9758,"Ġsem":9759,"versions":9760,"ĠBus":9761,"Ġkids":9762,"Background":9763,"è¦ģ":9764,"Power":9765,"colLast":9766,"]=":9767,"CLI":9768,"ĠChristian":9769,"Condition":9770,"íķ":9771,"crement":9772,"ĠUSB":9773,"closed":9774,"Ġreproduce":9775,"mine":9776,"aking":9777,"ĠPaul":9778,"Ġincreasing":9779,"Ġ//#":9780,"Ġeconomy":9781,"Ġmanufact":9782,"Ġtypically":9783,"Enumer":9784,"dummy":9785,"Ġpain":9786,"Ġextreme":9787,"Ġkept":9788,"ona":9789,"ĠAli":9790,"IGENCE":9791,"Ġtranslation":9792,"Ġarchive":9793,"ipv":9794,"ÙĦ":9795,"Ġ'&":9796,"Ġnotes":9797,"GLIGENCE":9798,"ĠNEGLIGENCE":9799,"diag":9800,"eb":9801,"urb":9802,"Ġ#{":9803,"ĠCenter":9804,"Ġfirm":9805,"Ġinj":9806,"Ġextended":9807,"(\".":9808,"sgi":9809,"Ġrace":9810,"Ġdirectories":9811,"Ġwish":9812,"Ġaddresses":9813,"ĠBank":9814,"Ġ./":9815,"issue":9816,"ĠAfrican":9817,"Ġsynchron":9818,"AMP":9819,"igrate":9820,"ĠASS":9821,"ĠclassName":9822,"ĠProgram":9823,"good":9824,"inet":9825,"Ġcru":9826,"ENV":9827,"Place":9828,"Site":9829,"Ġdynamic":9830,"SYS":9831,"hol":9832,"oncÃ©":9833,"Ġrem":9834,"DOM":9835,"Ġ\"{":9836,"Ġforced":9837,"ĠOld":9838,"Span":9839,"Ġintroduced":9840,"ĠCPU":9841,"ĠINT":9842,">)":9843,"Ġtravel":9844,"FFER":9845,"Ġtz":9846,"Ġfans":9847,"variant":9848,"ĠPlugin":9849,"answer":9850,"jax":9851,"Ġwild":9852,"Ġprojects":9853,"DY":9854,"Ġremains":9855,"touch":9856,"Ã¼":9857,"Ġ35":9858,"Identity":9859,"ourt":9860,"1301":9861,"äºĨ":9862,"Drop":9863,"ancy":9864,"lists":9865,"Ã½ch":9866,"PARAM":9867,"ilability":9868,"Sw":9869,"Tags":9870,"unpack":9871,"Ġ//-->":9872,"colFirst":9873,"Ġplaces":9874,"fragment":9875,"Ġcsv":9876,"ĠUnit":9877,"Rows":9878,"ĠFifth":9879,"rintf":9880,"Ġkid":9881,"phinx":9882,"iteritems":9883,"ĠTeam":9884,"Bool":9885,"Ġchance":9886,"setUp":9887,"Ġpixels":9888,"well":9889,"Ġsmo":9890,"Ġassigned":9891,"Ġpipeline":9892,"Ġpicture":9893,"ACTION":9894,"dashboard":9895,"Ġarchitecture":9896,"ening":9897,"gc":9898,"Ġpad":9899,"MAND":9900,"Ġstrip":9901,"='[":9902,"ĠSUCH":9903,"Ġsongs":9904,"Ġrefresh":9905,"Ġplugins":9906,"Uns":9907,"elcome":9908,"ĠNews":9909,"interfaces":9910,"Ġ'*":9911,"Ġrecurs":9912,"confirm":9913,"Ġoh":9914,"ĠAccess":9915,"ĠGlobal":9916,"Ġsoldi":9917,"pending":9918,"ym":9919,"notes":9920,"Ġhide":9921,"that":9922,"exclude":9923,"Ġmurder":9924,"Ġcelebr":9925,"UPDATE":9926,"existing":9927,"ensors":9928,"Ġtexture":9929,"ĠEven":9930,"epoch":9931,"Ġplant":9932,"ĠCHAR":9933,"ĠÄį":9934,"umin":9935,"sparse":9936,"aming":9937,"ĠVirtual":9938,"Ġsubstantial":9939,"Ġ02":9940,"BLOCK":9941,"('_":9942,"Ġdecimal":9943,"gpio":9944,"Ġtroops":9945,"({\"":9946,"MBER":9947,"SUCCESS":9948,"bors":9949,"dro":9950,"Ġvoice":9951,"ĠHome":9952,"posts":9953,"]{":9954,"ĠFederal":9955,"Ġrecover":9956,"Ġplane":9957,"ĠAccount":9958,"NOR":9959,"eli":9960,"Ġtar":9961,"Ġcancel":9962,"localhost":9963,"ĠGovern":9964,"ĠPOSS":9965,"Ġstraight":9966,"ArrayList":9967,"recv":9968,"Ġfourth":9969,"Ġreferences":9970,"ĠNum":9971,"Expr":9972,"Accept":9973,"Ġsin":9974,"()`":9975,"OBJECT":9976,"Ġ--></":9977,"]->":9978,"segment":9979,"Ġconc":9980,"Scene":9981,"ĠEVEN":9982,"ĠINCIDENT":9983,"Ġemer":9984,"ĠShould":9985,"igate":9986,"irs":9987,"Forms":9988,"Ray":9989,"Ġvs":9990,"ĠCurrent":9991,"STITUTE":9992,"ĠRest":9993,"ĠHen":9994,"Ġlives":9995,"Ġchecking":9996,"ĠGeneric":9997,"ĠMr":9998,"lazy":9999,"Ġmicro":10000,"ĠDuring":10001,"Headers":10002,"VISED":10003,"ĠINCIDENTAL":10004,"Ġinstrument":10005,"Ġthous":10006,"ĠMart":10007,"à¥ĩ":10008,"Ġcref":10009,"Ġ\"${":10010,"scene":10011,"mmutable":10012,"ENC":10013,"Reset":10014,"--------------":10015,"WRITE":10016,"Ġ02110":10017,"ĠBay":10018,"predict":10019,"ĠProperty":10020,"Ġmiss":10021,"Props":10022,"Diff":10023,"Lookup":10024,"ita":10025,"Ġtm":10026,"iration":10027,"Ġyes":10028,"Ġintended":10029,"asion":10030,"Ġ00":10031,"ares":10032,"Ġauthentic":10033,"å®ļ":10034,"categories":10035,"Ġ\"-//":10036,"AUSED":10037,"ĠZend":10038,"Middleware":10039,"NON":10040,"}\")":10041,"ĠOracle":10042,"Ġordered":10043,"Contents":10044,"sensor":10045,"ĠOlympic":10046,"Ġdemonstr":10047,"Ġrisk":10048,"2010":10049,"Execute":10050,"MESS":10051,"Ġstaff":10052,"Ġends":10053,"Software":10054,"Ġgeneration":10055,"å¸":10056,"ĠItalian":10057,"separator":10058,"getString":10059,"ĠFloor":10060,"Ġindependent":10061,"Ap":10062,"Canvas":10063,"peer":10064,"ĠWAY":10065,"Ġseeing":10066,"fold":10067,"lv":10068,"Lower":10069,"Bounds":10070,"itution":10071,"Ġsi":10072,"Consumer":10073,"Ġadds":10074,"Ġconsumer":10075,"have":10076,"ius":10077,"PACK":10078,"Ġfurn":10079,"Ġgoverned":10080,"ossible":10081,"Ġaria":10082,"romium":10083,"ategor":10084,"Ġtransl":10085,"Ġaren":10086,"doctype":10087,"ĠDEBUG":10088,"DEVICE":10089,"payment":10090,"Center":10091,"etween":10092,"examples":10093,"ĠResearch":10094,"ĠMal":10095,"ĠSERVICES":10096,"formats":10097,"Ġtot":10098,"Shared":10099,"Effect":10100,"ĠPOSSIBILITY":10101,"pas":10102,"chr":10103,"ĠSettings":10104,"Ġreply":10105,"ĠVerify":10106,"qa":10107,"ĠOf":10108,"ĠSpanish":10109,"Ġthreading":10110,"Ġpickle":10111,"RAY":10112,"DELETE":10113,"large":10114,"ĠADVISED":10115,"TERN":10116,"ĠMary":10117,"Idx":10118,"POINT":10119,"ĠSUBSTITUTE":10120,"gar":10121,"hour":10122,"filer":10123,"ĠRandom":10124,"ĠSTRICT":10125,"()):":10126,"ĠFALSE":10127,"Ġarmy":10128,"Ġidentify":10129,"(?:":10130,"ampionship":10131,"inja":10132,"Cannot":10133,"ĠAre":10134,"Ġretrieve":10135,"ĠByte":10136,"Depth":10137,"ĠDAMAGE":10138,"ĠâĶ":10139,"Ġ//----------------------------------------------------------------":10140,"Prop":10141,"uffle":10142,"è¿Ļ":10143,"INESS":10144,"ĠCHE":10145,"ĠHost":10146,">=":10147,"aches":10148,"COMM":10149,"Ġequiv":10150,"Ġactivation":10151,"sphere":10152,")\")":10153,"ippet":10154,"Contact":10155,"poses":10156,"Ġlaun":10157,"Ġprep":10158,"Ġrt":10159,"LENGTH":10160,"assertNot":10161,"Ġasked":10162,"vendor":10163,"æĮ":10164,"Ġparallel":10165,"Ã³n":10166,"blob":10167,"Ã¨":10168,"Ġeventually":10169,"sorted":10170,"Ġconstruction":10171,"Which":10172,"Ġcities":10173,"Ġterrit":10174,"åĪ°":10175,"æĸ¹":10176,"ĠINTERRUP":10177,"oura":10178,"grees":10179,"éĻ":10180,"material":10181,"standard":10182,"DEV":10183,"mazon":10184,"Ġimpact":10185,"Ġprompt":10186,"uber":10187,"Ġparsing":10188,"*,":10189,"('./":10190,"BI":10191,"Ġcos":10192,"ĠMus":10193,"ĠFilter":10194,"PHP":10195,"ints":10196,"War":10197,"Ġplain":10198,"Ġ//////////////////////////////////":10199,"alchemy":10200,"Ġ'\\\\":10201,"mom":10202,"Ġreve":10203,"Ġreasons":10204,"Ġvo":10205,"ĠCONNECTION":10206,"=\"../../../../../../../":10207,"notification":10208,"Ġ<-":10209,"(_(\"":10210,"Day":10211,"cellent":10212,"ĠTYPE":10213,"Filename":10214,"199":10215,"must":10216,"gres":10217,"Ġsun":10218,"Prev":10219,"CUMENT":10220,"ĠÎ":10221,"Copyright":10222,"Ġpan":10223,"Ġability":10224,"Quest":10225,"ĠVariable":10226,"}</":10227,"ĠWhether":10228,"Any":10229,"Ġinspect":10230,"Ġchurch":10231,"Ġconverted":10232,"sphinx":10233,"Pipe":10234,"TK":10235,"Scalar":10236,"ĠWin":10237,"Car":10238,"appro":10239,"manifest":10240,"noframe":10241,"fall":10242,"Ġquickly":10243,"1024":10244,"Upload":10245,"lad":10246,"activate":10247,"lasticsearch":10248,"Encoder":10249,"WEVER":10250,"ĠAnge":10251,"Ġcells":10252,"lij":10253,"chrome":10254,"ĠConsole":10255,"Ġhappens":10256,"Ġeasily":10257,"ĠDISCLAIMED":10258,"/{":10259,"Ġcm":10260,"ĠLou":10261,"ĠHandle":10262,"abb":10263,"ĠFort":10264,"Ġvertex":10265,"cv":10266,"olf":10267,"ĠFlor":10268,"lineno":10269,"Ġcritic":10270,"compatible":10271,"Ġthus":10272,"tenant":10273,"'.$":10274,"ĠEntity":10275,"ĠHOWEVER":10276,"browse":10277,"ees":10278,"nr":10279,"plain":10280,"ĠVALIGN":10281,"Ġdeclar":10282,"Caml":10283,"gif":10284,"ĠHE":10285,"Ġ@,":10286,"Ġshowing":10287,"LEV":10288,"Ġqueries":10289,"subprocess":10290,"Ġol":10291,"targets":10292,"gal":10293,"ĠEnter":10294,"ĠRedistribution":10295,"Course":10296,"bold":10297,"Ġss":10298,"ĠFinal":10299,"ROL":10300,"Ġtemporary":10301,"ĠTHEORY":10302,"analysis":10303,"handlers":10304,"friend":10305,"ĠBUSINESS":10306,"general":10307,"yal":10308,"Ġbounds":10309,"Ġmechan":10310,"CUREMENT":10311,"Ġ@,@":10312,"GO":10313,"ĠPortug":10314,"Ġssl":10315,"Ġdomin":10316,"Ġtried":10317,"Ġearth":10318,"oooooooo":10319,"ĠNap":10320,"ĠBudd":10321,"ĠPROCUREMENT":10322,"\\+":10323,"Ġsuffer":10324,"Ġagreement":10325,"react":10326,"ĠCache":10327,"ĠFire":10328,"Ġlon":10329,"parsed":10330,"maps":10331,"ĠEngine":10332,"ĠGOODS":10333,"¦Ĥ":10334,"ç¨":10335,"Ġbirth":10336,"Cancel":10337,"rst":10338,"icip":10339,"Ġroad":10340,"baz":10341,"ilation":10342,"Ġanimation":10343,"Ġemotion":10344,"publish":10345,"ĠCAUSED":10346,"definition":10347,"arily":10348,"Encoding":10349,"flex":10350,"Ġfollows":10351,"Ġhighly":10352,"Ġeffective":10353,"Overview":10354,"ĠTree":10355,"Ġcolon":10356,"Assign":10357,"urric":10358,"Ġdeprecated":10359,"Ġprops":10360,"Compiler":10361,"ĠEXEMPL":10362,"ĠEXEMPLARY":10363,"Mail":10364,"Ġlooked":10365,"Ġvoc":10366,"shop":10367,"ĠAddress":10368,"sdk":10369,"FRING":10370,"Ġ------------------------------------------------":10371,"ĠINTERRUPTION":10372,"Bro":10373,"åĢ":10374,"Ġfrequ":10375,"ryption":10376,"nologies":10377,"Ġpersist":10378,"Ġspre":10379,"ĠBasic":10380,"Constant":10381,"ĠEnvironment":10382,"à¹":10383,"ĠBen":10384,"HOME":10385,"angular":10386,"AIN":10387,"ĠConstruct":10388,"Strategy":10389,"Âµ":10390,"Extra":10391,"slider":10392,"Does":10393,"Ctrl":10394,"FRINGEMENT":10395,"rp":10396,"\"]:":10397,"Lin":10398,"Ġattention":10399,"Ġsklearn":10400,"monitor":10401,"?\"":10402,"Ġfair":10403,"Ġbold":10404,"warnings":10405,"ingu":10406,"ĠCONT":10407,"}\",":10408,"ĠSom":10409,"saved":10410,"ãĥ¼":10411,"Done":10412,"ĠOriginal":10413,"ĠCHECK":10414,"stage":10415,"ĠReact":10416,"orer":10417,"spark":10418,"compress":10419,"createElement":10420,"Worker":10421,"Ġvertical":10422,"Ġ&#":10423,"Ġfell":10424,"Ġmesh":10425,"Ġstrategy":10426,"pipeline":10427,"Gu":10428,"Ġscalar":10429,"GPIO":10430,"NG":10431,"patcher":10432,"Ġtowards":10433,"bruary":10434,"virt":10435,"oned":10436,"âĢĿ":10437,"ĠMulti":10438,"clip":10439,"iding":10440,"Ġcompared":10441,"Ġpred":10442,"Binding":10443,"ĠPerson":10444,"ĠDay":10445,"syn":10446,"leting":10447,"Ġminor":10448,"PIPE":10449,"cop":10450,"Ġbasis":10451,"geometry":10452,"ĠStop":10453,"rozen":10454,"Ġslight":10455,"Ġwood":10456,"Ġnested":10457,"ĠLE":10458,"Algorithm":10459,"ĠStep":10460,"ĠCOM":10461,"Hook":10462,"RPC":10463,"éĿ":10464,"Chain":10465,"Ġbiggest":10466,"Ġ45":10467,"OutputStream":10468,"ĠValidation":10469,"ĠFIX":10470,"::$":10471,"fox":10472,"initely":10473,"Ġoverflow":10474,"CLU":10475,"Ġstars":10476,"Ġlearn":10477,"Complete":10478,"Ġtrouble":10479,"ĠBad":10480,"CAP":10481,"Created":10482,"ancer":10483,"Dist":10484,"Ġbeat":10485,"ansion":10486,"ducer":10487,"ĠArmy":10488,"Ġhereby":10489,"Ð¾Ð²":10490,"'=>":10491,">\";":10492,"Ġpt":10493,"bitr":10494,"ĠjQuery":10495,"ĠSam":10496,"mysql":10497,"credentials":10498,"cod":10499,"stub":10500,"LP":10501,"implement":10502,"æį®":10503,"Ġsold":10504,"Ġmanaged":10505,"particle":10506,"Ġtries":10507,"Executor":10508,":/":10509,"ktop":10510,"Ġrom":10511,"Ġdu":10512,"Ġdeb":10513,"ĠGreat":10514,"sktop":10515,":])":10516,"INPUT":10517,"WORK":10518,"Ġatom":10519,"ĠIts":10520,"Sta":10521,"rig":10522,"Ġprocesses":10523,"Ġchief":10524,"encoded":10525,"Ġsupplied":10526,"invoice":10527,"ĠClasses":10528,"...)":10529,"___":10530,"ĠTRUE":10531,"DK":10532,"dif":10533,"uf":10534,"Ġease":10535,"Ġlos":10536,"Information":10537,"Ġ========":10538,"ĠAng":10539,"Ang":10540,"OTTOM":10541,"Syntax":10542,"Ġrestriction":10543,"CALL":10544,"ordinates":10545,"Ġwire":10546,"Ġencounter":10547,"owers":10548,"precision":10549,"SIG":10550,"ĠRichard":10551,"Children":10552,"initialize":10553,"flash":10554,"lov":10555,"ĠDirect":10556,"uppress":10557,"Ġshadow":10558,"Ġdeploy":10559,"Ġoperating":10560,"Ġretry":10561,"entities":10562,"ĠWill":10563,"ĠURI":10564,"ä¾":10565,"poly":10566,"shortcut":10567,"ĠAfrica":10568,"ADDING":10569,"ĠFre":10570,"ĠGPIO":10571,"ĠSpace":10572,"scalar":10573,"ĠHollywood":10574,"ç§":10575,"Ġamb":10576,"ĠSchool":10577,"tee":10578,"Ġ$(\"#":10579,"ĠDr":10580,"moves":10581,"Ġ\\(":10582,"tpl":10583,"ĠIllegal":10584,"Ġ[{":10585,"ĠUsing":10586,"ĠÐ²":10587,"Ġphysical":10588,"Ġrevision":10589,"cluding":10590,"Ġoccur":10591,"Ġnovel":10592,"ĠWell":10593,"Ġperformances":10594,"deleted":10595,"ä¸Ĭ":10596,"Ġcarry":10597,"ĠAmericans":10598,"ogram":10599,"oked":10600,"DOWN":10601,"Ġprocessed":10602,"Tuple":10603,"ullet":10604,"Ġcurr":10605,"cwd":10606,"Ġtb":10607,"atile":10608,"Ġbot":10609,"Ġprime":10610,"ĠTimes":10611,"(\"--":10612,"ĠCoq":10613,"Ġfootball":10614,"ĠBeyoncÃ©":10615,"Ġtail":10616,"ĠWait":10617,"Ġptr":10618,"geo":10619,"Linear":10620,"radient":10621,"IME":10622,"cn":10623,"Ġtou":10624,"ĠTOP":10625,"INFRINGEMENT":10626,"Running":10627,"Origin":10628,"Ġcuda":10629,"Ġstride":10630,"Ġgtk":10631,"HAND":10632,"ruby":10633,"ĠPalest":10634,"Ġterminal":10635,"aN":10636,"Ġbey":10637,"ĠVM":10638,"astype":10639,"Ġdisplayed":10640,"itan":10641,"iteral":10642,"dh":10643,"Ġreturning":10644,"Ġentities":10645,"ĠSecond":10646,"Ġrendered":10647,"multiple":10648,"Ġsal":10649,"Ġinsp":10650,"ĠTr":10651,"Ġservers":10652,"ä½¿":10653,"Clean":10654,"ipment":10655,"filepath":10656,"Actions":10657,"Ġdigital":10658,"celer":10659,"Ġshoot":10660,"ĠShell":10661,"uan":10662,"heast":10663,"Username":10664,"ĠTemple":10665,"Ã£o":10666,"Ġsamp":10667,"PK":10668,"Ġmeas":10669,"Ġportions":10670,"ASSERT":10671,"PES":10672,"Ġhundred":10673,"ĠDiv":10674,"Tasks":10675,"Ġchosen":10676,"Sum":10677,"inds":10678,"Ġhass":10679,"limin":10680,"ĠSto":10681,"Ġspin":10682,"ratio":10683,"ĠASSERT":10684,"Ġbeyond":10685,"arange":10686,"Ġ'/'":10687,"')]":10688,"prog":10689,"2011":10690,"Animation":10691,"Generated":10692,"ĠOtherwise":10693,"Unless":10694,"Ġhero":10695,"ĠWilliam":10696,"Ġphase":10697,"WM":10698,"Ġwaiting":10699,"appings":10700,"Ġdrug":10701,"tile":10702,"Ġtile":10703,"chars":10704,"Other":10705,"Ġthr":10706,"assistant":10707,"Ġtrust":10708,"Timestamp":10709,"annotations":10710,"Ip":10711,"SESSION":10712,"çī":10713,"Ġdisappoint":10714,"120":10715,"ĠConnect":10716,"rupted":10717,"ĠHaven":10718,"Ġcolspan":10719,"Ġoverall":10720,"oleon":10721,"zh":10722,"IDE":10723,"Ġflu":10724,"Ġreceiv":10725,"Ġdns":10726,"ĠFloat":10727,"La":10728,"Mer":10729,"isions":10730,"Ġdau":10731,"Ġobtaining":10732,"HEADER":10733,"Cla":10734,"Ġevidence":10735,"Ġrates":10736,"Ġshader":10737,"Sim":10738,"irmed":10739,"Ġ600":10740,"Ġ*=":10741,"abit":10742,"ĠRef":10743,"Ġple":10744,"ulations":10745,"509":10746,"Ġresponsible":10747,"mx":10748,"prompt":10749,"Ġmoves":10750,"ä¸Ģä¸ª":10751,"urations":10752,"=='":10753,"Segment":10754,"Win":10755,"Ġ#----------------------------------------------------------------":10756,"Annotation":10757,"ĠEmpire":10758,"Kernel":10759,"uit":10760,"Ġgc":10761,"ĠPlan":10762,"Ġfunctionality":10763,"Ġfemale":10764,"Ñĩ":10765,"unnel":10766,"Ġsaf":10767,"party":10768,"Character":10769,"Ġattacks":10770,"Ġargparse":10771,"follow":10772,"Ġfname":10773,"Ġasset":10774,"perm":10775,"ĠLabel":10776,"æĪĲ":10777,"Ġblood":10778,"Ġdebu":10779,"Ġvy":10780,"ĠBORDER":10781,"experi":10782,"Ġfamous":10783,"ji":10784,"Ġflask":10785,"MAKE":10786,"vantage":10787,"IES":10788,"Ter":10789,"ĠHam":10790,"ĠCOPYING":10791,"Dictionary":10792,"Tx":10793,"_[":10794,"vertical":10795,"patterns":10796,"Ġreligious":10797,"Ġahead":10798,"Ġjournal":10799,"ĠStruct":10800,"PADDING":10801,"Ġdemand":10802,"dem":10803,"mobile":10804,"seng":10805,"setdefault":10806,"Ġportray":10807,"áŀ":10808,"Ġassembly":10809,"Signature":10810,"ĠTexas":10811,"ĠRUN":10812,"Ġenviron":10813,"projects":10814,"rollment":10815,"Kit":10816,"vy":10817,"Ġapt":10818,"ĠClear":10819,"ROW":10820,"gorithms":10821,"Errorf":10822,"Drawing":10823,"Ġneighbor":10824,"Ġeducation":10825,"%,":10826,"Ġsizes":10827,"UX":10828,"ĠVir":10829,"ĠTensorFlow":10830,"oul":10831,"ĠControl":10832,"REAM":10833,"dims":10834,"Ġil":10835,"spi":10836,"'=>'":10837,"\"/":10838,"->{":10839,"Ġtraditional":10840,"ĠîĪĥ":10841,"Ġrand":10842,"Ġmeant":10843,"Ġindicates":10844,"gre":10845,"catch":10846,"mesh":10847,"ĠMusic":10848,"ACING":10849,"Ġcontained":10850,"ornia":10851,"Ġmarked":10852,"Constraint":10853,"ĠMel":10854,"Ġdom":10855,"Ġhuge":10856,"')(":10857,"Ġmagn":10858,"mbed":10859,"DOMAIN":10860,"geom":10861,"ĠScript":10862,"Here":10863,"ĠTool":10864,"forEach":10865,"Processing":10866,"ĠBel":10867,"ĠOp":10868,"ĠUP":10869,"rgb":10870,"Ġpag":10871,"ARK":10872,"plotlib":10873,"ĠGrand":10874,"gypt":10875,"WA":10876,"bn":10877,"bank":10878,"|\\":10879,"MOD":10880,"cart":10881,"Ġrs":10882,"Ġepoch":10883,"Ġ}).":10884,"BLE":10885,"Year":10886,"havior":10887,"strftime":10888,"ĠExamples":10889,"while":10890,"Ġdeclared":10891,"Ġocaml":10892,"Ġbla":10893,"Ġexcellent":10894,"catalog":10895,"Ġmajority":10896,"ea":10897,"ĠIOError":10898,"]\"":10899,"har":10900,"chat":10901,"figure":10902,"ĠINSERT":10903,"wildcard":10904,"ĠCRE":10905,"ĠUsed":10906,"Ġinfluence":10907,"utive":10908,"å¿":10909,"Ġheavy":10910,"agers":10911,"Ġperhaps":10912,"åĪĨ":10913,"agger":10914,"Ġsubmit":10915,"TRUE":10916,"requests":10917,"Ġopacity":10918,"Ġtwisted":10919,"partial":10920,"Verify":10921,"Cookie":10922,"andidates":10923,"ĠGreen":10924,"Standard":10925,"ĠCanada":10926,"Ġbooks":10927,"via":10928,"Ġlex":10929,"WARNING":10930,"correct":10931,"hicle":10932,"Ġterror":10933,"latest":10934,"ropy":10935,"Ġfilenames":10936,"iety":10937,"vation":10938,"Ġ(<":10939,"Ġweap":10940,"Two":10941,"Ġmanifest":10942,"ĠTransitional":10943,"going":10944,"îĪĦ":10945,"Ġratio":10946,"Ġlimitation":10947,"irit":10948,"'%":10949,"Ġgas":10950,"ĠRock":10951,"Ġworked":10952,"Ġinstallation":10953,"Ġvtk":10954,"Ġsetattr":10955,"Redirect":10956,"Rot":10957,"UNK":10958,"cleanup":10959,"?,":10960,"subscribe":10961,"locator":10962,"Ġpassing":10963,"requires":10964,"ĠRuntimeError":10965,"Ġpieces":10966,"lica":10967,"Ġheard":10968,"Ġendorse":10969,"Ġregions":10970,"ĠPrime":10971,"els":10972,"ĠRiver":10973,"ĠHou":10974,"Ġextend":10975,"ĠCongress":10976,"contain":10977,"Triangle":10978,"Aggreg":10979,"CREATE":10980,"fortun":10981,"Cur":10982,"lision":10983,"rif":10984,"Transport":10985,"ĠProduct":10986,"square":10987,"ĠPubl":10988,"Ġserved":10989,"-+-+":10990,"even":10991,"Ġpul":10992,"Ġmime":10993,"ĠSummary":10994,"ynchron":10995,"Ġmist":10996,"ĠGPL":10997,"ĠCompute":10998,"ĠJewish":10999,"Ġnuclear":11000,"ĠNext":11001,"Ġclassic":11002,"ĠtearDown":11003,"Ġmanual":11004,"ronic":11005,"keywords":11006,"Monitor":11007,"heap":11008,"ĠHas":11009,"3333":11010,"dating":11011,"ëĭ":11012,"Delegate":11013,"FUNCTION":11014,"mul":11015,"Ġcandidate":11016,"Ġresident":11017,"CLK":11018,"ĠDocumentation":11019,"Ġcombined":11020,"lc":11021,"ĠEnum":11022,"IMA":11023,"Ġattempts":11024,"Available":11025,"ĠSize":11026,"berg":11027,"Chart":11028,"Ġsubsequ":11029,"ĠJon":11030,"192":11031,"Ġprotect":11032,"Virtual":11033,"ĠAth":11034,"bundle":11035,"ushed":11036,"limiter":11037,"Ġsouthern":11038,"ĠMexico":11039,"assandra":11040,"Ð°Ð½":11041,"asket":11042,"Ġæ":11043,"Ġcoast":11044,"CACHE":11045,"LEVEL":11046,"Ġplaced":11047,"Ġ\"{{":11048,"Ġrhs":11049,"èĩ":11050,"Ġgiant":11051,"Holder":11052,"ya":11053,"adoc":11054,"Ġestablish":11055,"å¯¹":11056,"Ġdialect":11057,"ferred":11058,"RT":11059,"getMessage":11060,"opin":11061,"``.":11062,"Ġsending":11063,"ĠAnsibleModule":11064,"ĠWestern":11065,"ĠFebruary":11066,"ĠÑģ":11067,"Ġsequences":11068,"ĠHAS":11069,"gate":11070,"lb":11071,"ĠTer":11072,"Analy":11073,"Disk":11074,"Actor":11075,"ĠSDL":11076,"ĠCor":11077,"Ġktor":11078,"ĠRussia":11079,"jac":11080,"ĠLook":11081,"istributed":11082,"ĠAsia":11083,"CB":11084,"Ġbio":11085,"ĠTestCase":11086,"upported":11087,"uptools":11088,"Native":11089,"sheet":11090,"Ġhus":11091,"=\"%":11092,"hard":11093,"Ġhits":11094,"ĠLaw":11095,"Ġ33":11096,"Ġexplanation":11097,"Ġdummy":11098,"Ġstru":11099,"Ġdog":11100,"Ġachieve":11101,")')":11102,"Camera":11103,"Ġnotify":11104,"Ġpresence":11105,"OPEN":11106,"bitrary":11107,"ĠPlay":11108,"quad":11109,"Ġmovement":11110,"AIM":11111,"ĠDateTime":11112,"[(":11113,"ĠØ":11114,"uts":11115,"Ġretrie":11116,"anchor":11117,"Ġdiag":11118,"ĠMemory":11119,"qty":11120,"rated":11121,"ras":11122,"Ġ34":11123,"FilePath":11124,"ĠUnicode":11125,"ĠAllow":11126,"tabstop":11127,"Fn":11128,"Same":11129,"want":11130,"ĠDutch":11131,"Ġsubclass":11132,"Ġprov":11133,"Ġsituation":11134,"stm":11135,"iced":11136,"ĠChannel":11137,"cient":11138,"ovan":11139,"Ġdocs":11140,"Ġisset":11141,"ĠLast":11142,"Ġmusical":11143,"enate":11144,"Ġonto":11145,"Ġnoise":11146,"Ġcontra":11147,"Ġschools":11148,"ĠASF":11149,"SW":11150,"Ġproposed":11151,"([]":11152,"ĠMor":11153,"losure":11154,"edges":11155,"SPACING":11156,"Ġscripts":11157,"spital":11158,"except":11159,"intellij":11160,"kb":11161,"Ġcomparison":11162,"ĠTag":11163,"Ġrecently":11164,"san":11165,"xE":11166,"±»":11167,"Ġgather":11168,"pip":11169,"Ġredu":11170,"ordinate":11171,"åħ¥":11172,"ĠQtGui":11173,"Watch":11174,"Ġpractice":11175,"Ġnx":11176,"Ġmeeting":11177,"ĠInformation":11178,"Ġpara":11179,"may":11180,"çĲ":11181,"Ġnn":11182,"Ġunset":11183,"ĠXXX":11184,"Ġpm":11185,"ĠProfile":11186,"ĠSuite":11187,"cross":11188,"onna":11189,"Ġpeer":11190,"ĠDepartment":11191,"FB":11192,"Ġslot":11193,"Ġinherit":11194,"amel":11195,"aby":11196,"ĠBlue":11197,"Ġspent":11198,"Declar":11199,"Ġexecutable":11200,"Ġhappened":11201,"Clo":11202,"Fact":11203,"Ġeyes":11204,"MX":11205,"More":11206,"restore":11207,"tech":11208,"Ġconduct":11209,"Ġviolence":11210,"sBy":11211,"Ġnature":11212,"ĠGrid":11213,"covery":11214,"Ġdefinitions":11215,"docker":11216,"Ġsch":11217,"tailed":11218,"Master":11219,"ĠTom":11220,"graphics":11221,"Ġrise":11222,"Ġstub":11223,"Vert":11224,"Ġbenchmark":11225,"processing":11226,"Ġwrapped":11227,"ĠCanadian":11228,"ribe":11229,"training":11230,"relation":11231,"onal":11232,"icago":11233,"atever":11234,"\"][\"":11235,"POS":11236,"Ġspaces":11237,">')":11238,"Zero":11239,"STM":11240,"Ġmacro":11241,"><?":11242,"gateway":11243,"uries":11244,"peg":11245,"calc":11246,"Amount":11247,"\\/":11248,"Ġtour":11249,"Ġ150":11250,"Require":11251,"loyee":11252,"secure":11253,"Ġdou":11254,"unities":11255,"ĠJer":11256,"Chunk":11257,"PLAY":11258,"radio":11259,"RESULT":11260,"iry":11261,"ĠDu":11262,"latex":11263,"Ġsatisf":11264,"Ġmix":11265,"TEMPL":11266,"reci":11267,"Ġliteral":11268,"Shell":11269,"upid":11270,"],[":11271,"libs":11272,"Throw":11273,"viding":11274,"Fetch":11275,"Ġult":11276,"bean":11277,"Ġspect":11278,"customer":11279,"Tile":11280,"Ġ'+":11281,"Ġexchange":11282,"authentic":11283,"today":11284,"Dao":11285,"otes":11286,"ĠComment":11287,"ĠButton":11288,"Testing":11289,"Qual":11290,"Ġconversion":11291,"backends":11292,"finished":11293,"lia":11294,"Marker":11295,"Ġbalance":11296,"ĠPM":11297,"ĠMiddle":11298,"decor":11299,"dimension":11300,"Focus":11301,"ĠWal":11302,"Compat":11303,"Ġhelped":11304,"attachment":11305,"supp":11306,"vised":11307,"sessment":11308,"vr":11309,"getClass":11310,"Begin":11311,"ĴĮ":11312,"ĠCourt":11313,"ĠLtd":11314,"ĠConst":11315,"hdr":11316,"âĪ":11317,"iframe":11318,"Ġsummer":11319,"Ð¿":11320,"Ġformed":11321,"Ġyaml":11322,"ĠJo":11323,"commons":11324,"Ġremained":11325,"nl":11326,"Ġfear":11327,"ç¨ĭ":11328,"facebook":11329,"ĠRecord":11330,"remo":11331,"Ġsparse":11332,"è¾":11333,"Ġiniti":11334,"Ġnorthern":11335,"![":11336,"2000":11337,"ĠSur":11338,"VIEW":11339,"General":11340,"Ġprison":11341,"ĠCELLSPACING":11342,"Ġrotation":11343,"ĠCELLPADDING":11344,"dup":11345,"Ġdx":11346,"ĠCap":11347,"Ġquote":11348,"swing":11349,"isfile":11350,"Ġeps":11351,"llers":11352,"Combo":11353,"deps":11354,"Ġ*****************************************************************************":11355,"endl":11356,"PAGE":11357,"Persist":11358,"Ġcurl":11359,"roles":11360,"Ġnullable":11361,"ĠGold":11362,"ĠDEAL":11363,"Ġdepending":11364,"Ġhandled":11365,"qs":11366,"hetic":11367,"Ġpure":11368,"writel":11369,"Ġmiles":11370,"urer":11371,"ĠPeter":11372,"ctrine":11373,"DAT":11374,"staff":11375,"Ġ48":11376,"without":11377,"TARGET":11378,"ess":11379,"æ³ķ":11380,"NAMES":11381,"Ġcart":11382,"ĠEnc":11383,"theta":11384,"ctest":11385,"Ġld":11386,"Ġapparent":11387,"Ġcas":11388,"isis":11389,"ĠMP":11390,"clk":11391,"ĠSeries":11392,"retry":11393,"\"><?":11394,"Features":11395,"Ġnine":11396,"isdir":11397,")**":11398,"Ġcapacity":11399,"HD":11400,"RF":11401,"addon":11402,"Modal":11403,"TIMEOUT":11404,"Ġ':":11405,"Ġ\":":11406,"Ġagency":11407,"ĠFlorida":11408,"Ġwer":11409,"Ġ/****************************************************************************":11410,"ASF":11411,"Ġpowerful":11412,"Ġincorrect":11413,"bounds":11414,"ĠBook":11415,"='',":11416,"\"&":11417,"Ġtuples":11418,"ala":11419,"Ġsus":11420,"#{":11421,"Lines":11422,"Ġedges":11423,"Period":11424,"night":11425,"ĠNormal":11426,"Ġerrno":11427,"Ġ(!$":11428,"ĠKorea":11429,"BUFFER":11430,"Ġexecutive":11431,"ĠEarth":11432,"ĠIR":11433,"Ġera":11434,"Ġpal":11435,"INVALID":11436,"Ġteams":11437,"reatest":11438,"Ġprecision":11439,"Ġconcer":11440,"Ġoccup":11441,"UA":11442,"__.__":11443,"vin":11444,"ĠSTAT":11445,"Ok":11446,"Uses":11447,"ilies":11448,"instances":11449,"åĲį":11450,"GUI":11451,"efficient":11452,"Ġalone":11453,"Ġshop":11454,"neigh":11455,"Push":11456,"mq":11457,"Ġboto":11458,"Ġvilla":11459,"unct":11460,"letes":11461,"Ġresponses":11462,"Activ":11463,"Mut":11464,"Material":11465,"Press":11466,"reward":11467,"CKET":11468,"VO":11469,"ĠCLAIM":11470,"ĠStore":11471,"Ġsymbols":11472,"Final":11473,"avadoc":11474,"counts":11475,"Ġtalks":11476,"Ġequivalent":11477,"---------":11478,"-----------":11479,"xxxx":11480,"ĠPOST":11481,"ĠFake":11482,"Ġrecorded":11483,"Self":11484,"Named":11485,"Ġtemperature":11486,"ĠCalifornia":11487,"Ġmigration":11488,"adapter":11489,"Replace":11490,"Soft":11491,"todo":11492,"Pane":11493,"Relation":11494,"nested":11495,"ToMany":11496,"Controls":11497,"Bal":11498,"Ġsites":11499,"versation":11500,"bp":11501,"mlink":11502,"Structure":11503,"Ġfurnished":11504,"åī":11505,"ains":11506,"Ġaccepted":11507,"cas":11508,"dw":11509,"Ġ\"</":11510,"ĠGood":11511,"Ġlisted":11512,"letter":11513,"ford":11514,"ĠNUM":11515,"Received":11516,"Chat":11517,"contin":11518,"Ġ-------":11519,"Ġconcern":11520,"lr":11521,"ental":11522,"Ġ'../":11523,"Ġrare":11524,"Ġbeta":11525,"Codec":11526,"Ġboundary":11527,"twitter":11528,"0000000":11529,"ounters":11530,"Ġhandles":11531,"OUTPUT":11532,"ĠNONINFRINGEMENT":11533,"SN":11534,"nu":11535,"ĠDEALINGS":11536,"live":11537,"widgets":11538,"SOURCE":11539,"+=":11540,"1111":11541,"ggers":11542,"CEPT":11543,"Blue":11544,"inject":11545,"Ġteach":11546,"GUID":11547,"mediate":11548,"Src":11549,"Ġchr":11550,"Ġbrother":11551,"toolbar":11552,"Tools":11553,"ĠEgypt":11554,"PROTO":11555,"150":11556,"PG":11557,"çĲĨ":11558,"IFT":11559,"ç±»":11560,"Ġflight":11561,"Ġ#:":11562,"Generate":11563,"Capt":11564,"transl":11565,"Download":11566,"slide":11567,"numeric":11568,"Switch":11569,"Ġvote":11570,"-----":11571,"ĠIr":11572,"nova":11573,"Ġcritical":11574,"å±":11575,"Ġtp":11576,"Ġance":11577,"yml":11578,"FILES":11579,"Ġselector":11580,")$":11581,"Ġsaving":11582,"ĠMont":11583,"Ġlinked":11584,"atype":11585,"Ġscatter":11586,"oser":11587,"decimal":11588,"ĠRoyal":11589,"Delta":11590,"ĠVideo":11591,"lify":11592,"Ġguide":11593,"Ġlaunched":11594,">{{":11595,"Paths":11596,"]}":11597,"ç¬":11598,"Ġdefines":11599,"ĠRET":11600,"ĠOk":11601,"250":11602,"]</":11603,"Ġfoc":11604,"Ġfrequency":11605,"Ġannual":11606,"Ġchem":11607,"ĠSkip":11608,"ç½®":11609,"vp":11610,"Ġimports":11611,"ĠWhy":11612,"Bits":11613,"Ġwp":11614,"ĠDar":11615,"Columns":11616,"cedure":11617,"Ġmaker":11618,"SCH":11619,"Ġhon":11620,"ĠSymfony":11621,",),":11622,"Ġ180":11623,"125":11624,"semble":11625,"eper":11626,"Ġmission":11627,"Std":11628,"Delay":11629,"([^":11630,"Ġminute":11631,"ĠCommission":11632,"ĠSC":11633,"legend":11634,"Ġhardware":11635,"Ġkilling":11636,"ĠBecause":11637,"phys":11638,"NotExist":11639,"Ġgrand":11640,"ĠCentral":11641,"Ġssh":11642,"riage":11643,"ensure":11644,"noscript":11645,"ĠInternal":11646,"ĠINTEGER":11647,"Decoder":11648,"Ġrendering":11649,"Ġtwice":11650,"pull":11651,"Ġcool":11652,"Buf":11653,"ĠBur":11654,"Ġoccurs":11655,"Mag":11656,"Ġrestart":11657,"æķ°æį®":11658,"Ġcoin":11659,"omas":11660,"ĠPalestin":11661,"][\"":11662,"Ġoffers":11663,"TOKEN":11664,"Ġrenderer":11665,"xA":11666,"Äģ":11667,"urren":11668,"Ġinitialized":11669,"Ã¸":11670,"Ġale":11671,"ĠCouncil":11672,"Ġdeclare":11673,"Ġrepeat":11674,"validator":11675,"Ġframes":11676,"algorithm":11677,"INDEX":11678,"episode":11679,"Graphics":11680,"Ve":11681,"servable":11682,"dra":11683,"Ġestimated":11684,"RGBA":11685,"Ġfle":11686,"ostream":11687,"problem":11688,"Attach":11689,"windows":11690,"communic":11691,"Ġcleanup":11692,"NT":11693,"NEW":11694,"zoom":11695,"utc":11696,"oma":11697,"ĠLight":11698,"venio":11699,"180":11700,"race":11701,"')))":11702,"ĠGeo":11703,"deg":11704,"Ġmu":11705,"ĠArab":11706,"Ġintent":11707,"Proto":11708,"Month":11709,"ĠCopy":11710,"Ġsignals":11711,"Ġdependency":11712,"Ġholds":11713,"MAC":11714,"orrent":11715,"ĠSerial":11716,"renderer":11717,"ĠAustralian":11718,"CENT":11719,"Coord":11720,"Ġshares":11721,"Ġfavorite":11722,"Ġpending":11723,"THON":11724,"QUE":11725,"meter":11726,"ĠRES":11727,"Ġmaps":11728,"Ġgradient":11729,"_);":11730,"into":11731,"Ġsmart":11732,"ĠHouston":11733,"FD":11734,"liz":11735,"ĠSpe":11736,"Ġresolution":11737,"ĠKen":11738,"Ġaccesskey":11739,"Ġfooter":11740,"LANG":11741,"UDA":11742,"Rules":11743,"Ġaccompany":11744,"Ġsublic":11745,"Ġdirected":11746,"ĠChild":11747,"EventListener":11748,"oxygen":11749,"evaluate":11750,"irds":11751,"pred":11752,"hl":11753,"Ġ\"../":11754,"Ġartist":11755,"Dem":11756,"orted":11757,"awt":11758,"Radi":11759,"inventory":11760,"ĠSSL":11761,"getAttribute":11762,"serif":11763,"orgonia":11764,"Ġsublicense":11765,"ĠRule":11766,"ĠDest":11767,"ILL":11768,"Ġuniform":11769,"External":11770,"Ġseemed":11771,"ĠNapoleon":11772,"SF":11773,"TV":11774,"Ġscipy":11775,"Ġoriginally":11776,"Ġputs":11777,"ila":11778,"è½":11779,"005":11780,"manage":11781,"Ġgrowing":11782,"Ġft":11783,"Ġplus":11784,"(()":11785,"orders":11786,"ghan":11787,"Ġadopt":11788,"ordered":11789,"executable":11790,"Ġlocations":11791,"Ġhusband":11792,"ç«":11793,"ĠDist":11794,"ĠEm":11795,"Ġtruth":11796,"ĠOnce":11797,"TOP":11798,"yl":11799,"avar":11800,"ĠBU":11801,"ĠAut":11802,"Ġ330":11803,"sections":11804,"website":11805,"ĠCollege":11806,"cers":11807,"çİ":11808,"\"}),":11809,"stable":11810,"Ġcss":11811,"ĠTarget":11812,"teen":11813,"ĠGPU":11814,"Ġpossibly":11815,"nos":11816,"Ġfresh":11817,"Ġwit":11818,"Ġproviding":11819,"ĠUnder":11820,"Ġkeywords":11821,"Ġcodes":11822,"ganization":11823,"Ġcoverage":11824,"ä½¿çĶ¨":11825,"erial":11826,"Ġtex":11827,"Ġ#!/":11828,"iger":11829,"codec":11830,"className":11831,"-$(":11832,"AK":11833,"BT":11834,"sun":11835,"Ġmess":11836,"ĠÂ©":11837,"subNav":11838,"ĠActive":11839,"ĠRa":11840,"Ġcle":11841,"Ġintellig":11842,"gf":11843,"relu":11844,"Ġsad":11845,"utely":11846,"getattr":11847,"...&":11848,"<>();":11849,"gid":11850,"aked":11851,"ĠDevelopment":11852,"Ġopin":11853,"Ø±":11854,"ĠDel":11855,"favicon":11856,"orrow":11857,"Ġlisting":11858,"Ġshowed":11859,"Ġthrown":11860,"NODE":11861,"!(":11862,"Ġuniversity":11863,"finite":11864,"unused":11865,"Ġbundle":11866,"DIO":11867,"orph":11868,"ĠScal":11869,"STREAM":11870,"Ġinterfaces":11871,"ĠInterface":11872,"ĠIBM":11873,"avg":11874,"cia":11875,"Ġlogs":11876,"ĠHashMap":11877,"MESSAGE":11878,"Writ":11879,"ĠAust":11880,"ĠChicago":11881,"ĠFIXME":11882,"Ġrent":11883,"ĠCath":11884,"ĠSELECT":11885,"Ġhaven":11886,"Ġvectors":11887,"Ġmach":11888,"Ġ36":11889,"USB":11890,"Labels":11891,"ĠEnable":11892,"Ġpercentage":11893,">`":11894,"Ġefficient":11895,"Topic":11896,"Ġsecure":11897,"Ġrelevant":11898,"dal":11899,"social":11900,"ĠOCaml":11901,"Series":11902,"Ġcompatibility":11903,"apple":11904,"UUID":11905,"ACTI":11906,"eras":11907,"éģ":11908,"surface":11909,"Ġports":11910,"Ġdistinct":11911,"AO":11912,"kins":11913,"rating":11914,"ĠBOTTOM":11915,"Ġserialize":11916,"ä½ľ":11917,"Ġexplicitly":11918,"Hz":11919,"ias":11920,"acle":11921,"itiz":11922,"Ġslightly":11923,"here":11924,"operations":11925,"\"})":11926,"Ùħ":11927,"lec":11928,"Ġpayment":11929,"othing":11930,"']\",":11931,"Ġdaughter":11932,"ova":11933,"viet":11934,"Ġvars":11935,"Dataset":11936,"hooks":11937,"Checked":11938,"icator":11939,"Ġeye":11940,"pars":11941,"Ġwarn":11942,"Ġ?>\"":11943,"Sheet":11944,"wsgi":11945,"thro":11946,"adium":11947,"CLO":11948,"dynamic":11949,"arded":11950,"ĠVAR":11951,"dark":11952,"posal":11953,"stdin":11954,"Ġrespond":11955,"Ġonclick":11956,"Ġproducer":11957,"ĠSecret":11958,"Ġbrain":11959,"ĠCard":11960,"metaclass":11961,"popup":11962,"ssue":11963,"ĠvÃ½":11964,"è¡¨":11965,"...\"":11966,"Ġtrial":11967,";...&":11968,"ĠClose":11969,"ICATION":11970,"aux":11971,"Ġmatplotlib":11972,"Ġefforts":11973,"Ġsociety":11974,"Ġwindows":11975,"Matcher":11976,"ĠInstead":11977,"mime":11978,"Ġhom":11979,"LOAT":11980,"DMA":11981,"Migration":11982,"cam":11983,"dll":11984,"ç®":11985,"ĠLu":11986,"Ġcopied":11987,"Ġturns":11988,"Speed":11989,"ipt":11990,"Ġtv":11991,"buttons":11992,"Snapshot":11993,"Ġ120":11994,"Ġposts":11995,"Weight":11996,">\",":11997,"Ġsym":11998,"HashMap":11999,"Est":12000,"Ġtraffic":12001,"Ġclaim":12002,"ĠCF":12003,"arest":12004,"Ġ1990":12005,"Fake":12006,"quality":12007,"Ġbuildings":12008,"firstrow":12009,"normalize":12010,"stra":12011,"Ġsections":12012,"specs":12013,"installed":12014,"ĠFranc":12015,"onic":12016,"Ġraises":12017,"ĠReplace":12018,"Ġopport":12019,"EMP":12020,"ĠBC":12021,"Ġapps":12022,"Ġhandlers":12023,"Owner":12024,"]\\":12025,"Ġty":12026,"Ġheap":12027,"CTRL":12028,"Ġdecor":12029,"Ġallowing":12030,"decoration":12031,"listener":12032,"Ġcycle":12033,">/":12034,"Ġpitch":12035,"Ġmoments":12036,"Ġtenant":12037,"=[\"":12038,"ĠTEXT":12039,"Ġtrim":12040,"hot":12041,"enario":12042,"ĠBest":12043,"serializer":12044,"Try":12045,"ĠMove":12046,"news":12047,"ĠDevice":12048,"æĪĳ":12049,"cout":12050,"distribution":12051,"pite":12052,"Ġdy":12053,"Ġfilled":12054,"Analysis":12055,"ĠExtract":12056,"Ġmyst":12057,"ĠPress":12058,"Ġcounts":12059,"Geo":12060,"ĠIraqi":12061,"Ġdigits":12062,"builtin":12063,"'><":12064,"Future":12065,"journal":12066,"Ġcaller":12067,"QUAL":12068,"Ġnormalize":12069,"Ġclaims":12070,"Ġindicate":12071,"arks":12072,"Dev":12073,"Ġrepresented":12074,"ĠSchema":12075,"ĠassertTrue":12076,"notations":12077,"randint":12078,"TITLE":12079,"xC":12080,"seline":12081,"ĠPl":12082,"coord":12083,"Ġprofessional":12084,"Ġba":12085,"atell":12086,"gisters":12087,"LOCAL":12088,"average":12089,"Observer":12090,"Ġmagic":12091,"Ġê":12092,"Ġclip":12093,"Ġ=================================":12094,"Ġbroken":12095,"phy":12096,"ĠContribut":12097,"hat":12098,"Initialize":12099,"AFP":12100,"Ġpc":12101,"Ġnb":12102,"ĠHat":12103,"Ġatomic":12104,"overlay":12105,"Ġunderlying":12106,"064":12107,"PIN":12108,"åĴĮ":12109,"Ġbre":12110,"Unicode":12111,"ĠDOCUMENT":12112,"ele":12113,"tick":12114,"ingly":12115,"ĠTur":12116,"illis":12117,"includes":12118,"Ġpressure":12119,"Ġwestern":12120,"Ġsoldiers":12121,"Side":12122,"Stub":12123,"Ġadult":12124,"Ġviewer":12125,"fm":12126,"ador":12127,"emy":12128,"ĠKingdom":12129,"/_":12130,"SIGN":12131,"Ġdrag":12132,"tract":12133,"ĠJews":12134,"arante":12135,"Integ":12136,"ORM":12137,"Ġupgrade":12138,"DECL":12139,"ĠStringBuilder":12140,"ãĤĴ":12141,"8859":12142,"åŃĹ":12143,"ĠSSH":12144,"ERP":12145,"locate":12146,"adients":12147,"inity":12148,"otic":12149,"ĠBoth":12150,"ORD":12151,"Ġlogged":12152,"uniform":12153,"akistan":12154,"Ġobs":12155,"SDL":12156,"Ġmx":12157,"ĠFI":12158,"timezone":12159,"æľ¬":12160,"åŃĺ":12161,"ĠDictionary":12162,"Ġcrow":12163,"Ġinventory":12164,"ĠCA":12165,"ĠWil":12166,"Ġdome":12167,"Ġthinking":12168,"ĠDim":12169,"ĠTele":12170,"(`":12171,"EXPORT":12172,"BAD":12173,"Lex":12174,"}:":12175,"Ġtxt":12176,"proj":12177,"brand":12178,"curr":12179,"Ġ75":12180,"Ġprocessor":12181,"ĠLee":12182,"åıĸ":12183,"LOBAL":12184,"fortunately":12185,"Ġrose":12186,"such":12187,"èĥ½":12188,"lave":12189,"union":12190,"together":12191,"Loading":12192,"âĶģ":12193,"Ġscience":12194,"ĠAnn":12195,"DX":12196,"Ġstupid":12197,"Ġappeared":12198,"Ġworse":12199,">:":12200,"Ġpg":12201,"Ġ[%":12202,"ĠEvery":12203,"Ġchanging":12204,"Priority":12205,"MPLES":12206,"Ã±":12207,"Ġarbitrary":12208,"Ġactivities":12209,"CFG":12210,"PACE":12211,"Ġtsd":12212,"Ã¡l":12213,"mkdir":12214,"rink":12215,"Theme":12216,"Ġformatted":12217,"gun":12218,"rator":12219,"lications":12220,"Ġstatements":12221,"character":12222,"Surface":12223,"()\">":12224,"substring":12225,"CG":12226,"iscal":12227,"liament":12228,"ĠAnother":12229,"Ġcoach":12230,"ĠÂ°":12231,"Ġremoves":12232,"Ġod":12233,"Ġ37":12234,"Ġbegins":12235,"Ġdifferences":12236,"solutely":12237,"OFFSET":12238,"moment":12239,"migrations":12240,"pel":12241,"Ġstories":12242,"setAttribute":12243,"(\",":12244,"MSearch":12245,"ĠChopin":12246,"Ġrunner":12247,"Ġrgb":12248,"perf":12249,"Ġexperiment":12250,"umption":12251,"?)":12252,"Av":12253,"Ġrad":12254,"Bucket":12255,"Head":12256,"ĠOSError":12257,"iser":12258,"Ġ({":12259,"Locale":12260,"ĠSpain":12261,"ĠCREATE":12262,"LAY":12263,"łģ":12264,"ĠTod":12265,"ĠInstance":12266,"aks":12267,"sup":12268,"zilla":12269,"Ġtick":12270,"ouses":12271,"Å¾e":12272,"RUN":12273,"Ġfaster":12274,"ĠSection":12275,"finish":12276,"OIN":12277,"gray":12278,"ican":12279,"Ġdegree":12280,"Ġelseif":12281,"ĠAssociation":12282,"å¼ı":12283,"WITH":12284,"ĠLouis":12285,"enance":12286,"isinstance":12287,"ĠTim":12288,"Ġcodecs":12289,"certs":12290,"Ġtalking":12291,"âĶĢâĶĢâĶĢâĶĢâĶĢâĶĢâĶĢâĶĢ":12292,"=\"./":12293,"ĠIran":12294,"Ġhear":12295,"Ġflush":12296,"sizes":12297,"Ġ*************************************************************************":12298,"oti":12299,"ĠPay":12300,"ĠDict":12301,"who":12302,"Ġknowledge":12303,"ĠNeither":12304,"StringIO":12305,"ĠSL":12306,"Ġknew":12307,"ĠParameter":12308,"å¤§":12309,"wiki":12310,"stmt":12311,"Ġcompression":12312,"Ġadvert":12313,"6666":12314,"Ġimported":12315,"toBe":12316,"Ġpoly":12317,"Ġaccompanying":12318,"Ġcurrency":12319,"ĠFix":12320,"ĠDetail":12321,"Ġextremely":12322,"åĩº":12323,"istry":12324,"take":12325,"Ġchecksum":12326,"Ġurlparse":12327,"Ġlicensed":12328,"Ġtradition":12329,"arator":12330,"vertex":12331,"ĠKar":12332,"viewer":12333,"Ġrival":12334,"urricane":12335,"OURCE":12336,"iro":12337,"Ġleaving":12338,"ĠServices":12339,"åĲİ":12340,"ĠERROR":12341,"viation":12342,"Ġwinning":12343,"Ġpurposes":12344,">;":12345,"à¤¿":12346,"swap":12347,"andbox":12348,"LONG":12349,"é¢":12350,"detect":12351,"Ġchip":12352,"\")),":12353,"Ġ404":12354,"ĠPack":12355,"andas":12356,"ĠDES":12357,"findall":12358,"ĠSil":12359,"prep":12360,"PEG":12361,"precation":12362,"Ġleaders":12363,"Ġgone":12364,"quo":12365,"ĠFace":12366,"subnet":12367,"Modified":12368,"Ġrecommended":12369,"aui":12370,"imize":12371,"thead":12372,"Ġessent":12373,"uce":12374,"ÃĦ":12375,"Ġancient":12376,"reload":12377,"Inf":12378,"ĠJS":12379,"ÐµÑĢ":12380,"PDF":12381,"RS":12382,"Ġglyph":12383,"misc":12384,"oted":12385,"ĠItaly":12386,"Ġstandards":12387,"vh":12388,"Ġamaz":12389,"Ġdefinitely":12390,"Ġterrible":12391,"TEMPLATE":12392,"ĠtoString":12393,"ĠFall":12394,"health":12395,"Ġ\"\"\")":12396,"Ġattached":12397,"ENO":12398,"ordering":12399,"Variant":12400,"Ġcorner":12401,"Ans":12402,"Ġdates":12403,"ĠNon":12404,"ancell":12405,"Ġspot":12406,"azy":12407,"BIN":12408,"TagName":12409,"citation":12410,"Ġsalt":12411,"Ġweather":12412,"Ġinsur":12413,"Cast":12414,"icky":12415,"UInt":12416,"sey":12417,"Ġstreet":12418,"marshall":12419,"stitution":12420,"asty":12421,"ĠSetup":12422,"Ġaccounts":12423,"æĸĩä»¶":12424,"Dot":12425,"MIS":12426,"Ġcovered":12427,"ratic":12428,"ĠMiss":12429,"Ġcertainly":12430,"sensitive":12431,"Bitmap":12432,"Linq":12433,"Fill":12434,"ĠiPod":12435,"Ġgar":12436,"Certificate":12437,"Ġpres":12438,"Ġswe":12439,"upal":12440,"See":12441,"StackTrace":12442,"Seek":12443,"DataSource":12444,"Ġshouldn":12445,"ĠHand":12446,"Println":12447,"Warnings":12448,"Fixed":12449,"LAN":12450,"don":12451,"Desktop":12452,"Ġcontrols":12453,"ĠATTR":12454,"Ġrating":12455,"locked":12456,"Ġtruly":12457,"worth":12458,"Ð·":12459,"ĠWord":12460,"Ġdiscovered":12461,"Gra":12462,"Nullable":12463,"Tip":12464,"Ġdegrees":12465,"Ġholding":12466,"launch":12467,"Ġdocker":12468,"2006":12469,"Ġhappy":12470,"HS":12471,"Ġill":12472,"Ġ000":12473,"Ġtimezone":12474,"CTL":12475,"encoder":12476,"(_('":12477,"Ġtransparent":12478,"Fixture":12479,"ĠHo":12480,"ĠHy":12481,"shutdown":12482,"beat":12483,"velope":12484,"xr":12485,"processed":12486,"ĠLife":12487,"quit":12488,"Ġviewport":12489,"Ġ//////////////////////////////////////////////////////////////////":12490,"Gradient":12491,"nick":12492,"Ġwaste":12493,"protected":12494,"ĠLim":12495,"Ġassets":12496,"Ġ1999":12497,"Ġtherefore":12498,"RET":12499,"Ġmerged":12500,"ĠHenry":12501,"Ġserialized":12502,"Ġunexpected":12503,"ĠDebug":12504,"Ġfinds":12505,"Ġclients":12506,"Ġtriangles":12507,"pref":12508,"versed":12509,"listdir":12510,"Ġretval":12511,"Ġdigest":12512,"vable":12513,"Ġtalent":12514,"[:]":12515,"Ġcoordinate":12516,"ificates":12517,"Ġaccum":12518,"controls":12519,"NOWN":12520,"ĠPrivate":12521,"Ġvertices":12522,"vetica":12523,"zi":12524,"ĠNav":12525,"Ġlazy":12526,"Ġbounding":12527,"will":12528,"Ġdollar":12529,"CTOR":12530,"Ġinstanti":12531,"ĠÐ¸":12532,"BoundingBox":12533,"IMP":12534,"Plot":12535,"itar":12536,"=\"'":12537,"STRU":12538,"dependencies":12539,"]-->":12540,"eror":12541,"ĠYear":12542,"Models":12543,"56789":12544,".+":12545,"GS":12546,"çĤ":12547,"Ġyourself":12548,"ĠCharles":12549,"Ġirq":12550,"}',":12551,"ĠÐ½":12552,"glyph":12553,"pd":12554,"Ġodd":12555,"Ġadvanced":12556,"Don":12557,"appendChild":12558,"Ġreplacement":12559,"Sn":12560,"ĠContainer":12561,"Ġaid":12562,"ĠLatin":12563,"Ġappoint":12564,"ollars":12565,")`":12566,"ĠRelease":12567,"Ġindicating":12568,"Ġseek":12569,"Sm":12570,"Ġboring":12571,"ĠHAVE":12572,"standing":12573,"ĠAmazon":12574,"Ġgithub":12575,"Ġalternative":12576,"Ġtoward":12577,"ĠSum":12578,"ĠScott":12579,"Ġgpio":12580,"_('":12581,"TYPES":12582,"Ġorientation":12583,"written":12584,"ĠCons":12585,"NUMBER":12586,"ibet":12587,">');":12588,"alo":12589,"netes":12590,"Ġ<!--[":12591,"Ġscores":12592,"ĠSUP":12593,"Ġ2018":12594,"Ġstructures":12595,"Ġmanually":12596,"Ġhomeassistant":12597,"âĸĪ":12598,"Ġbrief":12599,"ĠFT":12600,"Ġlear":12601,"Ġvariety":12602,"temporary":12603,"axes":12604,"LEFT":12605,"ĠSoviet":12606,"Ġexpla":12607,"Ġaircraft":12608,"ADDRESS":12609,"âĶģâĶģ":12610,"sink":12611,"uv":12612,"Ġchunks":12613,"lix":12614,"()</":12615,"toc":12616,"acion":12617,"Ġdrivers":12618,"ubernetes":12619,"Ġtrip":12620,"DoesNotExist":12621,"Ġvir":12622,"execution":12623,"CSS":12624,"ĠPop":12625,"ĠConf":12626,"Ġsupporting":12627,"Ġletters":12628,"ien":12629,"oting":12630,"etic":12631,"major":12632,"Ġinterested":12633,"=>":12634,"Sensor":12635,"reh":12636,"ancing":12637,"olid":12638,"ampaign":12639,"Ġdamage":12640,"Ġlt":12641,"rich":12642,"ails":12643,"ĠPY":12644,"Ġvisited":12645,"DN":12646,"ĠRadio":12647,"Ġarrest":12648,"0101":12649,"Ġhands":12650,"connections":12651,"predi":12652,"Ġleague":12653,"Ġsqlalchemy":12654,"ĠCast":12655,"ĠEmail":12656,"bern":12657,"LEMENT":12658,"lashes":12659,"vn":12660,"Ġblob":12661,"Ġdemo":12662,"Ġguest":12663,"textarea":12664,"ĠConstructor":12665,"Ġmanip":12666,"abric":12667,"ĠFR":12668,"Ġunable":12669,"168":12670,"ĠIre":12671,"attrib":12672,"Management":12673,"Ġwrites":12674,"vt":12675,"raf":12676,"Ġcollege":12677,"aza":12678,"Ġnd":12679,"sqlite":12680,"Ġpaid":12681,"variance":12682,"rices":12683,"ĠALL":12684,"Ġconstraints":12685,"Ġmorning":12686,"Wrap":12687,"six":12688,"ĠSans":12689,"Break":12690,"dri":12691,"jack":12692,"ĠBell":12693,"Ġdoor":12694,"globals":12695,"\"',":12696,"uing":12697,"water":12698,"ĠStar":12699,"umed":12700,"MEN":12701,"Used":12702,"Ġwall":12703,"otor":12704,"('',":12705,"Ġendl":12706,"ĠHelp":12707,"ĠStorage":12708,"ADATA":12709,"Ġappearance":12710,"ebiten":12711,"ĠMi":12712,"Ġlif":12713,"Ġinterpol":12714,"Ġinitialization":12715,"Ġaf":12716,"ĠGtk":12717,"Ġran":12718,"awesome":12719,"PASSWORD":12720,"/(?":12721,"ĠMass":12722,"æĸ°":12723,"SRC":12724,"Ġhack":12725,"ulous":12726,"ONLY":12727,"creation":12728,"ĠPhilip":12729,"ĠDOCUMENTATION":12730,"cean":12731,"ishing":12732,"Ġnpm":12733,"disc":12734,"Ġscre":12735,"quarter":12736,"Ġorders":12737,"Î±":12738,"ĠIT":12739,"Ġgreatest":12740,"ĠMust":12741,"About":12742,"Ġstrength":12743,"Ġring":12744,"visor":12745,"Signal":12746,"Authorization":12747,"ä¼ļ":12748,"pond":12749,"Ġfra":12750,"Ġhistorical":12751,"ĠRaises":12752,"Ġinterrupt":12753,"scores":12754,"spend":12755,"Ġwouldn":12756,"ĠFormat":12757,"Ġinject":12758,"æŀľ":12759,"vlan":12760,"getType":12761,"ĠUns":12762,"Ġroutes":12763,"æİ¥":12764,"sz":12765,"omial":12766,"Ġalter":12767,"[\\":12768,"ĠMount":12769,"Ġnewsp":12770,"urllib":12771,"cdn":12772,"\\_":12773,"Ġha":12774,"Subject":12775,"Ġliked":12776,"Ġdetermined":12777,"Ġexam":12778,"ĠInfo":12779,"Ġstudies":12780,"mgr":12781,"ĠJe":12782,"Ġextent":12783,"Commands":12784,"Ġresc":12785,"Ġ$('.":12786,"']]":12787,"phrase":12788,"Ġcompiled":12789,"Ġvals":12790,"Ġautom":12791,"å¦Ĥ":12792,"Ġtrading":12793,"Ġquant":12794,"Visual":12795,"Sys":12796,"Ġcustomer":12797,"ĠIsraeli":12798,"Tr":12799,"tbl":12800,"vue":12801,"Ġmysql":12802,"Ġdetailed":12803,"Ġsea":12804,"concurrent":12805,"Ġ38":12806,"Ġfacts":12807,"Ġsupply":12808,"Ġjudge":12809,"Ġdebut":12810,"Ġbecoming":12811,"OPTIONS":12812,"ĠDocker":12813,"REQ":12814,"cuda":12815,"Ġimpl":12816,"Ġcultural":12817,"Alias":12818,"Ġevaluate":12819,"Ġwonderful":12820,"dog":12821,"æĽ":12822,"Ġpp":12823,"ĠonClick":12824,"Ġcols":12825,"Ġdispatch":12826,"ĠIslam":12827,"Ġentered":12828,"noc":12829,"Ġrebel":12830,"('../":12831,"maker":12832,"IGH":12833,"Ġmyself":12834,"ä¹ĭ":12835,"Ġenjoyed":12836,"GA":12837,"egg":12838,"jet":12839,"addClass":12840,"Ġ\"&":12841,"Ġ''.":12842,"Functions":12843,"Arguments":12844,"Suppress":12845,"iq":12846,"sts":12847,"ĠCase":12848,"OPT":12849,"ĠNotes":12850,"________________":12851,"Ġ';":12852,"-------":12853,"Ġmale":12854,"Ġmatched":12855,"anks":12856,"ĠAndroid":12857,"stride":12858,"asis":12859,"Ġexpanded":12860,"aussian":12861,"Ġbuttons":12862,"ĠPromise":12863,"NOSCRIPT":12864,"Mult":12865,"Ġabsolutely":12866,"Ġsqlite":12867,"Publ":12868,"animation":12869,"Ġtheory":12870,"Inline":12871,"interpre":12872,"ĠHeader":12873,"Ġhumor":12874,"ĠDOM":12875,"both":12876,"Ġdelegate":12877,"Unique":12878,"Phone":12879,"uming":12880,"Ġ&=":12881,"readcr":12882,"protobuf":12883,"getElementsBy":12884,"getvalue":12885,"books":12886,"Ġclosing":12887,"Ġphilos":12888,"Bl":12889,"{\\":12890,"usb":12891,"solid":12892,"MenuItem":12893,"Ġinstructions":12894,"poi":12895,"Filters":12896,"literal":12897,"ĠMenu":12898,"Ġcombination":12899,"orry":12900,"Ġdise":12901,"ĠGiven":12902,"Archive":12903,"\">{{":12904,"Ġconstraint":12905,"ashion":12906,"Ġrepeated":12907,"CLIENT":12908,"xpath":12909,"Ġ`.":12910,"META":12911,"Positive":12912,"Asset":12913,"ĠGovernment":12914,"appe":12915,"ĠHot":12916,"Ġrail":12917,"formatter":12918,"Called":12919,"VR":12920,"inode":12921,"../../../":12922,"ÃĬ":12923,"Seq":12924,"Ġ{}\".":12925,"Ġ){":12926,"Ġmainly":12927,"Ġà¤ķ":12928,"defer":12929,"Ġusb":12930,"Ġcompetition":12931,"ç¤":12932,"Ġsphere":12933,"Ġregistration":12934,"Ġsale":12935,"pts":12936,"consumer":12937,"Ġsprintf":12938,"CONN":12939,"äºº":12940,"Ġfiltered":12941,"ĠMaybe":12942,"Ġdry":12943,"pause":12944,"Ġlaws":12945,"Metrics":12946,"Ġutility":12947,"abe":12948,"------------------------------------------------":12949,"calendar":12950,"=-=-=-=-":12951,"oping":12952,"exact":12953,"ClassName":12954,"triangle":12955,"DESCR":12956,"1307":12957,"VA":12958,"]>":12959,"oes":12960,"ÙĨ":12961,"ĠSite":12962,"ĠBra":12963,"TOOL":12964,"Ð°ÑĤ":12965,"rus":12966,"ĠLock":12967,"``,":12968,"nable":12969,"á»":12970,"Ġlatter":12971,"?(":12972,"micro":12973,"Ġouter":12974,"è¿ĩ":12975,"Ġaccuracy":12976,"Ġsympy":12977,"readline":12978,"ĠProperties":12979,"Sink":12980,"album":12981,"ĠHall":12982,"conditions":12983,"deploy":12984,"Ġguarante":12985,"picker":12986,"ĠGR":12987,"Ġplants":12988,"ĠCounty":12989,"intern":12990,"odb":12991,"IPTION":12992,"floor":12993,"fileName":12994,"Ġcrash":12995,"Fire":12996,"Ġforget":12997,"alty":12998,"loom":12999,"ĠPosition":13000,"ĠUUID":13001,"Partition":13002,"Ġball":13003,"ĠSphinx":13004,"ANY":13005,"ĠShort":13006,"ãģĻ":13007,"ĠManager":13008,"WNER":13009,"ĠDemoc":13010,"Ġdepartment":13011,"Rout":13012,"Slot":13013,"fixtures":13014,"ĠSolution":13015,"Ġ250":13016,"ĠAlbert":13017,"Extensions":13018,"Ġexpert":13019,"Ġdisp":13020,"Pages":13021,"Ġclosest":13022,"onomy":13023,"icMock":13024,"Operations":13025,"lider":13026,"ÅĪ":13027,"Ġ=================":13028,"presentation":13029,"Ġordering":13030,",\\":13031,"edDict":13032,"Ġvary":13033,"Ġnetworks":13034,"Ġbur":13035,"()}":13036,"through":13037,"ĠWS":13038,"TIF":13039,"ishes":13040,"ĠâĢľ":13041,"plane":13042,"Ġdiscovery":13043,"ĠBla":13044,"udy":13045,"Multiple":13046,"Ġabort":13047,"ĠForce":13048,"CONTENT":13049,"vtk":13050,"Ġreactor":13051,"syntax":13052,"Hex":13053,"pic":13054,"Ġwra":13055,"ftp":13056,"Ġiteration":13057,"Ġserializer":13058,"Sets":13059,"vailability":13060,"ManyToMany":13061,"Dynamic":13062,"Ġtrees":13063,"Ġbill":13064,"Ġstorm":13065,"quared":13066,"Ġtimedelta":13067,"Intersect":13068,"graphy":13069,"Ġfaces":13070,"kill":13071,"owl":13072,"HI":13073,"NL":13074,"Ġ02111":13075,"AMPLES":13076,"nv":13077,"ĠTitle":13078,"Ġrobot":13079,"TRA":13080,"åĬł":13081,"hint":13082,"ĠPen":13083,"']\"}),":13084,"Ġincome":13085,"Ġbelieved":13086,";-":13087,"Ġ(((":13088,"kin":13089,"Ġdollars":13090,"ĠSox":13091,"ĠDen":13092,"Ġunpack":13093,"ritical":13094,"credit":13095,"Commit":13096,"organization":13097,"'<":13098,"Border":13099,"isc":13100,"defs":13101,"ĠIreland":13102,"onder":13103,"ictures":13104,"ĠISO":13105,"Ġconsists":13106,"BOX":13107,"Ġdrawing":13108,"ĠWrit":13109,"ĠInsert":13110,"Strings":13111,"OTE":13112,"ãĥ³":13113,"253":13114,"ĠContro":13115,"Ġjoined":13116,"your":13117,"Ġ//$":13118,"Ġrh":13119,"Ġleaves":13120,"/,":13121,"Present":13122,"AMETER":13123,"CV":13124,"Gateway":13125,"avatar":13126,"ocomp":13127,"Ġjoint":13128,"Ġ1970":13129,"manent":13130,"Ġgenre":13131,"0000000000000000":13132,"Supported":13133,"Ġsigma":13134,"TCP":13135,"Ġpla":13136,"texture":13137,"Ġ%.":13138,"SIBLE":13139,"bench":13140,"Ġbinding":13141,"otos":13142,"thumb":13143,"ĠMode":13144,"ĠOB":13145,"ĠXml":13146,"half":13147,"002":13148,"ĠVec":13149,"Ġ1980":13150,"nergy":13151,"Ġargc":13152,"pring":13153,"decoder":13154,"Ġlegend":13155,"Ð¾Ð»":13156,"Ġanimals":13157,"Ġpolicies":13158,"ĠRow":13159,"strategy":13160,"%%%%%%%%":13161,"xB":13162,"Ġws":13163,"Ġsector":13164,"Ġanno":13165,"Ġeasier":13166,"pairs":13167,"Ġ}),":13168,"ĠJose":13169,"Ġauthority":13170,"Vo":13171,"portfolio":13172,"lands":13173,"Ġ/></":13174,"ixmap":13175,"ĠENV":13176,"Azure":13177,"GT":13178,"apers":13179,"Ġalle":13180,"Ġawful":13181,"FALSE":13182,"Ġformula":13183,"iliar":13184,"Ġdialogue":13185,"GENER":13186,"held":13187,"throw":13188,"Separator":13189,"Ġminister":13190,"Ġreferred":13191,"Americ":13192,"Ġsans":13193,"updates":13194,"valueOf":13195,"started":13196,"Ġrich":13197,"Ġrecipient":13198,"ĠImpro":13199,"Ġpref":13200,"Ġinstruction":13201,"ĠThomas":13202,"STEM":13203,"Ġ56":13204,"Ġdistrict":13205,"RENT":13206,"okes":13207,"JavaScript":13208,"Ġcwd":13209,"ĠAWS":13210,"ĠFont":13211,"DAY":13212,"ĠASC":13213,"['_":13214,"Ġcrime":13215,"Ro":13216,"Ġdanger":13217,"==\"":13218,"Ġfounded":13219,"learning":13220,"~~~~~~~~~~~~~~~~":13221,"10000":13222,"rn":13223,"yo":13224,")){":13225,"Ġrpc":13226,"Ġcompletion":13227,"bob":13228,"opsis":13229,"Ġpet":13230,"setValue":13231,"ĠDev":13232,"äºİ":13233,"éĿ¢":13234,"invoke":13235,"Ġheat":13236,"pretty":13237,"Ġfloor":13238,"ĠTre":13239,"=\"{":13240,"Checker":13241,"Ġideas":13242,".îĪĦ":13243,"gency":13244,"__))":13245,"ĠGen":13246,"csrf":13247,"Ġopinion":13248,"kl":13249,"aling":13250,"dtypes":13251,"Entries":13252,"COMMAND":13253,"Literal":13254,"Ġreceiver":13255,"Ġ'(":13256,"ĠPac":13257,"amaz":13258,"ĠOpt":13259,"ROP":13260,"ĠAUTO":13261,"ĠJob":13262,"ASK":13263,"Ġindust":13264,"ĠLocation":13265,"]'":13266,"ĠSingle":13267,"Ġquiet":13268,"Ġentirely":13269,"/$',":13270,"uting":13271,"dictionary":13272,"Modules":13273,"Ġwebpage":13274,"æīĢ":13275,"bridge":13276,"flavor":13277,"rity":13278,"Ġusual":13279,"Angle":13280,"Ġdream":13281,"ĠCC":13282,"Ġstated":13283,"ĠYes":13284,"uling":13285,"Ġspend":13286,"pod":13287,"wrapped":13288,"Ġcout":13289,"ĠDer":13290,"Ġzoom":13291,"ĠSmith":13292,"æµ":13293,"Ġcaught":13294,"Ġseg":13295,"cells":13296,"SHIFT":13297,"ĠChanges":13298,"dma":13299,"Ġimag":13300,"thrift":13301,"999":13302,"binding":13303,"Ġvirt":13304,"endo":13305,"ĠWall":13306,"arden":13307,"Reply":13308,"agnostics":13309,"ĠDNS":13310,"ĠPrince":13311,"Ġaffili":13312,"Git":13313,"Patch":13314,"Ġ49":13315,"ĠWARNING":13316,"ĠLike":13317,"ĠVirgin":13318,"ĠTypeScript":13319,"Customer":13320,"Ð¹":13321,"Threshold":13322,"TEMP":13323,"Ġcaptured":13324,"åĻ":13325,"ĠMET":13326,"retch":13327,"stroke":13328,"ARM":13329,"Toggle":13330,"2009":13331,"Ġstopped":13332,"ĠAfghan":13333,"Dat":13334,"Ġdetected":13335,"Ġelimin":13336,"Ġ*>":13337,"coords":13338,"Ġdistutils":13339,"Tracker":13340,"unlink":13341,"configs":13342,"à¤¨":13343,"Ġknows":13344,"Ġqueryset":13345,"ĠSTATE":13346,"ĠMethods":13347,"senger":13348,"ifically":13349,"ĠGar":13350,"ĠInstitute":13351,"ĠReset":13352,"Ġoptparse":13353,"Members":13354,"Destroy":13355,"itize":13356,"Ġstroke":13357,"ĠChromium":13358,"azine":13359,"Ġ(\\":13360,"Ġurls":13361,"BUT":13362,"æı":13363,"rimin":13364,"Ġlic":13365,"ĠProtocol":13366,"Question":13367,"Ġcontrast":13368,"you":13369,"ctools":13370,"writeln":13371,"Ñħ":13372,"è¨":13373,"Ġsoc":13374,"pology":13375,"pective":13376,"nf":13377,"endregion":13378,"inspect":13379,"Ġtypical":13380,"Ġflick":13381,"='/":13382,"Ġstatistics":13383,"Extractor":13384,"(':":13385,"Ġchars":13386,"Compare":13387,"Ġlegis":13388,"hyper":13389,"Ġpatient":13390,"Ġtested":13391,"Ġsubnet":13392,"ISO":13393,"cursive":13394,"Ġtells":13395,"METADATA":13396,"ingerprint":13397,"Using":13398,"ĠCUDA":13399,"etter":13400,"Ġintegration":13401,"ĠGreece":13402,"Ġaffected":13403,"Ġdomestic":13404,"Uint":13405,"adjust":13406,"Ġconven":13407,"Inv":13408,"openstack":13409,"åĽŀ":13410,"ĠSEC":13411,"constraint":13412,"regular":13413,"holders":13414,"åĻ¨":13415,"ContentType":13416,"Ġclaimed":13417,"ENABLED":13418,"CAL":13419,"ĠFO":13420,"Ġnormalized":13421,"AAAA":13422,"Secret":13423,"Heading":13424,"limited":13425,"/(":13426,"ĠPlatform":13427,"tempt":13428,"Encoded":13429,"Trigger":13430,"Ġfault":13431,"ĠEver":13432,"Ġdrink":13433,"minal":13434,"ĠWood":13435,"ARRAY":13436,"Ġbroad":13437,"AUTO":13438,"Zip":13439,"reports":13440,"rient":13441,"transfer":13442,"Forward":13443,"MR":13444,"cles":13445,"wan":13446,"Ġshut":13447,"Ġfilepath":13448,"ĠQT":13449,"NORMAL":13450,"LES":13451,"Ġpra":13452,"ĠQU":13453,"Ġdropped":13454,"cipher":13455,"Ġwhatever":13456,"Ġchallenge":13457,"Ġcustomers":13458,"valuation":13459,"registration":13460,"Ġburn":13461,"mach":13462,"Ġabsent":13463,"ĠContact":13464,"ĠOffice":13465,"Radius":13466,"Dry":13467,"Rob":13468,"aters":13469,"Ġsentence":13470,"ĠCatholic":13471,";\\":13472,"Ġru":13473,"Ġgeo":13474,"anda":13475,"lling":13476,"Dependency":13477,"Ġfreed":13478,"aret":13479,"01234":13480,"ĠValidationError":13481,"Ġrapid":13482,"2018":13483,"ĠCOMP":13484,"Ġmkdir":13485,"åĳ":13486,"çŃ":13487,"Ġeu":13488,"getitem":13489,"lief":13490,"[])":13491,"wire":13492,"ĠAFP":13493,"ĠOil":13494,"ĠQueue":13495,"ĠMatch":13496,"Ġcrisis":13497,"Ġwidely":13498,"law":13499,"livery":13500,"ubble":13501,"ERY":13502,"ĠfileName":13503,"azure":13504,"Ġfeeling":13505,"Ġequals":13506,"Ġconcat":13507,"Ġintersect":13508,"runt":13509,"marily":13510,"ĠPut":13511,"tok":13512,"Ġiterable":13513,"Ġlabor":13514,"Ġnoqa":13515,"calculate":13516,"warded":13517,"RX":13518,"Ui":13519,"hal":13520,"Ġthemes":13521,"undef":13522,"ĠFoot":13523,"Proc":13524,"until":13525,"aggregate":13526,"700":13527,"ABEL":13528,"comb":13529,"Images":13530,"Ġconcerns":13531,"Put":13532,"curl":13533,"lices":13534,"Bottom":13535,"Ġhun":13536,"ĠCa":13537,"die":13538,"Intent":13539,"Changes":13540,"pur":13541,"ĠSaint":13542,"()\"":13543,"orpus":13544,"ĠEntry":13545,"ĠSing":13546,"Ġ_.":13547,"Ġleads":13548,"Ġspread":13549,":\")":13550,"à¯":13551,"Ġdraft":13552,"ĠCY":13553,"DEP":13554,"('/')":13555,"NI":13556,"ĠNull":13557,"andatory":13558,"MEDI":13559,"uncate":13560,"ICK":13561,"Ġfeat":13562,"Ġrecognized":13563,"pow":13564,"zA":13565,"Ãª":13566,"Ġfold":13567,"ATFORM":13568,"Ġguard":13569,"ĠSal":13570,"ĠDomain":13571,"ĠDrop":13572,"Ġadvantage":13573,"aaaaaaaa":13574,"dater":13575,"åİ":13576,"ĠPakistan":13577,"Ġaxes":13578,"yped":13579,"terms":13580,"Ġln":13581,"ĠGUI":13582,"ĠZe":13583,"FILTER":13584,"Ġdirname":13585,"itecture":13586,"quee":13587,"acters":13588,"manual":13589,"traceback":13590,"ĠLD":13591,"\".$":13592,"Metric":13593,"ĠMartin":13594,"Ġadapter":13595,"rename":13596,"ĠBox":13597,"scriber":13598,"âĢĵâĢĵ":13599,"Ġdirs":13600,"Modifier":13601,"digits":13602,"orporate":13603,"FACE":13604,"RM":13605,"Ġnewly":13606,"dbc":13607,"Ġsurvey":13608,"Ã¬":13609,"Ġ));":13610,"Ġsecondary":13611,"EA":13612,"QString":13613,"rstrip":13614,"Ġpor":13615,"ãĤĭ":13616,"Ġ'[?":13617,"fluid":13618,"Old":13619,"ĠApi":13620,"Ġ44":13621,"encing":13622,"=\"#\"":13623,"negative":13624,"Img":13625,"è´":13626,"Ġ*(":13627,"upgrade":13628,"dependent":13629,"ĠPassword":13630,"dfs":13631,"certificate":13632,"AWS":13633,"Ġct":13634,"Ġ'?":13635,"Ġstudio":13636,"psi":13637,"Ġcer":13638,"Ġpw":13639,"Ġranges":13640,"lax":13641,"ĠGal":13642,"ATURE":13643,"need":13644,"Ġsomewhat":13645,"UBLE":13646,"aviour":13647,"LC":13648,"WER":13649,"odies":13650,"Ġfighting":13651,"kg":13652,"Ġnest":13653,"Ġ\"*":13654,"ĠAudio":13655,"ĠUInt":13656,"subscription":13657,"Ready":13658,"wns":13659,"Ġsed":13660,"ABC":13661,"ĠComputer":13662,"community":13663,"ornado":13664,"razil":13665,"Schedule":13666,"Safe":13667,"Ġreduced":13668,"authorized":13669,"ByteArray":13670,"NotFoundException":13671,"ĠKeep":13672,"persistence":13673,"SUPPORT":13674,"ancellation":13675,"(('":13676,"received":13677,"èĩª":13678,"Ġsports":13679,"Ġbt":13680,"Ġ65":13681,"ĠSir":13682,"ĠÐ´":13683,"accounts":13684,"Ġdrugs":13685,"Ġdestroyed":13686,"ressive":13687,"boxes":13688,"Ġdecorator":13689,"SERVICE":13690,"was":13691,"æĬ":13692,"Ġ/.":13693,"erscore":13694,"Ġatmo":13695,"Alert":13696,"Ġbgcolor":13697,"ç¼":13698,"isms":13699,"Ġalph":13700,"oog":13701,"Ġneutron":13702,"Been":13703,"ĠApply":13704,"ĠCommit":13705,"Printf":13706,"limate":13707,"åı¯ä»¥":13708,"IMAGE":13709,"VC":13710,"ousel":13711,"ĠUTC":13712,"ĠConstant":13713,"Ġlimits":13714,"solver":13715,"documentation":13716,"illiant":13717,"Ġthousands":13718,"Ġdebugging":13719,"ĠCLI":13720,"INCLU":13721,"Ġspecifies":13722,"Ġtitles":13723,"ĠAltern":13724,"îĪĨ":13725,"deed":13726,"Ġconcent":13727,"vides":13728,"Ġindividuals":13729,"oral":13730,"Ġfru":13731,"Ġslug":13732,"ĠPlayer":13733,"ITION":13734,"Ġrelations":13735,"TLS":13736,"crypto":13737,"Ġgod":13738,"Ġgirls":13739,"stdio":13740,"Ġ'.'":13741,"Contract":13742,"Ġstable":13743,"ĠSystems":13744,"åıĳ":13745,"ĠBusiness":13746,"urable":13747,"ĠBag":13748,"Ġsep":13749,"ACCESS":13750,"æĿ¥":13751,"edirs":13752,"Ġeg":13753,"ĠDig":13754,"memItem":13755,"Ġscaling":13756,"Ġrevenue":13757,"ĠEst":13758,"Ġmentioned":13759,"Board":13760,"ridden":13761,"Ġteen":13762,"atellite":13763,"Ġsick":13764,"ĠFull":13765,"symbols":13766,"Ġangular":13767,"Ġfinding":13768,"ÐµÑĤ":13769,"ĠAtl":13770,"Finder":13771,"buntu":13772,"Ł¥":13773,"atic":13774,"Ġinstit":13775,"Almost":13776,"visions":13777,"Ġlargely":13778,"getText":13779,"unix":13780,"ARGS":13781,"amazon":13782,"AML":13783,"estival":13784,"Ġacts":13785,"finity":13786,"BVH":13787,"ĠCra":13788,"istent":13789,"ocomm":13790,"ManyToManyField":13791,"Ġtip":13792,"Loaded":13793,"Ġoptimizer":13794,"GLOBAL":13795,"Ġcf":13796,"getCurrent":13797,"Ġexerc":13798,"LEX":13799,"Team":13800,"pagination":13801,"Credentials":13802,";[":13803,"cms":13804,"deb":13805,"design":13806,"Ġ/=":13807,"ĠImmutable":13808,"ĠRequire":13809,"mapper":13810,"sites":13811,"zo":13812,"æ¯":13813,"chip":13814,"SEC":13815,"MOVE":13816,"Ġsettlement":13817,".');":13818,"Super":13819,"ĠClean":13820,"ĠNan":13821,"ĠUTF":13822,"Logging":13823,"otten":13824,"ĠVisual":13825,"resolver":13826,"logic":13827,"Ġearnings":13828,"Ġidentified":13829,"attery":13830,"Ġsubscription":13831,"Ġâĸ":13832,"bre":13833,"ÙĪ":13834,"ĠTibet":13835,"Transfer":13836,"Visitor":13837,"Must":13838,"Ġagg":13839,"metic":13840,"ĠRequired":13841,"Ġoverwrite":13842,"ĠWhere":13843,"Margin":13844,"bust":13845,"guest":13846,"paper":13847,"Ġwave":13848,"ifying":13849,"LOGGER":13850,"ĠArguments":13851,"çº":13852,"Ġanyway":13853,"à¥Ģ":13854,"NR":13855,"osa":13856,"backs":13857,"senter":13858,"Ġepisodes":13859,"agnostic":13860,"Ġtotally":13861,"ĠRy":13862,"Ġvariant":13863,"workflow":13864,"IMARY":13865,"Your":13866,"Ġisol":13867,"readonly":13868,"ï¼ī":13869,"uer":13870,"Ġdaily":13871,"Ġloved":13872,"LIMIT":13873,"visibility":13874,"ĠSpecial":13875,"elasticsearch":13876,"Ġborn":13877,"DataType":13878,"ĠDefaults":13879,"bernate":13880,"Router":13881,"spread":13882,"Ġnose":13883,"Article":13884,"yer":13885,"Ġ***":13886,"ĠBattle":13887,"Ġoffered":13888,",%":13889,"xffff":13890,"Ġima":13891,"ĠNations":13892,"ando":13893,"Ġinitially":13894,"Ġspeech":13895,"VIS":13896,"Ġtoggle":13897,"ĠIII":13898,"Ġhyper":13899,"Ġrelay":13900,"Ġ'=',":13901,"Ġdip":13902,"(\"_":13903,"Ġemployees":13904,"ç¤º":13905,"FLOAT":13906,"Ġcitiz":13907,"Ġminimal":13908,"ĠOpenERP":13909,"ĠAdded":13910,"capacity":13911,"ĠIll":13912,"Ġlived":13913,"Ġqs":13914,"umbers":13915,"ĠSteve":13916,"Ġimplicit":13917,"themes":13918,"Ġsolve":13919,"ÛĮ":13920,"Ġlift":13921,"Ġshock":13922,"White":13923,"Ġcauses":13924,"substr":13925,"EXEC":13926,"Ġprincip":13927,"HW":13928,"fur":13929,"Ġbb":13930,"Ġ%%":13931,"TODO":13932,"Ġreviews":13933,"ĠVol":13934,"checks":13935,"Validate":13936,"Ġapproximately":13937,"BUS":13938,"itt":13939,"altColor":13940,"Ġassignment":13941,"Fix":13942,"bid":13943,"Â»":13944,"ionError":13945,"etime":13946,"ĠJim":13947,"ĠEXAMPLES":13948,"ĠPublished":13949,"NEXT":13950,"Ġwind":13951,"ByName":13952,"banner":13953,"FFFFFF":13954,"ological":13955,"çłģ":13956,"inel":13957,"Ġfloating":13958,"Ġkeeps":13959,"Ġpredictions":13960,"Ġadministration":13961,"seudo":13962,"Ġnick":13963,"Ġ{:":13964,"Inst":13965,"Ġgoals":13966,"WriteLine":13967,"Declaration":13968,"Ġvan":13969,"Ġjo":13970,"ĠThree":13971,"solr":13972,"ĠBefore":13973,"flatten":13974,"Dom":13975,"OG":13976,"uris":13977,"ĠStyle":13978,"ï¼Ī":13979,"Ġdrama":13980,"Ġabu":13981,"Ġcash":13982,"Ġbright":13983,"life":13984,"ĠRight":13985,"Ġissued":13986,"aver":13987,"Ġtur":13988,"Ġva":13989,"outs":13990,"ĠEC":13991,"Ġexpansion":13992,"EXP":13993,"Ġcomputed":13994,"GINE":13995,"icial":13996,"ĠSou":13997,"ĠDell":13998,"fess":13999,"servlet":14000,"Lang":14001,"km":14002,"oved":14003,"ĠDoc":14004,"Ġopam":14005,"Ġreality":14006,"è®¾":14007,"bourne":14008,"âĪĴ":14009,"ĠPalestinian":14010,"Ġgrew":14011,"Ġroyal":14012,"nov":14013,"ĠDeep":14014,"Black":14015,"ĠMD":14016,"ĠWho":14017,"scaling":14018,"ums":14019,"ENAME":14020,"ĠIrish":14021,"ĠRFC":14022,"Ġfeet":14023,"does":14024,"INX":14025,"Ġkick":14026,"Resp":14027,"Finished":14028,"PAT":14029,"Ġticket":14030,"aced":14031,"phase":14032,"(\"{":14033,"Ġwhitespace":14034,"bugger":14035,"Ġclf":14036,"BODY":14037,"BUTTON":14038,"Scheme":14039,"benchmark":14040,"|'":14041,"Ġthumbnail":14042,"Percent":14043,"Blocks":14044,"Ã®":14045,"Ġack":14046,"measure":14047,"aph":14048,"ĠMicro":14049,"serves":14050,"Ġ<![":14051,"nor":14052,"æģ":14053,"Ġwinter":14054,"addresses":14055,"Locator":14056,"FRAME":14057,"middle":14058,"Ġmiddleware":14059,"Ġreads":14060,"piece":14061,"tage":14062,"ĠLar":14063,"ĠGE":14064,"ãģĹ":14065,"Ġplanned":14066,"tooltip":14067,"Ġpresidential":14068,"Ġ{\\":14069,"xyz":14070,"servations":14071,"Ġbridge":14072,"',['":14073,"reflect":14074,"ĠJones":14075,"Ġoutfile":14076,"Ġlogical":14077,"Arrays":14078,"Ġeastern":14079,"ĠRETURN":14080,"Culture":14081,"UINT":14082,"dash":14083,"ĠPER":14084,"\">'":14085,"Ġrat":14086,"ĠExtension":14087,"WINDO":14088,"cassandra":14089,"gyp":14090,"atches":14091,"ITER":14092,"tmpdir":14093,"CPP":14094,"Connector":14095,"Der":14096,"cookies":14097,"abet":14098,"Ġnoted":14099,"Ġ__(":14100,"Ġlegacy":14101,"dense":14102,"æĭ":14103,"ĠChrome":14104,"Ġrotate":14105,"getElementsByTagName":14106,"Dump":14107,"]\",":14108,"Ġchat":14109,"Triangles":14110,"Millis":14111,"Ġbed":14112,"Excel":14113,"Configured":14114,"ĠHealth":14115,"Ġassumed":14116,"/$":14117,"OAuth":14118,"Ġetree":14119,"ĠCy":14120,"åıĤ":14121,"shake":14122,"Layers":14123,"Ġstrike":14124,"Primary":14125,"Allowed":14126,"crease":14127,"Ġprimarily":14128,"AGS":14129,"Ġguys":14130,"Ġfactors":14131,"ĠAdjust":14132,"_'":14133,"nÃ½":14134,"Receiver":14135,"Pick":14136,"ĠPrep":14137,"ĠExpression":14138,"ĠMySQL":14139,"Ġconstructed":14140,"ĠHEAD":14141,"quantity":14142,"cov":14143,"Ġmarried":14144,"IRQ":14145,"lee":14146,"ĠJOIN":14147,"sigma":14148,"charts":14149,"WH":14150,"Wrong":14151,"quential":14152,"ĠMIN":14153,"ĠIPv":14154,"---------------":14155,"assertIsInstance":14156,"Ġmedical":14157,"RA":14158,"{},":14159,"ç´":14160,"remarks":14161,"postgres":14162,"Leg":14163,"SETT":14164,"iation":14165,"Ġ'{}":14166,"ĠFoo":14167,"Ġcontrovers":14168,"Ġinvoke":14169,"************************":14170,"MODEL":14171,"Distribution":14172,"third":14173,"ĠCub":14174,"ĠOh":14175,"Revision":14176,"titles":14177,"Components":14178,"ISTS":14179,"ĠTechnology":14180,"ĠGitHub":14181,"Pin":14182,"))))":14183,"ĠInteg":14184,"Force":14185,"macro":14186,"Ġsz":14187,"uese":14188,"INSERT":14189,"pher":14190,"photo":14191,"Ġcodec":14192,"Upper":14193,"Ġstrange":14194,"Ġunused":14195,"ĠÐº":14196,"levels":14197,"Ġfamilies":14198,"Ġcommunication":14199,"MON":14200,"Ġinherited":14201,"ups":14202,"OnSearch":14203,"CES":14204,"Include":14205,"Ġneither":14206,"Ġcalc":14207,"TableRow":14208,"èµ":14209,"SEL":14210,"Collector":14211,"Ġcontinues":14212,"Sto":14213,"VS":14214,"Ġmuseum":14215,"accur":14216,"Ġmemcpy":14217,"sessions":14218,"Ġliber":14219,"Ġsurround":14220,"PRI":14221,"minecraft":14222,"ĠJes":14223,"ÃĹ":14224,"enium":14225,"igator":14226,"ĠMongo":14227,"Ġadvance":14228,"filesystem":14229,"ĠÐ¾":14230,"statsmodels":14231,"But":14232,"liest":14233,"ĠFollow":14234,"ĠOAuth":14235,"prox":14236,"frac":14237,"Ġweapons":14238,"Guid":14239,"seg":14240,"stor":14241,"conc":14242,"Ġvolatile":14243,"Ġcapabilities":14244,"Ġblow":14245,"Ġ10000":14246,"Ġprotest":14247,"=\"../_":14248,"Ġbuiltin":14249,"scheduler":14250,"rotate":14251,"Compute":14252,"clicked":14253,">%":14254,"++){":14255,"Variables":14256,"åīį":14257,"Ġdp":14258,"anium":14259,"libraries":14260,"opacity":14261,"THREAD":14262,"åĬ¨":14263,"uate":14264,"compressed":14265,"ATTRIBUT":14266,"Ġbought":14267,"Like":14268,"makedirs":14269,"Scheduler":14270,"Ġpasses":14271,"Pa":14272,"tu":14273,"xD":14274,"å»":14275,"ĠVan":14276,"Detect":14277,"onds":14278,"Ġpresented":14279,"Ġorganizations":14280,"æłĩ":14281,"rss":14282,"ĠMuseum":14283,"latin":14284,"Ġexpects":14285,"Ġdevelopers":14286,"mongo":14287,"Ġfatal":14288,"ĠPan":14289,"Ġ800":14290,"Ġprepared":14291,"Ġwins":14292,"Ġbbox":14293,"Choice":14294,"CHO":14295,"Ġagencies":14296,"ĠAdditional":14297,"Ġencoura":14298,"afka":14299,"Calendar":14300,"assertAllClose":14301,"Slice":14302,"draft":14303,"Ġmal":14304,"=\"//":14305,"Decode":14306,"Ġoccasion":14307,"Ġdelivery":14308,"Enumerable":14309,"isValid":14310,"=\"$":14311,"iano":14312,"Ġderiv":14313,"Med":14314,"aris":14315,"three":14316,"Ġsty":14317,"checksum":14318,"Refresh":14319,"Ġinterpret":14320,"Ġtechnical":14321,"capture":14322,"Ġterritory":14323,"fh":14324,"Ġfixture":14325,"Ġ41":14326,"rowsers":14327,"Submit":14328,"Ġhashlib":14329,"Ġpromise":14330,"Creation":14331,"Ġrespectively":14332,"Drag":14333,"Ġdynam":14334,"Ġconvention":14335,"IDD":14336,"ahoo":14337,"Ġbenefits":14338,"scr":14339,"Ġexpressions":14340,"INSTALL":14341,"Ġsqrt":14342,"May":14343,"à¤Ĥ":14344,"Ġfreq":14345,"lua":14346,"suit":14347,"ĠBytes":14348,"Ġé":14349,"hemat":14350,"Ġsf":14351,"icide":14352,"iface":14353,"andy":14354,"ĠChampionship":14355,"Ġapart":14356,"processors":14357,"Ġdeployment":14358,"ĠRemarks":14359,"Ġslash":14360,"Ġcompla":14361,"ALI":14362,"logout":14363,"Ġformatter":14364,"Ġreflection":14365,"ĠDoes":14366,"Ġentertainment":14367,"Ġtend":14368,"receive":14369,"ione":14370,"Ġmine":14371,"Ġleaf":14372,"IDs":14373,"Ġreporting":14374,"TeX":14375,"!\")":14376,"Preferences":14377,"ĠLos":14378,"Ġresolved":14379,"neut":14380,"locations":14381,"vertices":14382,"ĠREAD":14383,"ĠIdent":14384,"LICENSE":14385,"Ratio":14386,"ady":14387,"unes":14388,"assertAllEqual":14389,"gamma":14390,"redis":14391,"Ġnic":14392,"Ġmotion":14393,"Ġ1997":14394,"Ġartists":14395,"tracker":14396,"bias":14397,"Ġsuitable":14398,"joint":14399,"Ġtok":14400,"ĠUSER":14401,"sequences":14402,"Hist":14403,"itors":14404,"Ġsink":14405,"Ġmapped":14406,"INGTON":14407,"Ġdeclaration":14408,"Ġpause":14409,"Colors":14410,"mmar":14411,"Ġprovince":14412,"åĵ":14413,"season":14414,"ĠTurn":14415,"Ġ204":14416,"Reason":14417,"=\"#\">":14418,"ĠParser":14419,"ĠClint":14420,"iverse":14421,"PTR":14422,"ĠCMD":14423,"umbs":14424,"Conv":14425,"REC":14426,"Ġseparated":14427,"Ġoffering":14428,"ĠMadonna":14429,"Ġrejected":14430,"camel":14431,"wind":14432,"separ":14433,"ĠGames":14434,"additional":14435,"failUnless":14436,"Ġgraphics":14437,"secs":14438,"Ġtran":14439,"ĠAsian":14440,"Ġcinema":14441,"Hide":14442,"rick":14443,"sell":14444,"lopen":14445,"amed":14446,"ĠMajor":14447,"evt":14448,"Picker":14449,"Small":14450,"à¦":14451,"Ġdance":14452,"oly":14453,"ĠSeattle":14454,"Ġaggregate":14455,"Â°":14456,"Ġll":14457,"ĠHard":14458,"modify":14459,"Ġrays":14460,"uminate":14461,"ĠIllegalArgumentException":14462,"Blob":14463,"}_":14464,"Ġrough":14465,"Ġ39":14466,"YP":14467,"tele":14468,"ĠRT":14469,"Shift":14470,"filtered":14471,"Î¿":14472,"rend":14473,"Ġsr":14474,"outube":14475,"OND":14476,"Ġ512":14477,"riterion":14478,"Ġfalls":14479,"stocks":14480,"Ġentertaining":14481,"ĠScience":14482,"ĠRel":14483,"Ġclearly":14484,"ĠSyntax":14485,"Ġbrilliant":14486,"ĠValidate":14487,"Ġlineno":14488,"CN":14489,"fan":14490,"ĠSem":14491,"para":14492,"Ġbare":14493,"ĠTor":14494,"getProperty":14495,"unist":14496,"uppet":14497,"ĠBoard":14498,"Dimension":14499,"Lexer":14500,"drag":14501,"ÑĨ":14502,"otions":14503,"ĠGi":14504,"encia":14505,"Encode":14506,"parents":14507,"Ġposted":14508,"Ġdivided":14509,"Ġnegoti":14510,"MF":14511,"xual":14512,"inalg":14513,"Ġquantity":14514,"Ġnormally":14515,"Own":14516,"ĠSup":14517,"ski":14518,"Ġprotection":14519,"Ġworldwide":14520,"Ġswap":14521,"Ġinvestment":14522,"ëĭ¤":14523,"Lat":14524,"later":14525,"ussion":14526,"onest":14527,"iph":14528,"phi":14529,"Ġcentre":14530,"Ġmapper":14531,"Ġtoler":14532,"LET":14533,"2008":14534,"MBOL":14535,"=[]":14536,"--;":14537,"Ġvul":14538,"Ġsetuptools":14539,"Ġrecording":14540,"ĠOperation":14541,"Ġlb":14542,"collections":14543,"SB":14544,"ville":14545,"wart":14546,"metry":14547,"ĠADD":14548,"Ġcontrolled":14549,"ĠTrace":14550,"110":14551,"hance":14552,"Ġmill":14553,"Ġ'[?]',":14554,"Ġdd":14555,"ĠCP":14556,"hours":14557,"Ġaux":14558,"::~":14559,"occ":14560,"Ġ(!(":14561,"Ġapproved":14562,"ä¿¡":14563,"removed":14564,"æ¨":14565,"Ġduplicate":14566,"pets":14567,"movie":14568,"ãĤ¹":14569,"labor":14570,"ĠAdminist":14571,"Ġdensity":14572,"ĠEL":14573,"Ġstrlen":14574,"mov":14575,"2020":14576,"Ġaccident":14577,"AGES":14578,"=\"+":14579,"getC":14580,"igned":14581,"ĠÃł":14582,"Ġevil":14583,"Ġtreatment":14584,"=\\":14585,"Ġsnd":14586,"chapter":14587,"ĠCD":14588,"ĠLib":14589,"Ġdefense":14590,"imated":14591,"Ġevaluation":14592,"Ġdoubt":14593,"Popen":14594,"bidden":14595,"Ġcipher":14596,"ĠCalled":14597,"Ġfallback":14598,"Ġhelps":14599,"ĠâĶĤ":14600,"mr":14601,"Ġbom":14602,"lips":14603,"Ġcalendar":14604,"Ġprogramming":14605,"FIN":14606,"Since":14607,"Tw":14608,"iÃ³n":14609,"allclose":14610,"Ġlocals":14611,"ĠStatic":14612,"Hy":14613,"hh":14614,"Ġcx":14615,"arters":14616,"Peer":14617,"Ġnumerous":14618,"Sem":14619,"Ġguid":14620,"orizon":14621,"Fatal":14622,"cx":14623,"ĠTheir":14624,"Ġannotation":14625,"too":14626,"SPH":14627,"Ġediting":14628,"Family":14629,"\\\":":14630,"pf":14631,"rhs":14632,"meth":14633,"amage":14634,"ĠDirectory":14635,"perly":14636,"posix":14637,"Ġtrailing":14638,"contract":14639,"FAILED":14640,"ĠGaza":14641,"Ġrelatively":14642,"checker":14643,"ĠIm":14644,"Ġgateway":14645,"setter":14646,"Ġsuggested":14647,"Ġhospital":14648,"Ġaware":14649,"Ġindexes":14650,"limits":14651,"Ġfigures":14652,"CAS":14653,"ados":14654,"shi":14655,"cremental":14656,"Ġskin":14657,"SDK":14658,"ĠLEFT":14659,"GC":14660,"Ġfrozen":14661,"lare":14662,"ido":14663,"ĠSample":14664,"Ġbackwards":14665,"splitlines":14666,"cycle":14667,"ĠOverride":14668,"Ġnob":14669,"Ġmort":14670,"))]":14671,"Ġ1950":14672,"intersection":14673,"Ġsubsequent":14674,"anke":14675,"mps":14676,"ĠPORT":14677,"Ġcollapse":14678,"Company":14679,"Ð¾ÑĢ":14680,"Ġfeatured":14681,"çĶŁ":14682,"Ġamazing":14683,"Ġinvent":14684,"ĠSwitch":14685,"ĠRange":14686,"workspace":14687,"printStackTrace":14688,"ĠAdds":14689,"Dto":14690,"Ġtt":14691,"Ġfre":14692,"ssaging":14693,"assignment":14694,"çĽ®":14695,"Ġcharges":14696,"mtree":14697,"Ġokay":14698,"Multip":14699,"illiseconds":14700,"Ġsynchronized":14701,"*\\":14702,"leaf":14703,"Registration":14704,"Health":14705,"fullquote":14706,"Ġseparator":14707,"digit":14708,"quickinfo":14709,"Ġstrateg":14710,"Ġworkflow":14711,"Tables":14712,"Ġboxes":14713,"ĠAI":14714,"Ġ99":14715,"ĠGuide":14716,"Ġ1995":14717,"Ġattract":14718,"Ġdecide":14719,"arma":14720,"isp":14721,"Ġcommonly":14722,"constraints":14723,"Ġspecification":14724,"++++++++":14725,"WIDTH":14726,"ndarray":14727,"Ġrelationships":14728,"ĠSetting":14729,"Ġowned":14730,"malink":14731,"/')":14732,"EOF":14733,"RB":14734,"riers":14735,"ĠNAS":14736,"States":14737,"referred":14738,"Ġgeom":14739,"ĠFAIL":14740,"quel":14741,"buff":14742,"Ġexpensive":14743,"333":14744,"ãģ«":14745,"HttpRequest":14746,"oi":14747,"initializer":14748,"ruption":14749,"Ġallocated":14750,"INSTANCE":14751,"%.":14752,"inent":14753,"providers":14754,"Ġoverlay":14755,"hedral":14756,"mix":14757,"wa":14758,"Ġsd":14759,"workers":14760,"Ġ1998":14761,"ĠDespite":14762,"\\\">":14763,"guid":14764,"REEN":14765,"Boot":14766,"pal":14767,"ĠWay":14768,"Ġ**/":14769,"2019":14770,"skin":14771,"ĠStack":14772,"Dispatcher":14773,"Ġplanning":14774,"(\"\")]":14775,"Ġdaemon":14776,"Linux":14777,"Ġaudit":14778,"ceeds":14779,"ĠCS":14780,"Ġ\"./":14781,"ĠAtlantic":14782,"bone":14783,"Ġriver":14784,"ima":14785,"Ġ/**<":14786,"ĠFunctions":14787,"Ġmutex":14788,"Ġtk":14789,"Ġcenturies":14790,"analytics":14791,"Cost":14792,"During":14793,"Ms":14794,"ÂĤ":14795,"det":14796,"Ġsounds":14797,"entially":14798,"Ġdecade":14799,"COPY":14800,"BEGIN":14801,"Ġpreferred":14802,"SING":14803,"Ġtiny":14804,"Ġtodo":14805,"ĠBoot":14806,"ĠHan":14807,"scar":14808,"argo":14809,"ATEG":14810,"RESET":14811,"DAO":14812,"Catalog":14813,"altern":14814,"Ġ{}'.":14815,"Ġdiscussion":14816,".*?":14817,"John":14818,"oct":14819,"[_":14820,"Ð±":14821,"getData":14822,"ĠEOF":14823,"Ġ!!":14824,"Viewer":14825,"requirements":14826,"Ġ\"/\"":14827,"ĠCommunic":14828,"ĠIndexError":14829,"Optim":14830,"PB":14831,
[...]
